{
  "version": "1.0",
  "truncation": null,
  "padding": null,
  "added_tokens": [
    {
      "id": 0,
      "content": "<pad>",
      "single_word": false,
      "lstrip": false,
      "rstrip": false,
      "normalized": false,
      "special": true
    },
    {
      "id": 1,
      "content": "<eos>",
      "single_word": false,
      "lstrip": false,
      "rstrip": false,
      "normalized": false,
      "special": true
    },
    {
      "id": 2,
      "content": "<bos>",
      "single_word": false,
      "lstrip": false,
      "rstrip": false,
      "normalized": false,
      "special": true
    },
    {
      "id": 3,
      "content": "<unk>",
      "single_word": false,
      "lstrip": false,
      "rstrip": false,
      "normalized": false,
      "special": true
    }
  ],
  "normalizer": {
    "type": "NFC"
  },
  "pre_tokenizer": {
    "type": "Sequence",
    "pretokenizers": [
      {
        "type": "Split",
        "pattern": {
          "Regex": " ?[^\\s\\d]+| ?\\d+|\\s+"
        },
        "behavior": "Isolated",
        "invert": false
      },
      {
        "type": "Digits",
        "individual_digits": true
      },
      {
        "type": "ByteLevel",
        "add_prefix_space": false,
        "trim_offsets": true,
        "use_regex": false
      }
    ]
  },
  "post_processor": null,
  "decoder": {
    "type": "ByteLevel",
    "add_prefix_space": true,
    "trim_offsets": true,
    "use_regex": true
  },
  "model": {
    "type": "BPE",
    "dropout": null,
    "unk_token": "<unk>",
    "continuing_subword_prefix": null,
    "end_of_word_suffix": null,
    "fuse_unk": false,
    "byte_fallback": false,
    "ignore_merges": false,
    "vocab": {
      "<pad>": 0,
      "<eos>": 1,
      "<bos>": 2,
      "<unk>": 3,
      "!": 4,
      "\"": 5,
      "#": 6,
      "$": 7,
      "%": 8,
      "&": 9,
      "'": 10,
      "(": 11,
      ")": 12,
      "*": 13,
      "+": 14,
      ",": 15,
      "-": 16,
      ".": 17,
      "/": 18,
      "0": 19,
      "1": 20,
      "2": 21,
      "3": 22,
      "4": 23,
      "5": 24,
      "6": 25,
      "7": 26,
      "8": 27,
      "9": 28,
      ":": 29,
      ";": 30,
      "<": 31,
      "=": 32,
      ">": 33,
      "?": 34,
      "@": 35,
      "A": 36,
      "B": 37,
      "C": 38,
      "D": 39,
      "E": 40,
      "F": 41,
      "G": 42,
      "H": 43,
      "I": 44,
      "J": 45,
      "K": 46,
      "L": 47,
      "M": 48,
      "N": 49,
      "O": 50,
      "P": 51,
      "Q": 52,
      "R": 53,
      "S": 54,
      "T": 55,
      "U": 56,
      "V": 57,
      "W": 58,
      "X": 59,
      "Y": 60,
      "Z": 61,
      "[": 62,
      "\\": 63,
      "]": 64,
      "^": 65,
      "_": 66,
      "`": 67,
      "a": 68,
      "b": 69,
      "c": 70,
      "d": 71,
      "e": 72,
      "f": 73,
      "g": 74,
      "h": 75,
      "i": 76,
      "j": 77,
      "k": 78,
      "l": 79,
      "m": 80,
      "n": 81,
      "o": 82,
      "p": 83,
      "q": 84,
      "r": 85,
      "s": 86,
      "t": 87,
      "u": 88,
      "v": 89,
      "w": 90,
      "x": 91,
      "y": 92,
      "z": 93,
      "{": 94,
      "|": 95,
      "}": 96,
      "~": 97,
      "¡": 98,
      "¢": 99,
      "£": 100,
      "¤": 101,
      "¥": 102,
      "¦": 103,
      "§": 104,
      "¨": 105,
      "©": 106,
      "ª": 107,
      "«": 108,
      "¬": 109,
      "®": 110,
      "¯": 111,
      "°": 112,
      "±": 113,
      "²": 114,
      "³": 115,
      "´": 116,
      "µ": 117,
      "¶": 118,
      "·": 119,
      "¸": 120,
      "¹": 121,
      "º": 122,
      "»": 123,
      "¼": 124,
      "½": 125,
      "¾": 126,
      "¿": 127,
      "À": 128,
      "Á": 129,
      "Â": 130,
      "Ã": 131,
      "Ä": 132,
      "Å": 133,
      "Æ": 134,
      "Ç": 135,
      "È": 136,
      "É": 137,
      "Ê": 138,
      "Ë": 139,
      "Ì": 140,
      "Í": 141,
      "Î": 142,
      "Ï": 143,
      "Ð": 144,
      "Ñ": 145,
      "Ò": 146,
      "Ó": 147,
      "Ô": 148,
      "Õ": 149,
      "Ö": 150,
      "×": 151,
      "Ø": 152,
      "Ù": 153,
      "Ú": 154,
      "Û": 155,
      "Ü": 156,
      "Ý": 157,
      "Þ": 158,
      "ß": 159,
      "à": 160,
      "á": 161,
      "â": 162,
      "ã": 163,
      "ä": 164,
      "å": 165,
      "æ": 166,
      "ç": 167,
      "è": 168,
      "é": 169,
      "ê": 170,
      "ë": 171,
      "ì": 172,
      "í": 173,
      "î": 174,
      "ï": 175,
      "ð": 176,
      "ñ": 177,
      "ò": 178,
      "ó": 179,
      "ô": 180,
      "õ": 181,
      "ö": 182,
      "÷": 183,
      "ø": 184,
      "ù": 185,
      "ú": 186,
      "û": 187,
      "ü": 188,
      "ý": 189,
      "þ": 190,
      "ÿ": 191,
      "Ā": 192,
      "ā": 193,
      "Ă": 194,
      "ă": 195,
      "Ą": 196,
      "ą": 197,
      "Ć": 198,
      "ć": 199,
      "Ĉ": 200,
      "ĉ": 201,
      "Ċ": 202,
      "ċ": 203,
      "Č": 204,
      "č": 205,
      "Ď": 206,
      "ď": 207,
      "Đ": 208,
      "đ": 209,
      "Ē": 210,
      "ē": 211,
      "Ĕ": 212,
      "ĕ": 213,
      "Ė": 214,
      "ė": 215,
      "Ę": 216,
      "ę": 217,
      "Ě": 218,
      "ě": 219,
      "Ĝ": 220,
      "ĝ": 221,
      "Ğ": 222,
      "ğ": 223,
      "Ġ": 224,
      "ġ": 225,
      "Ģ": 226,
      "ģ": 227,
      "Ĥ": 228,
      "ĥ": 229,
      "Ħ": 230,
      "ħ": 231,
      "Ĩ": 232,
      "ĩ": 233,
      "Ī": 234,
      "ī": 235,
      "Ĭ": 236,
      "ĭ": 237,
      "Į": 238,
      "į": 239,
      "İ": 240,
      "ı": 241,
      "Ĳ": 242,
      "ĳ": 243,
      "Ĵ": 244,
      "ĵ": 245,
      "Ķ": 246,
      "ķ": 247,
      "ĸ": 248,
      "Ĺ": 249,
      "ĺ": 250,
      "Ļ": 251,
      "ļ": 252,
      "Ľ": 253,
      "ľ": 254,
      "Ŀ": 255,
      "ŀ": 256,
      "Ł": 257,
      "ł": 258,
      "Ń": 259,
      "à¤": 260,
      "à¥": 261,
      "Ġà¤": 262,
      "à¤¾": 263,
      "à¤¾à¤": 264,
      "à¥ĩ": 265,
      "à¥į": 266,
      "à¥įà¤": 267,
      "à¥Ģ": 268,
      "Ġt": 269,
      "à¤¿": 270,
      "à¤°": 271,
      "Ġà¤ķ": 272,
      "Ġa": 273,
      "à¤¿à¤": 274,
      "he": 275,
      "in": 276,
      "à¤Ĥ": 277,
      "à¥ĭ": 278,
      "à¤¨": 279,
      "re": 280,
      "à¤¤": 281,
      "à¤ķ": 282,
      "Ġthe": 283,
      "on": 284,
      "Ġà¤¸": 285,
      "er": 286,
      "à¤²": 287,
      "à¥įà¤¯": 288,
      "at": 289,
      "Ġo": 290,
      "Ġs": 291,
      "Ġà¤¹": 292,
      "Ġà¤®": 293,
      "à¤¸": 294,
      "Ġà¤ª": 295,
      "en": 296,
      "à¥ģ": 297,
      "Ġc": 298,
      "à¤¹": 299,
      "es": 300,
      "Ġw": 301,
      "is": 302,
      "nd": 303,
      "it": 304,
      "or": 305,
      "à¥įà¤°": 306,
      "Ġp": 307,
      "à¤¾à¤°": 308,
      "al": 309,
      "à¤®": 310,
      "an": 311,
      "Ġb": 312,
      "ed": 313,
      "Ġof": 314,
      "Ġf": 315,
      "ing": 316,
      "à¥Ī": 317,
      "Ġin": 318,
      "ar": 319,
      "ou": 320,
      "à¤µ": 321,
      "Ġà¤Ĩ": 322,
      "Ġm": 323,
      "Ġand": 324,
      "Ġà¤µ": 325,
      "Ġà¤ħ": 326,
      "Ġto": 327,
      "ic": 328,
      "Ġà¤¨": 329,
      "à¤ª": 330,
      "à¥Ĥ": 331,
      "ion": 332,
      "Ġd": 333,
      "Ġà¤ľ": 334,
      "Ġà¤ķà¥ĩ": 335,
      "à¥ĩà¤": 336,
      "à¥ĩà¤Ĥ": 337,
      "Ġà¤¤": 338,
      "Ġà¤¬": 339,
      "Ġà¤¦": 340,
      "à¥¤": 341,
      "à¤¦": 342,
      "à¤Ĺ": 343,
      "le": 344,
      "ro": 345,
      "Ġà¤¹à¥Ī": 346,
      "à¤ļ": 347,
      "à¤£": 348,
      "as": 349,
      "à¥įà¤¯à¤¾à¤": 350,
      "Ġh": 351,
      "à¤°à¥įà¤": 352,
      "Ġà¤°": 353,
      "ent": 354,
      "Ġth": 355,
      "à¤¾à¤¨": 356,
      "Ġà¤²": 357,
      "à¤¯": 358,
      "ct": 359,
      "Ġà¤¯": 360,
      "Ġe": 361,
      "à¤¡": 362,
      "il": 363,
      "à¤¾à¤Ĥ": 364,
      "Ġre": 365,
      "ĠT": 366,
      "om": 367,
      "ve": 368,
      "à¤¾à¤¤": 369,
      "Ġl": 370,
      "Ġà¤®à¥ĩà¤Ĥ": 371,
      "st": 372,
      "Ġn": 373,
      "à¤ľ": 374,
      "à¤¾à¤²": 375,
      "à¥ĭà¤Ĥ": 376,
      "Ġà¤ķà¤°": 377,
      "Ġà¤Ĺ": 378,
      "à¤¿à¤ķ": 379,
      "à¥įà¤¯à¤¾": 380,
      "ly": 381,
      "à¤¿à¤¯": 382,
      "Ġà¤ī": 383,
      "Ġbe": 384,
      "âĢ": 385,
      "à¤¬": 386,
      "Ġis": 387,
      "à¤¨à¥ĩ": 388,
      "Ġà¤ķà¥Ģ": 389,
      "à¤Ł": 390,
      "Ġà¤Ń": 391,
      "à¥įà¤¤": 392,
      "Ġà¤ªà¥įà¤°": 393,
      "ĠA": 394,
      "ol": 395,
      "se": 396,
      "Ġà¤ķà¥ĭ": 397,
      "Ġg": 398,
      "Ġà¤¶": 399,
      "à¤§": 400,
      "ation": 401,
      "im": 402,
      "id": 403,
      "ĠS": 404,
      "et": 405,
      "ut": 406,
      "Ġà¤ĩ": 407,
      "à¤¿à¤¤": 408,
      "ur": 409,
      "ce": 410,
      "ot": 411,
      "ĠI": 412,
      "à¥ģà¤": 413,
      "ra": 414,
      "ch": 415,
      "ow": 416,
      "Ġà¤¹à¥ĭ": 417,
      "Ġ(": 418,
      "Ġfor": 419,
      "ĠC": 420,
      "ig": 421,
      "Ġà¤¸à¥ĩ": 422,
      "Ġà¤ı": 423,
      "Ġu": 424,
      "Ġon": 425,
      "Ġthat": 426,
      "Ġà¤ļ": 427,
      "à¤¿à¤²": 428,
      "Ġà¤Ķ": 429,
      "Ġst": 430,
      "à¤¾à¤µ": 431,
      "ver": 432,
      "Ġà¤ªà¤°": 433,
      "à¤¾à¤¹": 434,
      "Ġà¤Ķà¤°": 435,
      "à¤¾à¤®": 436,
      "ĠThe": 437,
      "ir": 438,
      "Ġy": 439,
      "à¤¶": 440,
      "à¥įà¤Ł": 441,
      "à¤¾à¤¸": 442,
      "ul": 443,
      "à¤¹à¥ĩ": 444,
      "ay": 445,
      "am": 446,
      "à¤¾à¤¯": 447,
      "à¤¤à¤¾": 448,
      "à¤¼": 449,
      "s,": 450,
      "à¥įà¤µ": 451,
      "el": 452,
      "Ġas": 453,
      "ith": 454,
      "à¤¨à¤¾": 455,
      "ad": 456,
      "à¤²à¥ĩ": 457,
      "ĠM": 458,
      "her": 459,
      "s.": 460,
      "Ġpro": 461,
      "Ġare": 462,
      "Ġcon": 463,
      "Ġà¤ķà¤¾": 464,
      "Ġan": 465,
      "à¤¿à¤¸": 466,
      "Ġwith": 467,
      "à¥įà¤¹": 468,
      "à¤¹à¥Ģ": 469,
      "ĠP": 470,
      "if": 471,
      "Ġwh": 472,
      "Ġyou": 473,
      "Ġà¤¹à¥Īà¥¤": 474,
      "Ġà¤Ĩà¤¹à¥ĩ": 475,
      "Ġor": 476,
      "Ġit": 477,
      "Ġal": 478,
      "à¥įà¤·": 479,
      "à¤¾à¤ľ": 480,
      "ter": 481,
      "od": 482,
      "ĠĠ": 483,
      "Ġà¤ıà¤ķ": 484,
      "ĠB": 485,
      "à¤Ń": 486,
      "Ġà¤µà¤¿à¤": 487,
      "à¤¿à¤¯à¤¾": 488,
      "Ġà¤¨à¥ĩ": 489,
      "ment": 490,
      "Ġ-": 491,
      "à¤¤à¥ĩ": 492,
      "à¥Ĥà¤¨": 493,
      "à¤¤à¥Ģ": 494,
      "ge": 495,
      "à¤¾à¤ļ": 496,
      "Ġà¤ĩà¤¸": 497,
      "th": 498,
      "Ġà¤ĸ": 499,
      "Ġà¤¹à¥Īà¤Ĥ": 500,
      "à¤¿à¤¨": 501,
      "Ġà¤«": 502,
      "op": 503,
      "ĠW": 504,
      "ate": 505,
      "ist": 506,
      "à¤¨à¥Ģ": 507,
      "ĠH": 508,
      "Ġde": 509,
      "à¤°à¥Ģ": 510,
      "à¤²à¤¾": 511,
      "Ġà¤¸à¤Ĥ": 512,
      "ies": 513,
      "ill": 514,
      "Ġà¤¥": 515,
      "ab": 516,
      "Ġhe": 517,
      "Ġex": 518,
      "à¤¾à¤¦": 519,
      "Ġsu": 520,
      "à¥ĩà¤¶": 521,
      "Ġà¤ħà¤¸": 522,
      "Ġwe": 523,
      "à¤²à¥Ģ": 524,
      "ore": 525,
      "Ġcom": 526,
      "ect": 527,
      "âĢĻ": 528,
      "ĠD": 529,
      "ity": 530,
      "est": 531,
      "à¤Ĥà¤¤": 532,
      "ive": 533,
      "ac": 534,
      "à¤¿à¤ı": 535,
      "Ġha": 536,
      "um": 537,
      "ess": 538,
      "us": 539,
      "ld": 540,
      "rom": 541,
      "ĠE": 542,
      "Ġv": 543,
      "ĠF": 544,
      "ĠR": 545,
      "à¤Ī": 546,
      "à¤¾à¤Ĺ": 547,
      "ke": 548,
      "à¥įà¤¥": 549,
      "ure": 550,
      "os": 551,
      "Ġby": 552,
      "ant": 553,
      "iv": 554,
      "em": 555,
      "ers": 556,
      "ain": 557,
      "qu": 558,
      "à¥ī": 559,
      "Ġà¤ķà¤¿": 560,
      "à¤ķà¥įà¤·": 561,
      "Ġà¤ĺ": 562,
      "Ġat": 563,
      "nt": 564,
      "pp": 565,
      "à¥ģà¤°": 566,
      "Ġà¤¸à¤®": 567,
      "à¤ķà¥ĩ": 568,
      "igh": 569,
      "à¤¿à¤µ": 570,
      "à¥Į": 571,
      "ĠâĢ": 572,
      "à¤¿à¤Ĥ": 573,
      "Ġwas": 574,
      "ĠN": 575,
      "ud": 576,
      "Ġcan": 577,
      "Ġà¤¤à¥įà¤¯à¤¾à¤": 578,
      "Ġfrom": 579,
      "Ġà¤Ĩà¤¹à¥ĩ.": 580,
      "oc": 581,
      "Ġà¤Ńà¥Ģ": 582,
      "Ġch": 583,
      "à¤¡à¤¼": 584,
      "and": 585,
      "Ġne": 586,
      "Ġr": 587,
      "ort": 588,
      "ĠG": 589,
      "Ġà¤Ł": 590,
      "à¥ĥ": 591,
      "à¤¾à¤°à¥Ģ": 592,
      "ĠL": 593,
      "à¤¸à¥ĩ": 594,
      "Ġse": 595,
      "res": 596,
      "ial": 597,
      "à¤ĸ": 598,
      "à¥įà¤°à¥Ģ": 599,
      "à¥įà¤®": 600,
      "un": 601,
      "Ġà¥¤": 602,
      "Ġnot": 603,
      "à¤ı": 604,
      "art": 605,
      "ical": 606,
      "Ġle": 607,
      "à¤¾à¤ª": 608,
      "à¤¿à¤°": 609,
      "à¤ļà¥įà¤¯à¤¾": 610,
      "Ġhave": 611,
      "à¥ĭà¤Ĺ": 612,
      "ri": 613,
      "à¤¾à¤ķ": 614,
      "Ġà¤¡": 615,
      "à¤ķà¤°": 616,
      "og": 617,
      "à¤¹à¥Ģà¤Ĥ": 618,
      "à¥įà¤ķ": 619,
      "à¥įà¤¸": 620,
      "Ġà¤ħà¤ª": 621,
      "à¥ĩà¤¤": 622,
      "à¥įà¤²": 623,
      "Ġsh": 624,
      "Ġà¤īà¤¨": 625,
      "Ġen": 626,
      "Ġà¤¹à¥Ģ": 627,
      "Ġsp": 628,
      "ĠO": 629,
      "à¤¾à¤£": 630,
      "Ġthis": 631,
      "Ġà¤²à¤¿à¤ı": 632,
      "à¤³": 633,
      "ĠIn": 634,
      "à¥Ģà¤²": 635,
      "Ġà¤Ĩà¤£": 636,
      "ight": 637,
      "Ġà¤¯à¤¾": 638,
      "Ġab": 639,
      "à¤«": 640,
      "pt": 641,
      "rou": 642,
      "à¤Ĥà¤¦": 643,
      "Ġà¤ķà¤¾à¤°": 644,
      "ich": 645,
      "à¤¾à¤¨à¥ĩ": 646,
      "red": 647,
      "Ġà¤¸à¤¾à¤": 648,
      "à¥įà¤ª": 649,
      "Ġwor": 650,
      "all": 651,
      "Ġ\"": 652,
      "à¥ģà¤ķ": 653,
      "gh": 654,
      "ther": 655,
      "ould": 656,
      "ost": 657,
      "our": 658,
      "ome": 659,
      "Ġà¤®à¤¹": 660,
      "âĢĻs": 661,
      "à¤¾à¤¹à¥Ģ": 662,
      "Ġà¤Ĩà¤ª": 663,
      "Ġim": 664,
      "du": 665,
      "ated": 666,
      "à¥ģà¤²": 667,
      "à¤ķà¤¾à¤°": 668,
      "à¥ĩà¤²": 669,
      "à¥įà¤¯à¤¾à¤ļ": 670,
      "Ġà¤¨à¤¹à¥Ģà¤Ĥ": 671,
      "ine": 672,
      "Ġà¤Ĩà¤£à¤¿": 673,
      "per": 674,
      "ag": 675,
      "Ġà¤ħà¤¨": 676,
      "à¤·": 677,
      "ard": 678,
      "à¤¯à¤¾": 679,
      "out": 680,
      "à¤¹à¤¾": 681,
      "à¤¾à¤Ī": 682,
      "Ġpl": 683,
      "Ġtheir": 684,
      "ĠJ": 685,
      "ide": 686,
      "Ġus": 687,
      "ell": 688,
      "ĠU": 689,
      "ff": 690,
      "Ġà¤¯à¤¹": 691,
      "act": 692,
      "Ġà¤¹à¥Īà¤Ĥà¥¤": 693,
      "Ġà¤¤à¥ĭ": 694,
      "à¥ĩà¤Ł": 695,
      "Ġint": 696,
      "ak": 697,
      "à¥įà¤¯à¤¾à¤¤": 698,
      "ĠTh": 699,
      "ast": 700,
      "pl": 701,
      "à¤¥": 702,
      "ear": 703,
      "à¤¾à¤ł": 704,
      "Ġà¤§": 705,
      "à¤ł": 706,
      "age": 707,
      "Ġà¤Ŀ": 708,
      "ust": 709,
      "à¤°à¥įà¤µ": 710,
      "à¤ķà¥Ģ": 711,
      "à¤¾à¤¬": 712,
      "Ġk": 713,
      "Ġà¤ķà¤¿à¤¯à¤¾": 714,
      "Ġwhich": 715,
      "à¤Ĥà¤Ĺ": 716,
      "ec": 717,
      "Ġwhe": 718,
      "Ġyour": 719,
      "à¥įà¤¨": 720,
      "Ġthey": 721,
      "Ġà¤ħà¤§": 722,
      "à¤¾à¤Ĥà¤ļ": 723,
      "à¥įà¤§": 724,
      "iz": 725,
      "Ġall": 726,
      "Ġà¤¹à¥ģà¤": 727,
      "à¥įà¤¦": 728,
      "ood": 729,
      "ia": 730,
      "ew": 731,
      "ult": 732,
      "ib": 733,
      "Ġad": 734,
      "Ġcont": 735,
      "Ġwill": 736,
      "end": 737,
      "ous": 738,
      "Ġinc": 739,
      "ru": 740,
      "cc": 741,
      "Ġà¤°à¤¾à¤ľ": 742,
      "ans": 743,
      "à¥ģà¤¨": 744,
      "Ġdis": 745,
      "Ġmore": 746,
      "ip": 747,
      "ong": 748,
      "ap": 749,
      "âĢĿ": 750,
      "à¤°à¥įà¤®": 751,
      "Ġ'": 752,
      "à¤Ĥà¤¡": 753,
      "Ġcomp": 754,
      "ĠâĢľ": 755,
      "ions": 756,
      "Ġres": 757,
      "à¤¾à¤ĩ": 758,
      "vel": 759,
      "Ġhas": 760,
      "Ġà¤ªà¤¹": 761,
      "es,": 762,
      "e.": 763,
      "ere": 764,
      "so": 765,
      "à¥ĩà¤ķ": 766,
      "Ġdo": 767,
      "à¤¤à¥įà¤¤": 768,
      "orm": 769,
      "Ġà¤ľà¤¾à¤¤": 770,
      "e,": 771,
      "ater": 772,
      "ary": 773,
      "à¥Ģà¤¨": 774,
      "à¤ķà¤¾": 775,
      "Ġà¤¥à¤¾": 776,
      "Ġà¤īà¤¸": 777,
      "are": 778,
      "à¤¾à¤łà¥Ģ": 779,
      "ence": 780,
      "à¥ĩà¤µ": 781,
      "ild": 782,
      "able": 783,
      "es.": 784,
      "Ġman": 785,
      "Ġother": 786,
      "à¥Ĥà¤°": 787,
      "Ġà¤¸à¥įà¤µ": 788,
      "ual": 789,
      "à¤¾à¤²à¤¾": 790,
      "Ġcl": 791,
      "Ġà¤ľà¥ĭ": 792,
      "ind": 793,
      "Ġbut": 794,
      "Ġà¤Ĺà¤¯à¤¾": 795,
      "Ġà¤ķà¤°à¤¨à¥ĩ": 796,
      "ry": 797,
      "à¤¿à¤¶": 798,
      "Ġwere": 799,
      "à¤§à¥įà¤¯": 800,
      "à¥ģà¤®": 801,
      "Ġà¤īà¤ª": 802,
      "Ġà¤¤à¤°": 803,
      "à¥ĩà¤ļ": 804,
      "Ġà¤¦à¥ĭ": 805,
      "ok": 806,
      "à¤¸à¥įà¤¤": 807,
      "ep": 808,
      "à¥§": 809,
      "ach": 810,
      "à¥ĩà¤ĸ": 811,
      "ance": 812,
      "Ġà¤¸à¤¾à¤¥": 813,
      "Ġper": 814,
      "Ġte": 815,
      "à¤ķà¥įà¤¤": 816,
      "Ġalso": 817,
      "ition": 818,
      "Ġimp": 819,
      "Ġà¤ķà¤°à¤£": 820,
      "à¥ĭà¤²": 821,
      "à¤¿à¤®": 822,
      "à¥ĩà¤¸": 823,
      "ction": 824,
      "'s": 825,
      "ose": 826,
      "ĠSt": 827,
      "reat": 828,
      "Ġme": 829,
      "av": 830,
      "ign": 831,
      "à¤¢": 832,
      "ake": 833,
      "ack": 834,
      "ĠK": 835,
      "Ġone": 836,
      "à¥ĭà¤ľ": 837,
      "à¤¿à¤¯à¥ĭà¤Ĥ": 838,
      "au": 839,
      "ber": 840,
      "Ġj": 841,
      "Ġà¤¸à¤ķ": 842,
      "Ġso": 843,
      "à¥įà¤¯à¤¾à¤Ĥ": 844,
      "Ġà¤²à¤Ĺ": 845,
      "Ġà¤¹à¥Ī,": 846,
      "à¥Ĥà¤ª": 847,
      "ĠIt": 848,
      "à¤¾à¤Ĥà¤¨à¥Ģ": 849,
      "à¥įà¤ļ": 850,
      "à¤¸à¥Ģ": 851,
      "Ġout": 852,
      "à¥¦": 853,
      "Ġun": 854,
      "Ġar": 855,
      "Ġapp": 856,
      "ass": 857,
      "à¥Ģà¤ļ": 858,
      "very": 859,
      "ations": 860,
      "Ġpart": 861,
      "à¤¾à¤ı": 862,
      "Ġtim": 863,
      "à¤¾à¤²à¥ĩ": 864,
      "Ġà¤µà¤°à¥įà¤": 865,
      "Ġabout": 866,
      "à¥įà¤¯à¤¾à¤¸": 867,
      "ord": 868,
      "ace": 869,
      "à¥ĭà¤ķ": 870,
      "à¥Ģà¤¤": 871,
      "ish": 872,
      ").": 873,
      "à¤¾à¤§": 874,
      "ire": 875,
      "à¤§à¥įà¤¯à¥ĩ": 876,
      "à¤¾à¤Ł": 877,
      "Ġà¤ł": 878,
      "Ġev": 879,
      "Ġstud": 880,
      "ĠThis": 881,
      "Ġà¤ªà¥įà¤°à¤¤": 882,
      "Ġwho": 883,
      "y,": 884,
      "à¥ĩà¤°": 885,
      "ress": 886,
      "à¥ģà¤¦": 887,
      "ount": 888,
      "à¥ģà¤ĸ": 889,
      "Ġà¤¸à¤°": 890,
      "à¤¾à¤¯à¤¾": 891,
      "à¤¸à¥įà¤¥": 892,
      "Ġà¤ħà¤§à¤¿à¤ķ": 893,
      "ub": 894,
      "Ġhis": 895,
      "Ġpe": 896,
      "à¤¾à¤²à¥Ģ": 897,
      "à¤²à¥įà¤¯à¤¾": 898,
      "Ġà¤¦à¤¿à¤²": 899,
      "Ġà¤¤à¥įà¤¯à¤¾à¤Ĥ": 900,
      "Ġinf": 901,
      "à¤¾à¤Ĥà¤Ĺ": 902,
      "ric": 903,
      "à¥įà¤¯à¤¾à¤¨": 904,
      "Ġà¤Ľ": 905,
      "à¤µà¤°": 906,
      "à¤¿à¤Ł": 907,
      "à¤¾à¤¨à¤¾": 908,
      "à¤¾à¤·": 909,
      "ĠCh": 910,
      "ents": 911,
      "Ġsy": 912,
      "Ġthem": 913,
      "Ġcomm": 914,
      "Ġà¤®à¥ĭ": 915,
      "à¤¾à¤¶": 916,
      "Ġsc": 917,
      "ang": 918,
      "à¤®à¥ĩà¤Ĥ": 919,
      "Ġwork": 920,
      "ens": 921,
      "à¤Ĥà¤¬": 922,
      "low": 923,
      "ike": 924,
      "Ġup": 925,
      "Ġà¤Ńà¤¾à¤°": 926,
      "à¥ģà¤ª": 927,
      "ound": 928,
      "olog": 929,
      "now": 930,
      "à¤¿à¤Ĥà¤Ĺ": 931,
      "à¤¾à¤³": 932,
      "à¤ĺ": 933,
      "Ġà¤ªà¥Ĥ": 934,
      "à¤¾à¤°à¤¾": 935,
      "ian": 936,
      "Ġà¤µà¤¹": 937,
      "Ġbec": 938,
      "ĠV": 939,
      "ame": 940,
      "Ġà¤®à¥įà¤¹": 941,
      "ory": 942,
      "à¤¤à¥įà¤°": 943,
      "one": 944,
      "Ġpre": 945,
      "Ġà¤īà¤¨à¥įà¤¹": 946,
      "Ġà¤¨à¤¾à¤¹à¥Ģ": 947,
      "Ġà¤¸à¥įà¤¥": 948,
      "ase": 949,
      "ile": 950,
      "Ġthan": 951,
      "rit": 952,
      "à¥ģà¤¸": 953,
      "ook": 954,
      "à¤Ĥà¤ļ": 955,
      "Ġmay": 956,
      "Ġà¤¨à¤¿": 957,
      "à¤°à¥ĭ": 958,
      "à¤¾à¤¡": 959,
      "Ġà¤µà¥įà¤¯": 960,
      "Ġqu": 961,
      "à¥¨": 962,
      "ree": 963,
      "Ġà¤¬à¤¨": 964,
      "iff": 965,
      "Ġsome": 966,
      "ople": 967,
      "ĠY": 968,
      "Ġà¤ķà¤¹à¤¾": 969,
      "Ġrec": 970,
      "à¤¿à¤·": 971,
      "ie": 972,
      "Ġyear": 973,
      "ail": 974,
      "à¤Ńà¥Ģ": 975,
      "Ġthere": 976,
      "nder": 977,
      "Ġà¤¸à¥ĭ": 978,
      "Ġà¤¦à¥ĩ": 979,
      "Ġwhen": 980,
      "Ġbeen": 981,
      "mer": 982,
      "Ġà¤¬à¤¾à¤¦": 983,
      "à¥įà¤°à¤®": 984,
      "à¥ģà¤³": 985,
      "ue": 986,
      "à¥ĩà¤Ĺ": 987,
      "à¤ĥ": 988,
      "Ġgo": 989,
      "Ġag": 990,
      "Ġà¤ħà¤ªà¤¨à¥ĩ": 991,
      "ough": 992,
      "à¥ĩà¤ľ": 993,
      "Ġà¤¤à¤ķ": 994,
      "ph": 995,
      "Ġinto": 996,
      "à¤Ĩ": 997,
      "Ġits": 998,
      "ice": 999,
      "à¤µà¤¾": 1000,
      "Ġà¤¹à¥Ī.": 1001,
      "ren": 1002,
      "à¤ķà¥ĭ": 1003,
      "Ġà¤ķà¤®": 1004,
      "à¤¾à¤¨à¥Ģ": 1005,
      "ces": 1006,
      "Ġtra": 1007,
      "à¤°à¥ĩ": 1008,
      "Ġover": 1009,
      "à¤¾à¤°à¥ĩ": 1010,
      "erv": 1011,
      "à¥Ģà¥¤": 1012,
      "Ġà¤ķà¤¾à¤®": 1013,
      "Ġthese": 1014,
      "Ġà¤Ĩà¤¹à¥ĩà¤¤": 1015,
      "à¥ĥà¤¤": 1016,
      "Ġà¤ľà¤¿à¤¸": 1017,
      "),": 1018,
      "à¤¤à¥ĩ.": 1019,
      "Ġà¤Ĳ": 1020,
      "à¥ħ": 1021,
      "ally": 1022,
      "Ġpeople": 1023,
      "rough": 1024,
      "Ġà¤®à¥įà¤¹à¤£": 1025,
      "à¤°à¥įà¤£": 1026,
      "Ġdiff": 1027,
      "Ġà¤²à¥ĩ": 1028,
      "Ġhow": 1029,
      "à¥ĩà¤£": 1030,
      "ing,": 1031,
      "à¤°à¤£": 1032,
      "iver": 1033,
      "à¥Ģà¤µ": 1034,
      "ite": 1035,
      "lud": 1036,
      "Ġà¤µà¤¿à¤¶": 1037,
      "Ġà¤®à¤¿à¤²": 1038,
      "à¤¾à¤ļà¥įà¤¯à¤¾": 1039,
      "ond": 1040,
      "à¤¾à¤ĸ": 1041,
      "ove": 1042,
      "ause": 1043,
      "Ġtr": 1044,
      "tern": 1045,
      "ll": 1046,
      "Ġour": 1047,
      "Ġcons": 1048,
      "Ġro": 1049,
      "Ġhad": 1050,
      "Ġà¤¹à¤®": 1051,
      "Ġà¤²à¥ĭà¤Ĺ": 1052,
      "Ġuse": 1053,
      "y.": 1054,
      "Ġcol": 1055,
      "à¥ģà¤¤": 1056,
      "Ġnew": 1057,
      "Ġra": 1058,
      "à¥ĭà¤Ł": 1059,
      "Ġà¤¸à¤°à¥įà¤µ": 1060,
      "Ġà¤®à¥Ī": 1061,
      "ific": 1062,
      "int": 1063,
      "ĵà¤Ĥ": 1064,
      "à¤¿à¤ľ": 1065,
      "Ġà¤¦à¤¿à¤¯à¤¾": 1066,
      "Ġbet": 1067,
      "ors": 1068,
      "Ġà¤ĩà¤¨": 1069,
      "Ġà¤¹à¥ĩ": 1070,
      "Ġact": 1071,
      "Ġmost": 1072,
      "Ġà¤¸à¤¾à¤®": 1073,
      "ities": 1074,
      "we": 1075,
      "à¤¿à¤ª": 1076,
      "Ġunder": 1077,
      "lic": 1078,
      "Ġknow": 1079,
      "à¥ĩà¤¦": 1080,
      "Ġsa": 1081,
      "irst": 1082,
      "alth": 1083,
      "à¤¾à¤¤à¥įà¤°": 1084,
      "à¤Ĥà¤§": 1085,
      "Ġlike": 1086,
      "te": 1087,
      "à¥Ģà¤®": 1088,
      "Ġà¤¹à¥ĭà¤¤à¤¾": 1089,
      "Ġwould": 1090,
      "ed.": 1091,
      "à¥įà¤Łà¥įà¤°": 1092,
      "Ġbl": 1093,
      "Ġdes": 1094,
      "lect": 1095,
      "à¤¾,": 1096,
      "ject": 1097,
      "Ġacc": 1098,
      "erm": 1099,
      "row": 1100,
      "à¤ļà¥ĩ": 1101,
      "ient": 1102,
      "à¥ģà¤³à¥ĩ": 1103,
      "à¥ĭà¤°": 1104,
      "à¤¦à¥Ģ": 1105,
      "Ġà¤¦à¥ĩà¤ĸ": 1106,
      "velop": 1107,
      "à¤¢à¤¼": 1108,
      "Ġrel": 1109,
      "..": 1110,
      "à¤¿à¤¦": 1111,
      "ob": 1112,
      "stem": 1113,
      "Ġtw": 1114,
      "Ġà¤°à¤¹": 1115,
      "Ġà¤ķà¥ģà¤": 1116,
      "Ġsuch": 1117,
      "ning": 1118,
      "Ġà¤ķà¤¾à¤°à¥įà¤¯": 1119,
      "à¤ħ": 1120,
      "ark": 1121,
      "ational": 1122,
      "Ġif": 1123,
      "ys": 1124,
      "Ġrep": 1125,
      "Ġneed": 1126,
      "ons": 1127,
      "ious": 1128,
      "Ġà¤¹à¥ģà¤ı": 1129,
      "Ġà¤°à¤¹à¥ĩ": 1130,
      "ates": 1131,
      "à¤ļà¥Ģ": 1132,
      "à¥ĩ,": 1133,
      "ffect": 1134,
      "à¤·à¥įà¤Ł": 1135,
      "Ġà¤ķà¤¿à¤¸": 1136,
      "ram": 1137,
      "à¤¾à¤Ĥà¤¨à¤¾": 1138,
      "ays": 1139,
      "Ġà¤¸à¥ģà¤°": 1140,
      "à¤Ĥà¤¤à¤°": 1141,
      "à¥ĩà¥¤": 1142,
      "Ġchild": 1143,
      "Ġinclud": 1144,
      "Ġany": 1145,
      "ov": 1146,
      "à¥ĩà¤¡": 1147,
      "à¤Ĺà¤°": 1148,
      "à¥įà¤¡": 1149,
      "Ġhel": 1150,
      "ink": 1151,
      "Ġgen": 1152,
      "à¥Įà¤°": 1153,
      "à¤ªà¥Ģ": 1154,
      "ĠWh": 1155,
      "ative": 1156,
      "hed": 1157,
      "ĠUn": 1158,
      "à¤°à¥įà¤¥": 1159,
      "ath": 1160,
      "ple": 1161,
      "à¥įà¤ŀ": 1162,
      "Ġwhat": 1163,
      "Ġà¤ĳ": 1164,
      "à¤¶à¥Ģ": 1165,
      "ular": 1166,
      "à¤¦à¤¾à¤°": 1167,
      "Ġà¤Ĩà¤ľ": 1168,
      "à¤ļà¤¾": 1169,
      "Ġonly": 1170,
      "yp": 1171,
      "Ġhelp": 1172,
      "Ġph": 1173,
      "Ġà¤°à¤¹à¤¾": 1174,
      "à¤¾à¤ģ": 1175,
      "à¤¾à¤Ĥà¤¤": 1176,
      "ool": 1177,
      "Ġam": 1178,
      "Ġno": 1179,
      "Ġprov": 1180,
      "ings": 1181,
      "Ġind": 1182,
      "Ġà¤µà¤°à¥įà¤·": 1183,
      "Ġà¤Ĺà¤Ī": 1184,
      "à¥ĭà¤Ĥà¤¨à¥ĩ": 1185,
      "Ġà¤ĵ": 1186,
      "Ġà¤¸à¤°à¤ķà¤¾à¤°": 1187,
      "Ġà¤¸à¥ģ": 1188,
      "Ġthrough": 1189,
      "Ġprodu": 1190,
      "à¤°à¥įà¤¤": 1191,
      "Ġoff": 1192,
      "Ġà¤¦à¥ĩà¤¶": 1193,
      "Ġà¤¸à¤¹": 1194,
      "ced": 1195,
      "Ġà¤¬à¤¹": 1196,
      "à¤Ĥà¤¤à¥įà¤°à¥Ģ": 1197,
      "Ġused": 1198,
      "ating": 1199,
      "Ġfirst": 1200,
      "Ġdevelop": 1201,
      "Ġmany": 1202,
      "Ġà¤ľà¤¾": 1203,
      "Ġspec": 1204,
      "à¤¾à¤µà¤°": 1205,
      "Ġà¤Ĩà¤¹à¥ĩà¤¤.": 1206,
      "ck": 1207,
      "Ġà¤°à¥Ĥà¤ª": 1208,
      "à¤¾à¤ĵà¤Ĥ": 1209,
      "Ġà¤®à¤¨": 1210,
      "ĠAs": 1211,
      "à¤®à¤§à¥įà¤¯à¥ĩ": 1212,
      "à¥ĩà¤¨": 1213,
      "Ġà¤ľà¤¨": 1214,
      "Ġfe": 1215,
      "fter": 1216,
      "à¥Ģ,": 1217,
      "à¤Ĥà¤Ł": 1218,
      "Ġà¤Ĩà¤µ": 1219,
      "Ġà¤µà¤¿à¤ķ": 1220,
      "à¤¦à¥ĩà¤¶": 1221,
      "Ġà¤¹à¥ĭà¤¤à¥Ģ": 1222,
      "à¥ĩà¤³": 1223,
      "iet": 1224,
      "Ġà¤ķà¥įà¤·": 1225,
      "round": 1226,
      "à¤µà¤¾à¤°": 1227,
      "ĠHe": 1228,
      "Ġreg": 1229,
      "à¥Ģà¤°": 1230,
      "Ġpo": 1231,
      "Ġpr": 1232,
      "Ġem": 1233,
      "hen": 1234,
      "Ġexp": 1235,
      "ing.": 1236,
      "rib": 1237,
      "à¤ªà¥įà¤°": 1238,
      "à¤¾à¤Ĥà¤ļà¥įà¤¯à¤¾": 1239,
      "les": 1240,
      "à¤¾à¥¤": 1241,
      "à¥įà¤¯à¤¾à¤µ": 1242,
      "Ġà¤¤à¥ĩ": 1243,
      "Ġà¤Ĩà¤¯": 1244,
      "à¥Ĥà¤²": 1245,
      "ful": 1246,
      "à¤°à¥įà¤ľ": 1247,
      "Ġtwo": 1248,
      "old": 1249,
      "à¤¸à¤¾": 1250,
      "oth": 1251,
      "à¤¹à¤°": 1252,
      "cess": 1253,
      "iss": 1254,
      "à¤¾à¤ļà¤¾": 1255,
      "Ġsystem": 1256,
      "Ġà¤®à¤¾à¤¨": 1257,
      "Ġdiffere": 1258,
      "à¤Ĥà¤¤à¥įà¤°": 1259,
      "oss": 1260,
      "eth": 1261,
      "Ġà¤ľà¤¬": 1262,
      "uring": 1263,
      "Ġac": 1264,
      "Ġà¤Ĺà¥įà¤°": 1265,
      "à¤¾à¤«": 1266,
      "Ġà¤ķà¥ģà¤Ľ": 1267,
      "Ġtime": 1268,
      "Ġob": 1269,
      "Ġà¤¬à¤¾à¤¤": 1270,
      "Ġà¤¸à¤¬": 1271,
      "Ġà¤®à¤¾à¤°": 1272,
      "à¤¤à¤¾à¤¤": 1273,
      "à¤¿à¤ĸ": 1274,
      "à¤Ĥà¤ª": 1275,
      "Ġà¤¯à¤¾à¤Ĥà¤¨à¥Ģ": 1276,
      "ility": 1277,
      "Ġà¤¦à¥ĭà¤¨": 1278,
      "Ġass": 1279,
      "ert": 1280,
      "a,": 1281,
      "à¥ĭà¤§": 1282,
      "ne": 1283,
      "à¤¾à¤ļà¥Ģ": 1284,
      "ible": 1285,
      "ĠâĢĵ": 1286,
      "Ġà¤ļà¤¾à¤¹": 1287,
      "Ġà¤¦à¥įà¤µ": 1288,
      "Ġà¤īà¤¤": 1289,
      "Ġatt": 1290,
      "à¤¤à¥ĭ": 1291,
      "ed,": 1292,
      "à¤¿à¤§": 1293,
      "Ġà¤°à¤¹à¥Ģ": 1294,
      "dition": 1295,
      "ature": 1296,
      "à¥įà¤¯à¥Ĥ": 1297,
      "aw": 1298,
      "Ġdec": 1299,
      "à¥ĩà¤·": 1300,
      "rop": 1301,
      "ten": 1302,
      "Ġsur": 1303,
      "ments": 1304,
      "à¤°à¥įà¤Ł": 1305,
      "à¤¤à¤¿": 1306,
      "Ġform": 1307,
      "Ġà¤®à¤¿à¤": 1308,
      "à¤£à¥Ģ": 1309,
      "ower": 1310,
      "ange": 1311,
      "Ġà¤¸à¥Ģ": 1312,
      "Ġà¤ķà¤°à¤¤à¥ĩ": 1313,
      "Ġà¤ķà¥ĩà¤²à¥ĩ": 1314,
      "Ġshould": 1315,
      "Ġà¤²à¤¾à¤Ĺ": 1316,
      "ution": 1317,
      "ng": 1318,
      "Ġwater": 1319,
      "Ġfl": 1320,
      "fore": 1321,
      "Ġsupp": 1322,
      "à¤Ĥà¤ľ": 1323,
      "Ġwell": 1324,
      "Ġà¤¥à¤¾à¥¤": 1325,
      "ble": 1326,
      "ased": 1327,
      "ick": 1328,
      "à¤¡à¥ĩ": 1329,
      "Ġà¤ħà¤Ń": 1330,
      "arch": 1331,
      "ween": 1332,
      "à¥įà¤¯à¤®": 1333,
      "gan": 1334,
      "à¤°à¥įà¤¶": 1335,
      "Ġrem": 1336,
      "Ġà¤ªà¤¾à¤°": 1337,
      "own": 1338,
      "ract": 1339,
      "sel": 1340,
      "Ġinv": 1341,
      "Ġsub": 1342,
      "à¤¾à¤ļà¥ĩ": 1343,
      "Ġà¤²à¥ĭà¤ķ": 1344,
      "Ġà¤¬à¥Ī": 1345,
      "Ġco": 1346,
      "ied": 1347,
      "xt": 1348,
      "à¥ģà¤·": 1349,
      "Ġà¤ķà¤¹": 1350,
      "à¤Łà¥Ģ": 1351,
      "ise": 1352,
      "à¥Ĥà¤¸": 1353,
      "Ġà¤īà¤¨à¥įà¤¹à¥ĭà¤Ĥà¤¨à¥ĩ": 1354,
      "à¥ģà¤£": 1355,
      "ism": 1356,
      "Ġà¤Ńà¤¾à¤°à¤¤": 1357,
      "à¤¾à¤¥": 1358,
      "Ġà¤¯à¥ĩ": 1359,
      "à¤¿à¤£": 1360,
      "Ġsm": 1361,
      "Ġ:": 1362,
      "Ġà¤Ĩà¤®": 1363,
      "Ġbetween": 1364,
      "à¤¾à¤¢": 1365,
      "Ġpres": 1366,
      "Ġà¤²à¥ĩà¤ķ": 1367,
      "ation.": 1368,
      "Ġà¤īà¤¦": 1369,
      "Ġcould": 1370,
      "Ġhealth": 1371,
      "à¤ģ": 1372,
      "Ġà¤ħà¤µ": 1373,
      "Ġwhere": 1374,
      "Ġà¤®à¥Ģ": 1375,
      "Ġà¤ªà¤¹à¤²à¥ĩ": 1376,
      "Ġà¤¦à¤¿à¤¨": 1377,
      "uc": 1378,
      "Ġà¤¹à¥ĭà¤¨à¥ĩ": 1379,
      "à¤ªà¤°": 1380,
      "Ġà¤ħà¤²": 1381,
      "à¥ĩà¤®": 1382,
      "Ġhigh": 1383,
      "Ġà¤ĩà¤¤": 1384,
      "ident": 1385,
      "Ġà¤²à¥ĩà¤ķà¤¿à¤¨": 1386,
      "à¥Ģà¤ľ": 1387,
      "à¤ļà¥įà¤ļ": 1388,
      "à¤ķà¥įà¤·à¤¾": 1389,
      "uch": 1390,
      "Ġbu": 1391,
      "ever": 1392,
      "à¥įà¤Ľ": 1393,
      "à¤¯à¥ĩ": 1394,
      "à¤¾à¤¤à¥Ģà¤²": 1395,
      "Ġget": 1396,
      "Ġtrans": 1397,
      "wn": 1398,
      "à¤¿à¤Ĺ": 1399,
      "Ġà¤¤à¥ģà¤®": 1400,
      "Ġmake": 1401,
      "ĠIf": 1402,
      "Ġà¤®à¥ģà¤ĸ": 1403,
      "Ġlif": 1404,
      "Ġà¤ħà¤¬": 1405,
      "Ġà¤¹à¥ĭà¤Ĺ": 1406,
      "enc": 1407,
      "Ġher": 1408,
      "à¥©": 1409,
      "Ġà¤®à¥ģ": 1410,
      "Ġà¤ķà¤¾à¤°à¤£": 1411,
      "à¤¥à¤¾": 1412,
      "Ġà¤ľà¤¿à¤²": 1413,
      "ation,": 1414,
      "Ġpers": 1415,
      "ĠWe": 1416,
      "à¥įà¤¯à¤¾à¤¸à¤¾à¤łà¥Ģ": 1417,
      "Ġ.": 1418,
      "à¤¿à¤¤à¥Ģ": 1419,
      "chn": 1420,
      "Ġà¤®à¤¿à¤³": 1421,
      "Ġpol": 1422,
      "Ġà¤¹à¥Īà¤Ĥ,": 1423,
      "ork": 1424,
      "Ġimport": 1425,
      "à¤ķà¤¿": 1426,
      "ural": 1427,
      "form": 1428,
      "à¥įà¤¯à¤¾à¤ļà¥Ģ": 1429,
      "ict": 1430,
      "ience": 1431,
      "Ġà¤¨à¤µ": 1432,
      "Ġà¤¸à¤®à¤¯": 1433,
      "à¤°à¥įà¤¸": 1434,
      "Ġà¤¦à¥Ģ": 1435,
      "à¤¿à¤ķà¥įà¤·": 1436,
      "chool": 1437,
      "Ġà¤µà¤¿à¤Ń": 1438,
      "Ġear": 1439,
      "Ġà¤¤à¥įà¤¯à¤¾à¤ļ": 1440,
      "Ġrese": 1441,
      "Ġà¤ľà¤¾à¤¤à¤¾": 1442,
      "ft": 1443,
      "ade": 1444,
      "à¤¾à¤¸à¥įà¤¤": 1445,
      "Ġinter": 1446,
      "à¥«": 1447,
      "ly,": 1448,
      "ĠAl": 1449,
      "Ġà¤ĺà¤°": 1450,
      "ĠRe": 1451,
      "Ġà¤¸à¥įà¤Ł": 1452,
      "meric": 1453,
      "Ġà¤¶à¤ķ": 1454,
      "ont": 1455,
      "Ġà¤ķà¥ĭà¤Ī": 1456,
      "Ġà¤ĩà¤¸à¤ķà¥ĩ": 1457,
      "Ġà¤ķà¥ĩà¤²à¥Ģ": 1458,
      "à¥įà¤¯à¤¾à¤²": 1459,
      "à¥įà¤¯à¤¾à¤ª": 1460,
      "Ġdisc": 1461,
      "Ġinst": 1462,
      "Ġnum": 1463,
      "à¤¿à¤¹": 1464,
      "Ġà¤°à¤¾à¤ľà¥įà¤¯": 1465,
      "à¤¿à¤ķà¤¾": 1466,
      "à¤ĩ": 1467,
      "ĠAn": 1468,
      "ivers": 1469,
      "land": 1470,
      "à¤Ĥà¤ķ": 1471,
      "à¤¡à¥Ģ": 1472,
      "Ġway": 1473,
      "Ġmod": 1474,
      "Ġexam": 1475,
      "Ġà¤ħà¤ªà¤¨à¥Ģ": 1476,
      "Ġà¤ªà¥įà¤°à¤¶": 1477,
      "ĠFor": 1478,
      "er,": 1479,
      "Ġà¤µà¤¿à¤¦": 1480,
      "Ġà¤ľà¤¾à¤ı": 1481,
      "ited": 1482,
      "âĢĻt": 1483,
      "Ġà¤ªà¥ĭ": 1484,
      "Ġà¤°à¤ĸ": 1485,
      "Ġà¤µà¥įà¤¯à¤ķà¥įà¤¤": 1486,
      "Ġà¤ªà¥Ģ": 1487,
      "à¥ĩà¤¬": 1488,
      "Ġfound": 1489,
      "à¥ĩ.": 1490,
      "ĠHow": 1491,
      "Ġà¤²à¥ĭà¤Ĺà¥ĭà¤Ĥ": 1492,
      "Ġlear": 1493,
      "Ġbecause": 1494,
      "Ġmed": 1495,
      "à¥Ĥà¤®": 1496,
      "Ġà¤¹à¤¾": 1497,
      "à¤ļà¥įà¤Ľ": 1498,
      "Ġà¤ķà¤¿à¤¸à¥Ģ": 1499,
      "ics": 1500,
      "Ġafter": 1501,
      "Ġdifferent": 1502,
      "Ġthen": 1503,
      "Ġlar": 1504,
      "Ġà¤¯à¥ĩà¤": 1505,
      "Ġsim": 1506,
      "Ġà¤ľà¤¾à¤¨": 1507,
      "Ġà¤Ĺà¥ĭ": 1508,
      "urn": 1509,
      "à¤¾.": 1510,
      "à¤¬à¤°": 1511,
      "Ġworld": 1512,
      "Ġeven": 1513,
      "Ġà¤¦à¥įà¤µà¤¾à¤°à¤¾": 1514,
      "à¥įà¤¯à¤¾à¤ļà¥ĩ": 1515,
      "Ġjust": 1516,
      "Ġlong": 1517,
      "Ġà¤ªà¥įà¤°à¤ķ": 1518,
      "ollow": 1519,
      "Ġinform": 1520,
      "à¤¾à¤Ĥà¤¸": 1521,
      "Ġà¤ħà¤®": 1522,
      "Ġvery": 1523,
      "à¤°à¥įà¤ļ": 1524,
      "Ġcar": 1525,
      "Ġcent": 1526,
      "Ġexper": 1527,
      "à¥Īà¤¸à¥ĩ": 1528,
      "anc": 1529,
      "Ġeffect": 1530,
      "Ġà¤¨à¤¾à¤®": 1531,
      "arm": 1532,
      "Ġà¤ķà¤¾à¤¹à¥Ģ": 1533,
      "Ġdet": 1534,
      "à¥Ģà¤Ĥ": 1535,
      "à¥ģà¤ķà¥įà¤¤": 1536,
      "Ġhum": 1537,
      "oy": 1538,
      "Ġincre": 1539,
      "cept": 1540,
      "Ġà¤Ĺà¤ı": 1541,
      "à¥ĩà¤¶à¤¨": 1542,
      "à¥ĩà¤¤à¥įà¤°": 1543,
      "erg": 1544,
      "ĠAmeric": 1545,
      "a.": 1546,
      "à¤¸à¥įà¤Ł": 1547,
      "Ġtyp": 1548,
      "ting": 1549,
      "Ġà¤°à¥ģà¤ª": 1550,
      "ĠPro": 1551,
      "other": 1552,
      "Ġà¤°à¤¾à¤¹": 1553,
      "Ġà¤ķà¤²": 1554,
      "Ġà¤µà¤¾à¤²à¥ĩ": 1555,
      "Ġà¤¹à¥ģà¤Ĩ": 1556,
      "Ġcount": 1557,
      "à¤¯à¥ĭà¤Ĺ": 1558,
      "eral": 1559,
      "à¤¿à¤¤à¥įà¤°": 1560,
      "ines": 1561,
      "ily": 1562,
      "Ġref": 1563,
      "Ġà¤¬à¤¾à¤°": 1564,
      "get": 1565,
      "vent": 1566,
      "Ġresp": 1567,
      "à¤¦à¤¾": 1568,
      "à¥ª": 1569,
      "hes": 1570,
      "Ġthose": 1571,
      "Ġke": 1572,
      "à¥īà¤²": 1573,
      "à¤°à¤¾": 1574,
      "ually": 1575,
      "ock": 1576,
      "à¥Īà¤¨": 1577,
      "Ġà¤ħà¤¸à¥ĩ": 1578,
      "Ġà¤¨à¤¿à¤µ": 1579,
      "à¤¾à¤·à¥įà¤Łà¥įà¤°": 1580,
      "Ġsign": 1581,
      "ĠNew": 1582,
      "aking": 1583,
      "Ġà¤®à¥Į": 1584,
      "Ġed": 1585,
      "à¤¾à¤Ĥà¤ļà¥Ģ": 1586,
      "Ġà¤¹à¥ĭà¤¤à¥ĩ.": 1587,
      "ĠCom": 1588,
      "Ġvar": 1589,
      "Ġà¤ªà¥ģà¤²": 1590,
      "Ġà¤¬à¤¤": 1591,
      "iew": 1592,
      "Ġsee": 1593,
      "à¥Ģ.": 1594,
      "Ġevery": 1595,
      "Ġprog": 1596,
      "Ġcall": 1597,
      "à¥ģà¤¦à¥įà¤§": 1598,
      "Ġsaid": 1599,
      "Ġà¤¦à¤¿à¤µ": 1600,
      "ef": 1601,
      "à¥Ģà¤¸": 1602,
      "à¤²à¥ĩ.": 1603,
      "Ġpub": 1604,
      "Ġà¤ħà¤¸à¤²": 1605,
      "à¤²à¤¾.": 1606,
      "Ġchildren": 1607,
      "its": 1608,
      "à¤Ŀ": 1609,
      "Ġà¤Ĩà¤§": 1610,
      "à¥ĭà¤¨": 1611,
      "Ġdat": 1612,
      "Ġpat": 1613,
      "Ġà¤ªà¥ģà¤°": 1614,
      "®à¥ģà¤³à¥ĩ": 1615,
      "Ġà¤®à¥ĩ": 1616,
      "à¤®à¤¾à¤¨": 1617,
      "Ġext": 1618,
      "Ġà¤Ĩà¤¦": 1619,
      "à¤Ĺà¥įà¤°": 1620,
      "ros": 1621,
      "Ġsec": 1622,
      "Ġà¤īà¤¨à¤ķà¥ĩ": 1623,
      "Ġà¤ªà¥įà¤°à¤ķà¤¾à¤°": 1624,
      "à¥įà¤¹à¤¾": 1625,
      "Ġresult": 1626,
      "ĠThey": 1627,
      "Ġfact": 1628,
      "à¤¾à¤µà¤¾": 1629,
      "à¥įà¤¯à¤¾à¤¯": 1630,
      "Ġeach": 1631,
      "Ġfollow": 1632,
      "Ġà¤¨à¤¿à¤¯": 1633,
      "Ġbeing": 1634,
      "Ġà¤ķà¥įà¤·à¥ĩà¤¤à¥įà¤°": 1635,
      "à¥įà¤¬": 1636,
      "Ġà¤¨à¤¾à¤¹à¥Ģ.": 1637,
      "Ġpartic": 1638,
      "à¥įà¤¯à¥ĭà¤Ĥ": 1639,
      "à¥ģà¤µ": 1640,
      "io": 1641,
      "roup": 1642,
      "Ġà¤¤à¤°à¤¹": 1643,
      "als": 1644,
      "Ġart": 1645,
      "Ġà¤ıà¤µ": 1646,
      "Ġsoc": 1647,
      "tle": 1648,
      "ĠThere": 1649,
      "Ġà¤¸à¥Ĥ": 1650,
      "à¤ķà¤¾à¤°à¥Ģ": 1651,
      "à¥įà¤¯à¤ķà¥įà¤·": 1652,
      "à¥įà¤¯à¤¾à¤¨à¥ĩ": 1653,
      "Ġset": 1654,
      "à¥įà¤Ĺ": 1655,
      "vern": 1656,
      "iron": 1657,
      "à¤²à¤Ĥ": 1658,
      "Ġà¤¸à¤¿à¤Ĥ": 1659,
      "Ġà¤¬à¤¡à¤¼": 1660,
      "Ġà¤¸à¥įà¤ª": 1661,
      "à¥įà¤°à¥Ģà¤¯": 1662,
      "Ġca": 1663,
      "à¤¨à¥ĩà¤ķ": 1664,
      "ection": 1665,
      "Ġimportant": 1666,
      "à¤¦à¥įà¤§": 1667,
      "Ġtechn": 1668,
      "Ġà¤ķà¥įà¤°": 1669,
      "Ġmy": 1670,
      "Ġmuch": 1671,
      "Ġà¤ķà¤°à¤¨à¤¾": 1672,
      "Ġà¤µà¥ĩ": 1673,
      "à¤¬à¤Ĥà¤§": 1674,
      "Ġrequ": 1675,
      "Ġà¤«à¤¿à¤°": 1676,
      "Ġcommun": 1677,
      "Ġdist": 1678,
      "Ġà¤ķà¤°à¤£à¥įà¤¯à¤¾à¤¤": 1679,
      "ruct": 1680,
      "à¥ĩà¤Ĥà¤Ĺ": 1681,
      "à¤¿à¤µà¤¾à¤°": 1682,
      "Ġà¤ļà¤²": 1683,
      "Ġà¤¹à¥ĭà¤¤": 1684,
      "à¤¾à¤±": 1685,
      "à¥įà¤£": 1686,
      "Ġfam": 1687,
      "Ġà¤ķà¤Ī": 1688,
      "Ġcre": 1689,
      "cent": 1690,
      "Ġloc": 1691,
      "Ġshe": 1692,
      "ather": 1693,
      "rain": 1694,
      "Ġent": 1695,
      "Ġdep": 1696,
      "Ġà¤ľà¥Ģà¤µ": 1697,
      "Ġend": 1698,
      "à¤¾à¤²à¤¯": 1699,
      "Ġà¤Ńà¤¾à¤Ĺ": 1700,
      "Ġmon": 1701,
      "led": 1702,
      "Ġdef": 1703,
      "ĠInd": 1704,
      "ants": 1705,
      "ward": 1706,
      "à¥¬": 1707,
      "Ġread": 1708,
      "Ġright": 1709,
      "blem": 1710,
      "Ġà¤¹à¥ģà¤Ī": 1711,
      "Ġown": 1712,
      "Ġà¤¸à¤ķà¤¤à¤¾": 1713,
      "à¥įà¤Łà¤°": 1714,
      "Ġà¤Ĩà¤°": 1715,
      "ists": 1716,
      "à¥ģà¤¸à¤¾à¤°": 1717,
      "ĠAr": 1718,
      "Ġà¤ªà¥įà¤°à¤®": 1719,
      "à¤¤à¥Ģà¤¯": 1720,
      "à¤°à¥įà¤¦": 1721,
      "Ġduring": 1722,
      "ically": 1723,
      "à¤¿à¤ļ": 1724,
      "à¥įà¤ł": 1725,
      "Ġà¤ħà¤¶": 1726,
      "Ġlevel": 1727,
      "Ġà¤ªà¥ģà¤²à¤¿à¤¸": 1728,
      "à¤£à¤¾à¤°": 1729,
      "à¤¶à¥įà¤¯": 1730,
      "à¤¿à¤¯à¥ĩ": 1731,
      "Ġà¤¬à¤¢à¤¼": 1732,
      "gg": 1733,
      "Ġà¤ħà¤¤": 1734,
      "Ġà¤¬à¥įà¤°": 1735,
      "à¥ĭà¤¡à¤¼": 1736,
      "Ġfood": 1737,
      "er.": 1738,
      "à¤Ĥà¤¦à¥įà¤°": 1739,
      "ts": 1740,
      "à¥ĩà¤Ĥà¤¦": 1741,
      "Ġà¤¹à¤°": 1742,
      "Ġlead": 1743,
      "Ġà¤¸à¤¾à¤²": 1744,
      "Ġà¤¤à¤¥à¤¾": 1745,
      "à¤ķà¥įà¤ķ": 1746,
      "Ġà¤ĺà¤Ł": 1747,
      "Ġday": 1748,
      "hip": 1749,
      "à¤ªà¥Ĥ": 1750,
      "Ġà¤¬à¤¹à¥ģà¤¤": 1751,
      "Ġsk": 1752,
      "Ġadd": 1753,
      "à¥įà¤ľ": 1754,
      "Ġperson": 1755,
      "à¤°à¥įà¤Ĺ": 1756,
      "à¤¿à¤²à¤¾": 1757,
      "Ġà¤¸à¤¾à¤Ĥà¤Ĺ": 1758,
      "ĠSp": 1759,
      "Ġà¤¨à¤¿à¤ķ": 1760,
      "à¤¿à¤¡": 1761,
      "Ġmin": 1762,
      "Ġà¤ĺà¥ĩà¤¤": 1763,
      "Ġà¤Łà¥įà¤°": 1764,
      "à¤¤à¥Ģà¤²": 1765,
      "Ġà¤«à¤¿à¤²": 1766,
      "Ġbod": 1767,
      "ĠBut": 1768,
      "à¤¾à¤Ń": 1769,
      "à¥įà¤¯à¤¾à¤ļà¤¾": 1770,
      "Ġaut": 1771,
      "à¥įà¤¹à¥Ģ": 1772,
      "à¤²à¥įà¤²": 1773,
      "ever,": 1774,
      "Ġà¤µà¤¿à¤ļ": 1775,
      "Ġà¤¶à¥įà¤°à¥Ģ": 1776,
      "Ġyears": 1777,
      "ĠYou": 1778,
      "Ġà¤®à¤¾à¤®": 1779,
      "à¤¸à¥įà¤ķ": 1780,
      "Ġfind": 1781,
      "Ġà¤¸à¤Ńà¥Ģ": 1782,
      "Ġins": 1783,
      "Ġà¤®à¤¾à¤¹": 1784,
      "à¥ĩà¤¯": 1785,
      "Ġback": 1786,
      "à¥¯": 1787,
      "Ġà¤ħà¤¨à¥įà¤¯": 1788,
      "à¤Ńà¤¾à¤µ": 1789,
      "Ġstr": 1790,
      "à¥įà¤¯à¤¾à¤¦": 1791,
      "Ġà¤Ŀà¤¾à¤²": 1792,
      "Ġgrow": 1793,
      "Ġcur": 1794,
      "Ġproblem": 1795,
      "und": 1796,
      "Ġdoes": 1797,
      "The": 1798,
      "ah": 1799,
      "à¥ģà¤Ń": 1800,
      "Ġsame": 1801,
      "ology": 1802,
      "Ġgood": 1803,
      "Ġà¤ķà¤°à¤¤à¤¾": 1804,
      "à¤¾à¤ªà¥įà¤¤": 1805,
      "à¤¾à¤¦à¥Ģ": 1806,
      "ern": 1807,
      "Ġav": 1808,
      "à¤ķà¥įà¤°à¤®": 1809,
      "ank": 1810,
      "Ġche": 1811,
      "Ġà¤īà¤¤à¥įà¤¤": 1812,
      "à¤®à¥Ģ": 1813,
      "Ġboth": 1814,
      "Ġpop": 1815,
      "Ġmade": 1816,
      "onom": 1817,
      "Ġà¤ħà¤¨à¥ĩà¤ķ": 1818,
      "à¤¿à¤¸à¥įà¤¤": 1819,
      "à¤²à¥ĩà¤²à¥įà¤¯à¤¾": 1820,
      "ved": 1821,
      "Ĭà¤¨": 1822,
      "Ġà¤¤à¥Ģà¤¨": 1823,
      "iversity": 1824,
      "ized": 1825,
      "à¤¿à¤Ĥà¤¦": 1826,
      "à¤ľà¥Ģ": 1827,
      "Ġschool": 1828,
      "viron": 1829,
      "à¤ķà¥ĭà¤Ĥ": 1830,
      "Ġbefore": 1831,
      "Ġexpl": 1832,
      "à¥įà¤ŀà¤¾à¤¨": 1833,
      "Ġgra": 1834,
      "up": 1835,
      "à¥ģà¤Ĺ": 1836,
      "Ġà¤¦à¤°": 1837,
      "Ġà¤ªà¥įà¤°à¤µ": 1838,
      "Ġgroup": 1839,
      "Ġsmall": 1840,
      "à¤ªà¤¾à¤¸": 1841,
      "Ġà¤²à¥ĩà¤ķà¤°": 1842,
      "Ġ|": 1843,
      "à¤ľà¤°": 1844,
      "inal": 1845,
      "Ġà¤µà¤¿à¤§": 1846,
      "à¤ıà¤¸": 1847,
      "ĠSc": 1848,
      "Ġcomple": 1849,
      "Ġà¤ķà¥Ī": 1850,
      "stand": 1851,
      "Ġwrit": 1852,
      "Ġà¤®à¥Īà¤Ĥ": 1853,
      "Ġà¤¡à¥ī": 1854,
      "à¥ģà¤Ł": 1855,
      "Ġshow": 1856,
      "Ġusing": 1857,
      "à¤Ľ": 1858,
      "omen": 1859,
      "à¥®": 1860,
      "Ġagain": 1861,
      "Ġcor": 1862,
      "Ġhist": 1863,
      "à¥ĭà¤¡": 1864,
      "à¤Ĥà¤¸": 1865,
      "à¤£à¥ĩ": 1866,
      "Ġà¤¹à¥Īà¤Ĥ.": 1867,
      "Ġ)": 1868,
      "ince": 1869,
      "rol": 1870,
      "Ġà¤µà¤¿à¤°": 1871,
      "Ġlook": 1872,
      "Ġprot": 1873,
      "Ġà¤¸à¤ķà¤¤à¥ĩ": 1874,
      "Ġà¤īà¤¨à¥įà¤¹à¥ĩà¤Ĥ": 1875,
      "ivid": 1876,
      "ality": 1877,
      "Ġà¤¸à¤¦": 1878,
      "Ġà¤ķà¤¾à¤¯": 1879,
      "Ġnumber": 1880,
      "read": 1881,
      "Ġà¤µà¥Ī": 1882,
      "à¥įà¤Łà¥Ģ": 1883,
      "Ġprocess": 1884,
      "Ġgl": 1885,
      "Ġà¤ªà¤£": 1886,
      "eld": 1887,
      "Ġmain": 1888,
      "Ġà¤®à¤¾à¤¤à¥įà¤°": 1889,
      "Ġtreat": 1890,
      "ness": 1891,
      "ax": 1892,
      "Ġhuman": 1893,
      "à¤ķà¥įà¤¸": 1894,
      "Ġtest": 1895,
      "Ġà¤ªà¤¡à¤¼": 1896,
      "Ġà¤µà¤¿à¤¶à¥įà¤µ": 1897,
      "Ġà¤¤à¤¸": 1898,
      "Ġà¤¬à¤¦": 1899,
      "oh": 1900,
      "Ġoften": 1901,
      "Ġà¤¶à¥ģà¤°": 1902,
      "ives": 1903,
      "nce": 1904,
      "ĠAnd": 1905,
      "Ġà¤µà¤¿à¤ļà¤¾à¤°": 1906,
      "Ġà¤ªà¤¾à¤¹": 1907,
      "Ġà¤Ĩà¤¤": 1908,
      "ix": 1909,
      "à¤¾à¤°à¥įà¤¥": 1910,
      "à¤ªà¥ģà¤°": 1911,
      "Ġà¤µà¤¿à¤µ": 1912,
      "Ġà¤¸à¤¿à¤Ĥà¤¹": 1913,
      "à¤ľà¤¾à¤°": 1914,
      "Ġà¤ľà¤Ĺ": 1915,
      "Ġstudents": 1916,
      "Ġà¤Ńà¤¾à¤°à¤¤à¥Ģà¤¯": 1917,
      "Ġval": 1918,
      "Ġris": 1919,
      "Ġbr": 1920,
      "Ġà¤ªà¤¾à¤¸": 1921,
      "à¤°à¥įà¤¡": 1922,
      "à¤ľà¤¨": 1923,
      "Ġsol": 1924,
      "Ġposs": 1925,
      "Ġà¤µà¤¿à¤Ńà¤¾à¤Ĺ": 1926,
      "Ġwhile": 1927,
      "ished": 1928,
      "vironment": 1929,
      "Ġà¤¨à¤¿à¤°à¥įà¤®": 1930,
      "à¥Ń": 1931,
      "cl": 1932,
      "ential": 1933,
      "ins": 1934,
      "Ġhim": 1935,
      "ted": 1936,
      "Ġorgan": 1937,
      "Ġà¤µà¥įà¤¯à¤µ": 1938,
      "Ġà¤¦à¥Ĥà¤¸": 1939,
      "à¤§à¥Ģ": 1940,
      "Ġtake": 1941,
      "ize": 1942,
      "Ġà¤ķà¥įà¤¯à¤¾": 1943,
      "ues": 1944,
      "Ġstate": 1945,
      "imate": 1946,
      "ral": 1947,
      "ash": 1948,
      "à¥ĩà¤Ĥà¤Ł": 1949,
      "Ġlit": 1950,
      "à¤¾à¤¸à¤¨": 1951,
      "Ġnow": 1952,
      "on,": 1953,
      "Ġserv": 1954,
      "à¤ķà¤°à¤£": 1955,
      "Ġpower": 1956,
      "Ġà¤Ĩà¤°à¥ĭ": 1957,
      "Ġdise": 1958,
      "aj": 1959,
      "Ġà¤Ŀà¤¾à¤²à¥ĩ": 1960,
      "Ġà¤ıà¤µà¤Ĥ": 1961,
      "Ġocc": 1962,
      "Ġinformation": 1963,
      "Ġà¤¶à¤¿à¤µ": 1964,
      "ures": 1965,
      "à¤¾à¤ī": 1966,
      "Ġprogram": 1967,
      "ĠWhat": 1968,
      "Ġless": 1969,
      "à¤ľà¥ĩ": 1970,
      "Ġà¤Ī": 1971,
      "ion.": 1972,
      "à¤¾à¤Ĥà¤ļà¤¾": 1973,
      "Ġdi": 1974,
      "Ġmem": 1975,
      "Ġà¤¶à¤¿à¤ķà¥įà¤·": 1976,
      "vers": 1977,
      "Ġà¤¦à¥Įà¤°": 1978,
      "Ġà¤īà¤¸à¤ķà¥ĩ": 1979,
      "Ġà¤¹à¥ĭà¤¤à¥ĩ": 1980,
      "à¤¦à¤¾à¤¨": 1981,
      ".,": 1982,
      "Ġvis": 1983,
      "à¤ļà¤¾à¤°": 1984,
      "à¥įà¤¯à¤¾à¤µà¤°": 1985,
      "com": 1986,
      "Ġà¤¯à¥ĩà¤¥": 1987,
      "||": 1988,
      "Ġà¤ľà¤°": 1989,
      "à¤¤à¥įà¤¨": 1990,
      "Ġactiv": 1991,
      "Ġà¤«à¤¿à¤²à¥įà¤®": 1992,
      "ital": 1993,
      "à¤¾à¤ķà¤°": 1994,
      "air": 1995,
      "Ġprovid": 1996,
      "à¤¾à¤£à¥Ģ": 1997,
      "Ġà¤Ĩà¤Ĺ": 1998,
      "Ġcell": 1999,
      "Ġà¤®à¤¦": 2000,
      "ies,": 2001,
      "Ġfun": 2002,
      "any": 2003,
      "ered": 2004,
      "Ġsupport": 2005,
      "irect": 2006,
      "Ġà¤Ńà¤°": 2007,
      "Ġà¤®à¤¤": 2008,
      "Ġà¤ľà¤¾à¤¨à¥ĩ": 2009,
      "Ġchar": 2010,
      "iqu": 2011,
      "Ġresearch": 2012,
      "Ġà¤¬à¤¤à¤¾à¤¯à¤¾": 2013,
      "Ġà¤ªà¥Ĥà¤°à¥įà¤µ": 2014,
      "ĠWhen": 2015,
      "Ġbel": 2016,
      "Ġà¤µà¤¿à¤¶à¥ĩà¤·": 2017,
      "tt": 2018,
      "Ġdesign": 2019,
      "à¥Ģà¤¯": 2020,
      "ex": 2021,
      "Ġà¤¸à¥įà¤ķ": 2022,
      "Ġec": 2023,
      "Ġà¤¦à¥ĩà¤µ": 2024,
      "Ġà¤¦à¥ĩà¤£": 2025,
      "Ġà¤ªà¤¦": 2026,
      "Ġdown": 2027,
      "Ġaround": 2028,
      "Ġmust": 2029,
      "der": 2030,
      "ale": 2031,
      "Ġà¤Ĩà¤¤à¤¾": 2032,
      "ĠThese": 2033,
      "Ġà¤ķà¤¿à¤Ĥ": 2034,
      "ages": 2035,
      "Ġà¤¥à¥Ģà¥¤": 2036,
      "Ġplan": 2037,
      "uss": 2038,
      "à¤¿à¤¤à¤¾": 2039,
      "ven": 2040,
      "ĠIs": 2041,
      "Ġhand": 2042,
      "Ġstudy": 2043,
      "Ġest": 2044,
      "Ġdata": 2045,
      "Ġà¤ļà¥Į": 2046,
      "ion,": 2047,
      "day": 2048,
      "à¤¡à¥Ĥà¤¨": 2049,
      "Ġà¤ªà¥įà¤°à¤¦à¥ĩà¤¶": 2050,
      "à¤ıà¤®": 2051,
      "Ġà¤ļà¤¾à¤°": 2052,
      "ies.": 2053,
      "à¥įà¤¯à¤Ĥà¤¤": 2054,
      "Ġà¤ķà¤Ĥà¤ª": 2055,
      "à¤¾à¤ľà¤ª": 2056,
      "Ġgovern": 2057,
      "à¥¥": 2058,
      "Ġredu": 2059,
      "Ġà¤²à¤ķà¥įà¤·": 2060,
      "Ġconf": 2061,
      "Ġà¤¶à¤¾à¤®": 2062,
      "Ġstart": 2063,
      "Ġà¤¸à¥įà¤¥à¤¿à¤¤": 2064,
      "Ġthree": 2065,
      "Ġà¤Ĩà¤Ī": 2066,
      "à¥Ĥà¤ķ": 2067,
      "ield": 2068,
      "à¥ĭà¤ª": 2069,
      "Ġà¤ľà¥Ģ": 2070,
      "à¤¬à¥Ģ": 2071,
      "Ġà¤¯à¥ĭà¤Ĺ": 2072,
      "à¤¨à¥įà¤¦": 2073,
      "Ġgreat": 2074,
      "Ġpoint": 2075,
      "à¤°à¥įà¤·": 2076,
      "ium": 2077,
      "way": 2078,
      "Ġdid": 2079,
      "à¤µà¤¾à¤¨": 2080,
      "akes": 2081,
      "Ġà¤ķà¤°à¥Ĥà¤¨": 2082,
      "à¤¤à¤¾à¤¤.": 2083,
      "Ġà¤¹à¤¾à¤²": 2084,
      "Ġà¤Łà¥Ģà¤®": 2085,
      "Ġà¤¥à¥ĩà¥¤": 2086,
      "Ġcommon": 2087,
      "à¥ĩà¤¹": 2088,
      "à¤°à¥įà¤ķ": 2089,
      "ave": 2090,
      "Ġà¤ľà¤¿à¤¨": 2091,
      "rent": 2092,
      "à¤¾à¤ľà¥Ģ": 2093,
      "ute": 2094,
      "Ġà¤ľà¤®": 2095,
      "Ġcle": 2096,
      "eg": 2097,
      "self": 2098,
      "ouse": 2099,
      "Ġword": 2100,
      "Ġà¤¤à¥įà¤¯à¤¾": 2101,
      "Ġland": 2102,
      "ĠTo": 2103,
      "Ġà¤ħà¤°à¥įà¤¥": 2104,
      "à¤¾à¤Ĥà¤ļà¥ĩ": 2105,
      "à¥ĭà¤ľà¤¨": 2106,
      "Ġser": 2107,
      "Ġelect": 2108,
      "Ġà¤¦à¤¿à¤²à¥įà¤²": 2109,
      "Ġà¤¸à¤Ĥà¤¬à¤Ĥà¤§": 2110,
      "Ġà¤ªà¤¹à¥ģ": 2111,
      "-b": 2112,
      "Ġcontin": 2113,
      "à¤§à¤¾à¤¨": 2114,
      "the": 2115,
      "Ġlarge": 2116,
      "Ġà¤µà¤¾à¤¢": 2117,
      "ional": 2118,
      "Ġà¤ªà¥Ī": 2119,
      "Ġexample": 2120,
      "ars": 2121,
      "iving": 2122,
      "Ġà¤¹à¤ľà¤¾à¤°": 2123,
      "Ġà¤¶à¥įà¤°": 2124,
      "ron": 2125,
      "ĠSe": 2126,
      "Ġà¤īà¤®": 2127,
      "orn": 2128,
      "Ġà¤®à¥ģà¤": 2129,
      "à¤Ĥà¤¬à¤Ī": 2130,
      "Ġcare": 2131,
      "Ġà¤īà¤¤à¥įà¤ª": 2132,
      "\\n": 2133,
      "Ġreport": 2134,
      "Ġà¤ķà¤ª": 2135,
      "ined": 2136,
      "Ġà¤ķà¤°à¤¤": 2137,
      "ier": 2138,
      "-s": 2139,
      "à¤¤à¥įà¤µ": 2140,
      "Ġà¤¸à¥įà¤¤": 2141,
      "ared": 2142,
      "ases": 2143,
      "Ġà¤¬à¥Īà¤ł": 2144,
      "à¤¶à¥įà¤¯à¤ķ": 2145,
      "Ġthough": 2146,
      "Ġà¤ªà¤¹à¥ģà¤Ĥà¤ļ": 2147,
      "à¤¾à¤¯à¤ķ": 2148,
      "Ġà¤²à¤¿à¤¯à¤¾": 2149,
      "Ġconst": 2150,
      "ving": 2151,
      "ull": 2152,
      "âĢĶ": 2153,
      "Ġop": 2154,
      "Ġà¤ªà¥įà¤°à¤¾à¤ªà¥įà¤¤": 2155,
      "Ġà¤²à¤¾à¤ĸ": 2156,
      "Ġà¤ľà¤¾à¤ıà¤Ĺ": 2157,
      "à¥ģà¤®à¤¾à¤°": 2158,
      "acter": 2159,
      "Ġincluding": 2160,
      "Ġà¤¤à¤°à¥Ģ": 2161,
      "Ġcour": 2162,
      "ices": 2163,
      "Ġallow": 2164,
      "ĠSh": 2165,
      "Ġret": 2166,
      "à¤²à¥Ģ.": 2167,
      "Ġunderstand": 2168,
      "ulation": 2169,
      "Ġà¤ªà¥įà¤°à¤¸": 2170,
      "o,": 2171,
      "Ġeduc": 2172,
      "à¤¾à¤ĩà¤¨": 2173,
      "Ġrisk": 2174,
      "Ġthink": 2175,
      "Ġà¤®à¥įà¤¹à¤£à¥Ĥà¤¨": 2176,
      "Ġà¤ķà¥ĩà¤µ": 2177,
      "ross": 2178,
      "à¤ī": 2179,
      "ergy": 2180,
      "ĠDe": 2181,
      "Ġà¤Ĺà¤¾à¤Ĥ": 2182,
      "Ġà¤¤à¥įà¤¯à¤¾à¤®à¥ģà¤³à¥ĩ": 2183,
      "Ġmet": 2184,
      "Ġsom": 2185,
      "eng": 2186,
      "à¤¾à¤¡à¤¼": 2187,
      "Ġgener": 2188,
      "à¤¾à¤Ĺà¤°": 2189,
      "ek": 2190,
      "Ġclass": 2191,
      "Ġà¤ĸà¤¿à¤²": 2192,
      "à¥įà¤¯à¤¾à¤ļà¥įà¤¯à¤¾": 2193,
      "Ġbuild": 2194,
      "Ġà¤¸à¤¬à¤¸à¥ĩ": 2195,
      "Ġà¤ļà¤¾à¤¹à¤¿à¤ı": 2196,
      "Ġà¤®à¥ĭà¤ł": 2197,
      "à¥ĭà¤¤": 2198,
      "Ġà¤¬à¥Ģà¤ļ": 2199,
      "Ġequ": 2200,
      "Ġà¤ķà¥įà¤¯à¥ĭà¤Ĥ": 2201,
      "Ġà¤ħà¤¸à¥Ĥà¤¨": 2202,
      "Ġà¤¦à¤¿à¤¸": 2203,
      "à¤¿à¤¦à¥įà¤§": 2204,
      "Ġadv": 2205,
      "Ġà¤¹à¥ĭà¤¤à¥Ģ.": 2206,
      "à¥įà¤¯à¤¾à¤²à¤¯": 2207,
      "ĠAd": 2208,
      "Ġlife": 2209,
      "Ġà¤ľà¤²": 2210,
      "à¥ĥà¤·": 2211,
      "à¤¯à¤¾à¤°": 2212,
      "à¤²à¤¬": 2213,
      "Ġà¤¸à¤Ĥà¤ĺ": 2214,
      "iven": 2215,
      "Ġà¤īà¤¸à¥ĩ": 2216,
      "Ġstill": 2217,
      "Ġà¤¦à¥ĭà¤¨à¥ĭà¤Ĥ": 2218,
      "Ġsit": 2219,
      "Ġcalled": 2220,
      "Ġà¤ªà¥įà¤°à¤¯": 2221,
      "Ġpublic": 2222,
      "Ġpract": 2223,
      "ĠâĢĺ": 2224,
      "alk": 2225,
      "à¤±": 2226,
      "Ġà¤¶à¤¹à¤°": 2227,
      "outh": 2228,
      "Ġbeh": 2229,
      "Ġà¤¬à¤¸": 2230,
      "Ġsay": 2231,
      "esp": 2232,
      "inc": 2233,
      "reen": 2234,
      "ividual": 2235,
      "Ġlearn": 2236,
      "Ġdon": 2237,
      "à¤Ńà¤¾": 2238,
      "à¥Ģà¤ķ": 2239,
      "ĠCon": 2240,
      "Ġ[": 2241,
      "Ġknown": 2242,
      "ior": 2243,
      "aterial": 2244,
      "à¤¾à¤¸à¤¾à¤łà¥Ģ": 2245,
      "à¤¾à¤®à¥Ģ": 2246,
      "à¤°à¥įà¤¨": 2247,
      "Ġenvironment": 2248,
      "oci": 2249,
      "Ġquest": 2250,
      "Ġà¤®à¤¹à¤¾à¤°": 2251,
      "Ġdr": 2252,
      "à¤µà¤£": 2253,
      "Ġ?": 2254,
      "à¤¡à¤£": 2255,
      "à¥ĥà¤·à¥įà¤Ł": 2256,
      "Ġà¤¦à¥Įà¤°à¤¾à¤¨": 2257,
      "Ġeas": 2258,
      "à¤¤à¥ĭ.": 2259,
      "Ġà¤Ńà¤¾à¤ľà¤ª": 2260,
      "erest": 2261,
      "à¥ĩà¤²à¥įà¤¯à¤¾": 2262,
      "Ġà¤µà¤¾à¤ª": 2263,
      "à¤Łà¤°": 2264,
      "ik": 2265,
      "Ġide": 2266,
      "ired": 2267,
      "Ġà¤ķà¤°à¥įà¤®": 2268,
      "à¤¾à¤Ĭ": 2269,
      "Ġ&": 2270,
      "Ġà¤µà¤¿à¤ľ": 2271,
      "Ġplace": 2272,
      "à¥Ĥà¤Ĥ": 2273,
      "à¤¾à¤¯à¤°": 2274,
      "ially": 2275,
      "Ġà¤µà¥įà¤¹": 2276,
      "Ġà¤µà¤¿à¤·": 2277,
      "Ġà¤¤à¥įà¤¯à¤¾à¤Ĥà¤¨à¥Ģ": 2278,
      "Ġà¤¦à¤¿à¤µà¤¸": 2279,
      "Ġgu": 2280,
      "à¤¾à¤¤à¤¾": 2281,
      "Ġappro": 2282,
      "Ġmat": 2283,
      "à¤¨à¥įà¤¤": 2284,
      "Ġà¤Ĩà¤µà¤¶à¥įà¤¯à¤ķ": 2285,
      "à¤°à¥įà¤¶à¤¨": 2286,
      "Ġfew": 2287,
      "lish": 2288,
      "itive": 2289,
      "iod": 2290,
      "Ġà¤¬à¥ĭà¤²": 2291,
      "ird": 2292,
      "ĠAmerican": 2293,
      "à¤¨à¥įà¤¨": 2294,
      "à¥įà¤¶": 2295,
      "ĠPh": 2296,
      "Ġà¤µà¤¿à¤ķà¤¾à¤¸": 2297,
      "ĠEng": 2298,
      "Ġà¤ħà¤Ĺ": 2299,
      "à¤¿à¤«": 2300,
      "ator": 2301,
      "ense": 2302,
      "Ġmight": 2303,
      "Ġà¤Ĩà¤ªà¤²à¥įà¤¯à¤¾": 2304,
      "Ġstand": 2305,
      "oun": 2306,
      "Ġà¤ļà¥ģà¤¨": 2307,
      "ĠEx": 2308,
      "hers": 2309,
      "Ġdem": 2310,
      "Ġà¤ķà¤°à¥ĩà¤Ĥ": 2311,
      "Ġà¤¬à¤¾à¤¹": 2312,
      "à¤¸à¤°": 2313,
      "Ġà¤īà¤¨à¤ķà¥Ģ": 2314,
      "à¤¿à¤¬": 2315,
      "à¤ĸà¥įà¤¯à¤¾": 2316,
      "ĠUniversity": 2317,
      "Ġà¥¥": 2318,
      "Ġbo": 2319,
      "à¤¾à¤¸à¥įà¤¥": 2320,
      "Ġwant": 2321,
      "Ġà¤Ĩà¤²à¥ĩ": 2322,
      "Ġà¤¯à¥ĩà¤¤": 2323,
      "Ġà¤Ĳà¤¸à¥ĩ": 2324,
      "Ġbook": 2325,
      "raph": 2326,
      "ertain": 2327,
      "Ġpresent": 2328,
      "à¥ĭà¤·": 2329,
      "Ġwithout": 2330,
      "à¤µà¥Ģ": 2331,
      "Ġchang": 2332,
      "Ġcaus": 2333,
      "ains": 2334,
      "Ġsym": 2335,
      "à¤¾à¤·à¥įà¤Ł": 2336,
      "ty": 2337,
      "Ġà¤Ĺà¥ģ": 2338,
      "Ġà¤¹à¥ĭà¤¤à¤¾.": 2339,
      "str": 2340,
      "à¥ĩà¤³à¥Ģ": 2341,
      "Ġà¤Ŀà¤¾à¤²à¥Ģ": 2342,
      "Ġà¤īà¤¤à¥įà¤¤à¤°": 2343,
      "Ġà¤Ĺà¤¯à¤¾à¥¤": 2344,
      "Ġwithin": 2345,
      "ffic": 2346,
      "Ġindividual": 2347,
      "amp": 2348,
      "ason": 2349,
      "Ġiss": 2350,
      "Ġplay": 2351,
      "Ġà¤®à¤¾à¤Ĺ": 2352,
      "Ġà¤¸à¥ģà¤¨": 2353,
      "Ġà¤ķà¥ĭà¤°à¥ĭ": 2354,
      "Ġà¤ķà¥ĭà¤£": 2355,
      "ethod": 2356,
      "Ġà¤®à¤¾à¤²": 2357,
      "Ġtem": 2358,
      "Ġbre": 2359,
      "à¤¸à¥įà¤¥à¤¾": 2360,
      "Ġphys": 2361,
      "man": 2362,
      "à¤µà¤¾à¤²": 2363,
      "line": 2364,
      "Ġchange": 2365,
      "à¥ĩà¤Ĥà¤¦à¥įà¤°": 2366,
      "Ġpur": 2367,
      "Ġà¤Ńà¤¾à¤µ": 2368,
      "ording": 2369,
      "Ġbas": 2370,
      "Ġpos": 2371,
      "ger": 2372,
      "Ġdevelopment": 2373,
      "Ġà¤ľà¥Ģà¤µà¤¨": 2374,
      "Ġà¤¸à¤¾à¤§": 2375,
      "à¤°à¥įà¤§": 2376,
      "Ġident": 2377,
      "Ġmark": 2378,
      "Ġà¤°à¤¾à¤®": 2379,
      "Ġà¤¸à¥ģà¤°à¥Ĥ": 2380,
      "ug": 2381,
      "Ġterm": 2382,
      "Ġproduct": 2383,
      "Ġà¤ħà¤§à¥įà¤¯à¤ķà¥įà¤·": 2384,
      "Ġà¤®à¤°": 2385,
      "ĠRes": 2386,
      "Ġà¤¤à¥Ģ": 2387,
      "Ġà¤ķà¥ĩà¤²à¤¾": 2388,
      "Ġimm": 2389,
      "à¥ĩà¤¸à¥įà¤Ł": 2390,
      "ĠAt": 2391,
      "Ġà¤ªà¤ķà¥įà¤·": 2392,
      "Ġà¤¬à¤ļà¥įà¤ļ": 2393,
      "Ġà¤¶à¥ģà¤°à¥Ĥ": 2394,
      "Ġà¤«à¥Ī": 2395,
      "az": 2396,
      "atic": 2397,
      "Ġmaterial": 2398,
      "ĠHowever,": 2399,
      "Ġcap": 2400,
      ".âĢĿ": 2401,
      "Ġà¤¸à¥įà¤¥à¤¾à¤¨": 2402,
      "ves": 2403,
      "Ġlaw": 2404,
      "à¤°à¥įà¤Ń": 2405,
      "Ġà¤¶à¤¾à¤®à¤¿à¤²": 2406,
      "ris": 2407,
      "à¤¤à¤°": 2408,
      "Ġà¤Ŀà¤¾à¤²à¤¾": 2409,
      "agn": 2410,
      "Ġà¤¤à¥įà¤¯à¤¾à¤¨": 2411,
      "Ġsocial": 2412,
      "erc": 2413,
      "angu": 2414,
      "Ġimpro": 2415,
      "ĠOn": 2416,
      "orth": 2417,
      "Ġben": 2418,
      "Ġwomen": 2419,
      "à¥įà¤°à¥ĩà¤¸": 2420,
      "Ġspe": 2421,
      "Ġà¤¬à¥ĭ": 2422,
      "Ġair": 2423,
      "Ġpot": 2424,
      "à¤¿à¤¸à¥įà¤Ł": 2425,
      "âĢĵ": 2426,
      "Ġconc": 2427,
      "Ġanother": 2428,
      "à¤µà¤¾à¤Ī": 2429,
      "arent": 2430,
      "ers,": 2431,
      "oid": 2432,
      "me": 2433,
      "Ġprof": 2434,
      "Ġve": 2435,
      "Ġproject": 2436,
      "Ġpass": 2437,
      "Ġà¤°à¥ĭ": 2438,
      "-c": 2439,
      "iety": 2440,
      "à¤£à¤¾": 2441,
      "osed": 2442,
      "Ġà¤®à¤Ĥà¤¤à¥įà¤°à¥Ģ": 2443,
      "à¤¾à¤¤à¥įà¤®": 2444,
      "à¥Ĥà¤¤": 2445,
      "Ġdirect": 2446,
      "à¤ļà¤¨à¤¾": 2447,
      "Ġsl": 2448,
      "ological": 2449,
      "à¤¹à¤¾à¤°": 2450,
      "Ġant": 2451,
      "Ġà¤®à¥ģà¤²": 2452,
      "à¤¾à¤·à¥įà¤Łà¥įà¤°à¥Ģà¤¯": 2453,
      "à¤¾à¤§à¤¿à¤ķ": 2454,
      "Ġbelie": 2455,
      "Ġbody": 2456,
      "Ġlight": 2457,
      "à¥įà¤µà¤°": 2458,
      "Ġhome": 2459,
      "à¥ģà¤¢": 2460,
      "Ġà¤ªà¥Ĥà¤°": 2461,
      "ability": 2462,
      "'t": 2463,
      "ency": 2464,
      "Ġà¤¬à¤Ĥà¤¦": 2465,
      "Ġà¤°à¥ģà¤ªà¤¯à¥ĩ": 2466,
      "Ġà¤ľà¤¾à¤£": 2467,
      "pect": 2468,
      "Ġmus": 2469,
      "à¤ķà¥įà¤·à¤£": 2470,
      "à¥įà¤¯à¤®à¤Ĥà¤¤à¥įà¤°à¥Ģ": 2471,
      "Ġà¤¦à¤¿à¤²à¥įà¤²à¥Ģ": 2472,
      "Ġmill": 2473,
      "à¤¾à¤Ĥà¤¡": 2474,
      "ĠCl": 2475,
      "ider": 2476,
      "Ġinterest": 2477,
      "ia,": 2478,
      "Ġà¤ľà¤¹": 2479,
      "à¤¿à¤¯à¥ĭ": 2480,
      "Ġà¤ķà¤¿à¤Ĥà¤µà¤¾": 2481,
      "ived": 2482,
      "Ġet": 2483,
      "ajor": 2484,
      "Ġà¤ªà¤¡": 2485,
      "Ġcult": 2486,
      "Ġgovernment": 2487,
      "ental": 2488,
      "S.": 2489,
      "Ġà¤ĳà¤«": 2490,
      "à¤Ĺà¥Ģ": 2491,
      "gin": 2492,
      "à¥Ĥà¤Ł": 2493,
      "à¥Ģà¤ļà¥ĩ": 2494,
      "à¥īà¤¨": 2495,
      "Ġbest": 2496,
      "Ġdesc": 2497,
      "Ġrest": 2498,
      "Ġà¤¦à¤¿à¤ĸ": 2499,
      "ĠPl": 2500,
      "Ġinclude": 2501,
      "à¤¹à¤®": 2502,
      "bs": 2503,
      "à¤Ĥ.": 2504,
      "Ġtre": 2505,
      "Ġà¤ķà¥ĩà¤Ĥà¤¦à¥įà¤°": 2506,
      "ters": 2507,
      "Ġà¤Ĩà¤ªà¤ķà¥ĭ": 2508,
      "Ġmeas": 2509,
      "Ġà¤ªà¥ģ": 2510,
      "Ġcontrol": 2511,
      "Ġà¤ĵà¤°": 2512,
      "Ġà¤ªà¤¤à¥įà¤°": 2513,
      "Ġà¤Ĭ": 2514,
      "arc": 2515,
      "Ġplant": 2516,
      "Ġà¤ļà¤¾à¤²": 2517,
      "Ġpain": 2518,
      "Ġblood": 2519,
      "rap": 2520,
      "Ġà¤§à¤°à¥įà¤®": 2521,
      "rist": 2522,
      "à¤¸à¤Ĥ": 2523,
      "à¤¾à¤Ĥà¤ķ": 2524,
      "Ġele": 2525,
      "Ġà¤¬à¤¾à¤°à¥ĩ": 2526,
      "Ġanim": 2527,
      "atural": 2528,
      "Ġbecome": 2529,
      "Ġeng": 2530,
      "Ġà¤¤à¤¬": 2531,
      "Ġopp": 2532,
      "work": 2533,
      "Ġà¤ªà¤°à¤¿à¤µà¤¾à¤°": 2534,
      "hor": 2535,
      "Ġà¤¬à¤¾à¤ľ": 2536,
      "à¤¾à¤«à¥Ģ": 2537,
      "à¤¨à¥ĭà¤Ĥ": 2538,
      "Ġmil": 2539,
      "ĠQ": 2540,
      "Ġold": 2541,
      "Ġà¤ħà¤¶à¥Ģ": 2542,
      "Ġà¤µà¤¾à¤²à¥Ģ": 2543,
      "-f": 2544,
      "à¤Ĥà¤¬à¤°": 2545,
      "Ġmethod": 2546,
      "Ġagainst": 2547,
      "Ġanal": 2548,
      "Ġsever": 2549,
      "Ġà¤łà¥ĩà¤µ": 2550,
      "rodu": 2551,
      "ption": 2552,
      "Ġwar": 2553,
      "à¤¤à¤ĥ": 2554,
      "lished": 2555,
      "Ġà¤µà¤¾à¤Ł": 2556,
      "de": 2557,
      "Ġà¤¨à¤¿à¤°à¥įà¤®à¤¾à¤£": 2558,
      "Ġà¤ħà¤ļà¥įà¤Ľ": 2559,
      "Ġleg": 2560,
      "Ġlow": 2561,
      "ify": 2562,
      "Ġhere": 2563,
      "ĠZ": 2564,
      "Ġproper": 2565,
      "Ġsour": 2566,
      "à¥ĭà¤¬": 2567,
      "Ġmove": 2568,
      "Ġà¤¦à¥ĩà¤¨à¥ĩ": 2569,
      "à¤¿à¤¯à¤¾à¤Ĥ": 2570,
      "nâĢĻt": 2571,
      "Ġà¤ªà¥ĭà¤²": 2572,
      "Ġbetter": 2573,
      "ers.": 2574,
      "Ġà¤ķà¤®à¥Ģ": 2575,
      "Ġà¤ıà¤¸": 2576,
      "ĠCol": 2577,
      "Ġà¤¨à¥įà¤¯à¤¾à¤¯": 2578,
      "à¤¾à¤Ŀ": 2579,
      "Ġ!": 2580,
      "à¤®à¤¤": 2581,
      "Ġà¤²à¤¿à¤ĸ": 2582,
      "Ġeconom": 2583,
      "Ġà¤¬à¤¦à¤²": 2584,
      "Ġmean": 2585,
      "Ġà¤Ńà¥Ĥà¤®": 2586,
      "Ġà¤Ĩà¤¹à¥ĩ,": 2587,
      "Ġà¤¦à¤¾à¤ĸ": 2588,
      "ly.": 2589,
      "Ġà¤®à¤ľ": 2590,
      "Ġà¤ľà¤¾à¤°à¥Ģ": 2591,
      "-t": 2592,
      "...": 2593,
      "à¥ĩà¤ļà¥įà¤¯à¤¾": 2594,
      "à¤¾à¤¸à¥įà¤¥à¥įà¤¯": 2595,
      "ination": 2596,
      "ĠBe": 2597,
      "à¤¾à¤±à¥įà¤¯à¤¾": 2598,
      "Ġà¤¯à¤¹à¤¾à¤Ĥ": 2599,
      "ĠâĢĶ": 2600,
      "ization": 2601,
      "Ġà¤¥à¥Ģ": 2602,
      "Ġà¤¥à¥ĩ": 2603,
      "els": 2604,
      "à¥ģà¤¶": 2605,
      "here": 2606,
      "à¤¾à¤¤à¥Ĥà¤¨": 2607,
      "Ġà¤ªà¥įà¤²": 2608,
      "Ġà¤ļà¤¿à¤¤à¥įà¤°": 2609,
      "Ġà¤Ĳà¤¸à¤¾": 2610,
      "Ġà¤µà¤¾à¤¹": 2611,
      "Ġreal": 2612,
      "à¤¸à¤®": 2613,
      "Ġà¤Ńà¤¾à¤·": 2614,
      "Ġkeep": 2615,
      "Ġsecond": 2616,
      "Ġà¤ħà¤ľ": 2617,
      "Ġfore": 2618,
      "Ġà¤Ĩà¤ªà¤£": 2619,
      "Ġà¤ıà¤ķà¤¾": 2620,
      "Ġlast": 2621,
      "s:": 2622,
      "Ġà¤°à¤¾à¤·à¥įà¤Łà¥įà¤°": 2623,
      "Ġ,": 2624,
      "Ġà¤¸à¤®à¤¾à¤ľ": 2625,
      "rim": 2626,
      "Ġoper": 2627,
      "Ġprovide": 2628,
      "Ġà¤µà¤°": 2629,
      "Ġà¤ķà¤¿à¤¯à¤¾à¥¤": 2630,
      "Ġtop": 2631,
      "ĠEn": 2632,
      "ead": 2633,
      "Ġà¤¸à¤Ĥà¤ª": 2634,
      "icle": 2635,
      "ret": 2636,
      "Ġà¤¬à¤²": 2637,
      "à¤ªà¥Ĥà¤°à¥įà¤£": 2638,
      "Ġà¤¸à¥įà¤µà¤¾à¤¸à¥įà¤¥à¥įà¤¯": 2639,
      "à¥įà¤¯à¤¾à¤¦à¤¾": 2640,
      "Ġcause": 2641,
      "Ġearly": 2642,
      "Ġà¤®à¥ģà¤Ĥà¤¬à¤Ī": 2643,
      "Ġà¤Ĩà¤¶": 2644,
      "use": 2645,
      "ĠComm": 2646,
      "à¥Ģà¤¡": 2647,
      "ision": 2648,
      "à¤¾à¤¤à¥ĩ": 2649,
      "ĠUnited": 2650,
      "Ġparticular": 2651,
      "Ġmajor": 2652,
      "Ġunt": 2653,
      "ity.": 2654,
      "bers": 2655,
      "Ġà¤¦à¥ģ": 2656,
      "Ġà¤Ĺà¥ĩ": 2657,
      "ware": 2658,
      "Ġoccur": 2659,
      "Ġdev": 2660,
      "ww": 2661,
      "Ġà¤ªà¤°à¤¿à¤¸": 2662,
      "ified": 2663,
      "Ġavail": 2664,
      "Ġfre": 2665,
      "Ġpossible": 2666,
      "ĠAll": 2667,
      "Ġenergy": 2668,
      "lu": 2669,
      "ccess": 2670,
      "Ġfin": 2671,
      "Ġpar": 2672,
      "ner": 2673,
      "Ġà¤ķà¤¾à¤³": 2674,
      "à¤Ĩà¤Ī": 2675,
      "à¤¿à¤¯à¤¨": 2676,
      "à¥ĭà¤°à¥įà¤Ł": 2677,
      "ity,": 2678,
      "Ġhapp": 2679,
      "Ġà¤®à¤¾à¤®à¤²à¥ĩ": 2680,
      "Ġà¤ħà¤Ĥà¤¤": 2681,
      "Ġcurrent": 2682,
      "Ġà¤®à¤¾à¤¹à¤¿à¤¤à¥Ģ": 2683,
      "Ġà¤Ĩà¤°à¥ĭà¤ª": 2684,
      "ury": 2685,
      "à¤µà¤¾à¤¦": 2686,
      "ained": 2687,
      "Ġpercent": 2688,
      "Ġseveral": 2689,
      "Ġaddition": 2690,
      "ected": 2691,
      "view": 2692,
      "Ġsaf": 2693,
      "Ġà¤īà¤ł": 2694,
      "Ġindu": 2695,
      "Ġà¤¸à¤¾à¤¹": 2696,
      "ĠTe": 2697,
      "Ġà¤ļà¤°à¥įà¤ļ": 2698,
      "Ġnear": 2699,
      "ograph": 2700,
      "ration": 2701,
      "Ġtreatment": 2702,
      "à¤¾à¤ıà¤Ĥ": 2703,
      "Ġinvol": 2704,
      "ways": 2705,
      "Ġà¤ķà¤¾à¤²": 2706,
      "Ġable": 2707,
      "ission": 2708,
      "Ġà¤ªà¥įà¤°à¤¤à¥įà¤¯": 2709,
      "Ġà¤ħà¤Ĺà¤°": 2710,
      "Ġperform": 2711,
      "Ġà¤ľà¤¾à¤¤à¥Ģ": 2712,
      "Ġà¤ħà¤¨à¥ģà¤¸à¤¾à¤°": 2713,
      "à¤°à¤µ": 2714,
      "Ġorig": 2715,
      "Ġbus": 2716,
      "à¥Ĥà¤¦": 2717,
      "Ġorder": 2718,
      "Ġà¤ľà¥Īà¤¸à¥ĩ": 2719,
      "Ġperiod": 2720,
      "Ġà¤¯à¤¾à¤Ĥà¤ļà¥įà¤¯à¤¾": 2721,
      "Ġà¤ħà¤ªà¤¨à¤¾": 2722,
      "Ġà¤ªà¥ģà¤¨": 2723,
      "Ġà¤®à¤¾à¤§": 2724,
      "Ġà¤¸à¤¤": 2725,
      "Ġbenef": 2726,
      "Ġà¤Ĺà¤¿à¤°": 2727,
      "less": 2728,
      "Ġhig": 2729,
      "ogn": 2730,
      "par": 2731,
      "ĠGod": 2732,
      "Ġmeans": 2733,
      "Ġà¤ħà¤§à¤¿à¤ķà¤¾à¤°à¥Ģ": 2734,
      "itions": 2735,
      "idence": 2736,
      "Ġlim": 2737,
      "à¤¦à¥įà¤¦": 2738,
      "ateg": 2739,
      "Ġà¤ķà¤¿à¤ı": 2740,
      "sy": 2741,
      "Ġà¤¤à¤¸à¥ĩà¤ļ": 2742,
      "Ġsince": 2743,
      "Ġà¤¨à¤¸": 2744,
      "Ġà¤ĩà¤Ĥà¤¡": 2745,
      "à¤¾à¤°à¤£": 2746,
      "Ġà¤ªà¥Ĥà¤°à¥įà¤£": 2747,
      "Ġà¤¸à¤®à¤Ŀ": 2748,
      "à¤¶à¤²": 2749,
      "Ġà¤ªà¤¾à¤²": 2750,
      "Ġà¤¤à¥įà¤¯à¤¾à¤Ĥà¤¨à¤¾": 2751,
      "Ġprom": 2752,
      "irc": 2753,
      "Ġnon": 2754,
      "à¤¦à¤¿": 2755,
      "Ġopen": 2756,
      "à¤¡à¤¼à¥ĩ": 2757,
      "Ġlangu": 2758,
      "Ġcal": 2759,
      "Ġmen": 2760,
      "Ġ/": 2761,
      "Ġel": 2762,
      "Ġfeel": 2763,
      "Ġà¤°à¥ĭà¤ľ": 2764,
      "à¥ĥà¤¤à¥įà¤¤": 2765,
      "ering": 2766,
      "à¤¹à¤¤": 2767,
      "Ġtoo": 2768,
      "Ġà¤ķà¥įà¤²": 2769,
      "ole": 2770,
      "à¤ªà¤Ł": 2771,
      "oms": 2772,
      "iness": 2773,
      "Ġà¤¸à¤¦à¤¸": 2774,
      "Ġà¤¤à¥Ī": 2775,
      "à¤¾à¤ĩà¤Ł": 2776,
      "Ġà¤Ĩà¤§à¤¾à¤°": 2777,
      "à¥įà¤¯à¤¾à¤¤à¥Ģà¤²": 2778,
      "à¤¸à¥įà¤¥à¤¿à¤¤": 2779,
      "Ġareas": 2780,
      "Ġaffect": 2781,
      "Ġà¤®à¥ģà¤ĸà¥įà¤¯": 2782,
      "Ġà¤ķà¤Ĥà¤ªà¤¨à¥Ģ": 2783,
      "Ġà¤ļà¥ģà¤ķ": 2784,
      "Ġamong": 2785,
      "osp": 2786,
      "-p": 2787,
      "Ġà¤ħà¤¸à¤¾": 2788,
      "though": 2789,
      "à¤¿à¤Łà¥Ģ": 2790,
      "ĠOne": 2791,
      "Ġà¤ĩà¤¸à¥Ģ": 2792,
      "ote": 2793,
      "Ġà¤®à¥Ģà¤¡": 2794,
      "à¤¿à¤¤à¥įà¤¯": 2795,
      "Ġà¤ªà¥įà¤°à¤®à¤¾à¤£": 2796,
      "Ġscient": 2797,
      "à¥įà¤«": 2798,
      "à¤ķà¤²": 2799,
      "à¥ĭà¤ľà¤¨à¤¾": 2800,
      "Ġà¤ħà¤¶à¤¾": 2801,
      "Ġà¤µà¤¿à¤°à¥ĭà¤§": 2802,
      "à¤®à¤§": 2803,
      "Ġà¤¸à¤¾à¤Ĥà¤Ĺà¤¿à¤¤": 2804,
      "Ġsignific": 2805,
      "à¤¿à¤¨à¥įà¤¨": 2806,
      "ilar": 2807,
      "Ġà¤®à¥ĥà¤¤": 2808,
      "Ġà¤ļà¥ģà¤¨à¤¾à¤µ": 2809,
      "Ġcost": 2810,
      "ĠOr": 2811,
      "à¤µà¥įà¤¯": 2812,
      "ining": 2813,
      "Ġà¤ķà¤¾à¤«à¥Ģ": 2814,
      "Ġà¤µà¤¹à¥Ģà¤Ĥ": 2815,
      "Ġà¤®à¥ĭà¤¦à¥Ģ": 2816,
      "Ġà¤¸à¤Ĥà¤Ĺ": 2817,
      "Ġhead": 2818,
      "elf": 2819,
      "aper": 2820,
      "Ġcountry": 2821,
      "urop": 2822,
      "Ġà¤ľà¤¿à¤¸à¤®à¥ĩà¤Ĥ": 2823,
      "Ġà¤ħà¤§à¤¿à¤ķà¤¾à¤°": 2824,
      "port": 2825,
      "Ġavailable": 2826,
      "Ġà¤ªà¥įà¤°à¤Ńà¤¾à¤µ": 2827,
      "Ġà¤®à¤Ĥà¤¤à¥įà¤°": 2828,
      "Ġlearning": 2829,
      "Ġcertain": 2830,
      "Ġà¤¯à¤¾à¤¦": 2831,
      "Ġfollowing": 2832,
      "Ġà¤Ĩà¤²": 2833,
      "ention": 2834,
      "Ġà¤¤à¥įà¤¯à¤¾à¤Ĥà¤ļà¥įà¤¯à¤¾": 2835,
      "à¤µà¤¨": 2836,
      "Ġlocal": 2837,
      "à¤¬à¥įà¤¦": 2838,
      "Ġfac": 2839,
      "à¥įà¤¯à¤¾à¤ķ": 2840,
      "Ġbased": 2841,
      "Ġfour": 2842,
      "à¥įà¤¯à¤¾à¤Ĥà¤¨à¤¾": 2843,
      "Ġobject": 2844,
      "Ġà¤ĩà¤¸à¥ĩ": 2845,
      "ĠCent": 2846,
      "Ġà¤¨à¤¿à¤°à¥įà¤£": 2847,
      "à¤¶à¤¨": 2848,
      "Ġprevent": 2849,
      "Ġgr": 2850,
      "Ġà¤ķà¥ģà¤®à¤¾à¤°": 2851,
      "Ġà¤ľà¤¾à¤¨à¤ķà¤¾à¤°à¥Ģ": 2852,
      "Ġà¤®à¤¾à¤°à¥įà¤Ĺ": 2853,
      "Ġà¤¸à¤¾à¤®à¤¨à¥ĩ": 2854,
      "Ġà¤µà¥ĭ": 2855,
      "ton": 2856,
      "ĠU.": 2857,
      "Ġà¤ªà¥ĭà¤²à¤¿à¤¸": 2858,
      "ploy": 2859,
      "à¤°à¥įà¤«": 2860,
      "Ġà¤īà¤ªà¤¯à¥ĭà¤Ĺ": 2861,
      "Ġdel": 2862,
      "Ġpost": 2863,
      "ĠNational": 2864,
      "Ġconn": 2865,
      "ians": 2866,
      "Ġà¤ªà¤¿à¤": 2867,
      "à¤¾à¤Ĥà¤Ĺà¥įà¤°à¥ĩà¤¸": 2868,
      "à¤Ĭ": 2869,
      "Ġà¤ķà¤¾à¤°à¥įà¤¯à¤ķà¥įà¤°à¤®": 2870,
      "Ġrun": 2871,
      "Ġà¤ªà¤¾à¤°à¥įà¤Łà¥Ģ": 2872,
      "ĠSome": 2873,
      "ĠWith": 2874,
      "Ġà¤®à¥ģà¤ĸà¥įà¤¯à¤®à¤Ĥà¤¤à¥įà¤°à¥Ģ": 2875,
      "Ġlist": 2876,
      "urther": 2877,
      "stit": 2878,
      "ĠChrist": 2879,
      "à¤¾à¤¤à¥Ģ": 2880,
      "__": 2881,
      "Ġage": 2882,
      "Ġview": 2883,
      "Ġà¤ħà¤¸à¤¤": 2884,
      "Ġstruct": 2885,
      "Ġà¤Ĺà¥ģà¤°": 2886,
      "Ġà¤®à¤¾à¤Ŀ": 2887,
      "Ġweek": 2888,
      "ĠMar": 2889,
      "gen": 2890,
      "Ġà¤ªà¥ģà¤¢": 2891,
      "Ġà¤®à¥ĩà¤°": 2892,
      "Ġit.": 2893,
      "Ġà¤¨à¤Ĺà¤°": 2894,
      "Ġà¤ħà¤¨à¥ģà¤Ń": 2895,
      "à¤¿à¤¯à¤®": 2896,
      "Ġà¤¨à¤¿à¤¯à¤®": 2897,
      "Ġà¤®à¤¹à¤¿à¤²à¤¾": 2898,
      "à¤ĵ": 2899,
      "ĠCan": 2900,
      "-d": 2901,
      "à¤³à¥Ģ": 2902,
      "Ġfunction": 2903,
      "à¤ľà¤¾": 2904,
      "Ġà¤¨à¤¿à¤°": 2905,
      "Ġà¤¯à¥ĩà¤£": 2906,
      "Ġbi": 2907,
      "Ġbro": 2908,
      "Ġà¤ĩà¤¸à¤²": 2909,
      "à¤¸à¤Ńà¤¾": 2910,
      "Ġmar": 2911,
      "Ġà¤µà¤¿à¤·à¤¯": 2912,
      "Ġhard": 2913,
      "Ġà¤ľà¤¾à¤¯": 2914,
      "Ġà¤²à¤¡à¤¼": 2915,
      "r.": 2916,
      "Ġlab": 2917,
      "Ġmonth": 2918,
      "oint": 2919,
      "Ġvol": 2920,
      "ean": 2921,
      "Ġput": 2922,
      "resent": 2923,
      "Ġintern": 2924,
      "Ġà¤¬à¤°": 2925,
      "olution": 2926,
      "Ġaccess": 2927,
      "Ġà¤¥à¤¾,": 2928,
      "ien": 2929,
      "Ġà¤¨à¤¿à¤°à¥įà¤£à¤¯": 2930,
      "Ġà¤ªà¤°à¥Ģ": 2931,
      "Ġrece": 2932,
      "Ġà¤¸à¤ķà¤¤à¥Ģ": 2933,
      "Ġpolit": 2934,
      "Ġcreat": 2935,
      "Ġà¤ķà¥Ģ,": 2936,
      "ocus": 2937,
      "à¤²à¥ĭà¤Ĥ": 2938,
      "une": 2939,
      "ently": 2940,
      "Ġhistory": 2941,
      "br": 2942,
      "Ġ(S": 2943,
      "Ġà¤Ĩà¤¤à¥įà¤®": 2944,
      "Ġà¤Ĩà¤¸": 2945,
      "Ġlittle": 2946,
      "Ġnatural": 2947,
      "Ġà¤ªà¥įà¤°à¤¶à¥įà¤¨": 2948,
      "Ġresour": 2949,
      "icult": 2950,
      "Ġà¤¢": 2951,
      "Ġà¤ľà¥įà¤¯à¤¾à¤¦à¤¾": 2952,
      "à¤°à¥Ģà¤°": 2953,
      "Ġà¤¶à¤¬à¥įà¤¦": 2954,
      "por": 2955,
      "Ġyoung": 2956,
      "Ġà¤ķà¥įà¤¯à¥ĭà¤Ĥà¤ķà¤¿": 2957,
      "hem": 2958,
      "Ġ$": 2959,
      "ggest": 2960,
      "ym": 2961,
      "à¤¡à¤¼à¥Ģ": 2962,
      "ids": 2963,
      "à¤¡à¤¼à¤¾": 2964,
      "Ġassoci": 2965,
      "à¤¿à¤¸à¥įà¤¤à¤¾à¤¨": 2966,
      "Ġà¤¨à¤¾à¤µ": 2967,
      "Ġà¤µà¥ĩà¤³": 2968,
      "Ġà¤¬à¥Ģ": 2969,
      "à¥įà¤°à¤¿à¤¯à¤¾": 2970,
      "Ġà¤¨à¥ĩà¤¤": 2971,
      "Ġpress": 2972,
      "ended": 2973,
      "orld": 2974,
      "Ġlet": 2975,
      "i,": 2976,
      "à¤¿à¤¤à¥įà¤¤": 2977,
      "Ġlater": 2978,
      "Ġà¤¨à¥įà¤¯à¥Ĥ": 2979,
      "Ġuntil": 2980,
      "ĠGo": 2981,
      "ĠMed": 2982,
      "à¥įà¤µà¥Ģ": 2983,
      "Ġà¤ªà¥įà¤°à¤¦": 2984,
      "Ġarea": 2985,
      "etic": 2986,
      "Ġà¤Ĩà¤²à¥Ģ": 2987,
      "Ġà¤®à¥ģà¤Ŀ": 2988,
      "Ġà¤ľà¤¾à¤Ĺ": 2989,
      "Ġamount": 2990,
      "ĠLe": 2991,
      "Ġbrain": 2992,
      "Ġà¤ĺà¥ĩà¤£": 2993,
      "ples": 2994,
      "à¤§à¤¾à¤°": 2995,
      "ĠFr": 2996,
      "ĠSo": 2997,
      "Ġheart": 2998,
      "ĠAf": 2999,
      "Ġgiven": 3000,
      "ets": 3001,
      "Ġà¤ķà¤¾à¤Ĥà¤Ĺà¥įà¤°à¥ĩà¤¸": 3002,
      "not": 3003,
      "Ġcome": 3004,
      "ats": 3005,
      "over": 3006,
      "Ġcanc": 3007,
      "ledge": 3008,
      "Ġà¤®à¤¾à¤§à¥įà¤¯à¤®": 3009,
      "nes": 3010,
      "Ġflow": 3011,
      "ortun": 3012,
      "uture": 3013,
      "Ġess": 3014,
      "Ġà¤ªà¤¾à¤ł": 3015,
      "ling": 3016,
      "ither": 3017,
      "à¥įà¤¯à¤¾à¤Ĥà¤¨à¥Ģ": 3018,
      "Ġà¤®à¥įà¤¹à¤£à¤ľà¥ĩ": 3019,
      "à¤°à¤¾à¤ľ": 3020,
      "ĠBy": 3021,
      "à¤¾à¤¯à¤¤": 3022,
      "Ġcho": 3023,
      "Ġseem": 3024,
      "Ġà¤¶à¥ĩà¤¤": 3025,
      "à¤²,": 3026,
      "Ġà¤ķà¥ģ": 3027,
      "agement": 3028,
      "Ġmult": 3029,
      "Ġà¤®à¤§à¥įà¤¯à¥ĩ": 3030,
      "à¤ķà¥įà¤Łà¤°": 3031,
      "Ġsw": 3032,
      "yd": 3033,
      "Ġturn": 3034,
      "Ġsuggest": 3035,
      "Ġà¤ĩà¤¸à¤¸à¥ĩ": 3036,
      "à¤¸à¥įà¤¥à¤¾à¤¨": 3037,
      "Ġcomput": 3038,
      "Ġà¤µà¤¾à¤°": 3039,
      "Ġfree": 3040,
      "à¥įà¤®à¥Ģ": 3041,
      "Ġà¤²à¥ĩà¤ĸ": 3042,
      "Ġà¤²à¤¿à¤¯à¥ĩ": 3043,
      "Ġimpact": 3044,
      "Ġfamily": 3045,
      "à¤µà¤¾à¤°à¥Ģ": 3046,
      "Ġà¤ķà¥ĩà¤²": 3047,
      "Ġobs": 3048,
      "-m": 3049,
      "Ġdeterm": 3050,
      "ients": 3051,
      "à¤¾à¤¸à¥Ģ": 3052,
      "Ġà¤µà¤¨": 3053,
      "ably": 3054,
      "à¥įà¤¯à¤¾à¤²à¤¾": 3055,
      "Ġà¤¸à¤ª": 3056,
      "à¤¤à¤¿à¤ķ": 3057,
      "Ġshort": 3058,
      "ured": 3059,
      "ĠEurop": 3060,
      "Ġà¤ĸà¤°": 3061,
      "à¤¿à¤Ń": 3062,
      "Ġsignificant": 3063,
      "à¤µà¥įà¤¹": 3064,
      "à¤¾à¤®à¥ģà¤³à¥ĩ": 3065,
      "Ġà¤¦à¤°à¥įà¤ľ": 3066,
      "à¤¤à¥įà¤¤à¥įà¤µ": 3067,
      "à¤ľà¤¼": 3068,
      "Ġfield": 3069,
      "Ġsometh": 3070,
      "Ġà¤ķà¥ĭà¤°à¥ĭà¤¨à¤¾": 3071,
      "Ġbehav": 3072,
      "Ġà¤Ĩà¤¦à¤¿": 3073,
      "Ġtype": 3074,
      "Ġà¤ĸà¤¿à¤²à¤¾à¤«": 3075,
      "omm": 3076,
      "ĠUS": 3077,
      "à¥įà¤¶à¤¨": 3078,
      "aster": 3079,
      "aken": 3080,
      "Ġà¤ªà¤¶": 3081,
      "à¥ĩà¤Ĭà¤¨": 3082,
      "à¥ĩà¤ª": 3083,
      "à¤Ĩà¤°": 3084,
      "Ġà¤¤à¥ģà¤®à¥įà¤¹": 3085,
      "Ġà¤ķà¥ĩà¤µà¤²": 3086,
      "Ġcondition": 3087,
      "Ġà¤ªà¥įà¤°à¤ķà¤¾à¤¶": 3088,
      "i.": 3089,
      "Ġà¤ľà¥ģ": 3090,
      "ries": 3091,
      "à¤²à¤¬à¥įà¤§": 3092,
      "Ġà¤®à¤¹à¤¿à¤²": 3093,
      "oad": 3094,
      "Ġthings": 3095,
      "ask": 3096,
      "Ġmaking": 3097,
      "ĠBl": 3098,
      "mit": 3099,
      "Ġà¤Ńà¤Ĺ": 3100,
      "ised": 3101,
      "Ġdue": 3102,
      "Ġcourse": 3103,
      "Ġalong": 3104,
      "Ġexample,": 3105,
      "Ġinvest": 3106,
      "Ġà¤µà¤¿à¤¨": 3107,
      "Ġà¤¯à¤¦à¤¿": 3108,
      "Ġfar": 3109,
      "Ġà¤Łà¥Ģ": 3110,
      "Ġà¤Ĩà¤ķ": 3111,
      "Ġcomb": 3112,
      "ĠEar": 3113,
      "Ġ(C": 3114,
      "Ġà¤¸à¤«": 3115,
      "Ġà¤µà¤¿à¤¦à¥įà¤¯": 3116,
      "Ġà¤¨à¤¿à¤¶": 3117,
      "Ġask": 3118,
      "Ġstudent": 3119,
      "Ġà¤īà¤¸à¤ķà¥Ģ": 3120,
      "à¤µà¤³": 3121,
      "Ġà¤ĸà¤¾à¤¸": 3122,
      "Ġfil": 3123,
      "Ġà¤īà¤¤à¥įà¤ªà¤¾à¤¦": 3124,
      "Ġà¤īà¤ªà¤²à¤¬à¥įà¤§": 3125,
      "Ġvir": 3126,
      "à¤ķà¥Ģà¤¯": 3127,
      "à¤¸à¤¾à¤łà¥Ģ": 3128,
      "à¥ģà¤Ĺà¥įà¤£": 3129,
      "ends": 3130,
      "Ġexist": 3131,
      "Ġà¤®à¤¹à¤¾à¤°à¤¾à¤·à¥įà¤Łà¥įà¤°": 3132,
      "Ġpotential": 3133,
      "oph": 3134,
      "Ġà¤ķà¤¾à¤¢": 3135,
      "Ġà¤ªà¥Ĥà¤°à¥Ģ": 3136,
      "à¤¿à¤·à¥įà¤ł": 3137,
      "à¤ªà¤¾à¤²": 3138,
      "Ġfocus": 3139,
      "Ġname": 3140,
      "Ġà¤µà¤¿à¤§à¤¾à¤¨": 3141,
      "Ġà¤ľà¤¾à¤¤à¥ĩ": 3142,
      "Ġteac": 3143,
      "à¥įà¤¯à¤¾à¤¨à¤Ĥà¤¤à¤°": 3144,
      "Ġdeath": 3145,
      "Ġenc": 3146,
      "Ġà¤¹à¥ĭà¤Ĥ": 3147,
      "Ġclear": 3148,
      "Ġà¤¶à¤¿à¤ķ": 3149,
      "istic": 3150,
      "isc": 3151,
      "Ġrad": 3152,
      "Ġsing": 3153,
      "cle": 3154,
      "à¤¾à¤¯à¤²à¤¾": 3155,
      "Ġà¤īà¤¨à¤ķà¤¾": 3156,
      "Ġappear": 3157,
      "Ġà¤¦à¥Ĥà¤°": 3158,
      "Ġlikely": 3159,
      "ia.": 3160,
      "à¤¿à¤·à¥įà¤Ł": 3161,
      "ruction": 3162,
      "atch": 3163,
      "ann": 3164,
      "Ġcirc": 3165,
      "oot": 3166,
      "ohn": 3167,
      "Ġà¤°à¤¾à¤¤": 3168,
      "Ġà¤µà¥įà¤¯à¤¾à¤ª": 3169,
      "Ġauthor": 3170,
      "Ġpast": 3171,
      "Ġà¤¶à¤°à¥Ģà¤°": 3172,
      "ication": 3173,
      "Ġà¤ªà¥įà¤°à¤¤à¥įà¤¯à¥ĩà¤ķ": 3174,
      "Ġ(A": 3175,
      "Ġline": 3176,
      "à¤ķà¥įà¤Ł": 3177,
      "à¤¾à¤ĩà¤²": 3178,
      "Ġskill": 3179,
      "Ġà¤°à¥ģà¤Ĺà¥įà¤£": 3180,
      "us,": 3181,
      "let": 3182,
      "à¤ĩà¤¸": 3183,
      "Ġà¤ľà¤¿à¤²à¥įà¤¹": 3184,
      "ĠU.S.": 3185,
      "-à¤¸": 3186,
      "à¥ĩà¤¯à¤°": 3187,
      "Ġsuccess": 3188,
      "Ġstat": 3189,
      "Ġà¤¸à¤Ĥà¤ĸà¥įà¤¯à¤¾": 3190,
      "Ġà¤¦à¥ģà¤¸": 3191,
      "à¤¿à¤¯à¤°": 3192,
      "Ġconsider": 3193,
      "Ġà¤°à¤Ĥà¤Ĺ": 3194,
      "ĠThat": 3195,
      "ember": 3196,
      "Ġgive": 3197,
      "Ġà¤ķà¥ĩà¤²à¥Ģ.": 3198,
      "vious": 3199,
      "Ġalways": 3200,
      "Ġà¤ªà¤¾à¤ķ": 3201,
      "Ġà¤ħà¤®à¥ĩà¤°": 3202,
      "ox": 3203,
      "Ġdifficult": 3204,
      "face": 3205,
      "Ġusually": 3206,
      "à¤¯à¥Ģ": 3207,
      "Ġcreate": 3208,
      "Ġabove": 3209,
      "Ġtoday": 3210,
      "Ġà¤¨à¤¾à¤Ĺà¤°": 3211,
      "Ġà¤ªà¤Ł": 3212,
      "à¤¨à¤²": 3213,
      "Ġà¤¬à¥ī": 3214,
      "ames": 3215,
      "atory": 3216,
      "o.": 3217,
      "ope": 3218,
      "Ġà¤¡à¥ī.": 3219,
      "Ġrele": 3220,
      "Ġà¤ªà¤°à¤Ĥà¤¤": 3221,
      "Ġà¤ķà¥ĥà¤·": 3222,
      "à¤Ńà¤¾à¤°": 3223,
      "ecially": 3224,
      "Ġlanguage": 3225,
      "Ġexperience": 3226,
      "à¤®à¥ĩà¤Ĥà¤Ł": 3227,
      "à¤ªà¤¾à¤¸à¥Ĥà¤¨": 3228,
      "ĠIm": 3229,
      "Ġspecific": 3230,
      "Ġà¤ĩà¤¸à¤²à¤¿à¤ı": 3231,
      "Ġà¤ķà¥Į": 3232,
      "Ġfamil": 3233,
      "Ġconsum": 3234,
      "Ġdescrib": 3235,
      "Ġà¤ıà¤®": 3236,
      "à¤¿à¤·à¤¦": 3237,
      "Ġà¤¸à¤¾à¤°": 3238,
      "Ġspace": 3239,
      "ument": 3240,
      "à¥įà¤¯à¤¤à¤¾": 3241,
      "put": 3242,
      "Ġà¤¬à¤¾à¤¬": 3243,
      "Ġsimilar": 3244,
      "Ġà¤ľà¥Ī": 3245,
      "app": 3246,
      "Ġspecies": 3247,
      "à¤¨,": 3248,
      "Ġà¤®à¤§à¥įà¤¯": 3249,
      "Ġbegin": 3250,
      "Ġsomething": 3251,
      "Ġlot": 3252,
      "à¤².": 3253,
      "idd": 3254,
      "à¤¾à¤¨à¥įà¤¯": 3255,
      "Ġey": 3256,
      "Ġà¤Ĺà¥ģà¤£": 3257,
      "à¤¿à¤°à¥Ģ": 3258,
      "Ġà¤¬à¤¾à¤²": 3259,
      "etim": 3260,
      "à¤¿à¤¥": 3261,
      "Ġà¤¦à¥ĩà¤Ĥ": 3262,
      "af": 3263,
      "ribut": 3264,
      "à¤Ĥà¤¦à¤°": 3265,
      "Ġrecord": 3266,
      "Ġdra": 3267,
      "Ġill": 3268,
      "à¤Ńà¤°": 3269,
      "Ġspecial": 3270,
      "Ġà¤ħà¤Ńà¥Ģ": 3271,
      ".\"": 3272,
      "ored": 3273,
      "itor": 3274,
      "Ġfuture": 3275,
      "Ġà¤ĸà¤¾à¤¨": 3276,
      "Ġà¤¯à¤¾à¤Ĥà¤ļ": 3277,
      "ending": 3278,
      "tain": 3279,
      "Ġtext": 3280,
      "Ġeffective": 3281,
      "obal": 3282,
      "ring": 3283,
      "ĠAm": 3284,
      "Ġnext": 3285,
      "Ġà¤µà¥įà¤¯à¤ķà¥įà¤¤à¤¿": 3286,
      "Ġà¤¸à¤²": 3287,
      "à¤¾à¤£à¥ĩ": 3288,
      "Ġmov": 3289,
      "à¤¸à¤¾à¤¯": 3290,
      "Ġdiscuss": 3291,
      "Ġà¤¸à¤®à¤¸": 3292,
      "Ġà¤¹à¤¾à¤¥": 3293,
      "ged": 3294,
      "Ġà¤ħà¤¸à¤Ĥ": 3295,
      "of": 3296,
      "Ġà¤µà¤¾à¤ªà¤°": 3297,
      "Ġparent": 3298,
      "ĠitâĢĻs": 3299,
      "Ġprim": 3300,
      "Ġà¤Ĩà¤ł": 3301,
      "Ġà¤¬à¥ģ": 3302,
      "à¤µà¤¿à¤§": 3303,
      "aim": 3304,
      "Ġà¤¹à¥ĭà¤£": 3305,
      "Ġtemper": 3306,
      "Ġà¤ħà¤¨à¥ģà¤Ńà¤µ": 3307,
      "Ġà¤®à¥Ĥà¤²": 3308,
      "ĠBrit": 3309,
      "Ġà¤¦à¤¿à¤¯à¤¾à¥¤": 3310,
      "à¤¿à¤ķà¥ĩà¤Ł": 3311,
      "Ġà¤ĩà¤¸à¤ķà¤¾": 3312,
      "Ġer": 3313,
      "nal": 3314,
      "Ġsympt": 3315,
      "Ġà¤¯à¤¾à¤µ": 3316,
      "Ġnecess": 3317,
      "Ġincrease": 3318,
      "Ġhistor": 3319,
      "Ġestab": 3320,
      "Ġà¤ªà¤¿à¤Ľ": 3321,
      "Ġà¤Ĩà¤¨à¥ĩ": 3322,
      "ried": 3323,
      "à¥ĩà¤ļà¥ĩ": 3324,
      "Ġprop": 3325,
      "Ġesp": 3326,
      "Ġstandard": 3327,
      "Ġà¤®à¥Īà¤ļ": 3328,
      "Ġà¤Ľà¥ĭà¤Ł": 3329,
      "Ġcrit": 3330,
      "à¥ĩà¤Ĺà¤¾à¥¤": 3331,
      "ina": 3332,
      "ĠGen": 3333,
      "ane": 3334,
      "Ġà¤ĩà¤¸à¤®à¥ĩà¤Ĥ": 3335,
      "Ġà¤¯à¥ĭà¤ľà¤¨à¤¾": 3336,
      "Ġà¤¸à¥Į": 3337,
      "oman": 3338,
      "Ġà¤ªà¤°à¤Ĥà¤¤à¥ģ": 3339,
      "Ġà¤¤à¤¿à¤ļ": 3340,
      "Ġà¤¯à¥ĩà¤¥à¥ĩ": 3341,
      "Ġà¤¨à¤¾à¤Ĺà¤°à¤¿à¤ķ": 3342,
      "Ġà¤ªà¥įà¤°à¤§à¤¾à¤¨": 3343,
      "Ġvarious": 3344,
      "Ġà¤®à¥ģà¤¦": 3345,
      "ott": 3346,
      "Ġapplic": 3347,
      "Ġgre": 3348,
      "Ġà¤Ĩà¤ı": 3349,
      "Ġcharacter": 3350,
      "Ġstrong": 3351,
      "Ġdam": 3352,
      "Ġà¤¤à¥ĩà¤ľ": 3353,
      "min": 3354,
      "Ġhigher": 3355,
      "Ġtry": 3356,
      "rug": 3357,
      "ĠWorld": 3358,
      "Ġside": 3359,
      "Ġà¤ķà¥ī": 3360,
      "Ġrespons": 3361,
      "asing": 3362,
      "Ġnever": 3363,
      "Ġkind": 3364,
      "iate": 3365,
      "Ġà¤¸à¤ļ": 3366,
      "most": 3367,
      ",âĢĿ": 3368,
      "Ġà¤ĺà¤Łà¤¨à¤¾": 3369,
      "ĠAb": 3370,
      "à¤¾à¤¨à¥ĭà¤Ĥ": 3371,
      "Ġtoget": 3372,
      "Ġtogether": 3373,
      "à¤®à¤¨": 3374,
      "aps": 3375,
      "ĠAfric": 3376,
      "Ġleast": 3377,
      "Ġwhy": 3378,
      "à¤¿à¤²à¥ĩ": 3379,
      "Ġevent": 3380,
      "ĠWhile": 3381,
      "Ġà¤®à¤Ĥà¤¦": 3382,
      "Ġoffic": 3383,
      "Ġà¤ĩà¤²": 3384,
      "Ġà¤®à¥Ģà¤¡à¤¿à¤¯à¤¾": 3385,
      "Ġà¤¬à¤ļ": 3386,
      "Ġà¤Ĩà¤Ĺà¥ĩ": 3387,
      "lement": 3388,
      "Ġà¤µà¤¸à¥įà¤¤": 3389,
      "ilities": 3390,
      "Ġleft": 3391,
      "Ġà¤ķà¤°à¤¤à¥Ģ": 3392,
      "à¥ĭà¤¦": 3393,
      "-l": 3394,
      "Ġà¤¸à¥įà¤®": 3395,
      "Ġà¤¸à¤¾à¤¤": 3396,
      "Ġnews": 3397,
      "Ġaway": 3398,
      "à¥ĩà¤Ĥà¤¡": 3399,
      "Ġcolle": 3400,
      "Ġmillion": 3401,
      "in,": 3402,
      "Ġà¤¦à¥Ĥà¤¸à¤°à¥ĩ": 3403,
      "Ġlive": 3404,
      "ĠJohn": 3405,
      "Ġà¤²à¤¾à¤Ń": 3406,
      "Ġacross": 3407,
      "Ġà¤īà¤ªà¤¸à¥įà¤¥à¤¿à¤¤": 3408,
      "Ġprofess": 3409,
      "Ġdisease": 3410,
      "ĠWar": 3411,
      "Ġtru": 3412,
      "ilt": 3413,
      "ĠGerm": 3414,
      "Ġrequire": 3415,
      "Ġà¤ķà¤°à¤ķà¥ĩ": 3416,
      "Ġà¤ĺà¥ĭà¤·": 3417,
      "Ġà¤¹à¥ĭà¤Ĺà¤¾à¥¤": 3418,
      "Ġà¤¨à¤¿à¤°à¥įà¤¦": 3419,
      "à¤ľà¥įà¤ŀ": 3420,
      "à¥ĩà¤Ĥà¤Ĺà¥ĩà¥¤": 3421,
      "Ġnet": 3422,
      "Ġà¤ħà¤¦": 3423,
      "sc": 3424,
      "Ġà¤®à¥ĩà¤Ĥ,": 3425,
      "à¤¯à¤¨": 3426,
      "ode": 3427,
      "Ġresearc": 3428,
      "Ġlink": 3429,
      "à¤¸à¥įà¤ª": 3430,
      "Ġà¤¸à¤¿à¤¦à¥įà¤§": 3431,
      "Ġenough": 3432,
      "à¤ķà¤°à¥įà¤¤": 3433,
      "Ġà¤ıà¤¨": 3434,
      "Ġgeneral": 3435,
      "ush": 3436,
      "sw": 3437,
      "Ġ=": 3438,
      "yl": 3439,
      "à¤¤à¥įà¤¯à¤¾": 3440,
      "duct": 3441,
      "Ġhour": 3442,
      "ĠAfter": 3443,
      "Ġà¤¤à¥ĩà¤µ": 3444,
      "Ġmic": 3445,
      "à¤²à¥Ģà¤¸": 3446,
      "Ġimprove": 3447,
      "Ġà¤¸à¥ĭà¤¶à¤²": 3448,
      "Ġtool": 3449,
      "Ġà¤ħà¤²à¤Ĺ": 3450,
      "Ġà¤ªà¥įà¤°à¤¯à¤¤à¥įà¤¨": 3451,
      "Ġà¤¸à¥įà¤ªà¤·à¥įà¤Ł": 3452,
      "ĠNe": 3453,
      "Ġà¤ħà¤¸à¥ĩà¤²": 3454,
      "ung": 3455,
      "à¤¾à¤µà¥ĩ": 3456,
      "Ġà¤ªà¤°à¤¿à¤£": 3457,
      "Ġchem": 3458,
      "Ġà¤ªà¥įà¤°à¤®à¥ģà¤ĸ": 3459,
      "Ġà¤®à¤¹à¤¤à¥įà¤µ": 3460,
      "Ġà¤§à¤¨": 3461,
      "Ġmot": 3462,
      "à¥ĭà¤¸": 3463,
      "alf": 3464,
      "à¤¾à¤Ĥà¤¬": 3465,
      "Ġà¤°à¤¿à¤ª": 3466,
      "âĢĻre": 3467,
      "à¤¤à¥įà¤¤à¤¾": 3468,
      "NA": 3469,
      "Ġà¤ªà¥įà¤°à¥ĩà¤®": 3470,
      "ories": 3471,
      "Ġespecially": 3472,
      "sh": 3473,
      "Ġà¤®à¥ģà¤Ŀà¥ĩ": 3474,
      "Ġplac": 3475,
      "amm": 3476,
      "is,": 3477,
      "à¤°à¤®": 3478,
      "Ġà¤ķà¥ģà¤²": 3479,
      "Ġhaving": 3480,
      "pr": 3481,
      "à¤¾à¤Ĥà¤®à¤§à¥įà¤¯à¥ĩ": 3482,
      "Ġà¤ļà¤°à¥įà¤ļà¤¾": 3483,
      "Ġà¤ķà¤°à¤£à¥įà¤¯à¤¾à¤¸à¤¾à¤łà¥Ģ": 3484,
      "à¥ĩà¤ķà¥įà¤·à¤¾": 3485,
      "à¥įà¤Ń": 3486,
      "Ġà¤Ĩà¤²à¤¾": 3487,
      "yn": 3488,
      "Ġà¤¤à¤¾à¤²": 3489,
      "à¥įà¤¯à¤¾à¤£": 3490,
      "ttp": 3491,
      "à¥īà¤ķ": 3492,
      "à¤°à¥Ģà¤²": 3493,
      "à¥Ģà¤ļà¤¾": 3494,
      "Ġà¤ħà¤Ńà¤¿à¤¨": 3495,
      "Ġreason": 3496,
      "Ġà¤°à¤¾à¤·à¥įà¤Łà¥įà¤°à¥Ģà¤¯": 3497,
      "Ġà¤°à¤µ": 3498,
      "Ġà¤¬à¥ĩà¤¹": 3499,
      "Ġà¤ļà¤¾à¤Ĥà¤Ĺ": 3500,
      "à¤¾à¤¬à¤¾à¤¦": 3501,
      "Ġà¤¬à¤¡à¤¼à¥Ģ": 3502,
      "ĠPol": 3503,
      "Ġà¤ħà¤¸à¤²à¥ĩà¤²à¥įà¤¯à¤¾": 3504,
      "Ġà¤ķà¥ĩà¤²à¥ĩ.": 3505,
      "à¤¾à¤¬à¤¤": 3506,
      "ĠEnglish": 3507,
      "ray": 3508,
      "ĠStud": 3509,
      "Ġà¤®à¥Ĥ": 3510,
      "à¤¹à¤¨": 3511,
      "à¤¾à¤Ĥà¤µà¤°": 3512,
      "Ġà¤§à¥įà¤¯à¤¾à¤¨": 3513,
      "ance,": 3514,
      "Ġmodel": 3515,
      "à¤¾à¤®à¤§à¥įà¤¯à¥ĩ": 3516,
      "à¤¾à¤¤à¥įà¤®à¤ķ": 3517,
      "Ġpolic": 3518,
      "Ġtimes": 3519,
      "à¤Łà¤ķ": 3520,
      "ipp": 3521,
      "Ġ(P": 3522,
      "Ġsens": 3523,
      "//": 3524,
      "Ġà¤ķà¤Ńà¥Ģ": 3525,
      "Ġprotect": 3526,
      "Ġà¤īà¤ļà¥įà¤ļ": 3527,
      "Ġworking": 3528,
      "Ġfull": 3529,
      "Ġsubject": 3530,
      "ĠCar": 3531,
      "à¤¿à¤¨à¤¾": 3532,
      "Ġà¤ķà¥Ģà¥¤": 3533,
      "Ġknowledge": 3534,
      "Ġz": 3535,
      "Ġà¤ľà¤¹à¤¾à¤Ĥ": 3536,
      "Ġtemperature": 3537,
      "Ġà¤ķà¤°à¥ĭà¤¡à¤¼": 3538,
      "aut": 3539,
      "Ġphysical": 3540,
      "ĠIntern": 3541,
      "Ġcomplete": 3542,
      "Ġteam": 3543,
      "Ġà¤ķà¤¾à¤¨": 3544,
      "Ġrepresent": 3545,
      "ĠShe": 3546,
      "ĠHealth": 3547,
      "Ġà¤¦à¥ĥà¤·à¥įà¤Ł": 3548,
      "Ġà¤ľà¤¨à¥įà¤®": 3549,
      "Ġaccount": 3550,
      "Ġà¤Ĩà¤¨": 3551,
      "à¤®à¤Ĥà¤¤à¥įà¤°à¥Ģ": 3552,
      "Ġà¤²à¥Ģ": 3553,
      "Ġà¤¤à¥įà¤¯à¤¾à¤¤": 3554,
      "Ġhouse": 3555,
      "Ġà¤¤à¥įà¤¯à¤¾à¤²": 3556,
      "Ġwhether": 3557,
      "Ġbecame": 3558,
      "Ġà¤®à¤¾à¤Ĥà¤Ĺ": 3559,
      "Ġà¤ªà¤¾à¤Ł": 3560,
      "Ġà¤ľà¥įà¤ŀà¤¾à¤¨": 3561,
      "Ġmind": 3562,
      "Ġà¤¸à¤Ĥà¤¸": 3563,
      "Ġpopulation": 3564,
      "-à¤ª": 3565,
      "sych": 3566,
      "Ġcase": 3567,
      "à¤¾à¤Ĥà¤ķà¤¿": 3568,
      "ĠPres": 3569,
      "Ġstep": 3570,
      "Ġnorm": 3571,
      "à¤°,": 3572,
      "à¤µà¥ĩ": 3573,
      "ĠTr": 3574,
      "Ġkey": 3575,
      "Ġà¤¬à¤¨à¤¾": 3576,
      "ment,": 3577,
      "apt": 3578,
      "Ġsum": 3579,
      "à¤¿à¤¹à¤¾à¤¸": 3580,
      "Ġsal": 3581,
      "à¤ļà¤¾à¤²": 3582,
      "Ġà¤¬à¤¾à¤Ĥ": 3583,
      "Ġself": 3584,
      "Ġà¤¦à¥ĩà¤ĸà¥Ģà¤²": 3585,
      "Ġfund": 3586,
      "ances": 3587,
      "Ġquestion": 3588,
      "Ġground": 3589,
      "Ġà¤¹à¤¿à¤¸": 3590,
      "Ġà¤ªà¥įà¤°à¤¸à¥įà¤¤": 3591,
      "side": 3592,
      "Ġmakes": 3593,
      "-à¤ķ": 3594,
      "à¤°à¥Ĥà¤ª": 3595,
      "ĠAg": 3596,
      "ment.": 3597,
      "ression": 3598,
      "Ġprob": 3599,
      "ĠdonâĢĻt": 3600,
      "à¤ķà¥įà¤·à¤ķ": 3601,
      "Ġà¤ªà¤°à¤¿à¤·à¤¦": 3602,
      "Ġà¤¸à¥įà¤¥à¤¾à¤ª": 3603,
      "Ġà¤²à¤¾à¤µ": 3604,
      "Ġà¤ľà¤¨à¤¤à¤¾": 3605,
      "Ġlower": 3606,
      "ream": 3607,
      "erence": 3608,
      "Ġinflu": 3609,
      "à¤¾à¤¨à¥įà¤¤": 3610,
      "à¤ķà¥įà¤·à¤¿à¤¤": 3611,
      "amin": 3612,
      "Ġà¤ľà¤¾à¤Ĥà¤ļ": 3613,
      "à¤®à¤¾à¤°": 3614,
      "à¥įà¤¯à¥ĭà¤Ĺ": 3615,
      "Ġlevels": 3616,
      "ife": 3617,
      "à¥įà¤¯à¤¾à¤®à¥ģà¤³à¥ĩ": 3618,
      "chie": 3619,
      "an,": 3620,
      "à¤°à¥įà¤¥à¤¿à¤ķ": 3621,
      "Ġfurther": 3622,
      "à¤ªà¤°à¥įà¤¯à¤Ĥà¤¤": 3623,
      "Ġparticip": 3624,
      "cing": 3625,
      "Ġbig": 3626,
      "à¥ģà¤Ĩ": 3627,
      "Ġà¤Ĺà¤¾à¤µ": 3628,
      "acc": 3629,
      "Ġrole": 3630,
      "à¥Īà¤Ĥà¤¡": 3631,
      "à¤µà¤¿à¤£": 3632,
      "à¤Ĥà¤Ĺà¤²": 3633,
      "à¥ĩà¤Ĥà¤¸": 3634,
      "à¤¿à¤ķà¤²": 3635,
      "Ġà¤¤à¥įà¤°": 3636,
      "Ġà¤ªà¤¾à¤¨à¥Ģ": 3637,
      "Ġnut": 3638,
      "unt": 3639,
      "Ġchall": 3640,
      "ĠGe": 3641,
      "Ġà¤¤à¥įà¤¯à¤¾à¤²à¤¾": 3642,
      "Ġgoing": 3643,
      "Ġrelations": 3644,
      "ump": 3645,
      "Ġà¤Ĺà¤Īà¥¤": 3646,
      "Ġà¤¬à¤¨à¤¾à¤¨à¥ĩ": 3647,
      "ler": 3648,
      "ique": 3649,
      "Ġscience": 3650,
      "à¤ķà¥įà¤¤à¤¿": 3651,
      "Ġà¤¬à¤¾à¤ľà¤¾à¤°": 3652,
      "Ġtradition": 3653,
      "ure,": 3654,
      "Ġà¤¨à¤ľà¤°": 3655,
      "Ġsure": 3656,
      "à¥Ģà¤ļà¥įà¤¯à¤¾": 3657,
      "Ġactivities": 3658,
      "aching": 3659,
      "Ġdig": 3660,
      "Ġà¤ĸà¥ĩà¤³": 3661,
      "Ġà¤ªà¥ĭà¤²à¥Ģà¤¸": 3662,
      "iation": 3663,
      "Ġà¤®à¥ģà¤ķ": 3664,
      "à¤¤à¤¾à¤²": 3665,
      "Ġà¤¶à¥ĩà¤¤à¤ķ": 3666,
      "iol": 3667,
      "Ġà¤ķà¤°à¥Ĥ": 3668,
      "mber": 3669,
      "ĠCal": 3670,
      "à¤«à¥įà¤¤": 3671,
      "Ġà¤µà¤¿à¤¦à¥įà¤¯à¤¾à¤°à¥įà¤¥": 3672,
      "Ġeff": 3673,
      "Ġà¤®à¤²à¤¾": 3674,
      "ĠDo": 3675,
      "à¤Ńà¤¾à¤Ĺ": 3676,
      "Ġindic": 3677,
      "augh": 3678,
      "à¥Ģà¤¬": 3679,
      "Ġà¤ĸà¥ĩà¤²": 3680,
      "à¤ķà¥įà¤°": 3681,
      "Ġcontain": 3682,
      "Ġcontinu": 3683,
      "Ġcond": 3684,
      "Ġà¤ķà¥įà¤°à¤¿à¤ķà¥ĩà¤Ł": 3685,
      "Ġbelow": 3686,
      "Ġpred": 3687,
      "Ġà¤¨à¤°": 3688,
      "Ġthem.": 3689,
      "Ġsays": 3690,
      "Ġà¤¤à¥Īà¤¯à¤¾à¤°": 3691,
      "ER": 3692,
      "Ġà¤¸à¥ĩà¤µà¤¾": 3693,
      "Ġtoward": 3694,
      "Ġà¤łà¤¿à¤ķ": 3695,
      "ready": 3696,
      "Ġà¤Ĩà¤¦à¥ĩà¤¶": 3697,
      "à¥ĥà¤¹": 3698,
      "Ġà¤Ĳà¤¸à¥Ģ": 3699,
      "ibility": 3700,
      "Ġà¤Ĩà¤°à¥įà¤¥à¤¿à¤ķ": 3701,
      "Ġà¤ħà¤²à¤¾à¤µà¤¾": 3702,
      "à¤¿à¤¨à¥įà¤¦": 3703,
      "ĠResear": 3704,
      "Ġopt": 3705,
      "Ġemploy": 3706,
      "Ġà¤ļà¥ģ": 3707,
      "Ġclose": 3708,
      "Ġens": 3709,
      "Ġarm": 3710,
      "Ġseen": 3711,
      "rel": 3712,
      "à¤µà¤¾à¤¦à¥Ģ": 3713,
      "bon": 3714,
      "or,": 3715,
      "Ġà¤¯à¥ĩà¤¥à¥Ģà¤²": 3716,
      "rict": 3717,
      "Ġà¤µà¥ĩà¤Ĺ": 3718,
      "Ġà¤ĩà¤¤à¤°": 3719,
      "Th": 3720,
      "Ġà¤īà¤¸à¤ķà¤¾": 3721,
      "Ġà¤¨à¤¿à¤µà¤¡à¤£": 3722,
      "Ġrather": 3723,
      "cul": 3724,
      "Ġà¤ķà¤²à¥įà¤¯à¤¾à¤£": 3725,
      "Ġrange": 3726,
      "urch": 3727,
      "à¥Ģà¤ļà¥Ģ": 3728,
      "ides": 3729,
      "Ġgrowth": 3730,
      "Ġneg": 3731,
      "oura": 3732,
      "ĠX": 3733,
      "Ġpaper": 3734,
      "à¥įà¤¸à¤¾": 3735,
      "Ġchanges": 3736,
      "Ġtypes": 3737,
      "Ġà¤ªà¤°à¤®": 3738,
      "Ġà¤¬à¤¾à¤¹à¤°": 3739,
      "à¤¾à¤ļà¤¾à¤°": 3740,
      "Ġà¤īà¤¸à¤¨à¥ĩ": 3741,
      "Ġbat": 3742,
      "Ġcy": 3743,
      "Ġcells": 3744,
      "ĠMay": 3745,
      "à¤ľà¥Ĥà¤¦": 3746,
      "Ġreally": 3747,
      "Ġà¤ľà¤¿à¤¸à¤ķà¥ĩ": 3748,
      "Ġà¤ķà¥īà¤²": 3749,
      "ĠSoc": 3750,
      "à¤Ĺà¤¾à¤°": 3751,
      "ĠRep": 3752,
      "Ġthought": 3753,
      "Ġà¤¯à¤¾à¤Ĥà¤¨à¤¾": 3754,
      "thing": 3755,
      "Ġdeg": 3756,
      "à¤ıà¤²": 3757,
      "Ġà¤¸à¥įà¤¥à¤¿à¤¤à¤¿": 3758,
      "Ġsitu": 3759,
      "Ġresults": 3760,
      "Ġà¤Ĺà¤£": 3761,
      "Ġrecogn": 3762,
      "à¤µà¤¤": 3763,
      "aring": 3764,
      "à¤¾à¤¸à¥Ĥà¤¨": 3765,
      "Ġflu": 3766,
      "Ġur": 3767,
      "Ġfr": 3768,
      "à¥Īà¤°": 3769,
      "ones": 3770,
      "ublic": 3771,
      "Ġeither": 3772,
      "irm": 3773,
      "verage": 3774,
      "à¥Ĥà¤°à¥Ģ": 3775,
      "ĠAss": 3776,
      "Ġà¤Ľà¥ĭà¤¡à¤¼": 3777,
      "à¤Łà¤¨": 3778,
      "Ġà¤°à¥ĩà¤²": 3779,
      "val": 3780,
      "Ġquality": 3781,
      "Ġproduction": 3782,
      "Ġsingle": 3783,
      "ĠMan": 3784,
      "ĠStates": 3785,
      "à¤¯à¥ģà¤ķà¥įà¤¤": 3786,
      "ival": 3787,
      "ĠAcc": 3788,
      "Ġbusiness": 3789,
      "ysis": 3790,
      "Ġwind": 3791,
      "Ġà¤¬à¤¡à¤¼à¥ĩ": 3792,
      "Ġalready": 3793,
      "Ġà¤¥à¤¾.": 3794,
      "ape": 3795,
      "à¤²à¥ĩà¤²à¥ĩ": 3796,
      "ĠÂ": 3797,
      "Ġà¤ªà¤¢à¤¼": 3798,
      "Ġ(M": 3799,
      "Ġà¤ªà¥įà¤°à¤¶à¤¾à¤¸à¤¨": 3800,
      "overed": 3801,
      "Ġà¤®à¤Ĥà¤¦à¤¿à¤°": 3802,
      "Ġà¤¸à¥ģà¤ª": 3803,
      "Ġdiet": 3804,
      "ure.": 3805,
      "Ġà¤ıà¤ķà¥įà¤¸": 3806,
      "Ġneeds": 3807,
      "Ġà¤ħà¤Ĥà¤¤à¤°": 3808,
      "Ġeffort": 3809,
      "Ġphot": 3810,
      "Ġà¤Łà¤ķà¥įà¤ķ": 3811,
      "Ġà¤¨à¤µà¥įà¤¹": 3812,
      "Ġevidence": 3813,
      "Ġà¤¯à¥ģà¤µ": 3814,
      "ĠNorth": 3815,
      "à¥ģà¤¡": 3816,
      "iple": 3817,
      "Ġarticle": 3818,
      "Ġà¤ľà¤¯": 3819,
      "Ġoil": 3820,
      "Ġà¤¸à¤Ĥà¤¸à¥įà¤ķ": 3821,
      "ournal": 3822,
      "ĠCont": 3823,
      "ai": 3824,
      "Ġà¤ªà¤¤à¤¾": 3825,
      "iting": 3826,
      "Ġcas": 3827,
      "Ġfall": 3828,
      "--": 3829,
      "iam": 3830,
      "à¥ĩà¤¦à¤¨": 3831,
      "à¤¨à¤¾à¤¥": 3832,
      "Ġfive": 3833,
      "Ġreturn": 3834,
      "Ġothers": 3835,
      "Ġà¤®à¤¦à¤¦": 3836,
      "):": 3837,
      "Ġdom": 3838,
      "Ġà¤ªà¥įà¤°à¤¤à¤¿": 3839,
      "ule": 3840,
      "org": 3841,
      "Ġmarket": 3842,
      "Ġà¤¹à¤¾à¤²à¤¾à¤Ĥà¤ķà¤¿": 3843,
      "Ġà¤µà¤¾à¤²à¤¾": 3844,
      "wh": 3845,
      "eb": 3846,
      "Ġà¤ľà¤¾à¤¨à¤¾": 3847,
      "à¥ĥà¤¤à¤¿": 3848,
      "Ġà¤Ĺà¤¾à¤Ĥà¤µ": 3849,
      "rad": 3850,
      "esc": 3851,
      "Ġaccording": 3852,
      "Ġonce": 3853,
      "Ġmeet": 3854,
      "Ġnature": 3855,
      "Ġachie": 3856,
      "à¤¾à¤³à¥Ģ": 3857,
      "Ġnational": 3858,
      "Ġà¤ħà¤Ĥà¤Ĺ": 3859,
      "Ġmedical": 3860,
      "Ġà¤ħà¤°": 3861,
      "idered": 3862,
      "à¤£à¥įà¤¯à¤¾à¤¤": 3863,
      "ations.": 3864,
      "Ġà¤¯à¤¾à¤ļ": 3865,
      "ee": 3866,
      "for": 3867,
      "Ġcommunity": 3868,
      "Ġabs": 3869,
      "omes": 3870,
      "Ġà¤¤à¤¯à¤¾à¤°": 3871,
      "ĠSouth": 3872,
      "Ġà¤¹à¥ĭà¤£à¤¾à¤°": 3873,
      "Ġblack": 3874,
      "Ġà¤¦à¤¿à¤¨à¥ĭà¤Ĥ": 3875,
      "Ġwhole": 3876,
      "Ġcollect": 3877,
      "à¤ľà¤¹": 3878,
      "ivil": 3879,
      "à¥įà¤°à¤¿à¤¯": 3880,
      "Ġsun": 3881,
      "Ġà¤¹à¤®à¤¾à¤°à¥ĩ": 3882,
      "Ġfrequ": 3883,
      "Ġà¤¤à¥įà¤¯à¤¾à¤ļà¥įà¤¯à¤¾": 3884,
      "Ġtaken": 3885,
      "Ġà¤ªà¤°à¤¿à¤£à¤¾à¤®": 3886,
      "à¤¾à¤ķà¤¾à¤°": 3887,
      "ĠAct": 3888,
      "Ġreduce": 3889,
      "Ġinit": 3890,
      "Ġrate": 3891,
      "à¤¨à¥įà¤§": 3892,
      "Ġtime.": 3893,
      "Ġà¤ľà¥ĩ": 3894,
      "à¥Ĥà¤ģ": 3895,
      "Ġsam": 3896,
      "Ġtime,": 3897,
      "enn": 3898,
      "à¤ļà¤¿à¤¤": 3899,
      "Ġà¤ĩà¤Ĥà¤Ł": 3900,
      "Ġtechnology": 3901,
      "Ġsource": 3902,
      "Ġà¤Ńà¤¾à¤ľà¤ªà¤¾": 3903,
      "à¤¾à¤°à¤ĸ": 3904,
      "Ġsurface": 3905,
      "Ġdetail": 3906,
      "Ġbuilding": 3907,
      "Ġà¤ħà¤¸à¤²à¥įà¤¯à¤¾à¤ļà¥ĩ": 3908,
      "Ġà¤µà¥Ģà¤¡": 3909,
      "Ġeducation": 3910,
      "Ġrelig": 3911,
      "ĠAust": 3912,
      "ibr": 3913,
      "fact": 3914,
      "ĠDep": 3915,
      "Ġred": 3916,
      "Ġà¤ªà¤¿à¤Ľà¤²à¥ĩ": 3917,
      "Ġcut": 3918,
      "Ġstory": 3919,
      "Ġà¤¨à¥ģà¤ķ": 3920,
      "Ġconcept": 3921,
      "Ġà¤¦à¥ĩà¤¤à¥ĩ": 3922,
      "Ġdoct": 3923,
      "Ġà¤Ĺà¥ĭà¤·à¥įà¤Ł": 3924,
      "à¤¡à¤¾": 3925,
      "Ġclimate": 3926,
      "Ġupon": 3927,
      "Ġsent": 3928,
      "Ġanimal": 3929,
      "Ġà¤°à¤¿à¤ªà¥ĭà¤°à¥įà¤Ł": 3930,
      "Ġattack": 3931,
      "à¥ĩà¤Ĺà¤¾": 3932,
      "Ġà¤łà¤¾à¤ķ": 3933,
      "rect": 3934,
      "Ġà¤ĺà¤¡": 3935,
      "Ġdrug": 3936,
      "Ġhold": 3937,
      "Ġann": 3938,
      "ime": 3939,
      "Ġà¤µà¥ĥ": 3940,
      "à¥Īà¤²": 3941,
      "Ġpolitical": 3942,
      "leep": 3943,
      "ĠYork": 3944,
      "-à¤¬": 3945,
      "Ġthemsel": 3946,
      "à¥ĭà¤®": 3947,
      "Ġconsidered": 3948,
      "Ġà¤°à¤¹à¤¨à¥ĩ": 3949,
      "Ġà¤®à¤Ĥà¤¡": 3950,
      "Ġfri": 3951,
      "Ġdest": 3952,
      "Ġtot": 3953,
      "Ġà¤¬à¥ĩà¤Ł": 3954,
      "Ġà¤¬à¤¿à¤²": 3955,
      "à¥įà¤°à¤¾à¤®": 3956,
      "Ġcannot": 3957,
      "Ġfat": 3958,
      "Ġcreated": 3959,
      "Ġà¤ªà¤Ĥà¤ļ": 3960,
      "Ġà¤¬à¥Īà¤łà¤ķ": 3961,
      "Ġà¤²à¤Ĺà¤¾": 3962,
      "Ġà¤ľà¤Ĺà¤¹": 3963,
      "à¤Ĺà¥įà¤°à¥ĩà¤¸": 3964,
      "à¤£à¥įà¤¯à¤¾à¤¸à¤¾à¤łà¥Ģ": 3965,
      "à¥įà¤ļà¤¿à¤¤": 3966,
      "Ġobserv": 3967,
      "Ġwide": 3968,
      "Ġà¤¦à¤ķà¥įà¤·": 3969,
      "Ġà¤ķà¤°à¤¾à¤µ": 3970,
      "Ġà¤ķà¥ĩà¤²à¤¾.": 3971,
      "Ġhappen": 3972,
      "Ġproblems": 3973,
      "à¤°à¥ĭà¤Ĥ": 3974,
      "Ġdiseas": 3975,
      "Ġà¤µà¤¿à¤µà¤¿à¤§": 3976,
      "fficient": 3977,
      "à¤²à¥įà¤ª": 3978,
      "roll": 3979,
      "Ġà¤ľà¤¼": 3980,
      "Ġà¤¸à¥įà¤µà¤¤à¤ĥ": 3981,
      "Ġsoil": 3982,
      "Ġrecomm": 3983,
      "oney": 3984,
      "Ġà¤¸à¥Ĥà¤°": 3985,
      "etimes": 3986,
      "Ġà¤ħà¤¡": 3987,
      "fer": 3988,
      "Ġfeature": 3989,
      "Ġà¤¸à¥Ģà¤®": 3990,
      "Ġà¤¶à¤°à¥įà¤®": 3991,
      "Ġhttp": 3992,
      "Ġà¤łà¤°": 3993,
      "Ġfail": 3994,
      "Ġassociated": 3995,
      "Ġà¤«à¥įà¤°": 3996,
      "Ġaction": 3997,
      "Ġà¤ķà¤µ": 3998,
      "acy": 3999,
      "à¤®à¥ģ": 4000,
      "à¤Ńà¤Ĺ": 4001,
      "Ġà¤ļà¤¾à¤¹à¤¿à¤ıà¥¤": 4002,
      "Ġver": 4003,
      "Ġintrodu": 4004,
      "Ġtell": 4005,
      "Ġrelated": 4006,
      "Ġà¤ķà¤¾à¤ģ": 4007,
      "Ġnetwork": 4008,
      "à¥ĭ.": 4009,
      "ae": 4010,
      "à¥įà¤¯à¤¾à¤Ĥà¤ļà¥įà¤¯à¤¾": 4011,
      "Ġhowever,": 4012,
      "Ġà¤Ĺà¤Ĥ": 4013,
      "Ġcame": 4014,
      "Ġà¤¶à¥ģà¤ķ": 4015,
      "Ġà¤¹à¥ĭà¤Ī": 4016,
      "Ġmass": 4017,
      "Ġlay": 4018,
      "ĠHist": 4019,
      "à¥ĭà¤¹": 4020,
      "Ġà¤Ĩà¤¯à¤¾": 4021,
      "Ġà¤µà¥Ģà¤¡à¤¿à¤¯à¥ĭ": 4022,
      "ensive": 4023,
      "reme": 4024,
      "Ġà¤ķà¤¿à¤¨": 4025,
      "Ġà¤Ĺà¤°": 4026,
      "Ġà¤ħà¤ĸ": 4027,
      "Ġà¤°à¤¾à¤¶": 4028,
      "à¤¾à¤ķà¥įà¤·": 4029,
      "Ġà¤®à¤Ĥà¤¤à¥įà¤°à¤¾à¤²à¤¯": 4030,
      "à¤µà¥Ĥà¤¨": 4031,
      "ĠSu": 4032,
      "ires": 4033,
      "Ġ(I": 4034,
      "Ġà¤ªà¤¶à¥įà¤ļ": 4035,
      "à¥ĭà¤°à¥Ģ": 4036,
      "ħà¤°": 4037,
      "Ġport": 4038,
      "ators": 4039,
      "c.": 4040,
      "Ġeconomic": 4041,
      "\".": 4042,
      "Ġpay": 4043,
      "Ġarg": 4044,
      "à¥ĩà¤ļà¤¾": 4045,
      "Ġà¤¸à¤¦à¤¸à¥įà¤¯": 4046,
      "Ġà¤ľà¤¾à¤ıà¤Ĺà¤¾à¥¤": 4047,
      "Ġà¤Ĩà¤ªà¤ķà¥ĩ": 4048,
      "Ġà¤®à¤¾à¤¸": 4049,
      "Ġà¤®à¤¹à¥Ģ": 4050,
      "Ġweight": 4051,
      "ĠGu": 4052,
      "Ġcat": 4053,
      "Ġà¤¦à¥ģà¤¨": 4054,
      "Ġà¤¦à¤¿à¤²à¥Ģ": 4055,
      "Ġadult": 4056,
      "Ġà¤ªà¥Ĥà¤°à¤¾": 4057,
      "Ġà¤¸à¥ģà¤°à¤ķà¥įà¤·à¤¾": 4058,
      "ĠEarth": 4059,
      "Ġà¤ªà¤¾à¤ķà¤¿à¤¸à¥įà¤¤à¤¾à¤¨": 4060,
      "Ġà¤¸à¥įà¤ķà¥Ĥà¤²": 4061,
      "Ġways": 4062,
      "rown": 4063,
      "Ġà¤ľà¥Ģà¤¤": 4064,
      "Ġsound": 4065,
      "Ġsimple": 4066,
      "ister": 4067,
      "Ġdeveloped": 4068,
      "à¥Ĥà¤¬": 4069,
      "Ġà¤¨à¤¿à¤°à¥įà¤¦à¥ĩà¤¶": 4070,
      "epend": 4071,
      "à¤¤à¤®": 4072,
      "eter": 4073,
      "reg": 4074,
      "ĠMany": 4075,
      "à¥ĩà¤Ĥà¥¤": 4076,
      "à¤ªà¤£à¥ĩ": 4077,
      "Ġà¤ľà¤¬à¤ķà¤¿": 4078,
      "Ġitself": 4079,
      "ĠPe": 4080,
      "Ġthing": 4081,
      "ally,": 4082,
      "Ġà¤¨à¥Į": 4083,
      "Ġà¤®à¥ģà¤¸": 4084,
      "abit": 4085,
      "ober": 4086,
      "à¤¿à¤ķà¥Ģ": 4087,
      "à¤¨à¥įà¤¦à¥įà¤°": 4088,
      "sp": 4089,
      "à¤¥à¤®": 4090,
      "Ġrequired": 4091,
      "Ġà¤®à¤¹à¤¿à¤¨": 4092,
      "Ġeffects": 4093,
      "Ġconcern": 4094,
      "Ġpatients": 4095,
      "Ġà¤¤à¤¹à¤¤": 4096,
      "Ġopportun": 4097,
      "Ġactually": 4098,
      "Ġà¤ħà¤«": 4099,
      "Ġà¤¨à¤¾à¤°": 4100,
      "à¤¿à¤ķà¥įà¤¤": 4101,
      "à¤ļà¤¨": 4102,
      "Ġrepl": 4103,
      "Ġà¤¸à¥Ĥà¤ļà¤¨à¤¾": 4104,
      "ĠHis": 4105,
      "SA": 4106,
      "Ġstudies": 4107,
      "Ġdays": 4108,
      "ĠEm": 4109,
      "ification": 4110,
      "Ġà¤ĺà¥ĩà¤Ĭà¤¨": 4111,
      "Ġrelationship": 4112,
      "sequ": 4113,
      "Ġentire": 4114,
      "à¤Ĥà¤Ń": 4115,
      "Ġpublished": 4116,
      "Ġà¤ªà¥ģà¤£": 4117,
      "Ġaddress": 4118,
      "aves": 4119,
      "Ġcomplex": 4120,
      "à¤ªà¥Ĥà¤°": 4121,
      "Ġà¤¬à¤¡à¤¼à¤¾": 4122,
      "Ġability": 4123,
      "Ġà¤ªà¤ķ": 4124,
      "à¤¦à¤®": 4125,
      "Ġtalk": 4126,
      "à¤¾à¤¡à¤¼à¥Ģ": 4127,
      "Ġà¤¦à¥ĩà¤¤": 4128,
      "Ġà¤ĸà¥ģà¤¦": 4129,
      "Ġà¤¸à¤¨": 4130,
      "Ġà¤¹à¤¿à¤Ĥà¤¦": 4131,
      "itud": 4132,
      "Ġavoid": 4133,
      "ison": 4134,
      "à¥īà¤Ł": 4135,
      "Ġà¤°à¤¨": 4136,
      "Ġà¤ĩà¤¸à¤ķà¥Ģ": 4137,
      "Ġà¤¶à¤¿à¤ķà¥įà¤·à¤¾": 4138,
      "à¤µà¤¿à¤·": 4139,
      "Ġà¤Ĺà¥įà¤°à¤¾à¤®": 4140,
      "-à¤ħ": 4141,
      "Ġà¤¯à¤¾à¤¤à¥įà¤°": 4142,
      "Ġà¤¸à¥Īà¤¨": 4143,
      "Ġà¤ľà¤°à¥Ĥà¤°": 4144,
      ",\"": 4145,
      "Ġà¤µà¤¿à¤Ńà¤¿à¤¨à¥įà¤¨": 4146,
      "Ġstrateg": 4147,
      "Ġà¤¸à¤®à¥įà¤®": 4148,
      "à¤°à¥įà¤¤à¥Ģ": 4149,
      "Ġglobal": 4150,
      "Ġà¤Ĩà¤®à¥įà¤¹à¥Ģ": 4151,
      "âĢ¦": 4152,
      "Ġalmost": 4153,
      "Ġrecent": 4154,
      "Ġquick": 4155,
      "ystem": 4156,
      "Ġà¤¬à¤ľ": 4157,
      "Ġregard": 4158,
      "ĠState": 4159,
      "Ġà¤¦à¤¿à¤ı": 4160,
      "or.": 4161,
      "Ġà¤§à¥ĭ": 4162,
      "Ġmanagement": 4163,
      "o-": 4164,
      "à¥ĩà¤²à¤¾": 4165,
      "Ġexerc": 4166,
      "Ġà¤ķà¤¿à¤²": 4167,
      "Ġà¤Ńà¥ĩà¤ľ": 4168,
      "erve": 4169,
      "Ġà¤µà¤°à¥įà¤Ĺ": 4170,
      "Ġà¤«à¥ĭà¤Ł": 4171,
      "à¤¾à¤¸à¥įà¤¤à¥įà¤°": 4172,
      "Ġà¤¬à¥įà¤²": 4173,
      "ance.": 4174,
      "à¤¹à¤¾à¤¨": 4175,
      "Ġfarm": 4176,
      "Ġliving": 4177,
      "à¤£à¥įà¤¡": 4178,
      "à¥įà¤®à¥Ģà¤¦": 4179,
      "hib": 4180,
      "à¤ªà¥Ĥà¤°à¥įà¤µ": 4181,
      "Ġfish": 4182,
      "Ġgas": 4183,
      "à¤¾à¤ľà¤¿à¤ķ": 4184,
      "Ġà¤¬à¤¾à¤Ĥà¤§": 4185,
      "Ġà¤µà¤¿à¤¶à¥įà¤µà¤¾à¤¸": 4186,
      "Ġresearchers": 4187,
      "uel": 4188,
      "Ġcentur": 4189,
      "Ġkill": 4190,
      "Ġà¤¹à¥ĭà¤¨à¤¾": 4191,
      "à¥ĭà¤µ": 4192,
      "à¤¸à¥įà¤µ": 4193,
      "Ġà¤ļà¤¿à¤¤à¥įà¤°à¤ªà¤Ł": 4194,
      "Ġà¤ķà¤¿à¤¤": 4195,
      "Ġdoc": 4196,
      "Ġà¤«à¤¾à¤¯": 4197,
      "Ġfire": 4198,
      "Ġà¤¸à¤Ĥà¤¬à¤Ĥà¤§à¤¿à¤¤": 4199,
      "Ġà¤ªà¤¾à¤µ": 4200,
      "à¤°à¥Ģà¤ľ": 4201,
      "à¤¿à¤¨à¥Ģ": 4202,
      "Ġpurp": 4203,
      "ĠâĢľI": 4204,
      "yle": 4205,
      "en,": 4206,
      "itary": 4207,
      "Ġtook": 4208,
      "Ġcomes": 4209,
      "Ġprovides": 4210,
      "Ġà¤ªà¥ģà¤°à¥ģà¤·": 4211,
      "Ġvalue": 4212,
      "à¤Ńà¥Ģà¤°": 4213,
      "Ġhalf": 4214,
      "Ġà¤¨à¥įà¤¯à¤¾à¤¯à¤¾à¤²à¤¯": 4215,
      "Ġengine": 4216,
      "Ġansw": 4217,
      "Ġsuper": 4218,
      "Ġà¤Ľà¤¾à¤¤à¥įà¤°": 4219,
      "à¤ļà¤Ĥ": 4220,
      "Ġter": 4221,
      "ands": 4222,
      "Ġjob": 4223,
      "stry": 4224,
      "t,": 4225,
      "Ġprote": 4226,
      "Ġpriv": 4227,
      "Ġcity": 4228,
      "Ġvers": 4229,
      "Ġbar": 4230,
      "Ġbehavior": 4231,
      "Ġà¤ªà¤¾à¤Ĥà¤ļ": 4232,
      "Ġnecessary": 4233,
      "Ġmodern": 4234,
      "Ġmeasure": 4235,
      "son": 4236,
      "Ġà¤¯à¥ĭà¤Ĺà¥įà¤¯": 4237,
      "Ġà¤¶à¤¾à¤¸à¤¨": 4238,
      "à¥įà¤¹à¥ĭà¤Ĥà¤¨à¥ĩ": 4239,
      "Ġclaim": 4240,
      "gest": 4241,
      "Ġà¤®à¥įà¤¹à¤£à¤¾à¤²à¥ĩ": 4242,
      "Ġsystems": 4243,
      "al,": 4244,
      "ĠMore": 4245,
      "Ġà¤¸à¤Ĥà¤¸à¥įà¤¥": 4246,
      "Ġà¤ľà¤¾à¤¸à¥įà¤¤": 4247,
      "by": 4248,
      "Ġincreased": 4249,
      "Ġà¤Ĩà¤ªà¤²": 4250,
      "Ġà¤¦à¤¾à¤ĸà¤²": 4251,
      "à¤°à¥įà¤Ĺà¤¤": 4252,
      "chan": 4253,
      "à¤ľà¥įà¤ŀà¤¾à¤¨": 4254,
      "Ġà¤ªà¥įà¤°à¤µà¥ĩà¤¶": 4255,
      "ript": 4256,
      "vere": 4257,
      "Ġà¤µà¤ľà¤¹": 4258,
      "umb": 4259,
      "Ġwebs": 4260,
      "Ġmor": 4261,
      "Ġgreen": 4262,
      "Ġà¤¦à¤²": 4263,
      "Ġà¤«à¤¾à¤°": 4264,
      "Ġcheck": 4265,
      "light": 4266,
      "gar": 4267,
      "Ġbill": 4268,
      "Ġà¤ķà¤°à¥ĩà¤Ĥà¥¤": 4269,
      "Ġà¤īà¤®à¥įà¤®à¥Ģà¤¦": 4270,
      "Ġcancer": 4271,
      "artment": 4272,
      "ĠMost": 4273,
      "Ġà¤ķà¤¾à¤°à¥įà¤¯à¤¾à¤²à¤¯": 4274,
      "à¤¾à¤¡à¥Ģ": 4275,
      "Ġà¤ķà¤¾à¤ģà¤Ĺà¥įà¤°à¥ĩà¤¸": 4276,
      "Ġcoll": 4277,
      "ĠâĢ¢": 4278,
      "à¤®à¤§à¥Ģà¤²": 4279,
      "Ġà¤Ĩà¤°à¥ĭà¤ªà¥Ģ": 4280,
      "Ġdone": 4281,
      "oon": 4282,
      "Ġsuff": 4283,
      "Ġà¤ħà¤¥": 4284,
      "Ġever": 4285,
      "Ġpatient": 4286,
      "ĠInstit": 4287,
      "Ġbegan": 4288,
      "Ġcompan": 4289,
      "Ġà¤Ĩà¤²à¥ĩ.": 4290,
      "à¤³à¥ĩ": 4291,
      "Ġessential": 4292,
      "Ġwhite": 4293,
      "Ġarch": 4294,
      "urity": 4295,
      "Ġà¤µà¤¿à¤®": 4296,
      "inter": 4297,
      "Ġà¤ªà¥ĭà¤¸à¥įà¤Ł": 4298,
      "à¥Ĥà¤¹": 4299,
      "Ġunderstanding": 4300,
      "Ġpath": 4301,
      "Ġà¤¸à¤®à¤¾à¤¨": 4302,
      "Ġmatter": 4303,
      "osis": 4304,
      "oll": 4305,
      "Ġreact": 4306,
      "à¤ľà¥įà¤ľ": 4307,
      "Ġà¤ķà¤°à¥įà¤®à¤ļ": 4308,
      "Ġarr": 4309,
      "à¤ļà¤¾à¤¨": 4310,
      "Ġcop": 4311,
      "Ġapproach": 4312,
      "Ġà¤ķà¥ĭà¤°à¥įà¤Ł": 4313,
      "Ġà¤®à¤¿à¤¶": 4314,
      "ĠApp": 4315,
      "Ġconduct": 4316,
      "Ġassess": 4317,
      "à¥Ģà¤¤à¤¿": 4318,
      "i-": 4319,
      "Ġà¤¨à¤¹à¥Ģ": 4320,
      "Ġà¤ªà¥Ĥà¤Ľ": 4321,
      "Ġpattern": 4322,
      "Ġposition": 4323,
      "age.": 4324,
      "ĠJew": 4325,
      "Ġà¤¸à¥ĭà¤®": 4326,
      "Ġ--": 4327,
      "Ġà¤ķà¤¹à¤¤à¥ĩ": 4328,
      "Ġà¤ªà¥ĩà¤¶": 4329,
      "Ġà¤¦à¥ĩà¤£à¥įà¤¯à¤¾à¤¤": 4330,
      "Ġnam": 4331,
      "Ġlat": 4332,
      "Ġà¤®à¥ĩà¤°à¥ĩ": 4333,
      "ĠII": 4334,
      "Ġà¤¬à¤¤à¤¾": 4335,
      "ots": 4336,
      "ĠAlthough": 4337,
      "Ġà¤¦à¤ķà¥įà¤·à¤¿à¤£": 4338,
      "Ġloss": 4339,
      "Ġproduce": 4340,
      "Ġà¤«à¤¼": 4341,
      "à¤¿à¤¤à¥įà¤µ": 4342,
      "Ġà¤µà¤¾à¤¸à¥įà¤¤": 4343,
      "n't": 4344,
      "Ġà¤¸à¤®à¤¿à¤¤": 4345,
      "Ġà¤µà¥įà¤¯à¤µà¤¸à¥įà¤¥à¤¾": 4346,
      "à¥īà¤ª": 4347,
      "Ġà¤ħà¤¸à¥įà¤ª": 4348,
      "Ġmembers": 4349,
      "Ġtherap": 4350,
      "à¥įà¤¯à¤¾à¤®": 4351,
      "Ġà¤¨à¥ĩà¤¤à¤¾": 4352,
      "Ġà¤¸à¤§": 4353,
      "Ġyet": 4354,
      "ID": 4355,
      "Ġwords": 4356,
      "ĠResearch": 4357,
      "Ġanc": 4358,
      "ĠHere": 4359,
      "à¤¿à¤¨à¤¿à¤§": 4360,
      "Ġà¤Ĺà¤¾à¤Ĥà¤§à¥Ģ": 4361,
      "à¤µà¤¿à¤¦": 4362,
      "Ġà¤¹à¥Ĥà¤Ĥ": 4363,
      "Ġà¤®à¤¹à¤¤à¥įà¤¤à¥įà¤µ": 4364,
      "Ġsense": 4365,
      "Ġà¤ĸà¤°à¥įà¤ļ": 4366,
      "à¤®à¥įà¤¬": 4367,
      "empt": 4368,
      "be": 4369,
      "Ġprinc": 4370,
      "Ġà¤¹à¥ĭà¤Ĺà¤¾": 4371,
      "ery": 4372,
      "Ġà¤¸à¤®à¤°à¥įà¤¥": 4373,
      "Ġà¤Łà¤¾à¤ķ": 4374,
      "ply": 4375,
      "Ġchemical": 4376,
      "Ġà¤«à¥ĭà¤¨": 4377,
      "Ġsymptoms": 4378,
      "Ġà¤¬à¥Īà¤Ĥà¤ķ": 4379,
      "ĠCo": 4380,
      "Ġà¤²à¥ĩà¤¨à¥ĩ": 4381,
      "Ġà¤ķà¤¹à¤¾,": 4382,
      "Ġstop": 4383,
      "Ġà¤ķà¤°à¥Ģà¤¬": 4384,
      "Ġà¤ªà¤¤à¥įà¤¨": 4385,
      "à¤°à¤²": 4386,
      "Ġge": 4387,
      "Ġcontent": 4388,
      "Ġplants": 4389,
      "Ġà¤ªà¤¾à¤£à¥Ģ": 4390,
      "Ġthroughout": 4391,
      "duc": 4392,
      "Ġpopular": 4393,
      "Ġà¤¸à¥ģà¤ĸ": 4394,
      "iment": 4395,
      "ĠBritish": 4396,
      "Ġcamp": 4397,
      "ĠSec": 4398,
      "à¤¬à¤¹": 4399,
      "Ġà¤¨à¤¾à¤¹à¥Ģ,": 4400,
      "à¥ĭà¤ľà¤¿à¤¤": 4401,
      "Ġà¤ĩà¤¸à¥įà¤¤": 4402,
      "Ġrul": 4403,
      "à¤¸à¤¾à¤¨": 4404,
      "à¥ĩà¤¥": 4405,
      "Ġà¤¸à¤¾à¤®à¤¾à¤¨à¥įà¤¯": 4406,
      "Ġà¤¹à¤¾à¤¤": 4407,
      "Ġà¤ľà¤¿à¤¸à¤¸à¥ĩ": 4408,
      "Ġmedic": 4409,
      "Ġà¤¦à¥ģà¤¨à¤¿à¤¯à¤¾": 4410,
      "Ġworks": 4411,
      "à¤¾à¤°à¥įà¤Ł": 4412,
      "Ġsepar": 4413,
      "à¤¯à¤¾à¤¨": 4414,
      "Ġliter": 4415,
      "à¤¾à¤ĩà¤¡": 4416,
      "Ġà¤¯à¥Ĥ": 4417,
      "cy": 4418,
      "lying": 4419,
      "Ġà¤¨à¤µà¥Ģà¤¨": 4420,
      "Ġdog": 4421,
      "Ġà¤®à¤¹à¤¾à¤ª": 4422,
      "Ġà¤īà¤²à¥įà¤²": 4423,
      "ĠPr": 4424,
      "Ġà¤¤à¤°à¤«": 4425,
      "ĠMin": 4426,
      "à¤ıà¤¨": 4427,
      "Ġà¤¸à¤Ĥà¤ļà¤¾à¤²": 4428,
      "Ġà¤ĩà¤ļà¥įà¤Ľ": 4429,
      "Ġà¤¸à¤¾à¤®à¤¾à¤ľà¤¿à¤ķ": 4430,
      "Ġà¤ĸà¤°à¥Ģ": 4431,
      "Ġà¤®à¥ģà¤¤": 4432,
      "ĠSchool": 4433,
      "Ġà¤ķà¤¹à¤¨à¤¾": 4434,
      "Ġskin": 4435,
      "AT": 4436,
      "het": 4437,
      "Ġà¤¶à¥ĭ": 4438,
      "hold": 4439,
      "Ġtar": 4440,
      "Ġsoft": 4441,
      "Ġà¤¬à¥ĭà¤°à¥įà¤¡": 4442,
      "Ġut": 4443,
      "à¤ķà¤Ł": 4444,
      "Ġà¤ªà¥įà¤°à¤¦à¤¾à¤¨": 4445,
      "ine,": 4446,
      "ĠCanad": 4447,
      "Ġà¤µà¤¹à¤¾à¤Ĥ": 4448,
      "ks": 4449,
      "Ġà¤¯à¤¾à¤¦à¤µ": 4450,
      "Ġà¤²à¤Ĺà¤Ńà¤Ĺ": 4451,
      "Ġà¤®à¥įà¤¹à¤Ł": 4452,
      "Ġemer": 4453,
      "à¤¾à¤¯à¤²": 4454,
      "Ġà¤²à¤¾à¤²": 4455,
      "Ġconditions": 4456,
      "Ġà¤¤à¥įà¤¯à¤¾à¤¨à¤Ĥà¤¤à¤°": 4457,
      "Ġà¤¸à¥įà¤¤à¤°": 4458,
      "Ġonline": 4459,
      "Ġà¤¯à¤¹à¥Ģ": 4460,
      "Ġà¤§à¤¾à¤°": 4461,
      "à¤ªà¥įà¤ª": 4462,
      "igure": 4463,
      "à¤°à¤¨": 4464,
      "Ġà¤Ńà¤Ĺà¤µà¤¾à¤¨": 4465,
      "emic": 4466,
      "Ġfeed": 4467,
      "à¤ķ,": 4468,
      "iddle": 4469,
      "urs": 4470,
      "Ġà¤¤à¥ģà¤®à¥įà¤¹à¥Ģ": 4471,
      "ĠJap": 4472,
      "à¤¯à¤Ĥ": 4473,
      "ronic": 4474,
      "ĠPre": 4475,
      "Ġà¤¸à¤Ĥà¤°": 4476,
      "Ġprevious": 4477,
      "Ġà¤¤à¤¾à¤ķ": 4478,
      "Ġà¤¡à¥īà¤ķà¥įà¤Łà¤°": 4479,
      "ations,": 4480,
      "Ġà¤¯à¥Ĥà¤¨": 4481,
      "Ġà¤Ńà¥Ĥà¤®à¤¿à¤ķà¤¾": 4482,
      "à¥ĭà¤¬à¤¤": 4483,
      "Ġtaking": 4484,
      "Ġà¤¸à¤¾à¤ĩ": 4485,
      "à¤¦à¥įà¤¦à¤²": 4486,
      "Ġà¤Ĩà¤¹": 4487,
      "Ġà¤¸à¤¾à¤Ĥà¤¸": 4488,
      "ney": 4489,
      "Ġà¤®à¥Įà¤¤": 4490,
      "ederal": 4491,
      "Ġà¤¤à¥ĩà¤²": 4492,
      "Ġà¤µà¤¿à¤ľà¤¯": 4493,
      "Ġpersonal": 4494,
      "to": 4495,
      "Ġà¤¸à¤Ĥà¤Ń": 4496,
      "t.": 4497,
      "Ġà¤Ĩà¤¨à¤Ĥà¤¦": 4498,
      "Ġcountries": 4499,
      "Ġremain": 4500,
      "à¤Łà¤¾": 4501,
      "Ġà¤ļà¤¿à¤ķ": 4502,
      "Ġheat": 4503,
      "ĠDr.": 4504,
      "estern": 4505,
      "à¥ģà¤Ŀ": 4506,
      "ricult": 4507,
      "Ġà¤¹à¤¿à¤Ĥ": 4508,
      "Ġà¤ķà¥ĭà¤¶": 4509,
      "Ġà¤ªà¥ĩà¤Ł": 4510,
      "Ġp.": 4511,
      "à¥ģà¤·à¥įà¤¯": 4512,
      "ges": 4513,
      "Ġà¤ķà¤¬": 4514,
      "onse": 4515,
      "Ġà¤ĭ": 4516,
      "Ġà¤ªà¤¾à¤Łà¥Ģà¤²": 4517,
      "Ġà¤ĩà¤Ĥà¤Ĺ": 4518,
      "Ġà¤¤à¥įà¤¯à¤¾à¤µ": 4519,
      "Ġsix": 4520,
      "Ġà¤¨à¤ı": 4521,
      "pid": 4522,
      "ĠOther": 4523,
      "à¥ĩà¤ļà¥Ģ": 4524,
      "à¥įà¤¯à¤¾à¤¹": 4525,
      "Ġà¤ľà¤¿à¤²à¥ĩ": 4526,
      "Ġla": 4527,
      "à¤ķà¤¾à¤²": 4528,
      "Ġà¤Ĺà¥ģà¤¨": 4529,
      "aged": 4530,
      "abor": 4531,
      "Ġà¤ªà¤¹à¤²à¥Ģ": 4532,
      "Ġà¤¦à¤¿à¤²à¥ĩ": 4533,
      "Ġà¤°à¥ĭà¤Ĺ": 4534,
      "à¤¿à¤¹à¤¾à¤°": 4535,
      "Ġà¤Ĺà¤Ĥà¤Ńà¥Ģà¤°": 4536,
      "ĠInt": 4537,
      "Ġdisord": 4538,
      "minist": 4539,
      "Ġincreasing": 4540,
      "à¥ĭà¤Ĥ,": 4541,
      "Ġà¤¸à¥ģà¤µà¤¿à¤§": 4542,
      "ĠPer": 4543,
      "Ġindustry": 4544,
      "ES": 4545,
      "Ã©": 4546,
      "Ġà¤°à¥ĭà¤ķ": 4547,
      "Ġà¤µà¤¿à¤§à¤¾à¤¨à¤¸à¤Ńà¤¾": 4548,
      "astic": 4549,
      "Ġà¤ªà¥įà¤°à¤¦à¤°à¥įà¤¶à¤¨": 4550,
      "go": 4551,
      "à¤¤à¥Ģà¤¨à¥ĩ": 4552,
      "ards": 4553,
      "ĠNews": 4554,
      "Ġà¤¸à¤Ĺ": 4555,
      "Ġinteract": 4556,
      "ley": 4557,
      "izing": 4558,
      "à¤¾à¤¤à¥į": 4559,
      "ĠYour": 4560,
      "Ġà¤ªà¤¹à¤¿à¤²": 4561,
      "Ġidea": 4562,
      "abet": 4563,
      "Ġà¤µà¥ĩà¤¬": 4564,
      "mb": 4565,
      "ran": 4566,
      "Ġà¤®à¤§": 4567,
      "Ġà¤ħà¤°à¥įà¤ľ": 4568,
      "ĠFl": 4569,
      "Ġbuilt": 4570,
      "Ġbur": 4571,
      "ety": 4572,
      "Ġimag": 4573,
      "Ġvide": 4574,
      "Ġà¤ªà¤°à¥Ģà¤ķà¥įà¤·à¤¾": 4575,
      "à¤¹à¤¿à¤¤": 4576,
      "PA": 4577,
      "Ġà¤¸à¤®à¥ģà¤¦": 4578,
      "Ġbreak": 4579,
      "à¤°à¥įà¤ª": 4580,
      "à¥įà¤¯à¤¾.": 4581,
      "Ġheav": 4582,
      "à¥ĩà¤¦à¤¾à¤°": 4583,
      "Ġà¤®à¥ģà¤¤à¤¾à¤¬": 4584,
      "Ġà¤ªà¤µà¤¾à¤°": 4585,
      "Ġà¤ªà¤Ĥà¤ľ": 4586,
      "Ġbring": 4587,
      "Ġà¤¸à¤Ĥà¤ľ": 4588,
      "Ġà¤µà¤°à¥įà¤¤": 4589,
      "Ġà¤ªà¤¦à¤¾à¤°": 4590,
      "Ġinj": 4591,
      "à¤¨à¥Ģà¤¯": 4592,
      "ĠQu": 4593,
      "ĠGerman": 4594,
      "Ġà¤¯à¤¾à¤¤": 4595,
      "Ġà¤¯à¤¶": 4596,
      "Ġà¤°à¤¸à¥įà¤¤": 4597,
      "aff": 4598,
      "Ġ(N": 4599,
      "oor": 4600,
      "à¥ĩà¤Ĥà¤Ĺà¥ĩ": 4601,
      "Ġà¤®à¥ģà¤¤à¤¾à¤¬à¤¿à¤ķ": 4602,
      "Ġdeb": 4603,
      "Ġà¤¶à¤¿à¤µà¤¸à¥ĩ": 4604,
      "ĠâĢľThe": 4605,
      "inary": 4606,
      "ables": 4607,
      "ging": 4608,
      "Ġà¤«à¤²": 4609,
      "Ġhealthy": 4610,
      "lt": 4611,
      "Ġà¤ķà¥ĩà¤Ĥà¤¦": 4612,
      "Ġà¤¨à¤¿à¤®": 4613,
      "raft": 4614,
      "ĠAccording": 4615,
      "Ġà¤ªà¥įà¤°à¤ķà¥įà¤°à¤¿à¤¯à¤¾": 4616,
      "Ġà¤¬à¤¿à¤¨à¤¾": 4617,
      "Ġà¤¬à¤ļà¥įà¤ļà¥ĭà¤Ĥ": 4618,
      "Ġà¤ªà¤¾à¤ļ": 4619,
      "Ġà¤ħà¤ķ": 4620,
      "Ġsex": 4621,
      "à¤®à¤°": 4622,
      "Ġexc": 4623,
      "Ġcontact": 4624,
      "reng": 4625,
      "Ġà¤ªà¤°à¤¿à¤¸à¥įà¤¥": 4626,
      "Ġsurv": 4627,
      "à¥ģà¤°à¥Ģ": 4628,
      "irth": 4629,
      "Ġsleep": 4630,
      "Ġà¤¶à¤°": 4631,
      "Ġà¤®à¤²": 4632,
      "Ġsite": 4633,
      "Ġenvironmental": 4634,
      "Ġà¤¸à¤¿à¤¨": 4635,
      "Ġà¤ªà¤°à¤¿à¤¸à¤°": 4636,
      "plic": 4637,
      "à¥ĭà¤²à¤¨": 4638,
      "Ġaccept": 4639,
      "Ġà¤ľà¤¿à¤²à¤¾": 4640,
      "Ġtotal": 4641,
      "Ġce": 4642,
      "ropri": 4643,
      "à¥ĭ,": 4644,
      "-based": 4645,
      "Ġà¤®à¤°à¤¾à¤łà¥Ģ": 4646,
      "ites": 4647,
      "Ġà¤¬à¥Ģà¤ľ": 4648,
      "Ġà¤ħà¤¸à¥įà¤ªà¤¤à¤¾à¤²": 4649,
      "à¤Ĥ,": 4650,
      "Ġeat": 4651,
      "Ġviol": 4652,
      "Ġcaused": 4653,
      "Ġà¤¯à¥ģ": 4654,
      "Ġbird": 4655,
      "Ġquestions": 4656,
      "Ġà¤®à¤¾à¤°à¥įà¤ļ": 4657,
      "Ġà¤ķà¥Īà¤¸à¥ĩ": 4658,
      "Ġà¤¦à¥Ĥà¤¸à¤°à¥Ģ": 4659,
      "hing": 4660,
      "Ġlove": 4661,
      "Ġà¤°à¤¾à¤¹à¥ģà¤²": 4662,
      "Ġblock": 4663,
      "Ġà¤¤à¥įà¤¯à¤¾à¤Ĥà¤ļ": 4664,
      "Ġrev": 4665,
      "osition": 4666,
      "à¥Ĥà¤°à¥įà¤µ": 4667,
      "à¤®à¥ĩ": 4668,
      "ume": 4669,
      "ĠComp": 4670,
      "Ġactivity": 4671,
      "Ġpric": 4672,
      "Ġà¤¸à¤°à¤ķà¤¾à¤°à¥Ģ": 4673,
      "Ġà¤¨à¤¾à¤¹à¥Ģà¤¤": 4674,
      "Ġà¤ªà¤°à¤¿à¤µ": 4675,
      "ĠRec": 4676,
      "à¤¤à¥Ģà¤¤": 4677,
      "Ġà¤¡à¥Ģ": 4678,
      "à¥ĩà¤¶à¥įà¤µà¤°": 4679,
      "Ġshown": 4680,
      "Ġgroups": 4681,
      "ĠPart": 4682,
      "à¥ĩà¤Ĺà¥Ģà¥¤": 4683,
      "à¥ħà¤¨": 4684,
      "irit": 4685,
      "ĠStat": 4686,
      "uck": 4687,
      "Ġà¤¹à¤²": 4688,
      "mon": 4689,
      "ched": 4690,
      "Ġstress": 4691,
      "ĠEd": 4692,
      "ips": 4693,
      "Ġtravel": 4694,
      "Ġmusic": 4695,
      "Ġà¤°à¤¾à¤ľà¤¨à¥Ģ": 4696,
      "anced": 4697,
      "Ġpositive": 4698,
      "à¥įà¤®à¤¿à¤ķ": 4699,
      "Ġdiagn": 4700,
      "Ġsat": 4701,
      "Ġincludes": 4702,
      "Ġà¤¹à¤®à¥ĩà¤Ĥ": 4703,
      "Ġsaid.": 4704,
      "Ġà¤¨à¥įà¤¯à¥Ĥà¤ľ": 4705,
      "Ġà¤ĸà¥Ĥà¤ª": 4706,
      "w.": 4707,
      "Ġà¤ªà¥įà¤°à¤¯à¥ĭà¤Ĺ": 4708,
      "Ġshows": 4709,
      "Ġà¥¤à¥¤": 4710,
      "Ġresources": 4711,
      "Ġà¤¡à¥įà¤°": 4712,
      "ĠWill": 4713,
      "Ġvari": 4714,
      "Ġbelieve": 4715,
      "Ġà¤ľà¤²à¥įà¤¦": 4716,
      "Ġà¤ªà¥ģà¤¨à¥įà¤¹à¤¾": 4717,
      "Ġà¤ľà¥Ĥà¤¨": 4718,
      "Ġà¤ĩà¤¤à¤¿à¤¹à¤¾à¤¸": 4719,
      "à¥ĩà¤¤à¤¾": 4720,
      "ediate": 4721,
      "Ġà¤®à¥ĭà¤łà¥įà¤¯à¤¾": 4722,
      "Ġlack": 4723,
      "ate,": 4724,
      "Ġà¤ķà¤¾à¤Ĥ": 4725,
      "ruit": 4726,
      "hood": 4727,
      "Ġà¤Ŀà¤¾à¤²à¥ĩà¤²à¥įà¤¯à¤¾": 4728,
      "Ġoriginal": 4729,
      "Ġà¤ĸà¤¤": 4730,
      "Ġà¤µà¤¾à¤ļ": 4731,
      "Ġà¤µà¤¾à¤¯à¤°": 4732,
      "erous": 4733,
      "Ġà¤ªà¥įà¤°à¤¥à¤®": 4734,
      "Ġà¤¹à¥ĭà¤Ĺà¥Ģà¥¤": 4735,
      "AR": 4736,
      "Ġrelative": 4737,
      "Ġdesigned": 4738,
      "ĠCons": 4739,
      "Ġà¤¶à¤¾à¤¹": 4740,
      "ucle": 4741,
      "ĠNot": 4742,
      "Ġà¤ªà¥įà¤°à¤§à¤¾à¤¨à¤®à¤Ĥà¤¤à¥įà¤°à¥Ģ": 4743,
      "Ġà¤®à¥ģà¤¦à¥įà¤¦": 4744,
      "Ġà¤¹à¥ĭà¤ķà¤°": 4745,
      "Ġà¤¸à¤®à¤ľ": 4746,
      "à¥ĩà¤ħà¤°": 4747,
      "Ġthreat": 4748,
      "Ġà¤īà¤¸à¥Ģ": 4749,
      "Ġà¤ķà¥ĩà¤Ĥà¤¦à¥įà¤°à¥Ģà¤¯": 4750,
      "ban": 4751,
      "room": 4752,
      "Ġà¤¨à¤Ī": 4753,
      "à¥įà¤¯à¤¾à¤¶": 4754,
      "Ġearth": 4755,
      "Ġà¤¹à¥ĭà¤Ĥà¤Ĺ": 4756,
      "à¤¿à¤°à¤¿à¤ķà¥įà¤¤": 4757,
      "Ġà¤®à¤¾à¤Ĥ": 4758,
      "Ġà¤īà¤¤à¥įà¤¸": 4759,
      "Ġregular": 4760,
      "Ġple": 4761,
      "Ġà¤¶à¥ĭà¤§": 4762,
      "à¤²à¥ĩà¤²à¥Ģ": 4763,
      "aving": 4764,
      "Ġà¤Ĺà¥ģà¤°à¥ģ": 4765,
      "Ġà¤ªà¥įà¤°à¤Ń": 4766,
      "Ġmach": 4767,
      "Ġà¤ĸà¤¬à¤°": 4768,
      "ĠFrom": 4769,
      "Ġà¤īà¤¦à¥įà¤¦": 4770,
      "Ġà¤łà¥Ģà¤ķ": 4771,
      "Ġpressure": 4772,
      "Ġfem": 4773,
      "Ġà¤Ńà¥ĩà¤Ł": 4774,
      "Ġste": 4775,
      "Ġtechnolog": 4776,
      "Ġà¤²à¤¿à¤¹": 4777,
      "Ġprovided": 4778,
      "Ġparts": 4779,
      "Ġpoll": 4780,
      "Ġled": 4781,
      "Ġspread": 4782,
      "à¤¿à¤ĺ": 4783,
      "Ġprec": 4784,
      "Ġà¤¤à¤²": 4785,
      "Ġclean": 4786,
      "Ġà¤¸à¤®à¤¸à¥įà¤¯à¤¾": 4787,
      "Ġrights": 4788,
      "Ġgreater": 4789,
      "ĠEduc": 4790,
      "rior": 4791,
      "à¤¤à¤Ĥà¤¤à¥įà¤°": 4792,
      "ĠScience": 4793,
      "Ġà¤¨à¤¾": 4794,
      "Ġà¤ħà¤Ńà¤¿à¤¯": 4795,
      "à¤¾à¤Ĥà¤¸à¤¾à¤łà¥Ģ": 4796,
      "Ġcolor": 4797,
      "à¥ĩà¤².": 4798,
      "Ġà¤¹à¤¿à¤¨à¥įà¤¦": 4799,
      "Ġsubst": 4800,
      "ĠAustral": 4801,
      "ĠOf": 4802,
      "Ġà¤ļà¥Ģà¤¨": 4803,
      "Ġà¤¯à¥ģà¤¦à¥įà¤§": 4804,
      "Ġà¤ķà¥įà¤°à¤®": 4805,
      "Ġslow": 4806,
      "Ġ(B": 4807,
      "à¤¾à¤ĺ": 4808,
      "à¤²à¥ĩà¤²à¤¾": 4809,
      "Ġà¤¤à¤¾à¤²à¥ģà¤ķ": 4810,
      "://": 4811,
      "Ġmicro": 4812,
      "Ġrespect": 4813,
      "Ġbacter": 4814,
      "Ġà¤µà¤¾à¤¦": 4815,
      "new": 4816,
      "Ġactive": 4817,
      "Ġanalysis": 4818,
      "Ġà¤²à¤¾à¤ĩ": 4819,
      "-w": 4820,
      "à¤¸à¥įà¤Łà¥įà¤°": 4821,
      "Ġà¤ķà¥ĭà¤Łà¥Ģ": 4822,
      "ay,": 4823,
      "Ġà¤ħà¤¨à¥ģà¤®": 4824,
      "Ġaverage": 4825,
      "Ġtarget": 4826,
      "à¤ķà¤¡à¥ĩ": 4827,
      "Ġmeaning": 4828,
      "Ġà¤®à¤¿à¤¨": 4829,
      "à¤Ĥà¤¤à¥įà¤°à¤£": 4830,
      "ief": 4831,
      "à¤µà¤¿à¤ķ": 4832,
      "rast": 4833,
      "Ġà¤¯à¥ĩà¤£à¤¾à¤°": 4834,
      "ĠJapan": 4835,
      "ĠCO": 4836,
      "iction": 4837,
      "Ġà¤Ĺà¤¯à¥ĩ": 4838,
      "ma": 4839,
      "à¤®à¤¤à¤¾": 4840,
      "Ġsize": 4841,
      "à¥īà¤¡": 4842,
      "Ġà¤«à¥Īà¤¸": 4843,
      "alu": 4844,
      "Ġà¤ªà¥Ĥà¤°à¥ĩ": 4845,
      "Ġà¤¹à¤¾à¤°": 4846,
      "rought": 4847,
      "ufact": 4848,
      "à¤Ĩà¤¯": 4849,
      "Ġdeep": 4850,
      "Ġà¤Ĺà¤ıà¥¤": 4851,
      "à¤¦à¥ĩà¤µ": 4852,
      "Ġsimply": 4853,
      "onstr": 4854,
      "olic": 4855,
      "eds": 4856,
      "à¤°à¥ĭà¤¬à¤°": 4857,
      "ising": 4858,
      "Ġà¤Łà¥ĩà¤¸à¥įà¤Ł": 4859,
      "Ġcit": 4860,
      "rench": 4861,
      "Ġà¤¡à¤¾à¤²": 4862,
      "Ġà¤ħà¤¸à¤¤à¥ĩ.": 4863,
      "Ġwild": 4864,
      "lex": 4865,
      "Ġà¤°à¥ĭà¤ľà¥Ģ": 4866,
      "Ġà¤¥à¥Ģà¤Ĥ": 4867,
      "Ġà¤¦à¥ĩà¤ĸà¤¨à¥ĩ": 4868,
      "Ġà¤¸à¤¿": 4869,
      "Ġà¤ªà¤¾à¤¹à¤¿à¤ľ": 4870,
      "age,": 4871,
      "à¥ģà¤Ĥà¤¬": 4872,
      "Ġnight": 4873,
      "Ġà¤ķà¤¾à¤°à¥įà¤¯à¤ķà¤°à¥įà¤¤": 4874,
      "Ġà¤®à¤¾à¤Ĺà¤£à¥Ģ": 4875,
      "Ġcomputer": 4876,
      "ĠJan": 4877,
      "à¤¾à¤¶à¥Ģ": 4878,
      "Ġproducts": 4879,
      "Ġwritten": 4880,
      "Ġvariety": 4881,
      "Ġà¤ªà¤¾à¤£": 4882,
      "à¥Īà¤ķ": 4883,
      "Ġà¤°à¤¸": 4884,
      "Ġà¤ħà¤ļà¥įà¤Ľà¤¾": 4885,
      "Ġit,": 4886,
      "Ġshare": 4887,
      "à¤Ĥà¤¥": 4888,
      "ese": 4889,
      "à¥ĩà¤¨à¥ĩ": 4890,
      "à¥ħà¤Ł": 4891,
      "à¤¤à¤ķ": 4892,
      "Ġmechan": 4893,
      "à¥ģà¤ĵà¤Ĥ": 4894,
      "Ġà¤¸à¤¾à¤¹à¤¿à¤¤à¥įà¤¯": 4895,
      "Ġface": 4896,
      "à¤Ĺà¤¾à¤µ": 4897,
      "ĠPar": 4898,
      "Ġà¤ķà¥ģà¤Ł": 4899,
      "uge": 4900,
      "à¤ĸà¥Ģ": 4901,
      "Ġpsych": 4902,
      "Ġà¤ªà¤¤à¥įà¤¨à¥Ģ": 4903,
      "IN": 4904,
      "Ġà¤¥à¥ĩ,": 4905,
      "as,": 4906,
      "Ġà¤¨à¤®": 4907,
      "Ġbasic": 4908,
      "Ġà¤ªà¥ĥ": 4909,
      "Ġstructure": 4910,
      "à¤¾à¤¯à¥Ģ": 4911,
      "Ġinteg": 4912,
      "Ġneeded": 4913,
      "Ġlonger": 4914,
      "à¥Ĥà¤·": 4915,
      "Ġencoura": 4916,
      "Ġà¤ħà¤¨à¥įà¤¤": 4917,
      "à¤¸à¥įà¤ķà¤¾à¤°": 4918,
      "Ġà¤ķà¤Ł": 4919,
      "Ġà¤¸à¤«à¤²": 4920,
      "ĠItâĢĻs": 4921,
      "Ġà¤°à¥ģà¤ªà¤¯": 4922,
      "Ġissues": 4923,
      "rand": 4924,
      "Ġà¤¤à¥ģà¤²": 4925,
      "Ġexpress": 4926,
      "Ġà¤¸à¤µà¤¾à¤²": 4927,
      "ĠUs": 4928,
      "Ġsometimes": 4929,
      "vey": 4930,
      "ĠAug": 4931,
      "Ġà¤¶à¤¾à¤¦à¥Ģ": 4932,
      "Ġà¤¶à¤¿à¤ķà¥įà¤·à¤£": 4933,
      "Ġpict": 4934,
      "ĠHar": 4935,
      "Ġà¤ıà¤²": 4936,
      "à¤łà¤¨": 4937,
      "à¤¾à¤¤à¤¾à¤°": 4938,
      "',": 4939,
      "Ġemb": 4940,
      "ster": 4941,
      "Ġà¤ķà¤°à¥Ģà¤¤": 4942,
      "asc": 4943,
      "Ġdrink": 4944,
      "Ġharm": 4945,
      "idge": 4946,
      "Ġà¤ªà¥įà¤°à¤¸à¤¿à¤¦à¥įà¤§": 4947,
      "à¤¾à¤¤.": 4948,
      "Ġinfection": 4949,
      "Ġà¤ªà¤¦à¤¾à¤°à¥įà¤¥": 4950,
      "Ġimplement": 4951,
      "Ġyears.": 4952,
      "Ġrefer": 4953,
      "Ġorigin": 4954,
      "Ġà¤ªà¤¦à¥įà¤§": 4955,
      "Ġà¤ļà¤¿à¤Ĥ": 4956,
      "hel": 4957,
      "Ġà¤¦à¥ĩà¤ĸà¤¾": 4958,
      "Ġ*": 4959,
      "Ġstreng": 4960,
      "Ġà¤ªà¥ģà¤¢à¥ĩ": 4961,
      "Ġà¤µà¤¸": 4962,
      "Ġà¤¦à¥ĩà¤¤à¤¾": 4963,
      "Ġà¤Ĺà¥ĭà¤²": 4964,
      "ĠAc": 4965,
      "Ġà¤Ĩà¤Ĥà¤¦": 4966,
      "à¤¾à¤ķà¥Ģ": 4967,
      "à¥įà¤¯à¤¾à¤Ĥà¤ļà¥Ģ": 4968,
      "Ġreading": 4969,
      "Ġà¤¸à¤¿à¤°à¥įà¤«": 4970,
      "-à¤®": 4971,
      "à¥ĩà¤µà¤°": 4972,
      "ĠNow": 4973,
      "Ġà¤¸à¤Ĥà¤¶": 4974,
      "Ġà¤ķà¤ł": 4975,
      "Ġappl": 4976,
      "ales": 4977,
      "Ġà¤²à¤¾à¤Ĺà¥Ĥ": 4978,
      "Ġoutside": 4979,
      "Ġidentify": 4980,
      "Ġà¤ħà¤¥à¤µà¤¾": 4981,
      "Ġà¤ľà¥ĭà¤°": 4982,
      "Ġcarbon": 4983,
      "à¥ĥà¤¤à¥įà¤µ": 4984,
      "nces": 4985,
      "ĠIndian": 4986,
      "Ġà¤¸à¤Ń": 4987,
      "ze": 4988,
      "Ġà¤ĺà¤Łà¤¨": 4989,
      "Ġà¤Ĺà¥ģà¤ľà¤°": 4990,
      "Ġtax": 4991,
      "ength": 4992,
      "Ġà¤¬à¤¿à¤ľ": 4993,
      "Ġsqu": 4994,
      "Ġhelps": 4995,
      "Ġà¤Ĺà¥ĩà¤Ĥà¤¦": 4996,
      "Ġà¤ªà¥ģà¤¸à¥įà¤¤": 4997,
      "Ġà¤®à¤Ĺ": 4998,
      "Ġpractice": 4999,
      "Ġà¤ªà¥Ģà¤Ľ": 5000,
      "Ġà¤¶à¥ģà¤Ń": 5001,
      "Ġà¤¡à¤¿à¤ľ": 5002,
      "Ġvisit": 5003,
      "Ġà¤ļà¥ģà¤ķà¥ĩ": 5004,
      "Ġlog": 5005,
      "Ġcompet": 5006,
      "utions": 5007,
      "ĠIndia": 5008,
      "Ġstates": 5009,
      "à¤®à¤¾": 5010,
      "à¤Ĥà¤¶": 5011,
      "Ġà¤Łà¥įà¤µ": 5012,
      "ribution": 5013,
      "Ġbal": 5014,
      "Ġà¤¦à¤¿à¤¶": 5015,
      "Ġresponse": 5016,
      "Ġ(R": 5017,
      "s)": 5018,
      "Ġà¤¨à¥ĭà¤Ł": 5019,
      "Ġà¤µà¤¿à¤ª": 5020,
      "ĠKing": 5021,
      "Ġensure": 5022,
      "à¤³à¤¾": 5023,
      "Ġà¤®à¤¾à¤¨à¤¾": 5024,
      "Ġreview": 5025,
      "Ġcases": 5026,
      "Ġforce": 5027,
      "Ġà¤Ńà¤¾à¤·à¤¾": 5028,
      "Ġà¤¤à¥ĩà¤µà¥įà¤¹à¤¾": 5029,
      "Ġà¤ķà¥ĭà¤²": 5030,
      "Ġlate": 5031,
      "ellow": 5032,
      "Ġattempt": 5033,
      "ĠFirst": 5034,
      "Ġcauses": 5035,
      "aily": 5036,
      "à¤µà¤¡": 5037,
      "à¤ļà¤²": 5038,
      "Ġparticularly": 5039,
      "Ġà¤¸à¥ĭà¤¨": 5040,
      "ached": 5041,
      "Ġà¤¨à¥ģà¤ķà¤¸à¤¾à¤¨": 5042,
      "usion": 5043,
      "à¥īà¤°à¥įà¤®": 5044,
      "Ġà¤ªà¤¸": 5045,
      "Ġà¤ľà¥ģà¤²": 5046,
      "Ġresist": 5047,
      "Ġissu": 5048,
      "Ġà¤Ĩà¤¯à¥ĭà¤ľà¤¿à¤¤": 5049,
      "Ġà¤¥à¥Ģ,": 5050,
      "Ġà¤ĺà¤¾à¤²": 5051,
      "ata": 5052,
      "rated": 5053,
      "à¤²à¥ĩà¤ķ": 5054,
      "à¤¿à¤Ĥà¤ķ": 5055,
      "ĠMy": 5056,
      "Ġà¤īà¤¤à¥įà¤ªà¤¨à¥įà¤¨": 5057,
      "Ġthemselves": 5058,
      "à¤ıà¤ķ": 5059,
      "Ġà¤¶à¥Ģ": 5060,
      "Ġap": 5061,
      "Ġà¤¸à¤Ĥà¤¤": 5062,
      "Ġsuccessful": 5063,
      "Ġà¤ªà¤°à¤¤": 5064,
      "Ġà¤¯à¤¾à¤µà¥ĩà¤³à¥Ģ": 5065,
      "Ġà¤¸à¤¹à¤¿à¤¤": 5066,
      "ĠSm": 5067,
      "Ġà¤ªà¥įà¤°à¤ķà¤°à¤£": 5068,
      "Ġà¤¶à¤¨": 5069,
      "Ġeasy": 5070,
      "ĠA.": 5071,
      "Ġà¤®à¤¹à¥Ģà¤¨à¥ĩ": 5072,
      "uth": 5073,
      "Ġà¤Ĺà¤°à¤ľ": 5074,
      "à¤¿à¤ķà¥įà¤¸": 5075,
      "à¤Ĥà¤¦à¤¾à¤ľ": 5076,
      "Ġà¤¹à¤µ": 5077,
      "Ġregion": 5078,
      "à¤¾à¤Łà¤ķ": 5079,
      "Ġà¤ªà¤¶à¥įà¤ļà¤¿à¤®": 5080,
      "Ġsust": 5081,
      "Ġà¤¸à¤§à¥įà¤¯à¤¾": 5082,
      "à¥ĩà¤Ĥ.": 5083,
      "Ġ(D": 5084,
      "ĠKe": 5085,
      "Ġtask": 5086,
      "Ġdeal": 5087,
      "Ġà¤łà¤¿à¤ķà¤¾à¤£à¥Ģ": 5088,
      "ĠGl": 5089,
      "à¤¹à¥įà¤®": 5090,
      "ĠJu": 5091,
      "Ġà¤ķà¤°à¤£à¥ĩ": 5092,
      "Ġà¤µà¤ķà¥įà¤¤": 5093,
      "Ġdefin": 5094,
      "Ġdemonstr": 5095,
      "fect": 5096,
      "Ġà¤¨à¤¿à¤§": 5097,
      "Ġremov": 5098,
      "Ġà¤īà¤ªà¤ļà¤¾à¤°": 5099,
      "ha": 5100,
      "Ġcompon": 5101,
      "ĠBec": 5102,
      "ustom": 5103,
      "Ġaff": 5104,
      "Ġtend": 5105,
      "Ġconnect": 5106,
      "Ġà¤ľà¤¿à¤¸à¥ĩ": 5107,
      "Ġspeak": 5108,
      "rip": 5109,
      "Ġà¤µà¤°à¥įà¤£": 5110,
      "Ġcoun": 5111,
      "Ġà¤¨à¤¾à¤Ĺ": 5112,
      "à¥ĭà¤Ĥà¤¦": 5113,
      "ĠEl": 5114,
      "ĠCount": 5115,
      "ivity": 5116,
      "Ġà¤¶à¥ģà¤ķà¥įà¤°": 5117,
      "Ġà¤īà¤¤à¥įà¤ªà¤¾à¤¦à¤¨": 5118,
      "ership": 5119,
      "Ġdeveloping": 5120,
      "ĠJes": 5121,
      "Ġuses": 5122,
      "oud": 5123,
      "Ġà¤ħà¤¹": 5124,
      "ĠNo": 5125,
      "à¥ĩà¤ªà¥Ģ": 5126,
      "Ġparents": 5127,
      "ĠOur": 5128,
      "Ġsou": 5129,
      "Ġà¤ĩà¤Ĥà¤¡à¤¿à¤¯à¤¾": 5130,
      "dom": 5131,
      "Ġwood": 5132,
      "Ġà¤¬à¤ģ": 5133,
      "Ġà¤¤à¤¯": 5134,
      "ĠReg": 5135,
      "Ġà¤ħà¤¸à¤²à¥įà¤¯à¤¾à¤¨à¥ĩ": 5136,
      "à¥Ĥà¤¡": 5137,
      "This": 5138,
      "Ġà¤ªà¥įà¤°à¤¸à¥įà¤¤à¤¾à¤µ": 5139,
      "Ġà¤µà¤¿à¤¸à¥įà¤¤": 5140,
      "Ġchalleng": 5141,
      "Ġà¤®à¤¹à¤¾à¤®": 5142,
      "Ġà¤¨à¤Ĥà¤¬à¤°": 5143,
      "Ġà¤¸à¤¾à¤µ": 5144,
      "Ġskills": 5145,
      "Ġà¤²à¥ĭ": 5146,
      "Ġmaintain": 5147,
      "Ġà¤¨à¤¿à¤ķà¤¾à¤²": 5148,
      "Ġà¤¸à¥Ģà¤Ł": 5149,
      "Ġà¤¹à¥Ĥà¤ģ": 5150,
      "à¤²à¥Ģà¤µ": 5151,
      "Ġemot": 5152,
      "ores": 5153,
      "Ġà¤¨à¤¿à¤Ĺ": 5154,
      "ĠTw": 5155,
      "à¤¤à¤¾,": 5156,
      "Ġord": 5157,
      "imately": 5158,
      "Ġindepend": 5159,
      "imum": 5160,
      "Ġà¤²à¤Ĺà¤¾à¤¤à¤¾à¤°": 5161,
      "Ġnon-": 5162,
      "Ġà¤®à¤ľà¤¬": 5163,
      "Ġà¤¦à¤°à¤®": 5164,
      "Ġnormal": 5165,
      "ĠArt": 5166,
      "Ġconsist": 5167,
      "à¤¾à¤§à¥įà¤¯à¤ķà¥įà¤·": 5168,
      "Ġà¤ıà¤¡": 5169,
      "on.": 5170,
      "Ġà¤¬à¤ľà¥ĩ": 5171,
      "Ġcentury": 5172,
      "Ġà¤¦à¥ģà¤ķ": 5173,
      "Ġ(F": 5174,
      "ĠDuring": 5175,
      "Ġà¤¸à¤°à¥įà¤µà¤¾à¤¤": 5176,
      "Ġfactors": 5177,
      "Ġreported": 5178,
      "ropriate": 5179,
      "Ġbit": 5180,
      "Ġà¤¸à¥ĩà¤²": 5181,
      "à¤£à¥įà¤¯à¤¾à¤ļà¥Ģ": 5182,
      "Ġà¤Ĩà¤ĸ": 5183,
      "Ġà¤¬à¤¨à¤¾à¤¯à¤¾": 5184,
      "Ġvalu": 5185,
      "Ġmoney": 5186,
      "arily": 5187,
      "Ġà¤¸à¥įà¤µà¥Ģ": 5188,
      "Ġmess": 5189,
      "Ġfeet": 5190,
      "ĠJ.": 5191,
      "ice.": 5192,
      "Ġà¤ªà¥įà¤°à¤¶à¤¿à¤ķà¥įà¤·": 5193,
      "Ġà¤®à¤¹à¤¾à¤¨": 5194,
      "Ġà¤Ŀà¤¾à¤²à¤¾.": 5195,
      "Ġà¤Ĩà¤µà¤¶à¥įà¤¯à¤ķà¤¤à¤¾": 5196,
      "Ġà¤¸à¥ĩà¤µ": 5197,
      "Ġdraw": 5198,
      "à¤ªà¤¤à¤¿": 5199,
      "Ġà¤īà¤¦à¥įà¤¯à¥ĭà¤Ĺ": 5200,
      "Ġprep": 5201,
      "Ġà¤Ĩà¤°à¥ĭà¤Ĺ": 5202,
      "uary": 5203,
      "right": 5204,
      "à¤¦à¤°": 5205,
      "Ġir": 5206,
      "à¤ªà¤¤à¥įà¤°": 5207,
      "à¥Ĥà¤£": 5208,
      "Ġveget": 5209,
      "Ġà¤ħà¤¸à¤¤à¤¾à¤¨à¤¾": 5210,
      "oard": 5211,
      "Ġcorrect": 5212,
      "Ġà¤¤à¥įà¤¯à¤¾à¤ļà¤¾": 5213,
      "iat": 5214,
      "Ġdocument": 5215,
      "Ġà¤®à¤¹à¤¾à¤µ": 5216,
      "Ġaware": 5217,
      "Ġà¤ļà¤¾à¤¹à¤¤à¥ĩ": 5218,
      "à¤ıà¤«": 5219,
      "Ġcommit": 5220,
      "Ġwriting": 5221,
      "Ġextreme": 5222,
      "Ġfa": 5223,
      "Ġassist": 5224,
      "Ġmother": 5225,
      "Ġgenerally": 5226,
      "Ġinternational": 5227,
      "Ġà¤µà¤¾à¤¹à¤¨": 5228,
      "Ġforest": 5229,
      "ine.": 5230,
      "Ġteacher": 5231,
      "Ġpopul": 5232,
      "à¤¤à¤¾à¤¨à¤¾": 5233,
      "Ġà¤ļà¥įà¤¯à¤¾": 5234,
      "Ġyears,": 5235,
      "Ġcover": 5236,
      "à¥ĥà¤¤à¥Ģ": 5237,
      "Ġà¤¨à¥Ģ": 5238,
      "Ġà¤ªà¥įà¤°à¥ĭ": 5239,
      "ĠChild": 5240,
      "Ġanimals": 5241,
      "Ġox": 5242,
      "Ġselect": 5243,
      "Ġà¤«à¥įà¤²": 5244,
      "Ġserious": 5245,
      "Ġà¤Ĺà¥ĩà¤²à¥įà¤¯à¤¾": 5246,
      "Ġhabit": 5247,
      "Ġelectric": 5248,
      "Ġà¤µà¤¾à¤²": 5249,
      "Ġacid": 5250,
      "Ġfinanc": 5251,
      "Ġà¤®à¥Įà¤ľà¥Ĥà¤¦": 5252,
      "à¤¾à¤£à¤¾": 5253,
      "Ġtherefore": 5254,
      "iot": 5255,
      "à¤®à¥ģà¤³à¥ĩ": 5256,
      "Ġà¤ªà¥įà¤°à¤¤à¤¿à¤¨à¤¿à¤§": 5257,
      "Ġà¤«à¥ĭà¤Łà¥ĭ": 5258,
      "Ġmagn": 5259,
      "Ġà¤ķà¥ĩà¤µà¤³": 5260,
      "à¥ĩà¤Ĥ,": 5261,
      "à¤®à¥ģà¤ĸ": 5262,
      "Ġà¤¤à¥Įà¤°": 5263,
      "Ġà¤Ĩà¤®à¤¦à¤¾à¤°": 5264,
      "Ġdispl": 5265,
      "Ġà¤¸à¤¾à¤®à¤¨à¤¾": 5266,
      "à¤¦à¤¯": 5267,
      "Ġprobably": 5268,
      "Ġgetting": 5269,
      "att": 5270,
      "Ġbenefit": 5271,
      "oly": 5272,
      "Ġlo": 5273,
      "ienc": 5274,
      "Ġà¤ħà¤ªà¥įà¤°": 5275,
      "Ġcontinue": 5276,
      "à¤²à¤Ĺ": 5277,
      "Wh": 5278,
      "Ġà¤¶à¤¾à¤³": 5279,
      "Ġà¤ĺà¥ĭà¤·à¤£à¤¾": 5280,
      "Ġdiv": 5281,
      "à¥įà¤ķà¤¾à¤°": 5282,
      "à¤±à¥įà¤¯à¤¾": 5283,
      "Ġà¤ĺà¤Ĥà¤Ł": 5284,
      "à¥įà¤°à¤¾": 5285,
      "Ġà¤Ĺà¤¿à¤°à¤«à¥įà¤¤": 5286,
      "Ġrock": 5287,
      "www.": 5288,
      "aging": 5289,
      "Ġdoing": 5290,
      "Ġthird": 5291,
      "Ġà¤¸à¥ģà¤§à¤¾à¤°": 5292,
      "Ġà¤ħà¤ªà¤°": 5293,
      "à¤¤à¤¾.": 5294,
      "Ġà¤Ĭà¤ªà¤°": 5295,
      "Ġà¤ķà¥ĭà¤£à¤¤": 5296,
      "Ġmanufact": 5297,
      "à¥įà¤ķà¤¿": 5298,
      "ene": 5299,
      "Ġdou": 5300,
      "Ġà¤µà¤¿à¤²": 5301,
      "Ġà¤ľà¤µ": 5302,
      "ST": 5303,
      "à¤Ĺà¤¾": 5304,
      "à¥ĩà¤®à¤¾à¤²": 5305,
      "à¤ķà¤°à¥Ģ": 5306,
      "à¤¾à¤®à¥Ģà¤£": 5307,
      "à¤¾à¤ĵ": 5308,
      "Ġtakes": 5309,
      "à¤Ĺà¥įà¤°à¤¹": 5310,
      "Ġindividuals": 5311,
      "Ġlife.": 5312,
      "à¤¦à¥įà¤¯": 5313,
      "lection": 5314,
      "Ġà¤°à¤¿à¤²": 5315,
      "Ġà¤¤à¥įà¤¯à¤¾à¤¨à¥ĩ": 5316,
      "Ġà¤¬à¥ģà¤§": 5317,
      "Ġà¤īà¤ªà¤¾à¤¯": 5318,
      "OR": 5319,
      "Ġà¤®à¤¦à¤¤": 5320,
      "Ġcompany": 5321,
      "overy": 5322,
      "Ġgoal": 5323,
      "à¤ªà¤£": 5324,
      "à¤Ĥà¤ĸ": 5325,
      "Ġà¤¤à¤ªà¤¾à¤¸": 5326,
      "Ġinstead": 5327,
      "Ġà¤¨à¤¿à¤·": 5328,
      "Ġhyd": 5329,
      "Ġwalk": 5330,
      "ground": 5331,
      "à¤¾à¤ªà¤°": 5332,
      "Ġwall": 5333,
      "ences": 5334,
      "à¥ĭà¤ļ": 5335,
      "Ġà¤¹à¥ĭà¤Ĭ": 5336,
      "Ġproduced": 5337,
      "à¤Łà¤²": 5338,
      "Ġeth": 5339,
      "Ġconcent": 5340,
      "à¤¾à¤ķà¥ĩ": 5341,
      "Ġà¤¯à¤¹à¤¾à¤ģ": 5342,
      "à¤¸à¤¨": 5343,
      "ĠTra": 5344,
      "utes": 5345,
      "Ġà¤Łà¥įà¤°à¥ĩà¤¨": 5346,
      "Ġcross": 5347,
      "oles": 5348,
      "arden": 5349,
      "ĠCalif": 5350,
      "Ġfront": 5351,
      "Ġregul": 5352,
      "à¤¡à¤¼à¤ķ": 5353,
      "Ġà¤®à¥ĭà¤¬": 5354,
      "Ġtraining": 5355,
      "à¥įà¤µà¥Ģà¤°": 5356,
      "Ġà¤Ĩà¤¢": 5357,
      "osing": 5358,
      "Ġprint": 5359,
      "Ġà¤¶à¤°à¥įà¤®à¤¾": 5360,
      "Ġà¤ķà¥ĭà¤¶à¤¿à¤¶": 5361,
      "Ġterms": 5362,
      "à¤¾à¤ªà¤¨": 5363,
      "Ġmaterials": 5364,
      "à¤¾à¤§à¤¿à¤ķà¤¾à¤°à¥Ģ": 5365,
      "ĠCor": 5366,
      "Ġservice": 5367,
      "Ġà¤¤à¤¤": 5368,
      "Ġcommunities": 5369,
      "Ġgrowing": 5370,
      "bor": 5371,
      "ice,": 5372,
      "Ġful": 5373,
      "Ġà¤ļà¥Ģ": 5374,
      "Ġà¤²à¤Ĥà¤¬": 5375,
      "Ġearl": 5376,
      "Ġà¤¥à¥Ģ.": 5377,
      "Ġà¤µà¤°à¥įà¤·à¥ĭà¤Ĥ": 5378,
      "Ġà¤°à¤¾à¤ľà¤¾": 5379,
      "à¥įà¤¯à¤¾à¤¹à¥Ģ": 5380,
      "Ġà¤ļà¥Įà¤ķ": 5381,
      "Ġtrue": 5382,
      "Ġdang": 5383,
      "Ġà¤®à¤¾à¤²à¤¿à¤ķ": 5384,
      "Ġlooking": 5385,
      "Ġà¤ªà¥Īà¤¸à¥ĩ": 5386,
      "rie": 5387,
      "Ġsafe": 5388,
      "Ġà¤µà¤¿à¤ķà¥ĩà¤Ł": 5389,
      "Ġestablished": 5390,
      "Ġinstit": 5391,
      "cil": 5392,
      "Ġà¤²à¤µ": 5393,
      "ashing": 5394,
      "ate.": 5395,
      "Ġà¤ķà¤¾à¤¨à¥Ĥà¤¨": 5396,
      "Ġà¤¦à¤°à¤®à¥įà¤¯à¤¾à¤¨": 5397,
      "\",": 5398,
      "Ġà¤ħà¤Ńà¥įà¤¯à¤¾à¤¸": 5399,
      "Ġestim": 5400,
      "Ġvit": 5401,
      "Ġscientists": 5402,
      "Ġà¤ľà¥ĩà¤µ": 5403,
      "Ġà¤®à¥Īà¤Ĥà¤¨à¥ĩ": 5404,
      "cell": 5405,
      "Ġworld.": 5406,
      "à¥įà¤°à¤®à¤¾à¤£à¥ĩ": 5407,
      "à¤¦à¤¾à¤°à¥Ģ": 5408,
      "Ġinvestig": 5409,
      "AN": 5410,
      "Ġà¤¦à¤¶": 5411,
      "Ġà¤¬à¤²à¥įà¤ķà¤¿": 5412,
      "ĠChar": 5413,
      "Ġquite": 5414,
      "Ġwarm": 5415,
      "Ġà¤¸à¥ģà¤¬à¤¹": 5416,
      "Ġcr": 5417,
      "ĠEuropean": 5418,
      "Ġdetermine": 5419,
      "Ġà¤ķà¤¥": 5420,
      "Ġcard": 5421,
      "ided": 5422,
      "Ġheld": 5423,
      "is.": 5424,
      "Ġà¤ľà¤µà¤³": 5425,
      "Ġcompared": 5426,
      "Ġà¤¯à¤¾à¤Ĥà¤ļà¥Ģ": 5427,
      "Ġdifference": 5428,
      "us.": 5429,
      "Ġà¤¨à¤¿à¤µà¤¡à¤£à¥ģà¤ķ": 5430,
      "Ġà¤®à¤¾à¤¨à¤µ": 5431,
      "Ġà¤®à¤¹à¤¾à¤°à¤¾à¤ľ": 5432,
      "à¥ĩà¤Ĥà¤¬à¤°": 5433,
      "Ġtown": 5434,
      "useum": 5435,
      "ĠEven": 5436,
      "ĠRuss": 5437,
      "Ġsomeone": 5438,
      "ror": 5439,
      "Ġà¤łà¤¾à¤ķà¤°à¥ĩ": 5440,
      "ext": 5441,
      "set": 5442,
      "Ġà¤¶à¤¾à¤Ĥà¤¤": 5443,
      "Ġmilitary": 5444,
      "ĠFrench": 5445,
      "Ġtraditional": 5446,
      "à¤¿à¤¶à¤¤": 5447,
      "Ġà¤¸à¤¾à¤°à¥įà¤µ": 5448,
      "Ġà¤¨à¥Ģà¤¤à¤¿": 5449,
      "à¤¾à¤ªà¤¾à¤¸à¥Ĥà¤¨": 5450,
      "Ġbab": 5451,
      "oses": 5452,
      "à¤¾à¤Ĭà¤¨": 5453,
      "ĠInternational": 5454,
      "à¤¿à¤¯à¤²": 5455,
      "We": 5456,
      "Ġthous": 5457,
      "Ġà¤Ĩà¤²à¥Ģ.": 5458,
      "Ġhours": 5459,
      "Ġà¤¹à¤¸à¥įà¤¤": 5460,
      "Ġà¤¸à¥įà¤µà¥Ģà¤ķà¤¾à¤°": 5461,
      "Ġà¤¸à¤Ĥà¤¦": 5462,
      "Ġvacc": 5463,
      "Ġà¤ħà¤ļà¥įà¤Ľà¥Ģ": 5464,
      "Ġexpect": 5465,
      "ĠRead": 5466,
      "Ġà¤īà¤¦à¥įà¤¦à¥ĩà¤¶": 5467,
      "ervation": 5468,
      "Ġreve": 5469,
      "ĠBar": 5470,
      "Ġà¤ľà¤¿à¤²à¥įà¤¹à¤¾": 5471,
      "Ġprimary": 5472,
      "Ġà¤°à¤¹à¤¤à¥ĩ": 5473,
      "à¤¾à¤¹à¤°à¤£": 5474,
      "à¤ªà¤¦": 5475,
      "Ġcapt": 5476,
      "Ġà¤¶à¥ģà¤°à¥ģà¤Ĩ": 5477,
      "Ġà¤¦à¤¿à¤²à¤¾": 5478,
      "Ġà¤ķà¥ĭà¤°à¥ĭà¤¨": 5479,
      "Ġà¤®à¤¿à¤¤à¥įà¤°": 5480,
      "Ġà¤µà¤¿à¤¦à¥ĩà¤¶": 5481,
      "uk": 5482,
      "Ġà¤¸à¤®à¥įà¤¬": 5483,
      "Ġallows": 5484,
      "Ġà¤¨à¤¸à¤²": 5485,
      "Ġà¤µà¥ĩà¤¬à¤¸": 5486,
      "Ġinside": 5487,
      "Ġpoor": 5488,
      "Ġà¤Ĺà¥įà¤°à¤¾à¤®à¥Ģà¤£": 5489,
      "book": 5490,
      "ĠChristian": 5491,
      "Ġà¤°à¥ģà¤ªà¤ı": 5492,
      "rew": 5493,
      "Ġexperien": 5494,
      "à¤°à¥įà¤²": 5495,
      "Ġreflect": 5496,
      "à¤¿à¤Łà¤²": 5497,
      "à¤¦à¥Ģà¤ª": 5498,
      "Ġà¤¨à¤°à¥ĩà¤Ĥà¤¦à¥įà¤°": 5499,
      "Ġà¤ļà¥Ģà¤ľ": 5500,
      "à¤²à¤Ĥ.": 5501,
      "Ġà¤¤à¥ģà¤®à¥įà¤¹à¤¾à¤²à¤¾": 5502,
      "che": 5503,
      "Ġà¤¹à¥Ī?": 5504,
      "Ġà¤ªà¥įà¤°à¤¤à¤¿à¤ķ": 5505,
      "Ġinvolved": 5506,
      "à¤µà¤¿à¤²": 5507,
      "Ġfav": 5508,
      "ĠSince": 5509,
      "Ġsolar": 5510,
      "Ġmovement": 5511,
      "Ġà¤ĩà¤¸à¥įà¤¤à¥ĩà¤®à¤¾à¤²": 5512,
      "Ġà¤°à¤ĸà¤¾": 5513,
      "Ġà¤Ĩà¤Ĥà¤¦à¥ĭà¤²à¤¨": 5514,
      "Ġà¤¹à¤¾à¤¸": 5515,
      "à¥įà¤¹à¥ĩà¤Ĥ": 5516,
      "Ġbenefits": 5517,
      "ĠCaliforn": 5518,
      "Ġà¤°à¤ĸà¤¨à¥ĩ": 5519,
      "Ġà¤®à¤¹à¤¤à¥įà¤µà¤ªà¥Ĥà¤°à¥įà¤£": 5520,
      "Ġimmediate": 5521,
      "Ġtur": 5522,
      "Ġcivil": 5523,
      "Ġetc.": 5524,
      "Ġdecre": 5525,
      "Ġà¤²à¤¿à¤ĸà¤¾": 5526,
      "Ġ'à¤®": 5527,
      "Ġà¤Ńà¤¾à¤Ī": 5528,
      "Ġà¤®à¥ĩà¤¡": 5529,
      "à¤®à¥įà¤ª": 5530,
      "Ġà¤¦à¤¿à¤²à¥Ģ.": 5531,
      "Ġhy": 5532,
      "à¥ĩà¤¶à¤¨à¤²": 5533,
      "ille": 5534,
      "à¤¿,": 5535,
      "Ġà¤ªà¥įà¤°à¤¯à¤¾à¤¸": 5536,
      "where": 5537,
      "Ġà¤®à¤Ĥà¤ľ": 5538,
      "ĠHer": 5539,
      "ĠOct": 5540,
      "ĠMe": 5541,
      "Ġsold": 5542,
      "irl": 5543,
      "Ġà¤Łà¤ķà¥įà¤ķà¥ĩ": 5544,
      "Ġà¤¸à¥ģà¤°à¥ģà¤µ": 5545,
      "à¤¾à¤ķà¤¡à¥ĩ": 5546,
      "Ġmental": 5547,
      "Ġà¤°à¤£": 5548,
      "elling": 5549,
      "Ġà¤¡à¤¿à¤¸": 5550,
      "à¤¾à¤®à¤¾": 5551,
      "Ġà¤¸à¤®à¤¾à¤µ": 5552,
      "Ġevalu": 5553,
      "Ġà¤ķà¤°à¤£à¥įà¤¯à¤¾à¤ļà¥Ģ": 5554,
      "à¤¾à¤¬à¤¾à¤¬à¤¤": 5555,
      "Ġà¤¯à¥ĩà¤Ī": 5556,
      "Ġmultiple": 5557,
      "Ġaltern": 5558,
      "Ġà¤ıà¤ľ": 5559,
      "à¥ĩà¤ķà¥įà¤Ł": 5560,
      "Ġà¤Ŀà¤¾à¤²à¥Ģ.": 5561,
      "Ġideas": 5562,
      "Ġscientific": 5563,
      "à¥įà¤¤à¤¾": 5564,
      "ches": 5565,
      "elt": 5566,
      "Ġachieve": 5567,
      "Ġincluded": 5568,
      "Ġà¤«à¤ķà¥įà¤¤": 5569,
      "Ġà¤®à¤¨à¥ģà¤·à¥įà¤¯": 5570,
      "ift": 5571,
      "undred": 5572,
      "haps": 5573,
      "ĠMon": 5574,
      "Ġà¤ļà¤¿à¤ķà¤¿à¤¤": 5575,
      "Ġâ": 5576,
      "Ġmember": 5577,
      "Ġà¤ĳà¤¨à¤²": 5578,
      "Ġmedia": 5579,
      "Ġsil": 5580,
      "Ġà¤ľà¤¿à¤¤": 5581,
      "Ġsection": 5582,
      "ĠMarch": 5583,
      "Ġà¤¯à¤¾à¤¤à¥įà¤°à¤¾": 5584,
      "omp": 5585,
      "Ġtiss": 5586,
      "Ġà¤¨à¤¿à¤ķà¤²": 5587,
      "Ġà¤ļà¤²à¤¾": 5588,
      "à¥īà¤°à¥įà¤¡": 5589,
      "ON": 5590,
      "à¥įà¤°à¥ĭà¤²": 5591,
      "Ġfoot": 5592,
      "Ġà¤µà¤¿à¤¸": 5593,
      "Ġà¤ªà¥Ģà¤Ľà¥ĩ": 5594,
      "____": 5595,
      "Ġà¤Łà¥įà¤µà¤¿à¤Ł": 5596,
      "ned": 5597,
      "Ġroad": 5598,
      "Ġnegative": 5599,
      "hern": 5600,
      "Ġà¤¤à¥Ģà¤¸": 5601,
      "Ġà¤ªà¤¤": 5602,
      "Ġaspect": 5603,
      "ĠAmerica": 5604,
      "à¥įà¤®à¤£": 5605,
      "-à¤¦": 5606,
      "à¤¾à¤Ĥà¤µ": 5607,
      "à¤¿à¤ĵ": 5608,
      "Ġà¤°à¥Ĥ": 5609,
      "à¤¾à¤ĥ": 5610,
      "Ġhost": 5611,
      "à¤°à¤¿à¤¤": 5612,
      "Ġservices": 5613,
      "Ġà¤ķà¥ĩà¤²à¥ĩà¤²à¥įà¤¯à¤¾": 5614,
      "à¤¤à¥ĩ,": 5615,
      "Ġwent": 5616,
      "Ġà¤µà¤¾à¤ľ": 5617,
      "Ġrout": 5618,
      "Ġhttp://": 5619,
      "à¤µà¤¿à¤¡": 5620,
      "Ġbirth": 5621,
      "Ġbehind": 5622,
      "Ġmiss": 5623,
      "Ġadditional": 5624,
      "Ġx": 5625,
      "icles": 5626,
      "à¥Īà¤ķà¥Ģ": 5627,
      "à¤°à¤¿à¤ķ": 5628,
      "Ġcolon": 5629,
      "Ġà¤ªà¥įà¤°à¤¤à¤¿à¤¶à¤¤": 5630,
      "-h": 5631,
      "Ġà¤°à¤¾à¤¯": 5632,
      "Ġà¤ĸà¥ģà¤²": 5633,
      "pril": 5634,
      "ilos": 5635,
      "ana": 5636,
      "Ġhor": 5637,
      "Ġhighly": 5638,
      "Ġ\"The": 5639,
      "Ġhot": 5640,
      "Ġthus": 5641,
      "Ġà¤¤à¥įà¤¯à¤¾à¤Ĥà¤ļà¥Ģ": 5642,
      "à¥įà¤¯à¤¾à¤ķà¤¡à¥ĩ": 5643,
      "Ġà¤¬à¤¾à¤¹à¥ĩà¤°": 5644,
      "à¤°à¤¾à¤µ": 5645,
      "Ġà¤ķà¤Ĥà¤ªà¤¨": 5646,
      "IC": 5647,
      "Ġà¤¦à¥Ģà¥¤": 5648,
      "thern": 5649,
      "Ġsolution": 5650,
      "ĠAnt": 5651,
      "uman": 5652,
      "Ġofficial": 5653,
      "Ġalthough": 5654,
      "ĠAugust": 5655,
      "Ġà¤ªà¤¿à¤¤à¤¾": 5656,
      "ics,": 5657,
      "Ġà¤¦à¤°à¥įà¤¶": 5658,
      "Ġà¤¬à¤ļà¥įà¤ļà¥ĩ": 5659,
      "ĠDepartment": 5660,
      "ĠWest": 5661,
      "à¥ĩà¤¦à¥Ģ": 5662,
      "-in": 5663,
      "Ġà¤ªà¥ģà¤·": 5664,
      "Ġà¤®à¤¾à¤£": 5665,
      "Ġaud": 5666,
      "à¥įà¤¯à¤¾à¤ļà¤Ĥ": 5667,
      "Ġà¤®à¤¶": 5668,
      "Ġà¤ªà¤¾à¤¯": 5669,
      "Ġà¤ĸà¥ĭ": 5670,
      "Ġexplain": 5671,
      "les,": 5672,
      "ying": 5673,
      "Ġà¤¦à¥ĭà¤ĺ": 5674,
      "nov": 5675,
      "Ġproced": 5676,
      "Ġà¤ķà¤¸": 5677,
      "Ġsevere": 5678,
      "Ġà¤Ŀà¤¾à¤²à¥ĩ.": 5679,
      "Ġà¤¸à¤ķà¥ĩ": 5680,
      "erson": 5681,
      "Ġà¤¶à¥Ī": 5682,
      "Ġang": 5683,
      "Ġà¤ħà¤¹à¤®": 5684,
      "Ġà¤®à¤¿à¤²à¥Ģ": 5685,
      "Ġà¤¨à¥ĩà¤¤à¥ĥà¤¤à¥įà¤µ": 5686,
      "Ġà¤ķà¤¿à¤®": 5687,
      "à¥įà¤¯à¤¾à¤°": 5688,
      "Ġà¤ķà¥ģà¤Łà¥ģà¤Ĥà¤¬": 5689,
      "ĠDav": 5690,
      "Ġà¤ħà¤¤à¤¿à¤°à¤¿à¤ķà¥įà¤¤": 5691,
      "rition": 5692,
      "Ġà¤ªà¤Ĥà¤ľà¤¾à¤¬": 5693,
      "Ġfill": 5694,
      "Ġà¤¸à¥ĩà¤¨à¤¾": 5695,
      "Ġà¤¶à¥ĩà¤¤à¤ķà¤±": 5696,
      "Ġdry": 5697,
      "like": 5698,
      "osure": 5699,
      "Ġà¤µà¥įà¤¯à¤µà¤¸à¤¾à¤¯": 5700,
      "Ġà¤¦à¤°à¥įà¤¶à¤¨": 5701,
      "Ġcritical": 5702,
      "Ġà¤¸à¤¿à¤°": 5703,
      "Ġstor": 5704,
      "iar": 5705,
      "Ġà¤¸à¥įà¤µà¤°à¥Ĥà¤ª": 5706,
      "Ġextra": 5707,
      "ĠLear": 5708,
      "à¤°à¥įà¤¤à¤¨": 5709,
      "Ġà¤¦à¥Ģà¤ª": 5710,
      "ĠGovern": 5711,
      "Ġprotein": 5712,
      "Ġforms": 5713,
      "Ġà¤¸à¤Ĥà¤ľà¤¯": 5714,
      "p.": 5715,
      "Ġà¤ķà¥īà¤²à¥ĩà¤ľ": 5716,
      "Ġà¤¦à¥Į": 5717,
      "Ġimage": 5718,
      "Ġà¤Ńà¤µà¤¿à¤·": 5719,
      "à¤¨à¤Ĺà¤°": 5720,
      "Ġfight": 5721,
      "Ġà¤ħà¤§à¤¿à¤ķà¤¾à¤°à¤¿à¤¯à¥ĭà¤Ĥ": 5722,
      "Ġà¤¬à¥Ģà¤®": 5723,
      "Ġà¤¬à¤¿à¤¹à¤¾à¤°": 5724,
      "Ġà¤ķà¤¾à¤°à¥įà¤°": 5725,
      "Ġà¤°à¤¹à¤¤à¤¾": 5726,
      "Ġà¤Ĺà¥įà¤°à¤¾à¤¹": 5727,
      "Ġsect": 5728,
      "Ġenj": 5729,
      "Ġfram": 5730,
      "à¤¾à¤¨à¤Ĥà¤¤à¤°": 5731,
      "ĠM.": 5732,
      "Ġà¤ĸà¥ģà¤¶": 5733,
      "Ġtransport": 5734,
      "Ġnucle": 5735,
      "ĠServ": 5736,
      "term": 5737,
      "Ġà¤ļà¤Ĥà¤¦à¥įà¤°": 5738,
      "amb": 5739,
      "à¥ĩà¤·à¥įà¤ł": 5740,
      "Ġà¤¤à¤¿à¤¥": 5741,
      "ceed": 5742,
      "Ġà¤¬à¤¨à¤¾à¤ı": 5743,
      "à¥įà¤¯à¤¾,": 5744,
      "eration": 5745,
      "Ġà¤ķà¤²à¥įà¤ª": 5746,
      "yond": 5747,
      "Ġà¤¸à¥įà¤¨": 5748,
      "Ġjo": 5749,
      "Ġà¤¶à¥ĩà¤¯à¤°": 5750,
      "Ġdecision": 5751,
      "à¤¾à¤Ĥà¤¦": 5752,
      "âĢĻve": 5753,
      "istics": 5754,
      "Ġtechniqu": 5755,
      "Ġà¤¸à¥ģà¤°à¥ģ": 5756,
      "Ġà¤ħà¤Ĥà¤ķ": 5757,
      "cean": 5758,
      "ĠSept": 5759,
      "sect": 5760,
      "ipl": 5761,
      "Ġà¤¦à¥įà¤°": 5762,
      "ĠMus": 5763,
      "Ġà¤¦à¤¬": 5764,
      "Ġà¤ķà¤¨": 5765,
      "Ġcentral": 5766,
      "Ġà¤¤à¥įà¤¯à¤¾à¤ļà¥Ģ": 5767,
      "Ġà¤®à¥Įà¤ķà¥ĩ": 5768,
      "Ġunique": 5769,
      "à¤²à¥ĩ,": 5770,
      "Ġà¤¬à¥įà¤°à¤¹à¥įà¤®": 5771,
      "Ġthat,": 5772,
      "Ġspirit": 5773,
      "Ġfactor": 5774,
      "Ġà¤ķà¥ĩà¤¸": 5775,
      "ino": 5776,
      "Ġuseful": 5777,
      "coh": 5778,
      "Ġseries": 5779,
      "Ġinterp": 5780,
      "Ġà¤ľà¤¾à¤¤à¥ĩ.": 5781,
      "Ġà¤¦à¥ĩà¤¨à¤¾": 5782,
      "Ġà¤ļà¥ģà¤ķà¥Ģ": 5783,
      "Ġà¤²à¤Ĺà¤¾à¤¯à¤¾": 5784,
      "Ġà¤¯à¤¾à¤ª": 5785,
      "Ġmethods": 5786,
      "Ġà¤¤à¤¾à¤ª": 5787,
      "Ġseems": 5788,
      "omet": 5789,
      "Ġà¤ĸà¤¾à¤¤": 5790,
      "Ġcustom": 5791,
      "Ġbroad": 5792,
      "Ġà¤¸à¥įà¤µà¤¯à¤Ĥ": 5793,
      "ĠAfrican": 5794,
      "Ġà¤ªà¥ĭà¤¹": 5795,
      "à¤¿à¤¯à¤¾à¤ģ": 5796,
      "gram": 5797,
      "eal": 5798,
      "Ø§": 5799,
      "Ġà¤¸à¥ĩà¤Ĥà¤Ł": 5800,
      "ĠBecause": 5801,
      "ĠSw": 5802,
      "Ġà¤ľà¥įà¤¯": 5803,
      "Ġà¤ķà¤¾à¤°à¤µà¤¾à¤Ī": 5804,
      "Ġà¤¤à¥įà¤¯à¤¾à¤Ĥà¤ļà¥ĩ": 5805,
      "Ġà¤°à¤¾à¤¶à¤¿": 5806,
      "ĠRet": 5807,
      "orthern": 5808,
      "Ġlarger": 5809,
      "Ġsustain": 5810,
      "à¤¾à¤µà¥Ģ": 5811,
      "na": 5812,
      "Ġà¤ĩà¤Ĥ": 5813,
      "inct": 5814,
      "Ġà¤µà¥ĥà¤¦à¥įà¤§": 5815,
      "Ġcontribut": 5816,
      "Ġeasily": 5817,
      "Ġwhose": 5818,
      "Ġà¤®à¤¾à¤¨à¤¸": 5819,
      "vention": 5820,
      "à¥ģà¤°à¥ģ": 5821,
      "Ġbad": 5822,
      "ĠWork": 5823,
      "Ġoffer": 5824,
      "Ġanaly": 5825,
      "Ġdaily": 5826,
      "Ġbeginning": 5827,
      "Ġtowards": 5828,
      "Ġà¤ķà¤¾à¤°à¥įà¤°à¤µà¤¾à¤Ī": 5829,
      "Ġprior": 5830,
      "vant": 5831,
      "âĢĻll": 5832,
      "Ġancient": 5833,
      "Ġà¤ªà¥įà¤°à¤£": 5834,
      "à¤®à¤¿à¤ķ": 5835,
      "Ġculture": 5836,
      "Ġà¤īà¤¦à¤¾à¤¹à¤°à¤£": 5837,
      "Ġhar": 5838,
      "Ġà¤¤à¤®": 5839,
      "Ġà¤µà¤¾à¤¤": 5840,
      "Ġnorth": 5841,
      "Ġà¤®à¤¾à¤¤à¥įà¤°,": 5842,
      "Ġlimit": 5843,
      "Ġcommunic": 5844,
      "Ġà¤ªà¤°à¥įà¤¯": 5845,
      "Ġà¤®à¥ģà¤ķà¥įà¤¤": 5846,
      "olar": 5847,
      "à¤¾à¤ªà¥Ĥà¤°": 5848,
      "Ġà¤ªà¤¤à¥įà¤°à¤ķà¤¾à¤°": 5849,
      "Ġà¤§à¤°": 5850,
      "ming": 5851,
      "Ġà¤ķà¤¾à¤°à¥įà¤¡": 5852,
      "Ġ+": 5853,
      "Ġà¤¸à¥Ĥà¤¤à¥įà¤°": 5854,
      "Ġdirectly": 5855,
      "Ġprotection": 5856,
      "istry": 5857,
      "Ġà¤ķà¥ħ": 5858,
      "Ġà¤¤à¤¸à¥įà¤µà¥Ģà¤°": 5859,
      "Ġà¤Ĩà¤¯à¥ĭà¤ľà¤¨": 5860,
      "Ġà¤²à¥Į": 5861,
      "Ġbank": 5862,
      "Ġpack": 5863,
      "Ġà¤¸à¤¹à¥Ģ": 5864,
      "Ġà¤¸à¤¾à¤Ĥà¤Ĺà¤¿à¤¤à¤²à¥ĩ.": 5865,
      "Ġlost": 5866,
      "à¥Ģà¤µà¥Ģ": 5867,
      "rogen": 5868,
      "eed": 5869,
      "Ġappropriate": 5870,
      "ĠSch": 5871,
      "Ġleading": 5872,
      "Ġà¤¹à¤Ł": 5873,
      "Ġà¤ľà¤£": 5874,
      "arian": 5875,
      "à¤°à¥įà¤¯": 5876,
      "Ġ(E": 5877,
      "Ġà¤µà¥įà¤¯à¤µà¤¹à¤¾à¤°": 5878,
      "Ġà¤¹à¤¤à¥įà¤¯à¤¾": 5879,
      "Ġà¤¨à¥ĭà¤Ĥà¤¦": 5880,
      "Ġaim": 5881,
      "ĠMod": 5882,
      "à¤¬à¥įà¤²": 5883,
      "Ġ(s": 5884,
      "Ġstarted": 5885,
      "vert": 5886,
      "able.": 5887,
      "Ġstay": 5888,
      "à¤¹à¤¾à¤²": 5889,
      "à¤Ĥà¤Ĺà¤¾": 5890,
      "ension": 5891,
      "nam": 5892,
      "Ġà¤ļà¥ģà¤ķà¤¾": 5893,
      "Ġà¤¬à¥ģà¤¦à¥įà¤§": 5894,
      "iverse": 5895,
      "ĠAlso": 5896,
      "udd": 5897,
      "Ġà¤ĩà¤¤à¤¨à¤¾": 5898,
      "Ġpurpose": 5899,
      "aches": 5900,
      "Ġpage": 5901,
      "Ġprivate": 5902,
      "Ġà¤¬à¤²à¥įà¤²": 5903,
      "Ġit's": 5904,
      "Ġà¤ķà¥ģà¤ł": 5905,
      "Ġelse": 5906,
      "In": 5907,
      "Ġdecl": 5908,
      "à¤µà¤¾à¤¹": 5909,
      "Ġclin": 5910,
      "Ġà¤ķà¤¿à¤²à¥ĭ": 5911,
      "Ġà¤¸à¤¹à¤¾à¤¯": 5912,
      "Ġissue": 5913,
      "à¤®à¥ģà¤Ĥà¤¬à¤Ī": 5914,
      "ĠThen": 5915,
      "ius": 5916,
      "Ġindustr": 5917,
      "Ġà¤Ĺà¤Ł": 5918,
      "Ġmom": 5919,
      "Ġà¤ªà¥ģà¤¤à¥įà¤°": 5920,
      "Ġaccur": 5921,
      "Ġà¤ĸà¥ģ": 5922,
      "à¥ģà¤ĥ": 5923,
      "Ġà¤¹à¥ĭ,": 5924,
      "ows": 5925,
      "ĠWhy": 5926,
      "Ġproces": 5927,
      "dd": 5928,
      "ises": 5929,
      "pro": 5930,
      "Ġis,": 5931,
      "Ġ#": 5932,
      "Ġpropert": 5933,
      "Ġà¤ªà¥ĭà¤²à¤¿à¤¸à¤¾à¤Ĥà¤¨à¥Ģ": 5934,
      "Ġmount": 5935,
      "ism,": 5936,
      "Ġà¤ħà¤Ĥà¤¤à¤¿à¤®": 5937,
      "à¥ĭà¤¤à¥įà¤¸": 5938,
      "ĠSim": 5939,
      "à¤¿à¤ķà¤¾à¤°": 5940,
      "Ġdark": 5941,
      "à¤ľà¤¨à¤¿à¤ķ": 5942,
      "Ġà¤¤à¤¥": 5943,
      "à¤Ĺà¤¢à¤¼": 5944,
      "Ġorganiz": 5945,
      ".)": 5946,
      "à¤¾à¤°à¤¿à¤¤": 5947,
      "Ġcapital": 5948,
      "Ġà¤¸à¤Ĥà¤¯à¥ģà¤ķà¥įà¤¤": 5949,
      "ĠPark": 5950,
      "Ġà¤ĩà¤Ĥà¤ľ": 5951,
      "Ġdemand": 5952,
      "Ġfast": 5953,
      "à¥įà¤¯à¤¾à¤¬": 5954,
      "ĠCong": 5955,
      "bol": 5956,
      "Ġmonths": 5957,
      "à¤Ĥà¤ļà¥Ģ": 5958,
      "ĠGree": 5959,
      "ĠAssoci": 5960,
      "Ġà¤ªà¥ĥà¤¥": 5961,
      "Ġ(H": 5962,
      "Ġattention": 5963,
      "Ġvideo": 5964,
      "Ġhundred": 5965,
      "Ġsea": 5966,
      "à¥įà¤°à¥Ģà¤®": 5967,
      "Ġsafety": 5968,
      "Ġadminist": 5969,
      "à¥Īà¤¸": 5970,
      "ĠApril": 5971,
      "bit": 5972,
      "Ġlargest": 5973,
      ".com": 5974,
      "Ġà¤¦à¥ĩà¤¶à¥ĭà¤Ĥ": 5975,
      "Ġà¤Ĺà¤²": 5976,
      "ening": 5977,
      "Ġà¤²à¤Ĺà¤¤à¤¾": 5978,
      "Ġà¤īà¤²à¥įà¤²à¥ĩà¤ĸ": 5979,
      "Ġà¤¨à¤¿à¤¶à¥įà¤ļà¤¿à¤¤": 5980,
      "fort": 5981,
      "Ġ(G": 5982,
      "Ġà¤ħà¤ķà¥įà¤·": 5983,
      "Ġshall": 5984,
      "gn": 5985,
      "aid": 5986,
      "Ġà¤¸à¤Ĥà¤Ńà¤¾à¤µ": 5987,
      "Ġbrought": 5988,
      "a)": 5989,
      "Ġkids": 5990,
      "à¤¨à¥įà¤¸": 5991,
      "Ġà¤Ĩà¤²à¤¾.": 5992,
      "Ġà¤¸à¤¾à¤«": 5993,
      "Ġà¤Ĩà¤¯à¥ĭà¤Ĺ": 5994,
      "Ġà¤ķà¤°à¤£à¤¾à¤°": 5995,
      "Ġà¤®à¤¾à¤®à¤²à¤¾": 5996,
      "Ġà¤¦à¤¾à¤µà¤¾": 5997,
      "à¤²à¥Ģ,": 5998,
      "Ġà¤¸à¤ļà¤¿à¤µ": 5999,
      "Ġfinancial": 6000,
      "Ġà¤¶à¤¿à¤Ĥà¤¦": 6001,
      "rag": 6002,
      "à¥įà¤¯à¤¾à¤Ĥà¤¤": 6003,
      "Ġà¤ľà¤°à¥Ĥà¤°à¤¤": 6004,
      "Ġà¤¨à¤¯à¥ĩ": 6005,
      "Ġrat": 6006,
      "Ġquant": 6007,
      "Ġagricult": 6008,
      "à¥ĩà¤«": 6009,
      "Ġsearch": 6010,
      "à¤¬à¤²": 6011,
      "ĠMc": 6012,
      "come": 6013,
      "Ġà¤¤à¥įà¤¯à¤¾à¤¸": 6014,
      "et,": 6015,
      "Ġà¤¯à¥ĭà¤ľà¤¨": 6016,
      "Ġà¤µà¥ĩà¤¬à¤¸à¤¾à¤ĩà¤Ł": 6017,
      "Ġgot": 6018,
      "Ġcred": 6019,
      "Ġinfluence": 6020,
      "Ġcontains": 6021,
      "à¤ħà¤ª": 6022,
      "Ġ(L": 6023,
      "alt": 6024,
      "Ġà¤¸à¤®à¥ĭà¤°": 6025,
      "Ġfriend": 6026,
      "-g": 6027,
      "ĠArm": 6028,
      "Ġà¤®à¤¿à¤²à¤¨à¥ĩ": 6029,
      "Ġsugar": 6030,
      "à¥ĩà¤¡à¤¼": 6031,
      "Ġand,": 6032,
      "Ġà¤ķà¥Ģà¤®à¤¤": 6033,
      "à¥ĩà¤¤à¥Ģ": 6034,
      "Ġexact": 6035,
      "ED": 6036,
      "ham": 6037,
      "load": 6038,
      "Ġjud": 6039,
      "ĠHistory": 6040,
      "Ġcrim": 6041,
      "Ġsoftware": 6042,
      "Ġà¤µà¤¹à¥Ģ": 6043,
      "à¤²à¥Ģà¤µà¥ģà¤¡": 6044,
      "ĠTrans": 6045,
      "ened": 6046,
      "Ġsystem.": 6047,
      "Ġà¤®à¤¹à¤¿à¤²à¤¾à¤ĵà¤Ĥ": 6048,
      "ĠInstitute": 6049,
      "itch": 6050,
      "Ġwebsite": 6051,
      "Ġà¤ªà¥ģà¤¸à¥įà¤¤à¤ķ": 6052,
      "à¤ªà¥įà¤°à¤§à¤¾à¤¨": 6053,
      "Ġitem": 6054,
      "à¥įà¤¯à¥ģ": 6055,
      "Ġprograms": 6056,
      "ĠFin": 6057,
      "ĠRiver": 6058,
      "ĠDis": 6059,
      "ĠJune": 6060,
      "Ġcapac": 6061,
      "ira": 6062,
      "hest": 6063,
      "ops": 6064,
      "à¥īà¤¯": 6065,
      "Ġdoctor": 6066,
      "oming": 6067,
      "Ġà¤¯à¤¾à¤¸à¤¾à¤łà¥Ģ": 6068,
      "Ġà¤ªà¥įà¤°à¤¾à¤°": 6069,
      "Ġà¤ľà¥įà¤¯à¤¾": 6070,
      "à¤ķà¤°,": 6071,
      "back": 6072,
      "à¤¸à¤²": 6073,
      "à¤£à¤¾à¤±à¥įà¤¯à¤¾": 6074,
      "Ġreach": 6075,
      "à¥įà¤¤à¥ģ": 6076,
      "arr": 6077,
      "ights": 6078,
      "Ġlength": 6079,
      "Ġà¤¦à¥ĭà¤¨à¥įà¤¹à¥Ģ": 6080,
      "Ġwa": 6081,
      "Ġà¤¸à¤Ĥà¤ķà¥įà¤°à¤®": 6082,
      "à¤§à¤¾à¤¨à¥Ģ": 6083,
      "Ġà¤¥à¥ĩ.": 6084,
      "Ġcarry": 6085,
      "ĠInst": 6086,
      "à¤¸à¥įà¤Łà¥įà¤°à¥ĩà¤²": 6087,
      "Ġà¤¦à¥ĩà¤ĸà¤¤à¥ĩ": 6088,
      "Ġà¤¸à¤¾à¤°à¥įà¤µà¤ľà¤¨à¤¿à¤ķ": 6089,
      "à¤¾à¤Ĥà¤¶": 6090,
      "à¤°à¥įà¤¬": 6091,
      "Ġà¤¸à¥ģà¤®": 6092,
      "imal": 6093,
      "âĢĿ.": 6094,
      "Ġcommand": 6095,
      "Ġadop": 6096,
      "Ġbeaut": 6097,
      "à¤°à¥įà¤¤à¤¿": 6098,
      "Ġà¤¸à¥įà¤ªà¤°à¥įà¤§": 6099,
      "Ġà¤¬à¥ģà¤²": 6100,
      "Ġestablish": 6101,
      "à¤¨à¥įà¤¤à¥ģ": 6102,
      "Ġà¤²à¤¿à¤ı,": 6103,
      "ĠPresident": 6104,
      "Ġsoon": 6105,
      "ibrary": 6106,
      "Ġlocated": 6107,
      "Ġdamage": 6108,
      "Ġvirus": 6109,
      "à¤¸à¤¹": 6110,
      "Ġà¤¨à¤¿à¤°à¥įà¤§": 6111,
      "ĠEc": 6112,
      "ĠyouâĢĻre": 6113,
      "Ġegg": 6114,
      "à¥ĩà¤°à¥Ģ": 6115,
      "à¤¿à¤µà¤¾à¤°à¥Ģ": 6116,
      "ĠHigh": 6117,
      "Ġà¤ĸà¤¼": 6118,
      "Ġexcept": 6119,
      "Ġà¤Łà¤¿à¤ķ": 6120,
      "Ġà¤ľà¤¿à¤¸à¤ķà¤¾": 6121,
      "Ġrequires": 6122,
      "Ġteachers": 6123,
      "Ġtrack": 6124,
      "Ġà¤®à¥ĩà¤°à¥Ģ": 6125,
      "gy": 6126,
      "Ġep": 6127,
      "Ġsouth": 6128,
      "à¤Ńà¥Ĥà¤®": 6129,
      "ĠTechn": 6130,
      "Ġà¤¬à¤Ĥà¤Ĺ": 6131,
      "IV": 6132,
      "Ġà¤ĵà¤³": 6133,
      "à¤µà¤¿à¤¦à¥įà¤¯à¤¾à¤²à¤¯": 6134,
      "à¤ķà¤¾à¤®": 6135,
      "Ġtold": 6136,
      "ĠCenter": 6137,
      "à¤¾à¤¸à¤¾": 6138,
      "Ġyear.": 6139,
      "Ġnearly": 6140,
      "Ġ(T": 6141,
      "Ġprogress": 6142,
      "à¤¤à¥ģ": 6143,
      "à¤¿à¤°à¥ĭà¤§": 6144,
      "Ġdisp": 6145,
      "cial": 6146,
      "Ġcool": 6147,
      "Ġà¤ķà¤¾à¤³à¤¾à¤¤": 6148,
      "Ġtheory": 6149,
      "Ġà¤®à¤Ĥà¤Ĺà¤²": 6150,
      "Ġà¤¨à¤Ĥà¤¤à¤°": 6151,
      "ĠPat": 6152,
      "Ġà¤®à¥ĭà¤¹": 6153,
      "à¤¿à¤¨à¥ĩ": 6154,
      "ody": 6155,
      "Ġtransl": 6156,
      "ĠChines": 6157,
      "à¤¾à¤¯à¤£": 6158,
      "Ġà¤ķà¤°à¥įà¤®à¤ļà¤¾à¤°à¥Ģ": 6159,
      "Ġà¤ķà¥įà¤µ": 6160,
      "Ġteaching": 6161,
      "Ġà¤ķà¤§à¥Ģ": 6162,
      "cohol": 6163,
      "aul": 6164,
      "ĠPeople": 6165,
      "Ġà¤ļà¤²à¤¤à¥ĩ": 6166,
      "Ġà¤¯à¤¾à¤Ĥà¤ļà¤¾": 6167,
      "Ġisland": 6168,
      "Ġ(the": 6169,
      "Ġà¤Ĺà¥įà¤°à¤¹": 6170,
      "uit": 6171,
      "vest": 6172,
      "Ġà¤¶à¥ĩà¤ħà¤°": 6173,
      "Ġfit": 6174,
      "Ġveh": 6175,
      "head": 6176,
      "Ġà¤¸à¤¤à¥įà¤¯": 6177,
      "Ġbecomes": 6178,
      "Ġà¤¸à¥ĭà¤¡": 6179,
      "à¤³à¥įà¤¯à¤¾": 6180,
      "Ġà¤ħà¤µà¤¸à¤°": 6181,
      "Ġschools": 6182,
      "Ġà¤¤à¥ģ": 6183,
      "ĠJust": 6184,
      "Ġsurround": 6185,
      "Ġfather": 6186,
      "Ġfruit": 6187,
      "estic": 6188,
      "Ġà¤®à¥ĥà¤¤à¥įà¤¯à¥Ĥ": 6189,
      ");": 6190,
      "à¤°à¤¾à¤®": 6191,
      "ĠBi": 6192,
      "à¤¾à¤Ĺà¤¤": 6193,
      "ĠEngland": 6194,
      "-y": 6195,
      "Ġà¤¤à¤¾à¤ľ": 6196,
      "Ġà¤īà¤²": 6197,
      "Ġdead": 6198,
      "à¥Ģà¤ª": 6199,
      "Ġult": 6200,
      "equ": 6201,
      "Ġhimself": 6202,
      "Ġsn": 6203,
      "mar": 6204,
      "....": 6205,
      "Ġrare": 6206,
      "Ġà¤ķà¤¹à¥Ģà¤Ĥ": 6207,
      "Ġà¤¨à¥Ģà¤ļà¥ĩ": 6208,
      "atur": 6209,
      "Ġenjoy": 6210,
      "Ġcitiz": 6211,
      "Ġagree": 6212,
      "Ġunc": 6213,
      "Ġdescribed": 6214,
      "Ġà¤¨à¤¿à¤¯à¤Ĥà¤¤à¥įà¤°à¤£": 6215,
      "rig": 6216,
      "Ġà¤¤à¥ĩà¤¥": 6217,
      "ender": 6218,
      "Ġà¤¸à¤µ": 6219,
      "oke": 6220,
      "ĠDevelop": 6221,
      "à¤²à¤¾,": 6222,
      "Ġunit": 6223,
      "Ġvict": 6224,
      "Ġà¤Ĩà¤µà¤¾à¤ľ": 6225,
      "ĠRed": 6226,
      "Ġà¤®à¤¾à¤°à¥įà¤ķ": 6227,
      "Ġmole": 6228,
      "ics.": 6229,
      "à¤¯à¤°": 6230,
      "Ġà¤¨à¤¿à¤¦": 6231,
      "Ġà¤ıà¤Ĥà¤¡": 6232,
      "Ġstru": 6233,
      "Ġà¤¸à¤Ĥà¤ªà¥Ĥà¤°à¥įà¤£": 6234,
      "EN": 6235,
      "isions": 6236,
      "Ġà¤§à¤®": 6237,
      "IS": 6238,
      "Ġà¤ªà¤°à¥ĩà¤¶": 6239,
      "Ġrespond": 6240,
      "Ġà¤ħà¥ħ": 6241,
      "Ġfuel": 6242,
      "Ġlabor": 6243,
      "Ġadded": 6244,
      "Ġpolicy": 6245,
      "ogen": 6246,
      "ent,": 6247,
      "Ġà¤¸à¥Ĥà¤°à¥įà¤¯": 6248,
      "à¤Ĥà¤ķà¤¾": 6249,
      "Ġà¤¸à¤¹à¤¯à¥ĭà¤Ĺ": 6250,
      "Ġroom": 6251,
      "Ġà¤¡à¤¿à¤Ĺ": 6252,
      "Ġà¤ªà¥Ĥà¤ľà¤¾": 6253,
      "à¤¾à¤Ĥà¤ª": 6254,
      "Ġevents": 6255,
      "Ġà¤Ĺà¤¤": 6256,
      "ĠWilliam": 6257,
      "itation": 6258,
      "Ġcontext": 6259,
      "ss": 6260,
      "rael": 6261,
      "Ġreceived": 6262,
      "ĠDay": 6263,
      "Ġà¤µà¤¿à¤¶à¥įà¤µà¤µà¤¿à¤¦à¥įà¤¯à¤¾à¤²à¤¯": 6264,
      "ĠWashing": 6265,
      "Ġfoods": 6266,
      "Ġsummer": 6267,
      "resh": 6268,
      "Ġtypically": 6269,
      "Ġborn": 6270,
      "Ġà¤īà¤¸à¤¸à¥ĩ": 6271,
      "i)": 6272,
      "Ġmention": 6273,
      "Ġà¤§à¤¾à¤µ": 6274,
      "Ġà¤¨à¤¿à¤ľ": 6275,
      "Ġhous": 6276,
      "ĠAre": 6277,
      "Ġà¤ľà¤¿à¤®": 6278,
      "igr": 6279,
      "Ġà¤«à¤°": 6280,
      "Ġà¤¹à¤¿à¤®": 6281,
      "Ġà¤µà¤°à¥įà¤¤à¤®à¤¾à¤¨": 6282,
      "IT": 6283,
      "ĠFeb": 6284,
      "Ġast": 6285,
      "ospital": 6286,
      "Ġpan": 6287,
      "itude": 6288,
      "ĠOver": 6289,
      "Ġà¤°à¤¾à¤ľà¥įà¤¯à¥ĭà¤Ĥ": 6290,
      "'re": 6291,
      "Ġdigital": 6292,
      "Ġà¤¹à¤®à¤¾à¤°à¥Ģ": 6293,
      "Ġsaw": 6294,
      "Ġdiabet": 6295,
      "itect": 6296,
      "Ġrapid": 6297,
      "Ġà¤Ĩà¤¢à¤³": 6298,
      "Ġà¤¦à¤¿à¤¸à¤¤": 6299,
      "Ġà¤¸à¥ģà¤°à¤ķà¥įà¤·à¤¿à¤¤": 6300,
      "Ġà¤ķà¥ĥà¤·à¥įà¤£": 6301,
      "Ġprofessional": 6302,
      "Ġà¤ķà¥ĥ": 6303,
      "Ġteach": 6304,
      "Ġà¤¸à¤¿à¤¨à¥ĩà¤®": 6305,
      "iter": 6306,
      "Ġà¤Ĩà¤ªà¤ķà¥Ģ": 6307,
      "à¤¤à¥įà¤¤à¤°": 6308,
      "à¤¶à¥įà¤µà¤°": 6309,
      "Ġà¤µà¥įà¤¯à¤¾à¤ªà¤¾à¤°": 6310,
      "ĠLet": 6311,
      "Ġà¤°à¤ľ": 6312,
      "Ġà¤¸à¥Ģà¤®à¤¾": 6313,
      "Ġà¤¬à¥Ģà¤ľà¥ĩà¤ªà¥Ģ": 6314,
      "-à¤µ": 6315,
      "Ġà¤ªà¤Ĥà¤¤": 6316,
      "ĠJanuary": 6317,
      "al.": 6318,
      "à¤¾à¤µà¤°à¤£": 6319,
      "Ġà¤¨à¤¦à¥Ģ": 6320,
      "Ġnumbers": 6321,
      "iece": 6322,
      "à¤¾à¤¨à¥ĩà¤Ĥ": 6323,
      "à¥ĥà¤¦à¤¯": 6324,
      "cember": 6325,
      "ology,": 6326,
      "Ġà¤Ĺà¤¿à¤°à¤«à¥įà¤¤à¤¾à¤°": 6327,
      "à¥ĩà¤¶à¤¾": 6328,
      "Ġrecommend": 6329,
      "Ġà¤¤à¥įà¤¯à¤¾à¤ļà¥ĩ": 6330,
      "Ġà¤ªà¤¸à¤Ĥà¤¦": 6331,
      "Ġà¤ķà¤°à¤£à¥įà¤¯à¤¾à¤ļà¤¾": 6332,
      "raw": 6333,
      "Ġsources": 6334,
      "orts": 6335,
      "Ġfederal": 6336,
      "à¥įà¤°à¥ĭ": 6337,
      "Ġdon't": 6338,
      "Ġcoast": 6339,
      "à¤¾à¤¯à¤ļà¥ĩ": 6340,
      "rick": 6341,
      "rong": 6342,
      "Ġreligious": 6343,
      "Ġà¤ľà¤®à¥Ģà¤¨": 6344,
      "Ġà¤µà¤¿à¤®à¤¾à¤¨": 6345,
      "ovember": 6346,
      "Ġpoints": 6347,
      "Ġconstruction": 6348,
      "aur": 6349,
      "Ġà¤ıà¤ķà¤¤à¥įà¤°": 6350,
      "Ġà¤µà¤¿à¤¤à¥įà¤¤": 6351,
      "ic,": 6352,
      "Ġlimited": 6353,
      "Ġà¤°à¤¾à¤ľà¤ķà¥Ģà¤¯": 6354,
      "à¥ĭà¤§à¤¨": 6355,
      "Ġà¤¶à¥ģà¤°à¥ģà¤Ĩà¤¤": 6356,
      "apter": 6357,
      "Ġà¤ªà¤°à¤¨à¥įà¤¤à¥ģ": 6358,
      "rab": 6359,
      "ence,": 6360,
      "à¤¨à¥ĩà¤¸": 6361,
      "ĠBlack": 6362,
      "Ġà¤²à¤¢": 6363,
      "Ġà¤ķà¤¿à¤¸à¤¾à¤¨à¥ĭà¤Ĥ": 6364,
      "ĠVir": 6365,
      "Ġà¤¸à¥įà¤µà¤¤à¤Ĥà¤¤à¥įà¤°": 6366,
      "à¤¨à¤¿": 6367,
      "à¤¿à¤µà¤¾à¤¯": 6368,
      "ĠRoman": 6369,
      "à¤¾à¤¹à¥ĩà¤¬": 6370,
      "Ġcold": 6371,
      "pper": 6372,
      "Ġmonitor": 6373,
      "ĠAnother": 6374,
      "ĠJournal": 6375,
      "Ġdepend": 6376,
      "ĠUse": 6377,
      "Ġà¤Ĩà¤§à¥Ģ": 6378,
      "unch": 6379,
      "Ġà¤ķà¥Īà¤²": 6380,
      "Ġà¤¯à¤¾à¤ļà¥Ģ": 6381,
      "ĠJuly": 6382,
      "Ġsecurity": 6383,
      "Ġcultural": 6384,
      "ĠGreat": 6385,
      "ĠSeptember": 6386,
      "Ġà¤ĩà¤Ĥà¤Ĺà¥įà¤²": 6387,
      "à¤°à¤¾à¤·à¥įà¤Łà¥įà¤°à¥Ģà¤¯": 6388,
      "Ġà¤ķà¤³": 6389,
      "Ġder": 6390,
      "Ġfib": 6391,
      "ĠEach": 6392,
      "Ġà¤ªà¥ģà¤°à¤¸à¥įà¤ķà¤¾à¤°": 6393,
      "Ġpet": 6394,
      "Ġpredict": 6395,
      "Ġguid": 6396,
      "Ġà¤ķà¤¶": 6397,
      "Ġstar": 6398,
      "Ġinfl": 6399,
      "à¤¤à¥įà¤¤à¤¿": 6400,
      "Ġcou": 6401,
      "Ġà¤²à¤¾à¤Ĺà¤¤": 6402,
      "ades": 6403,
      "Ġà¤¯à¥ģà¤µà¤ķ": 6404,
      "hens": 6405,
      "Ġà¤®à¤¾à¤¤": 6406,
      "Ġremains": 6407,
      "Ġresponsible": 6408,
      "Ġinstall": 6409,
      "Ġà¤ķà¤¿à¤¯à¥ĩ": 6410,
      "Ġanswer": 6411,
      "Ġà¤Ĺà¤¯à¥Ģ": 6412,
      "Ġadapt": 6413,
      "Ġbul": 6414,
      "ĠSur": 6415,
      "à¥įà¤®à¥Ģà¤°": 6416,
      "ĠCour": 6417,
      "à¤¾à¤īà¤Ĥà¤Ł": 6418,
      "Ġgives": 6419,
      "Ġadj": 6420,
      "à¥ĭà¤³": 6421,
      "à¤ªà¤Ĥà¤ļ": 6422,
      "Ġà¤°à¤ķà¥įà¤¤": 6423,
      "Ġà¤²à¤Ĺà¥ĩ": 6424,
      "Ġà¤ķà¤¿à¤¨à¥įà¤¤à¥ģ": 6425,
      "Ġcompanies": 6426,
      "Ġà¤¯à¤¾à¤Ĥà¤ļà¥ĩ": 6427,
      "Ġà¤¸à¤®à¤¾à¤§": 6428,
      "à¤Łà¥įà¤Ł": 6429,
      "irection": 6430,
      "Ġupd": 6431,
      "à¤µà¥Ģà¤Ĥ": 6432,
      "Ġà¤¦à¤¿à¤ĸà¤¾à¤Ī": 6433,
      "lim": 6434,
      "à¤¶à¥Ģà¤²": 6435,
      "ford": 6436,
      "Ġcreating": 6437,
      "à¥Ģà¤µà¤°": 6438,
      "Ġà¤ľà¤µà¤¾à¤¬": 6439,
      "ĠCoun": 6440,
      "ĠCommun": 6441,
      "ĠWater": 6442,
      "ps": 6443,
      "Ġà¤®à¤¸": 6444,
      "formation": 6445,
      "ription": 6446,
      "Ġà¤¹à¤¾à¤¸à¤¿à¤²": 6447,
      "Ġfinal": 6448,
      "Ġà¤¯à¤¾à¤®à¥ģà¤³à¥ĩ": 6449,
      "omb": 6450,
      "Ġscreen": 6451,
      "Ġà¤Ĺà¥ĥà¤¹": 6452,
      "à¤¿à¤µà¤°à¥įà¤¸": 6453,
      "Ġà¤ħà¤¨à¥ģ": 6454,
      "ĠOnce": 6455,
      "à¤Ĩà¤ª": 6456,
      "Ġfilm": 6457,
      "Ġbeyond": 6458,
      "Ġwrite": 6459,
      "Ġà¤¸à¥įà¤Łà¥ĩà¤¶à¤¨": 6460,
      "Ġcele": 6461,
      "ated.": 6462,
      "Ġelement": 6463,
      "à¤¾à¤ªà¤°à¥įà¤¯à¤Ĥà¤¤": 6464,
      "ĠLaw": 6465,
      "Ġà¤¡à¤¿à¤Ĺà¥įà¤°à¥Ģ": 6466,
      "Ġà¤¬à¤¯à¤¾à¤¨": 6467,
      "Ġmix": 6468,
      "Ġà¤īà¤®à¥ĩà¤¦": 6469,
      "à¤¾à¤¨à¤¦à¤¾à¤°": 6470,
      "ĠChinese": 6471,
      "Ġadvant": 6472,
      "Ġseason": 6473,
      "Ġà¤¸à¤®à¤¾à¤µà¥ĩà¤¶": 6474,
      "Ġà¤¶à¤ķà¥įà¤¤à¤¿": 6475,
      "Ġequip": 6476,
      "enge": 6477,
      "Ġà¤Ĩà¤°à¥ĭà¤Ĺà¥įà¤¯": 6478,
      "Ġlives": 6479,
      "ĠSan": 6480,
      "ĠIS": 6481,
      "Ġà¤ļà¤°à¤£": 6482,
      "ĠJesus": 6483,
      "rote": 6484,
      "Ġà¤ªà¥įà¤°à¤¶à¤¿à¤ķà¥įà¤·à¤£": 6485,
      "Ġtit": 6486,
      "Ġà¤Ľà¥ĭà¤Łà¥ĩ": 6487,
      "Ġà¤¦à¥ĭà¤·": 6488,
      "Ġà¤ıà¤ĸ": 6489,
      "Ġseek": 6490,
      "Ġà¤ħà¤¸à¤¤à¤¾à¤¤.": 6491,
      "Ġ'à¤¸": 6492,
      "à¤¤à¥Ģà¤².": 6493,
      "Ġcrop": 6494,
      "Ġi": 6495,
      "Ġà¤¹à¤¿à¤¸à¥įà¤¸à¤¾": 6496,
      "à¤°à¤¤": 6497,
      "Ġà¤¶à¤ķà¥įà¤¯à¤¤à¤¾": 6498,
      "Ġà¤°à¥ĭà¤¡": 6499,
      "anish": 6500,
      "Ġà¤ªà¥įà¤°à¤¤à¤¿à¤¬": 6501,
      "Ġthem,": 6502,
      "Ġweb": 6503,
      "Ġà¤¶à¤¿à¤ķà¤¾à¤¯à¤¤": 6504,
      "Ġliv": 6505,
      "Ġà¤ªà¥ī": 6506,
      "ĠOctober": 6507,
      "Ġconstit": 6508,
      "Ġà¤Ńà¤¾à¤°à¥Ģ": 6509,
      "Ġbott": 6510,
      "Ġ(c": 6511,
      "Ġà¤ĵà¤³à¤ĸ": 6512,
      "Ġà¤ħà¤¸à¥Ĥà¤¨,": 6513,
      "Ġà¤¥à¥ĭà¤¡à¤¼": 6514,
      "à¥įà¤¯à¤¾à¤Ĥà¤ļà¥ĩ": 6515,
      "Ġà¤¬à¤¨à¥ĩ": 6516,
      "Ġà¤ķà¥ĭà¤µà¤¿à¤¡": 6517,
      "Ġtree": 6518,
      "-term": 6519,
      "Ġeye": 6520,
      "Ġà¤¬à¥ĩà¤¹à¤¤à¤°": 6521,
      "Ġnation": 6522,
      "Ġchoose": 6523,
      "Ġà¤¸à¤Ĥà¤ªà¤°à¥įà¤ķ": 6524,
      "à¤¯à¥Ĥ": 6525,
      "à¥Ģà¤ķà¤°à¤£": 6526,
      "Ġhom": 6527,
      "ĠSystem": 6528,
      "Ġgenetic": 6529,
      "à¤¾à¤Łà¤¾": 6530,
      "Ġcru": 6531,
      "Ġà¤īà¤¦à¥įà¤§": 6532,
      "ocol": 6533,
      "Ġbase": 6534,
      "aries": 6535,
      "Ġà¤°à¤¿à¤ķ": 6536,
      "Ġmiddle": 6537,
      "Ġà¤Ķà¤·": 6538,
      "sec": 6539,
      "Ġà¤®à¤¾à¤Ŀà¥įà¤¯à¤¾": 6540,
      "en.": 6541,
      "Ġà¤¹à¥ĩà¤¤": 6542,
      "Ġgradu": 6543,
      "Ġà¤¹à¥ī": 6544,
      "-st": 6545,
      "Ġà¤¥à¤¾à¤¨à¤¾": 6546,
      "Ġautom": 6547,
      "Ġà¤«à¥Ģà¤¸": 6548,
      "ĠArch": 6549,
      "Ġcities": 6550,
      "à¤¦à¥įà¤µ": 6551,
      "ĠIsrael": 6552,
      "Ġcollection": 6553,
      "Ġà¤Ĩà¤ªà¤²à¥įà¤¯à¤¾à¤²à¤¾": 6554,
      "Ġbreat": 6555,
      "Ġconsequ": 6556,
      "à¤Ĭà¤¨": 6557,
      "Ġhyp": 6558,
      "à¥Ģà¤¨à¥ĩ": 6559,
      "Ġriver": 6560,
      "Ġà¤ħà¤®à¥ĩà¤°à¤¿à¤ķà¤¾": 6561,
      "et.": 6562,
      "Ġà¤²à¤¿à¤¯à¤¾à¥¤": 6563,
      "ev": 6564,
      "ĠChurch": 6565,
      "Ġlegal": 6566,
      "Ġà¤¸à¥ĭà¤ļ": 6567,
      "Ġfact,": 6568,
      "mosp": 6569,
      "know": 6570,
      "Ġà¤ĸà¤°à¥Ģà¤¦": 6571,
      "à¤¡à¤ķ": 6572,
      "à¤ªà¤¾": 6573,
      "Ġà¤ķà¤°à¤¾.": 6574,
      "Ġà¤®à¥Īà¤¦à¤¾à¤¨": 6575,
      "à¤µà¤°à¥Ģ": 6576,
      "Ġà¤¬à¤ĺ": 6577,
      "Ġeating": 6578,
      "ĠChina": 6579,
      "Ġmid": 6580,
      "ĠC.": 6581,
      "Ġà¤¸à¥Ī": 6582,
      "Ġsociety": 6583,
      "Ġtrial": 6584,
      "Ġgain": 6585,
      "Ġinsp": 6586,
      "imin": 6587,
      "Ġà¤īà¤Ń": 6588,
      "Ġà¤¸à¤®à¥įà¤¬à¤¨à¥įà¤§": 6589,
      "Ġà¤ķà¤¿à¤¤à¥Ģ": 6590,
      "Ġà¤¸à¤®à¥Ĥà¤¹": 6591,
      "Ġsociet": 6592,
      "Ġà¤ªà¤¾à¤¯à¤¾": 6593,
      "ĠEducation": 6594,
      "isl": 6595,
      "à¤¿.": 6596,
      "ellig": 6597,
      "ĠProf": 6598,
      "Ġà¤ĸà¤¾à¤¦": 6599,
      "-A": 6600,
      "Ġà¤¨à¤¾à¤¶": 6601,
      "Ġfear": 6602,
      "Ġcontroll": 6603,
      "Ġproviding": 6604,
      "ĠGeneral": 6605,
      "à¤ķà¤®": 6606,
      "Ġà¤µà¤¿à¤§à¤¾à¤¯à¤ķ": 6607,
      "see": 6608,
      "Ġà¤µà¥ĥà¤¤à¥įà¤¤": 6609,
      "à¤¤à¤¨": 6610,
      "ĠTod": 6611,
      "Ġhon": 6612,
      "à¤¾à¤¯à¥ĩ": 6613,
      "à¤¾à¤ĩà¤ķ": 6614,
      "edom": 6615,
      "Ġà¤¸à¤®à¥įà¤®à¤¾à¤¨": 6616,
      "à¤¸à¤¿à¤¤": 6617,
      "Ġà¤ªà¥įà¤°à¤¾à¤£": 6618,
      "ately": 6619,
      "Ġà¤ĳà¤¸à¥įà¤Łà¥įà¤°à¥ĩà¤²": 6620,
      "Ġà¤°à¥ģ": 6621,
      "Ġteeth": 6622,
      "Ġà¤ķà¤°à¤¤à¤¾à¤¨à¤¾": 6623,
      "Ġà¤µà¤¾à¤¯": 6624,
      "Ġà¤ľà¤¾à¤£à¤¾à¤°": 6625,
      "Ġsupply": 6626,
      "C.": 6627,
      "Ġà¤ļà¥Ī": 6628,
      "Ġal.": 6629,
      "Ġà¤ħà¤®à¥ĩà¤°à¤¿à¤ķ": 6630,
      "ĠCur": 6631,
      "Ġà¤ľà¤¾à¤ıà¤Ĥà¤Ĺ": 6632,
      "Ġà¤µà¥įà¤¹à¤¿à¤¡": 6633,
      "Ġreas": 6634,
      "Ġsequ": 6635,
      "Ġà¤¦à¥Ĥ": 6636,
      "Ġ(b": 6637,
      "ĠDon": 6638,
      "Ġund": 6639,
      "ive,": 6640,
      "Ġà¤¤à¥įà¤¯à¤¾à¤Ĥà¤ļà¤¾": 6641,
      "Ġà¤Ĩà¤ķà¤¾à¤°": 6642,
      "Ġà¤°à¤¹à¤¤à¥Ģ": 6643,
      "Ġfile": 6644,
      "Ġcook": 6645,
      "Ġà¤Ĺà¥ĩà¤²": 6646,
      "Ġà¤Ĩà¤¹à¥ĩà¤¤,": 6647,
      "Ġà¤¤à¥Ĥ": 6648,
      "Ġà¤ķà¥Įà¤¨": 6649,
      "à¥ĥà¤¤à¤¿à¤ķ": 6650,
      "à¤¡à¥įà¤¡": 6651,
      "Ġtools": 6652,
      "à¤¸à¥įà¤¯": 6653,
      "à¤µà¥įà¤¯à¤µ": 6654,
      "Ġà¤¯à¤¾à¤ļà¤¾": 6655,
      "Ġà¤ķà¤¦à¤®": 6656,
      "à¤Ĥà¤ķà¤°": 6657,
      "Ġà¤®à¤¾à¤ľà¥Ģ": 6658,
      "Ġwinter": 6659,
      "Ġà¤®à¥ĭà¤łà¤¾": 6660,
      "Ġà¤¤à¤¿à¤ļà¥įà¤¯à¤¾": 6661,
      "Ġà¤ħà¤Ńà¤¿à¤¯à¤¾à¤¨": 6662,
      "Ġà¤¬à¤²à¥įà¤²à¥ĩà¤¬": 6663,
      "Ġquickly": 6664,
      "ĠProt": 6665,
      "Ġà¤¸à¤®à¤°à¥įà¤¥à¤¨": 6666,
      "Ġà¤¹à¥ĭà¤Ĭà¤¨": 6667,
      "Ġà¤¸à¥įà¤¤à¥įà¤°à¥Ģ": 6668,
      "ĠDecember": 6669,
      "exic": 6670,
      "Ġyourself": 6671,
      "ĠD.": 6672,
      "Ġà¤µà¤¿à¤µà¤¾à¤¹": 6673,
      "à¤Ĺà¥įà¤°à¥Ģ": 6674,
      "Ġsett": 6675,
      "Ġdestro": 6676,
      "Ġà¤¶à¤¾à¤¸": 6677,
      "Ġconflic": 6678,
      "Ġà¤®à¤¹à¤¾à¤ªà¤¾à¤²": 6679,
      "Ġten": 6680,
      "Ġà¤ķà¤°à¥įà¤ľ": 6681,
      "Ġà¤¶à¤¿à¤ķà¥įà¤·à¤ķ": 6682,
      "Ġà¤®à¥ģà¤ķà¤¾à¤¬": 6683,
      "à¤¿à¤²à¥įà¤²": 6684,
      "Ġimportance": 6685,
      "ech": 6686,
      "Ġà¤¤à¤¾à¤ķà¤¿": 6687,
      "ĠNovember": 6688,
      "Ġwoman": 6689,
      "le,": 6690,
      "able,": 6691,
      "Ġyear,": 6692,
      "Ġà¤¬à¤¾à¤³": 6693,
      "Ġà¤ķà¤¿à¤¸à¤¾à¤¨": 6694,
      "à¤µà¥ĩà¤Ĥ": 6695,
      "à¤§à¤°": 6696,
      "Ġvia": 6697,
      "Ġformer": 6698,
      "Ġinstru": 6699,
      "à¤®à¥įà¤Ń": 6700,
      "Ġkid": 6701,
      "Ġ(or": 6702,
      "Ġspeed": 6703,
      "Ġreceive": 6704,
      "Ġà¤Ĺà¥ģà¤ª": 6705,
      "Ġday.": 6706,
      "ÙĦ": 6707,
      "Ġelements": 6708,
      "ĠEast": 6709,
      "à¤¡à¤¼à¥ĭà¤Ĥ": 6710,
      "pe": 6711,
      "à¥Ĥà¤ªà¥Ģ": 6712,
      "Ġà¤ļà¤®": 6713,
      "Ġrain": 6714,
      "à¤ĺà¤¾à¤¤": 6715,
      "Ġà¤ĸà¥Ĥà¤¬": 6716,
      "ĠIsland": 6717,
      "Ġà¤²à¤Ĺà¥įà¤¨": 6718,
      "Ġà¤¸à¤°à¤ķà¤¾à¤°à¤¨à¥ĩ": 6719,
      "Ġà¤Ĺà¥Į": 6720,
      "à¤¤à¤¾à¤ĵà¤Ĥ": 6721,
      "atives": 6722,
      "à¤°à¥įà¤ľà¥Ģ": 6723,
      "Ġà¤®à¤¾à¤®à¤²à¥ĭà¤Ĥ": 6724,
      "Ġà¤ħà¤§à¥įà¤¯": 6725,
      "Ġà¤Łà¥Ī": 6726,
      "Ġapprox": 6727,
      "à¤¾à¤µà¤Ł": 6728,
      "ĠNA": 6729,
      "aught": 6730,
      "Ġà¤«à¥Īà¤¸à¤²à¤¾": 6731,
      "Ġà¤¹à¥ĥà¤¦à¤¯": 6732,
      "Ġpurch": 6733,
      "mission": 6734,
      "à¥ĩà¤Ĭ": 6735,
      "Ġshap": 6736,
      "Ġà¤¤à¤ķà¥įà¤°": 6737,
      "ils": 6738,
      "used": 6739,
      "à¤¾à¤Ĥà¤¨": 6740,
      "ĠVal": 6741,
      "ĠAut": 6742,
      "ocr": 6743,
      "Ġneigh": 6744,
      "Ġà¤µà¥ĩà¤³à¥Ģ": 6745,
      "Ġoccup": 6746,
      "à¥Ĥà¤°à¥įà¤£": 6747,
      "ively": 6748,
      "Ġcurrently": 6749,
      "Ġà¤¨à¤¿à¤¯à¥ģà¤ķà¥įà¤¤": 6750,
      "Ġà¤°à¤¾à¤ľà¤¸à¥įà¤¥à¤¾à¤¨": 6751,
      "ingu": 6752,
      "Ġ\"I": 6753,
      "Ġà¤ªà¥įà¤°à¤®à¤¾à¤£à¤¾à¤¤": 6754,
      "Ġà¤Ĩà¤ªà¤²à¥ĩ": 6755,
      "ĠLond": 6756,
      "Ġconstant": 6757,
      "ĠLat": 6758,
      "à¤¿à¤Ŀ": 6759,
      "Ġà¤ªà¤¾à¤²à¤¨": 6760,
      "Ġà¤¸à¤®à¥įà¤ª": 6761,
      "Ġà¤µà¥ĩà¤¦": 6762,
      "Ġà¤¸à¤²à¤¾à¤¹": 6763,
      "Ġà¤ªà¤°à¤¿à¤¸à¥įà¤¥à¤¿à¤¤": 6764,
      "Ġà¤¯à¥Ĥà¤¨à¤¿à¤µà¤°à¥įà¤¸": 6765,
      "Ġà¤®à¤Ĥà¤Ĺ": 6766,
      "obile": 6767,
      "Ġtrying": 6768,
      "Ġroot": 6769,
      "ype": 6770,
      "Ġcalcul": 6771,
      "à¤¾à¤¸à¥įà¤Ł": 6772,
      "les.": 6773,
      "Ġà¤®à¤¿à¤²à¤¾": 6774,
      "Ġ...": 6775,
      "Ġà¤¶à¥ĩà¤µ": 6776,
      "à¤¨à¤¾,": 6777,
      "à¤Ĥà¤ļà¤¾": 6778,
      "Ġà¤ªà¤Ĥà¤ļà¤¾à¤¯à¤¤": 6779,
      "Ġpoly": 6780,
      "à¤¾à¤°à¥ĭà¤Ĥ": 6781,
      "à¤£à¥įà¤¯à¤¾à¤ļà¤¾": 6782,
      "à¤¯à¤¹": 6783,
      "Ġà¤µà¤¾à¤ªà¤¸": 6784,
      "Ġhope": 6785,
      "pris": 6786,
      "ĠRel": 6787,
      "aly": 6788,
      "Ġà¤¨à¤¹à¥Ģà¤Ĥ,": 6789,
      "à¤¿à¤µà¥įà¤¹": 6790,
      "ism.": 6791,
      "Ġasked": 6792,
      "Ġleave": 6793,
      "à¥ģà¤¨à¤¿à¤ķ": 6794,
      "Ġà¤ľà¤¾à¤ıà¤Ĺà¥Ģà¥¤": 6795,
      "à¤¾à¤¦à¤°": 6796,
      "Ġswe": 6797,
      "à¤ªà¤¨": 6798,
      "Ġvisual": 6799,
      "Ġà¤µà¤¿à¤ľà¥įà¤ŀà¤¾à¤¨": 6800,
      "ought": 6801,
      "Ġà¤¸à¤¿à¤²": 6802,
      "à¤ķà¤¡à¥Ĥà¤¨": 6803,
      "à¥īà¤¸": 6804,
      "à¤¤à¥ĭ,": 6805,
      "Ġnothing": 6806,
      "Ġpregn": 6807,
      "Ġà¤ªà¤¤à¤¿": 6808,
      "Ġà¤¦à¤¹": 6809,
      "urg": 6810,
      "Ġà¤¸à¤¤à¥įà¤¤": 6811,
      "Ġorganization": 6812,
      "Ġmiles": 6813,
      "rical": 6814,
      "Ġà¤®à¥īà¤¡": 6815,
      "à¤¾à¤¹à¤¨": 6816,
      "Ġà¤ªà¥įà¤°à¤ķà¤¾à¤¶à¤¿à¤¤": 6817,
      "ĠProgram": 6818,
      "Ġmemory": 6819,
      "Ġstrength": 6820,
      "ĠChe": 6821,
      "Ġà¤ªà¤¾à¤µà¤¸": 6822,
      "Ġà¤¨à¥ĭ": 6823,
      "Ġà¤ħà¤®à¤¿à¤¤": 6824,
      "Ġgarden": 6825,
      "ĠBu": 6826,
      "Ġà¤¸à¥ĭà¤®à¤µà¤¾à¤°": 6827,
      "ĠGet": 6828,
      "ness,": 6829,
      "Ġoverall": 6830,
      "Ġdirection": 6831,
      "ĠS.": 6832,
      "Ġà¤¨à¤¿à¤µà¤¾à¤¸à¥Ģ": 6833,
      "à¤«à¤¼": 6834,
      "ctions": 6835,
      "Ġcateg": 6836,
      "ĠB.": 6837,
      "Ġgold": 6838,
      "Ġpowerful": 6839,
      "-S": 6840,
      "Ġà¤ħà¤¨à¥ģà¤ª": 6841,
      "Ġà¤¹à¥ģà¤Ĩà¥¤": 6842,
      "à¤¾à¤ĩà¤®": 6843,
      "Ġfollowed": 6844,
      "ent.": 6845,
      "ĠHouse": 6846,
      "Ġà¤ķà¤ªà¥Ĥà¤°": 6847,
      "Ġà¤²à¤¹à¤¾à¤¨": 6848,
      "Ġperformance": 6849,
      "water": 6850,
      "Ġperfect": 6851,
      "Ġmal": 6852,
      "Ġà¤ľà¥ĩà¤²": 6853,
      "Ġmax": 6854,
      "ilosoph": 6855,
      "Ġexercise": 6856,
      "-à¤ľ": 6857,
      "-year": 6858,
      "rate": 6859,
      "Ġà¤¤à¤¿à¤²à¤¾": 6860,
      "verse": 6861,
      "Ġà¤ªà¤¥": 6862,
      "Ġeight": 6863,
      "oe": 6864,
      "ĠUnder": 6865,
      "Ġfair": 6866,
      "umn": 6867,
      "à¤°à¥Ģà¤¬": 6868,
      "à¤¸à¥įà¤¤à¥Ģ": 6869,
      "Ġtrain": 6870,
      "Ġdiscovered": 6871,
      "Ġwon": 6872,
      "Ġà¤Ńà¤µà¤¿à¤·à¥įà¤¯": 6873,
      "Ġà¤Ĩà¤¯à¥ģà¤ķà¥įà¤¤": 6874,
      "Ġà¤¡à¥ĩà¤Ł": 6875,
      "ography": 6876,
      "ĠBr": 6877,
      "Ġà¤¸à¥ģà¤µà¤¿à¤§à¤¾": 6878,
      "Ġà¤¸à¤¿à¤¤": 6879,
      "Ġden": 6880,
      "Ġwond": 6881,
      "à¤ĸà¥įà¤¯": 6882,
      "Ġà¤ªà¤²": 6883,
      "à¤¾à¤Ĥà¤ªà¤¾à¤¸à¥Ĥà¤¨": 6884,
      "à¤µà¤¾à¤¸": 6885,
      "Ġreveal": 6886,
      "Ġfeatures": 6887,
      "Ġà¤¹à¤¿à¤°": 6888,
      "à¤¦à¥įà¤°": 6889,
      "Ġà¤¦à¥ĩà¤°": 6890,
      "ruary": 6891,
      "à¤°à¤®à¥įà¤¯à¤¾à¤¨": 6892,
      "à¤¸à¤¿à¤Ĥ": 6893,
      "rupt": 6894,
      "Ġsch": 6895,
      "-C": 6896,
      "Ġà¤µà¤°à¤¿à¤·à¥įà¤ł": 6897,
      "Ġhistorical": 6898,
      "Ġvirt": 6899,
      "Ġcommonly": 6900,
      "Ġbooks": 6901,
      "AC": 6902,
      "oring": 6903,
      "ĠMexic": 6904,
      "Ġà¤¨à¤¾à¤¹à¥Ģà¤¤.": 6905,
      "Ġà¤¯à¤¾à¤¨à¥Ģ": 6906,
      "Ġmis": 6907,
      "Ġà¤Ńà¥Ĥ": 6908,
      "Ġrule": 6909,
      "Ġà¤¸à¥ģà¤°à¥ģà¤µà¤¾à¤¤": 6910,
      "Ġvill": 6911,
      "Ġà¤¤à¤¾à¤¤": 6912,
      "Ġà¤®à¤ľà¤¬à¥Ĥà¤¤": 6913,
      "Ġà¤ľà¤®à¤¾": 6914,
      "ribute": 6915,
      "Ġà¤¹à¤®à¥ĩà¤¶à¤¾": 6916,
      "ĠSee": 6917,
      "à¥įà¤ĸ": 6918,
      "Ġà¤ķà¤Ĥà¤Ł": 6919,
      "Ġà¤ķà¤¿à¤°": 6920,
      "Ġà¤Ĺà¥ģà¤ľà¤°à¤¾à¤¤": 6921,
      "lin": 6922,
      "Ġmap": 6923,
      "Ġà¤®à¤¿à¤¸": 6924,
      "Ġà¤ħà¤¨à¥ģà¤°": 6925,
      "Ġthinking": 6926,
      "Ġà¤µà¤¾à¤²à¥ĭà¤Ĥ": 6927,
      "ounds": 6928,
      "Ġà¤°à¤¾à¤¤à¥įà¤°à¥Ģ": 6929,
      "Ġà¤ªà¥įà¤°à¤ķà¤²à¥įà¤ª": 6930,
      "one,": 6931,
      "Ġà¤ķà¤¾à¤¯à¤®": 6932,
      "at,": 6933,
      "Ġgirl": 6934,
      "à¤¾à¤¹à¥Ģà¤°": 6935,
      "Ġà¤ħà¤°à¥įà¤¥à¤¾à¤¤à¥į": 6936,
      "Ġà¤īà¤ĺ": 6937,
      "à¥ģà¤¦à¥įà¤§à¤¾": 6938,
      "à¤®à¤§à¥Ĥà¤¨": 6939,
      "Ġchurch": 6940,
      "Ġeverything": 6941,
      "off": 6942,
      "Ġjoint": 6943,
      "Ġà¤µà¤¹à¤¾à¤ģ": 6944,
      "Ġnamed": 6945,
      "Ġà¤¨à¤¿à¤ķà¤¾à¤¯": 6946,
      "ĠBook": 6947,
      "ĠTheir": 6948,
      "à¤¾à¤¯à¤¨": 6949,
      "Ġà¤īà¤¸à¤®à¥ĩà¤Ĥ": 6950,
      "Ġgoes": 6951,
      "Ġà¤ĺà¤¾à¤¤": 6952,
      "ĠInc": 6953,
      "Ġà¤¸à¤¾à¤Ĥà¤¸à¤¦": 6954,
      "Ġrich": 6955,
      "AL": 6956,
      "Ġexec": 6957,
      "à¤¬à¤Ĥà¤§à¤¨": 6958,
      "Ġà¤ĳà¤¨à¤²à¤¾à¤ĩà¤¨": 6959,
      "à¤µà¤²": 6960,
      "orge": 6961,
      "à¤ªà¥įà¤°à¤¿à¤¯": 6962,
      "Ġà¤¸à¥įà¤¥à¤¾à¤ªà¤¿à¤¤": 6963,
      "ĠPublic": 6964,
      "à¥įà¤¯à¤¾à¤ľ": 6965,
      "à¥ģà¤ģ": 6966,
      "iest": 6967,
      "Ġà¤¸à¤¾à¤Ĥà¤Ĺà¤¿à¤¤à¤²à¥ĩ": 6968,
      "Ġà¤ªà¥įà¤°à¤¿à¤¯": 6969,
      "à¤īà¤¨": 6970,
      "Ġweather": 6971,
      "Ġà¤°à¥ģà¤Ĺà¥įà¤£à¤¾à¤²à¤¯": 6972,
      "Ġà¤®à¥įà¤¹à¤Łà¤²à¥ĩ": 6973,
      "ĠInter": 6974,
      "Ġà¤Ńà¥Ĥà¤®à¤¿": 6975,
      "ces.": 6976,
      "Ġà¤¨à¤¿à¤°à¥Ģ": 6977,
      "AS": 6978,
      "one.": 6979,
      "Ġimages": 6980,
      "Ġgave": 6981,
      "Ġwell.": 6982,
      "ĠSocial": 6983,
      "Ġsymbol": 6984,
      "à¤µà¤¾à¤¡": 6985,
      "à¤ıà¤ļ": 6986,
      "à¤¾à¤Īà¤²": 6987,
      "à¤ķà¥ĩà¤¤": 6988,
      "Ġà¤ªà¤¾à¤ı": 6989,
      "ancy": 6990,
      "à¤¯.": 6991,
      "iers": 6992,
      "Ġcommerc": 6993,
      "Ġà¤¸à¥įà¤¥à¤¾à¤¨à¥Ģ": 6994,
      "Ġà¤ĺà¤Ĥà¤Łà¥ĩ": 6995,
      "Ġà¤¬à¤¾à¤µ": 6996,
      "Ġà¤¤à¤¹": 6997,
      "Ġplaced": 6998,
      "Ġà¤µà¤¾": 6999,
      "à¥ĩà¤¤à¤¨": 7000,
      "Ġà¤µà¤¿à¤¶à¤¿à¤·à¥įà¤Ł": 7001,
      "ive.": 7002,
      "Ġwaste": 7003,
      "izes": 7004,
      "Ġà¤Ĩà¤®à¥įà¤¹": 7005,
      "Ġà¤¸à¤¡à¤¼à¤ķ": 7006,
      "Ġking": 7007,
      "fl": 7008,
      "Ġà¤¶à¤ķà¥įà¤¤": 7009,
      "Ġà¤°à¤¾à¤µ": 7010,
      "à¤¾à¤ļà¤Ĥ": 7011,
      "Ġà¤ľà¥Īà¤¨": 7012,
      "Ġà¤¤à¤°à¥ģà¤£": 7013,
      "ĠMedic": 7014,
      "à¤¤à¤¾à¤¨": 7015,
      "Ġopportunity": 7016,
      "Ġenter": 7017,
      "à¥īà¤°": 7018,
      "ĠSpec": 7019,
      "ĠDNA": 7020,
      "ĠEnvironment": 7021,
      "Ġà¤ķà¥įà¤·à¤®à¤¤à¤¾": 7022,
      "rs": 7023,
      "Ġenh": 7024,
      "ĠâĢľA": 7025,
      "à¥įà¤¯à¤¾à¤Ĥà¤ļà¤¾": 7026,
      "Ġnutri": 7027,
      "Ġcommunication": 7028,
      "à¤¤à¥įà¤¯": 7029,
      "Ġbeg": 7030,
      "mitted": 7031,
      "Ġacqu": 7032,
      "à¤ªà¥įà¤¤": 7033,
      "à¥Ĥ,": 7034,
      "Ġà¤īà¤®à¥įà¤®à¥Ģà¤¦à¤µà¤¾à¤°": 7035,
      "iful": 7036,
      "ologist": 7037,
      "Ġapplication": 7038,
      "à¥ĩà¤Ĥà¤ļ": 7039,
      "aces": 7040,
      "Ġtox": 7041,
      "Ġà¤Ĺà¥Īà¤°": 7042,
      "Ġjournal": 7043,
      "Ġà¤®à¤¾à¤¤à¤¾": 7044,
      "à¤°à¥įà¤ĺ": 7045,
      "Ġletter": 7046,
      "phas": 7047,
      "Ġemerg": 7048,
      "Ġfamilies": 7049,
      "Ġdisplay": 7050,
      "à¤¸à¥įà¤µà¥Ģ": 7051,
      "ore,": 7052,
      "à¤¾à¤īà¤Ĥà¤¡": 7053,
      "Ġà¤Ĺà¥Įà¤°": 7054,
      "Ġà¤ªà¤°à¤¿à¤ļ": 7055,
      "Ġà¤ħà¤²à¥Ģ": 7056,
      "Ġassign": 7057,
      "Ġà¤ªà¥įà¤°à¤Ńà¤¾à¤µà¤¿à¤¤": 7058,
      "Ġrob": 7059,
      "Ġanything": 7060,
      "Ġà¤®à¥ģà¤²à¥Ģ": 7061,
      "Ġà¤µà¤¾à¤¤à¤¾à¤µà¤°à¤£": 7062,
      "Ġà¤ľà¤¾à¤Ĭ": 7063,
      "à¤§à¤¿": 7064,
      "Ġà¤¨à¤¿à¤ĺ": 7065,
      "Ġà¤ªà¥įà¤°à¤¾à¤¥": 7066,
      "Ġbelief": 7067,
      "ĠConf": 7068,
      "Ġsmaller": 7069,
      "à¥ĩà¤§": 7070,
      "Ġà¤¬à¥įà¤°à¤¿à¤Ł": 7071,
      "Ġtou": 7072,
      "Ġà¤ĸà¤Ĥà¤¡": 7073,
      "ET": 7074,
      "Ġwatch": 7075,
      "à¤¬à¥įà¤°": 7076,
      "Ġà¤ªà¥įà¤°à¤ļà¤¾à¤°": 7077,
      "Ġshowed": 7078,
      "Ġà¤¶à¤¹": 7079,
      "amer": 7080,
      "Ġcontinued": 7081,
      "Ġvalues": 7082,
      "Ġcompletely": 7083,
      "ato": 7084,
      "iency": 7085,
      "Ġpeople.": 7086,
      "Ġremember": 7087,
      "Ġà¤²à¤ķà¥įà¤·à¥įà¤¯": 7088,
      "Ġallowed": 7089,
      "Ġrelatively": 7090,
      "ĠUN": 7091,
      "Ġà¤ıà¤«": 7092,
      "Ġà¤Łà¥ĩà¤ķ": 7093,
      "à¤¾à¤ķà¤¾": 7094,
      "rec": 7095,
      "Ġson": 7096,
      "Ġtrad": 7097,
      "à¤¤à¤¾à¤¤,": 7098,
      "Ġà¤¹à¤¾à¤Ī": 7099,
      "Ġpeace": 7100,
      "lam": 7101,
      "Ġcry": 7102,
      "Ġà¤°à¤¿à¤²à¥Ģà¤ľ": 7103,
      "Ġload": 7104,
      "ĠLord": 7105,
      "Ġà¤īà¤¦à¥įà¤¦à¥ĩà¤¶à¥įà¤¯": 7106,
      "ated,": 7107,
      "Ġatmosp": 7108,
      "Ġà¤®à¤¤à¤¦à¤¾à¤¨": 7109,
      "Ġà¤ªà¥įà¤°à¤¤à¥įà¤¯à¤ķà¥įà¤·": 7110,
      "fully": 7111,
      "Ġà¤®à¥ĩà¤°à¤¾": 7112,
      "Ġuser": 7113,
      "Ġà¤ķà¥įà¤·à¥ĩà¤¤à¥įà¤°à¥ĭà¤Ĥ": 7114,
      "Ġà¤²à¤µà¤ķà¤°": 7115,
      "Ġà¤ĸà¤¾à¤²à¥Ģ": 7116,
      "Ġdetect": 7117,
      "known": 7118,
      "m.": 7119,
      "rieved": 7120,
      "Ġà¤¸à¤Ĥà¤°à¤ķà¥įà¤·à¤£": 7121,
      "à¥ĩà¤Ĥà¤¸à¥Ģ": 7122,
      "Ġalcohol": 7123,
      "Ġà¤ĩà¤ļà¥įà¤Ľà¤¾": 7124,
      "ĠDes": 7125,
      "Ġclassroom": 7126,
      "Ġpromot": 7127,
      "à¥Ĥà¤°à¥įà¤µà¥Ģ": 7128,
      "ĠTH": 7129,
      "ĠChildren": 7130,
      "Ġmouth": 7131,
      "Ġà¤®à¤¿à¤³à¤¤": 7132,
      "à¤¹à¤¿": 7133,
      "ĠAmericans": 7134,
      "Ġself-": 7135,
      "Ġemp": 7136,
      "à¥ĭà¤²à¥ī": 7137,
      "ĠdoesnâĢĻt": 7138,
      "semb": 7139,
      "Ġgame": 7140,
      "Ġtrees": 7141,
      "ulate": 7142,
      "à¥įà¤¯à¤¾à¤¶à¥Ģ": 7143,
      "el,": 7144,
      "à¤¦à¥ĩ": 7145,
      "à¤ķà¤°à¤£à¥Ģ": 7146,
      "gypt": 7147,
      "Ġlatest": 7148,
      "ynam": 7149,
      "Ġexpected": 7150,
      "Ġtele": 7151,
      "Ġà¤ªà¤¹à¤ļà¤¾à¤¨": 7152,
      "Ġefforts": 7153,
      "Ġà¤¶à¤¿à¤Ĥà¤¦à¥ĩ": 7154,
      "ste": 7155,
      "Ġà¤ķà¤°à¤¾": 7156,
      "ĠGreen": 7157,
      "Ġhands": 7158,
      "ĠJewish": 7159,
      "Ġcompl": 7160,
      "à¤Ĺà¤¡": 7161,
      "Ġpresence": 7162,
      "Ġà¤¬à¤¨à¥Ģ": 7163,
      "ĠAng": 7164,
      "hy": 7165,
      "Ġillust": 7166,
      "EC": 7167,
      "aign": 7168,
      "Ġà¤²à¤ķà¥įà¤·à¤¾à¤¤": 7169,
      "Ġlaws": 7170,
      "Ġà¤ķà¥ĭà¤¹": 7171,
      "Ġcenter": 7172,
      "Ġice": 7173,
      "à¤ªà¥Ģà¤ıà¤²": 7174,
      "Ġà¤¦à¤¾à¤°": 7175,
      "Ġreduced": 7176,
      "Ġà¤ħà¤Ĥà¤¤à¤°à¥įà¤Ĺà¤¤": 7177,
      "à¤¸à¥ĩà¤µ": 7178,
      "à¤¾à¤¤à¥įà¤®à¤¾": 7179,
      "Ġà¤¤à¥įà¤µ": 7180,
      "à¤¬à¤¾à¤°": 7181,
      "à¤¦à¤°à¥įà¤¶à¤¨": 7182,
      "Ġà¤µà¤¿à¤ķà¤¸à¤¿à¤¤": 7183,
      "Ġà¤ļà¥ĩ": 7184,
      "ĠMark": 7185,
      "DA": 7186,
      "ĠMic": 7187,
      "Ġà¤¦à¥ģà¤ĥ": 7188,
      "Ġaffected": 7189,
      "ĠTest": 7190,
      "Ġworth": 7191,
      "Ġà¤®à¥ģà¤¶": 7192,
      "Ġà¤ľà¤¾à¤¹à¥Ģà¤°": 7193,
      "Ġball": 7194,
      "à¤¾à¤īà¤¨": 7195,
      "à¤§à¥ĩ": 7196,
      "Ġà¤«à¥ĩà¤¸": 7197,
      "Ġrates": 7198,
      "Ġmut": 7199,
      "Ġconstruct": 7200,
      "à¤¾-": 7201,
      "Ġcoming": 7202,
      "Ġevolution": 7203,
      "ĠPhil": 7204,
      "Ġpiece": 7205,
      "ĠTim": 7206,
      "Ġà¤¶à¥įà¤°à¤¦à¥įà¤§": 7207,
      "Ġfully": 7208,
      "Ġinsect": 7209,
      "Ġ'à¤ħ": 7210,
      "Ġà¤¬à¤¾à¤°à¤¿à¤¶": 7211,
      "Ġanx": 7212,
      "g.": 7213,
      "Ġà¤¦à¤¿à¤µà¤¶à¥Ģ": 7214,
      "ĠCouncil": 7215,
      "Ġà¤Ĺà¤¯": 7216,
      "Ġcourt": 7217,
      "ibly": 7218,
      "à¤¾à¤Īà¤¨": 7219,
      "Ġantib": 7220,
      "Ġà¤¦à¤¿à¤Ĺ": 7221,
      "Ġcompar": 7222,
      "Ġà¤°à¥ĩà¤²à¥įà¤µ": 7223,
      "iant": 7224,
      "Ġbehavi": 7225,
      "Ġà¤Ĺà¥ĭà¤·à¥įà¤Łà¥Ģ": 7226,
      "Ġdegre": 7227,
      "à¤łà¤¾": 7228,
      "ĠHuman": 7229,
      "ions,": 7230,
      "Ġmajority": 7231,
      "craft": 7232,
      "Ġà¤ħà¤Ĺà¥įà¤°": 7233,
      "Ġforward": 7234,
      "à¤Ĥà¤¡à¥Ģ": 7235,
      "Ġdied": 7236,
      "Ġà¤Ĺà¥ģà¤²": 7237,
      "Ġà¤¸à¤Ĥà¤ķà¤Ł": 7238,
      "ĠVol": 7239,
      "Ġexpand": 7240,
      "Ġwid": 7241,
      "ĠMat": 7242,
      "II": 7243,
      "ogle": 7244,
      "ĠColle": 7245,
      "Ġà¤¤à¤¨": 7246,
      "enty": 7247,
      "Ġà¤ıà¤ķà¤®": 7248,
      "Ġà¤ªà¤¡à¤¼à¤¤à¤¾": 7249,
      "Ġstrugg": 7250,
      "Ġà¤Ĺà¤°à¥įà¤®": 7251,
      "à¤®à¤¹": 7252,
      "Ġà¤ĩà¤²à¤¾à¤ľ": 7253,
      "à¤ĸà¤¨": 7254,
      "Ġfresh": 7255,
      "Ġimmune": 7256,
      "Ġà¤Ĩà¤ªà¤²à¥Ģ": 7257,
      "Ġà¤¤à¥ģà¤®à¤ļà¥įà¤¯à¤¾": 7258,
      "ĠAv": 7259,
      "à¤®à¥ĭ": 7260,
      "Ġeducational": 7261,
      "Ġà¤¨à¤¯à¤¾": 7262,
      "ĠSub": 7263,
      "Ġà¤ķà¤¾à¤Ł": 7264,
      "Ġtable": 7265,
      "isms": 7266,
      "Ġà¤¬à¤Ĥà¤§": 7267,
      "Ġà¤²à¥īà¤ķ": 7268,
      "Ġplaces": 7269,
      "rief": 7270,
      "Ġà¤°à¥Ī": 7271,
      "Ġà¤ıà¤ĸà¤¾à¤¦": 7272,
      "Ġ(p": 7273,
      "à¤¹à¤°à¤¾": 7274,
      "Ġà¤µà¤¿à¤µà¤¾à¤¦": 7275,
      "Ġà¤ªà¤¾à¤¤à¥įà¤°": 7276,
      "Ġà¤µà¥Īà¤¶": 7277,
      "ĠFebruary": 7278,
      "clus": 7279,
      "à¤ľà¤¾à¤¤": 7280,
      "Ġà¤ħà¤¨à¥ģà¤¸à¤¾à¤°,": 7281,
      "Ġà¤ķà¤°à¤¾à¤¯à¤¾": 7282,
      "Ġ(U": 7283,
      "Ġà¤ĩà¤Ĥà¤Łà¤°à¤¨": 7284,
      "ald": 7285,
      "âĢĿ,": 7286,
      "Ġà¤®à¤Ī": 7287,
      "Ġmilk": 7288,
      "Ġolder": 7289,
      "Ġperhaps": 7290,
      "ĠR.": 7291,
      "Ġà¤ĺà¥ĩà¤¤à¤²à¤¾": 7292,
      "ĠOb": 7293,
      "Ġà¤¤à¤¾à¤¸": 7294,
      "Ġà¤Ĩà¤µà¥ĩà¤¦à¤¨": 7295,
      "Ġefficient": 7296,
      "related": 7297,
      "ĠEurope": 7298,
      "Ġexamples": 7299,
      "Ġà¤µà¤¿à¤¸à¥įà¤¤à¤¾à¤°": 7300,
      "icip": 7301,
      "Ġboard": 7302,
      "Ġà¤µà¤¡": 7303,
      "uls": 7304,
      "Ġworkers": 7305,
      "ĠEgypt": 7306,
      "Ġincor": 7307,
      "Ġà¤¹à¥ĭà¥¤": 7308,
      "Ġà¤¤à¤°à¥Ģà¤ķà¥ĩ": 7309,
      "ĠFood": 7310,
      "Ġacad": 7311,
      "à¤Ĺà¤¤": 7312,
      "Ġà¤ªà¤¾à¤¤": 7313,
      "ĠDavid": 7314,
      "Ġbreast": 7315,
      "ĠSt.": 7316,
      "à¤¾à¤ıà¤ģ": 7317,
      "Ġà¤°à¤µà¤¿à¤µà¤¾à¤°": 7318,
      "Ġdifferences": 7319,
      "à¤²à¥įà¤²à¤¾": 7320,
      "ĠDr": 7321,
      "Ġship": 7322,
      "à¤¿à¤Ĺà¤¤": 7323,
      "itable": 7324,
      "ĠTur": 7325,
      "Ġà¤¸à¥įà¤µà¤ļà¥įà¤Ľ": 7326,
      "à¤²à¥ĩà¤ķà¥įà¤Łà¥įà¤°": 7327,
      "Ġà¤¸à¤¾à¤®à¤¨": 7328,
      "Ġà¤Ĩà¤¦à¤®à¥Ģ": 7329,
      "Ġrecently": 7330,
      "Ġà¤°à¤¾à¤ľà¤¨à¥Ģà¤¤à¤¿à¤ķ": 7331,
      "Ġà¤ľà¤¨à¤µà¤°à¥Ģ": 7332,
      "à¥ĩà¤ł": 7333,
      "Ġpeople,": 7334,
      "Ġforces": 7335,
      "Ġà¤¬à¤ģà¤ķ": 7336,
      "à¤¿à¤®à¤¾": 7337,
      "Ġà¤¸à¥ģà¤Ĥà¤¦à¤°": 7338,
      "Ġà¤¯à¥Ĥà¤¨à¤¿à¤µà¤°à¥įà¤¸à¤¿à¤Łà¥Ģ": 7339,
      "Ġà¤ľà¥Īà¤¸à¥Ģ": 7340,
      "Ġà¤¤à¤¤à¥įà¤ķ": 7341,
      "ĠDec": 7342,
      "Ġexperiment": 7343,
      "Ġing": 7344,
      "Ġà¤ķà¤°à¥ĩà¤Ĥà¤Ĺà¥ĩà¥¤": 7345,
      "Ġmuscle": 7346,
      "ĠEvery": 7347,
      "Ġinteresting": 7348,
      "Ġenerg": 7349,
      "resp": 7350,
      "Ġ'à¤ķ": 7351,
      "Ġà¤ķà¥ĩà¤¨à¥įà¤¦à¥įà¤°": 7352,
      "iles": 7353,
      "Ġbillion": 7354,
      "Ġà¤ĸà¤°à¥ĩà¤¦à¥Ģ": 7355,
      "Ġbound": 7356,
      "Ġà¤¹à¥ĩà¤²": 7357,
      "Ġarchitect": 7358,
      "Ġà¤¸à¥įà¤¥à¤¾à¤¨à¥Ģà¤¯": 7359,
      "Ġà¤ĸà¤°à¤¾à¤¬": 7360,
      "ĠMor": 7361,
      "Ġconvers": 7362,
      "force": 7363,
      "Ġà¤°à¤¾à¤ľà¤§à¤¾à¤¨à¥Ģ": 7364,
      "Ġwater.": 7365,
      "Ġà¤¹à¥ĭà¤¤à¥ĭ.": 7366,
      "Ġà¤²à¤Ĺà¤¾à¤¨à¥ĩ": 7367,
      "Ġà¤Ĳà¤ķ": 7368,
      "Ġvitamin": 7369,
      "à¤Ĥà¤¤à¥Ģ": 7370,
      "Ġà¤°à¤¾à¤·à¥įà¤Łà¥įà¤°à¤ªà¤¤à¤¿": 7371,
      "Ġexisting": 7372,
      "àª": 7373,
      "Ġwrote": 7374,
      "à¤¾à¤µà¤¾,": 7375,
      "aint": 7376,
      "Ġà¤¨à¤¿à¤°à¥įà¤§à¤¾à¤°à¤¿à¤¤": 7377,
      "Ġà¤¦à¥Ĥà¤¸à¤°à¤¾": 7378,
      "Ġà¤Ĺà¥ĩà¤²à¥ĩ": 7379,
      "Ġrepe": 7380,
      "Ġstaff": 7381,
      "Ġà¤°à¥ĩà¤¡": 7382,
      "Ġà¤°à¤¾à¤¸à¥įà¤¤": 7383,
      "Ġvot": 7384,
      "Ġapplied": 7385,
      "à¤ķà¥ģà¤®à¤¾à¤°": 7386,
      "Ġà¤ķà¥ĥà¤·à¤¿": 7387,
      "idents": 7388,
      "Ġà¤¸à¤¾à¤°à¥ĩ": 7389,
      "s.âĢĿ": 7390,
      "Ġà¤ĺà¤°à¥Ģ": 7391,
      "rehens": 7392,
      "Ġpick": 7393,
      "Ġà¤¸à¤Ĥà¤¬": 7394,
      "Ġà¤¸à¤Ĥà¤¦à¤°à¥įà¤Ń": 7395,
      "Ġà¤ķà¥ĩà¤²à¤Ĥ": 7396,
      "Ġinnov": 7397,
      "Ġà¤ħà¤Ĥà¤¦à¤°": 7398,
      "Ġgiving": 7399,
      "Ġà¤¯à¥ģà¤µà¤¾": 7400,
      "Ġà¤ªà¤¹à¤²à¤¾": 7401,
      "Ġopportunities": 7402,
      "abilities": 7403,
      "Ġà¤«à¥ģà¤Ł": 7404,
      "à¥įà¤²à¤¿à¤®": 7405,
      "Ġseparate": 7406,
      "Ġplastic": 7407,
      "uff": 7408,
      "Ġà¤«à¤¾à¤¯à¤¦à¤¾": 7409,
      "ces,": 7410,
      "Ġassum": 7411,
      "iox": 7412,
      "Ġà¤ħà¤ªà¤°à¤¾à¤§": 7413,
      "Ġà¤¸à¤¤à¥įà¤¤à¤¾": 7414,
      "Ġà¤Ĩà¤ĺ": 7415,
      "Ġà¤ķà¥ĭà¤ļ": 7416,
      "Ġthis,": 7417,
      "Ġà¤Ńà¤°à¥įà¤¤à¥Ģ": 7418,
      "ĠPal": 7419,
      "ously": 7420,
      "iples": 7421,
      "Ġà¤ıà¤ķà¥Ĥà¤£": 7422,
      "ari": 7423,
      "à¥ĭà¤Łà¥Ģ": 7424,
      "Ġà¤®à¥ĭà¤łà¥Ģ": 7425,
      "Ġwrong": 7426,
      "Ġà¤¶à¥ģà¤ķà¥įà¤°à¤µà¤¾à¤°": 7427,
      "Ġà¤Ĩà¤£à¤ĸà¥Ģ": 7428,
      "issions": 7429,
      "Ġà¤¸à¥įà¤®à¤¾à¤°à¥įà¤Ł": 7430,
      "Ġà¤ħà¤Ĥà¤¦à¤¾à¤ľ": 7431,
      "ĠSam": 7432,
      "cious": 7433,
      "à¥Ĥà¤·à¤£": 7434,
      "à¤¸à¥įà¤¤à¥įà¤°": 7435,
      "Ġforeign": 7436,
      "à¤¾à¤¨à¥ģà¤¸à¤¾à¤°": 7437,
      "Ġà¤ªà¥Ģà¤ıà¤®": 7438,
      "Ġfigure": 7439,
      "Ġà¤®à¥ĭà¤¬à¤¾à¤ĩà¤²": 7440,
      "ĠCalifornia": 7441,
      "Ġà¤¸à¥ģà¤ªà¤°": 7442,
      "-up": 7443,
      "à¤¬à¥ģà¤ķ": 7444,
      "Ġà¤¯à¤¾à¤¬à¤¾à¤¬à¤¤": 7445,
      "Ġvo": 7446,
      "à¤ķà¤²à¥įà¤ª": 7447,
      "Ġappears": 7448,
      "Ġà¤ĩà¤¨à¤ķà¥ĩ": 7449,
      "ices.": 7450,
      "emy": 7451,
      "Ġpen": 7452,
      "ĠEth": 7453,
      "à¥ĩà¤Ĺà¥Ģ": 7454,
      "Ġà¤¹à¥ĭà¤¤à¤Ĥ.": 7455,
      "Ġà¤°à¤ķà¥įà¤·à¤¾": 7456,
      "à¥įà¤¦à¥įà¤°": 7457,
      "Ġstim": 7458,
      "Ġnative": 7459,
      "à¤¾à¤µà¤°à¥Ĥà¤¨": 7460,
      "Ġweak": 7461,
      "Ġà¤²à¤Ĺà¥Ģ": 7462,
      "Ġoffers": 7463,
      "Ġeveryone": 7464,
      "Ġhuge": 7465,
      "Ġhumans": 7466,
      "Ġà¤¹à¤¿à¤¤": 7467,
      "Ġtesting": 7468,
      "Ġà¤¦à¥ģà¤ĸ": 7469,
      "Ġà¤ĩà¤®à¤¾à¤°": 7470,
      "Ġqual": 7471,
      "Ġà¤īà¤¤à¥įà¤¤à¤®": 7472,
      "Ġà¤¸à¤°à¥įà¤µà¥ĭ": 7473,
      "Ġà¤ķà¥ĭà¤°": 7474,
      "Ġà¤ĩà¤¥": 7475,
      "Ġleaves": 7476,
      "ilit": 7477,
      "Ġà¤Ńà¤¾à¤µà¤¨à¤¾": 7478,
      "ions.": 7479,
      "Ġpartn": 7480,
      "ĠStudents": 7481,
      "Ġà¤Ĩà¤²à¥ĩà¤²à¥įà¤¯à¤¾": 7482,
      "Ġà¤¶à¤ķà¤¤à¥ĩ.": 7483,
      "Ġà¤¦à¤°à¤µ": 7484,
      "Ġà¤¨à¥ĩà¤¤à¥ĩ": 7485,
      "Ġexposure": 7486,
      "Ġà¤ķà¥ĭà¤£à¤¤à¥įà¤¯à¤¾à¤¹à¥Ģ": 7487,
      "Ġabsor": 7488,
      "Ġà¤ħà¤Ńà¤¿à¤¨à¥ĩà¤¤": 7489,
      "ĠMich": 7490,
      "à¤°à¥Ģà¤¤": 7491,
      "Ġinfect": 7492,
      "a-": 7493,
      "Ġà¤ªà¥įà¤°à¥ĩà¤°": 7494,
      "à¤¾à¤ķà¤¡à¥Ĥà¤¨": 7495,
      "Ġtruth": 7496,
      "ternal": 7497,
      "Ġà¤ħà¤¨à¥ģà¤¸": 7498,
      "Ġà¤¸à¤Ĥà¤Ĺà¥Ģà¤¤": 7499,
      "ĠRem": 7500,
      "Ġà¤ħà¤Ĺà¤²à¥ĩ": 7501,
      "Ġà¤Ĩà¤¤à¥ĩ": 7502,
      "i.e.": 7503,
      "Ġà¤ªà¥įà¤°à¤µà¤¾à¤¸": 7504,
      "Ġaddition,": 7505,
      "in.": 7506,
      "ĠUK": 7507,
      "Ġà¤¹à¥ĭà¤Īà¤².": 7508,
      "Ġmo": 7509,
      "Ġbox": 7510,
      "Ġà¤¸à¤®à¤¾à¤ªà¥įà¤¤": 7511,
      "Ġattract": 7512,
      "Ġtests": 7513,
      "Ġà¤Ĺà¥įà¤°à¤¾à¤¹à¤ķ": 7514,
      "spect": 7515,
      "Ġà¤ªà¥įà¤°à¤¤à¥Ģ": 7516,
      "Ġdegree": 7517,
      "Ġseven": 7518,
      "Ġà¤¦à¥ĥ": 7519,
      "ygen": 7520,
      "Ġones": 7521,
      "Ġfert": 7522,
      "à¤²à¥įà¤¯à¤¾.": 7523,
      "Ġà¤Ĩà¤ķà¤°à¥įà¤·": 7524,
      "Ġà¤łà¤¾à¤£": 7525,
      "Ġà¤µà¤ķ": 7526,
      "Ġà¤¸à¤¹à¤Ńà¤¾à¤Ĺ": 7527,
      "Ġdevice": 7528,
      "Ġà¤ªà¥įà¤°à¥ĭà¤«": 7529,
      "Ġà¤ķà¤¿à¤¶": 7530,
      "Ġà¤¸à¤¾à¤¬": 7531,
      "Ġà¤ĩà¤¤à¥įà¤¯à¤¾à¤¦": 7532,
      "Ġmoving": 7533,
      "Ġà¤ĸà¤¾à¤¦à¥įà¤¯": 7534,
      "Ġà¤ķà¤¾à¤µ": 7535,
      "Ġà¤īà¤®à¥įà¤°": 7536,
      "Ġlines": 7537,
      "à¤Łà¥ĩ": 7538,
      "tery": 7539,
      "ĠBra": 7540,
      "Ġplanet": 7541,
      "à¥ħà¤ķ": 7542,
      "Ġà¤®à¤¹à¤¾à¤¸": 7543,
      "PS": 7544,
      "Ġsac": 7545,
      "Ġà¤ľà¤°à¥Ĥà¤°à¥Ģ": 7546,
      "ĠBel": 7547,
      "à¤¾à¤ļà¥Ģà¤¨": 7548,
      "Ġà¤®à¤¤à¤¦à¤¾à¤°": 7549,
      "Ġà¤ķà¤ªà¥įà¤¤": 7550,
      "Ġà¤Ńà¤ķà¥įà¤¤": 7551,
      "Ġà¤¸à¤¾à¤¥,": 7552,
      "Ġoccurs": 7553,
      "Ġcelebr": 7554,
      "Ġfinding": 7555,
      "à¤µà¥Ģà¤¸": 7556,
      "ĠWestern": 7557,
      "Ġà¤¤à¥įà¤¯à¤¾à¤µà¤°": 7558,
      "Ġà¤īà¤¨à¤¸à¥ĩ": 7559,
      "Ġformed": 7560,
      "an.": 7561,
      "Ġconnection": 7562,
      "Ġidentified": 7563,
      "Ġà¤µà¤°à¥įà¤£à¤¨": 7564,
      "Ġdistribution": 7565,
      "Ġworked": 7566,
      "à¤®à¥į": 7567,
      "à¥ĭà¤Ĥà¤¡": 7568,
      "ama": 7569,
      "à¥įà¤¸,": 7570,
      "Ġphen": 7571,
      "Ġà¤ħà¤¸à¤¤à¥ĭ.": 7572,
      "à¤®à¥ĩà¤°": 7573,
      "Ġà¤ªà¥ģà¤£à¥ĩ": 7574,
      "Ġincome": 7575,
      "Ġtransfer": 7576,
      "ĠCity": 7577,
      "as.": 7578,
      "Ġsaid,": 7579,
      "Ġcand": 7580,
      "Ġcontract": 7581,
      "Ġà¤¶à¤¨à¤¿à¤µà¤¾à¤°": 7582,
      "zz": 7583,
      "rest": 7584,
      "Ġà¤ıà¤Ĥà¤Ł": 7585,
      "Ġexhib": 7586,
      "Ġà¤ªà¤¹à¥ģà¤ģ": 7587,
      "Ġminutes": 7588,
      "à¤ªà¤¤à¥Ģ": 7589,
      "Ġà¤¤à¤¾à¤°à¥Ģ": 7590,
      "Ġà¤Ńà¥ĭà¤ľà¤¨": 7591,
      "à¤ļà¤¾à¤¨à¤ķ": 7592,
      "Ġà¤ªà¥Į": 7593,
      "Ġà¤ľà¤Ĺà¤¤": 7594,
      "Ġà¤¯à¤¾à¤¸": 7595,
      "-e": 7596,
      "Ġguide": 7597,
      "uments": 7598,
      "Ġà¤¸à¤ªà¥įà¤¤": 7599,
      "Ġbacteria": 7600,
      "inn": 7601,
      "Ġà¤Ĺà¤¯à¤¾.": 7602,
      "ence.": 7603,
      "Ġfix": 7604,
      "Ġdisease.": 7605,
      "Ġà¤ķà¤°à¤µ": 7606,
      "tained": 7607,
      "à¤¿à¤²à¥Ģ": 7608,
      "ments.": 7609,
      "ĠUp": 7610,
      "à¥ĩà¤¦à¤¾à¤°à¥Ģ": 7611,
      "Ġhighest": 7612,
      "ara": 7613,
      "à¤ľà¥įà¤ŀà¤¾à¤¨à¤¿à¤ķ": 7614,
      "ĠRetrieved": 7615,
      "Ġà¤¸à¤¹à¤¾à¤¯à¤¤à¤¾": 7616,
      "Ġeffic": 7617,
      "Ġproperty": 7618,
      "Ġà¤¬à¥ĩà¤¹à¤¦": 7619,
      "Ġstyle": 7620,
      "ĠØ": 7621,
      "Ġà¤®à¤°à¥Ģà¤ľ": 7622,
      "Ġ(f": 7623,
      "Ġà¤§à¤¾à¤°à¥įà¤®à¤¿à¤ķ": 7624,
      "Ġpark": 7625,
      "Ġthousands": 7626,
      "Ġcarried": 7627,
      "Ġà¤µà¤¾à¤¹à¤¤": 7628,
      "à¤µà¤¾à¤²à¥ĩ": 7629,
      "Ġtour": 7630,
      "Ġcode": 7631,
      "erate": 7632,
      "Ġà¤¸à¥Ģà¤ıà¤®": 7633,
      "Ġà¤ľà¥Īà¤¸à¤¾": 7634,
      "Ġà¤µà¤¿à¤¤": 7635,
      "ĠMary": 7636,
      "Ġsurvey": 7637,
      "Ġà¤¹à¥įà¤¯à¤¾": 7638,
      "Ġpow": 7639,
      "Ġsignal": 7640,
      "Ġà¤¸à¤®à¤¿à¤¤à¥Ģ": 7641,
      "unction": 7642,
      "Ġà¤²à¥ĭà¤ķà¤¸à¤Ńà¤¾": 7643,
      "Ġdivid": 7644,
      "Ġrise": 7645,
      "aced": 7646,
      "à¤Ĺà¤²": 7647,
      "à¤¾à¤¯à¤¦": 7648,
      "à¤¬à¤¾à¤ľ": 7649,
      "Ġmathem": 7650,
      "Ġcommercial": 7651,
      "Ġdestroy": 7652,
      "Ġà¤°à¤¹à¥ĩà¥¤": 7653,
      "Ġsuppl": 7654,
      "Ġtechniques": 7655,
      "Ġà¤ķà¤¿à¤¯à¤¾,": 7656,
      "OS": 7657,
      "Ġà¤¸à¥įà¤Łà¤¾à¤°": 7658,
      "à¤ķà¤¾à¤°à¤£": 7659,
      "à¥Ģà¤²à¤¾": 7660,
      "orial": 7661,
      "Ġplat": 7662,
      "ache": 7663,
      "Ġà¤ªà¥Īà¤¦à¤¾": 7664,
      "Ġà¤ľà¤¾à¤Ĺà¤¾": 7665,
      "Ġcosts": 7666,
      "itis": 7667,
      "igen": 7668,
      "Ġà¤¬à¥ģà¤§à¤µà¤¾à¤°": 7669,
      "Ġà¤°à¤®": 7670,
      "Ġà¤µà¤¯": 7671,
      "Ġbasis": 7672,
      "Ġrunning": 7673,
      "Ġà¤ªà¥įà¤°à¤¾à¤¥à¤®à¤¿à¤ķ": 7674,
      "à¤¾à¤¨à¤Ĥ": 7675,
      "ĠNet": 7676,
      "Ġà¤Ĩà¤ªà¤ķà¤¾": 7677,
      "ĠFound": 7678,
      "Ġà¤¶à¥ģà¤¦à¥įà¤§": 7679,
      "roc": 7680,
      "Ġtrade": 7681,
      "Ġà¤īà¤¤à¤°": 7682,
      "Ġhear": 7683,
      "ĠCollege": 7684,
      "ter,": 7685,
      "Ġbelieved": 7686,
      "ographic": 7687,
      "Ġchallenge": 7688,
      "Ġsituation": 7689,
      "Ġà¤¦à¤¿à¤¸à¥Ĥà¤¨": 7690,
      "raction": 7691,
      "Ġ(and": 7692,
      "Ġà¤Ĺà¤°à¥įà¤Ń": 7693,
      "Ġfaith": 7694,
      "D,": 7695,
      "Ġà¤ķà¤¾à¤°à¥įà¤¯à¤µ": 7696,
      "change": 7697,
      "Ġneu": 7698,
      "iring": 7699,
      "ource": 7700,
      "à¤Ĥà¥¤": 7701,
      "à¤Ĥà¤Ĺà¥Ģ": 7702,
      "wood": 7703,
      "Ġà¤¸à¤Ĥà¤Ĺà¤łà¤¨": 7704,
      "à¥įà¤°à¥Ģà¤¨": 7705,
      "Ġactual": 7706,
      "Ġà¤ªà¤°à¥įà¤µ": 7707,
      "Ġà¤ķà¤°à¥įà¤¤": 7708,
      "à¥įà¤ķà¤°": 7709,
      "ĠTherefore": 7710,
      "Ġà¤ħà¤ļà¤¾à¤¨à¤ķ": 7711,
      "rot": 7712,
      "à¤¸à¤¿à¤Ĥà¤¹": 7713,
      "Ġà¤ķà¤°à¤£à¥įà¤¯à¤¾à¤¸": 7714,
      "reet": 7715,
      "Ġà¤ħà¤Łà¤ķ": 7716,
      "Ġseed": 7717,
      "Ġnuclear": 7718,
      "Ġreference": 7719,
      "Ġversion": 7720,
      "bre": 7721,
      "Ġà¤Ĺà¤¯à¤¾,": 7722,
      "Ġsave": 7723,
      "à¤¸à¥Ģà¤¸à¥Ģ": 7724,
      "Ġrules": 7725,
      "Ġà¤ªà¤¾à¤ª": 7726,
      "Ġà¤®à¤¿à¤²à¤¤à¤¾": 7727,
      "Ġadults": 7728,
      "Ġcollabor": 7729,
      "Ġà¤¸à¤Ĥà¤µ": 7730,
      "Ġequal": 7731,
      "Ġscen": 7732,
      "à¤¨à¥ĩà¤¤": 7733,
      "Ġà¤¨à¤¿à¤°à¥įà¤µ": 7734,
      "à¤ĳ": 7735,
      "Ġpicture": 7736,
      "Ġextremely": 7737,
      "Ġà¤µà¥ĥà¤¦à¥įà¤§à¤¿": 7738,
      "EM": 7739,
      "à¥įà¤°à¤¤": 7740,
      "Ġà¤ħà¤§à¥įà¤¯à¤¯à¤¨": 7741,
      "Ġà¤¦à¥ĥà¤·à¥įà¤Łà¤¿": 7742,
      "Ġnutrition": 7743,
      "Ġà¤Ńà¤¾à¤°à¤¤à¤¾à¤¤": 7744,
      "Ġà¤ªà¥įà¤°à¤¸à¥įà¤¤à¥ģà¤¤": 7745,
      "Ġsymptom": 7746,
      "Ġà¤ªà¥ĩà¤Łà¥įà¤°à¥ĭà¤²": 7747,
      "ensity": 7748,
      "à¤ķà¤¾à¤°à¤¾à¤¤à¥įà¤®à¤ķ": 7749,
      "Ġemphas": 7750,
      "à¤°à¥Ģ,": 7751,
      "Ġnote": 7752,
      "Ġà¤²à¥ĩà¤¤à¥ĩ": 7753,
      "Ġhair": 7754,
      "mark": 7755,
      "Ġà¤Łà¥įà¤µà¥Ģ": 7756,
      "à¥ģà¤²à¥įà¤ķ": 7757,
      "inated": 7758,
      "ĠWeb": 7759,
      "Ġà¤ķà¤°à¤¾à¤¨à¥ĩ": 7760,
      "Ġà¤ľà¤¿à¤¨à¤®à¥ĩà¤Ĥ": 7761,
      "Ġsystem,": 7762,
      "Ġmeasures": 7763,
      "Ġà¤¦à¤¸": 7764,
      "Ġlib": 7765,
      "Ġà¤®à¤¾à¤¨à¤¸à¤¿à¤ķ": 7766,
      "Ġfriends": 7767,
      "Ġà¤¬à¤¾à¤¯": 7768,
      "Ġà¤ļà¤¿à¤¨": 7769,
      "Ġfeeling": 7770,
      "D.": 7771,
      "och": 7772,
      "edia": 7773,
      "Ġà¤¨à¤¿à¤µà¤¡": 7774,
      "Ġà¤µà¤°à¥įà¤·à¥Ģà¤¯": 7775,
      "à¥ĩà¤ķà¥įà¤Łà¤°": 7776,
      "Ġà¤ħà¤¤à¥įà¤¯à¤Ĥà¤¤": 7777,
      "Ġà¤µà¥Ģà¤°": 7778,
      "Ġà¤ªà¥įà¤¯à¤¾à¤°": 7779,
      "Ġà¤ªà¥ĭà¤¹à¥ĭà¤ļ": 7780,
      "Ġà¤¸à¤¾à¤ľ": 7781,
      "Ġapproximately": 7782,
      "Ġconfirm": 7783,
      "Ġà¤Ĺà¥ģà¤Ĥà¤¤": 7784,
      "Ġfemale": 7785,
      "ory,": 7786,
      "Ġà¤ĸà¥ĭà¤²": 7787,
      "Ġà¤¸à¤Ĥà¤¸à¥įà¤¥à¤¾à¤¨": 7788,
      "Ġà¤¸à¤Ĥà¤ĺà¤°à¥įà¤·": 7789,
      "Ġà¤®à¤¹à¤¸": 7790,
      "Ġà¤ľà¤¾à¤¨à¤¤à¥ĩ": 7791,
      "Ġà¤ķà¤¾?": 7792,
      "Ġsigns": 7793,
      "à¤īà¤Ł": 7794,
      "Ġstore": 7795,
      "Ġà¤¨à¥ĩà¤Ł": 7796,
      "Ġworld,": 7797,
      "AM": 7798,
      "à¥ĩà¤ķà¥įà¤·": 7799,
      "à¤¾à¤µà¤²à¥Ģ": 7800,
      "Ġyou.": 7801,
      "Ġà¤ľà¥ĭà¤¡à¤¼": 7802,
      "Ġurban": 7803,
      "Ġliqu": 7804,
      "Ġà¤¦à¥ĩà¤ĸà¤ķà¤°": 7805,
      "à¥įà¤¯à¤¾à¤µà¤°à¤£": 7806,
      "Ġpresident": 7807,
      "Ġà¤¤à¤¾à¤ªà¤®à¤¾à¤¨": 7808,
      "à¤¯à¥ĭà¤Ĥ": 7809,
      "Ġà¤ªà¤¹à¤²": 7810,
      "Ġà¤¹à¥ģà¤Īà¥¤": 7811,
      "ĠOrgan": 7812,
      "Ġreality": 7813,
      "Ġà¤®à¥Īà¤¨": 7814,
      "Ġday,": 7815,
      "lor": 7816,
      "Ġà¤¹à¤µà¤¾": 7817,
      "vis": 7818,
      "Ġeventually": 7819,
      "Ġà¤¸à¤¾à¤ª": 7820,
      "ĠJapanese": 7821,
      "à¥ĩà¤Łà¤°": 7822,
      "Ġà¤¸à¤ķà¤¾à¤³à¥Ģ": 7823,
      "Ġà¤ħà¤Ĺà¤¦à¥Ģ": 7824,
      "Ġslight": 7825,
      "Ġà¤¦à¥Ĥà¤§": 7826,
      "à¤¼à¥Ģ": 7827,
      "Ġà¤µà¤ľà¤¨": 7828,
      "à¤¿à¤¯à¤¾,": 7829,
      "Ġà¤¶à¥įà¤°à¥ĩà¤£": 7830,
      "Ġà¤ľà¤¿à¤®à¥įà¤®": 7831,
      "Ġsexual": 7832,
      "Ġà¤¤à¥ĩà¤ľà¥Ģ": 7833,
      "Ġà¤°à¤¿à¤¶": 7834,
      "Ġà¤¦à¥ģà¤·": 7835,
      "ĠMiss": 7836,
      "Ġà¤¦à¤®": 7837,
      "ĠAir": 7838,
      "Ġà¤¸à¤¤à¥įà¤°": 7839,
      "rack": 7840,
      "Ġà¤Ĺà¥įà¤°à¤Ĥà¤¥": 7841,
      "ĠGeorge": 7842,
      "Ġclinical": 7843,
      "Ġà¤ĩà¤ķ": 7844,
      "Ġà¤µà¤¿à¤°à¥ĭà¤§à¥Ģ": 7845,
      "à¤µà¤¿à¤¶": 7846,
      "Ġexcess": 7847,
      "Ġà¤¸à¤¾à¤ł": 7848,
      "Ġwork.": 7849,
      "ship": 7850,
      "ician": 7851,
      "à¤¶à¤¿à¤ª": 7852,
      "Ġspect": 7853,
      "iable": 7854,
      "Ġà¤¸à¥įà¤¥à¤¾à¤ªà¤¨à¤¾": 7855,
      "Ġà¤Ĩà¤ĩ": 7856,
      "ĠST": 7857,
      "Ġcod": 7858,
      "Ġà¤ĩà¤¶": 7859,
      "cular": 7860,
      "ĠDi": 7861,
      "Ġclos": 7862,
      "à¤¾à¤¤,": 7863,
      "Ġà¤µà¥ĭà¤Ł": 7864,
      "Ġcontrast": 7865,
      "ors,": 7866,
      "Ġà¤®à¤¾à¤¨à¥įà¤¯": 7867,
      "Ġà¤Ĺà¤¾à¤¯": 7868,
      "Ġhousehold": 7869,
      "Ġà¤ªà¥ģà¤¢à¥Ģà¤²": 7870,
      "Ġapply": 7871,
      "Ġbecoming": 7872,
      "Ġopin": 7873,
      "Ġiron": 7874,
      "ony": 7875,
      "Ġà¤¸à¤®à¤¾à¤§à¤¾à¤¨": 7876,
      "à¤¦à¥įà¤¯à¥ĭà¤Ĺ": 7877,
      "Ġdefined": 7878,
      "Ġdevices": 7879,
      "wise": 7880,
      "wide": 7881,
      "ĠGreek": 7882,
      "à¤¶à¥įà¤°à¥Ģ": 7883,
      "à¤Ĥà¤ĺ": 7884,
      "Ġà¤®à¤ķ": 7885,
      "Ġcopy": 7886,
      "Ġtrust": 7887,
      "Ġà¤¸à¤Ńà¤¾": 7888,
      "à¥įà¤®à¤¦": 7889,
      "ĠRepublic": 7890,
      "ĠUsing": 7891,
      "Ġà¤ªà¤Ĥà¤¤à¤ªà¥įà¤°à¤§à¤¾à¤¨": 7892,
      "Ġà¤²à¥ĭà¤ķà¤ªà¥įà¤°à¤¿à¤¯": 7893,
      "Ġà¤ªà¥įà¤°à¤¸à¤¾à¤¦": 7894,
      "Ġfirm": 7895,
      "Ġà¤°à¤¾à¤¹à¤¤": 7896,
      "Ġdiseases": 7897,
      "ĠSk": 7898,
      "Ġà¤Ńà¥ĩà¤¦": 7899,
      "Ġindependent": 7900,
      "Ġfavor": 7901,
      "à¤¨à¤Ĥ": 7902,
      "cast": 7903,
      "Ġexplore": 7904,
      "Ġmission": 7905,
      "Ġà¤¶à¤¾à¤¸à¥įà¤¤à¥įà¤°": 7906,
      "-à¤¸à¤®": 7907,
      "Ġà¤īà¤¨à¤ķà¥ĭ": 7908,
      "Ġsites": 7909,
      "à¤¿à¤ľà¤¨": 7910,
      "Ġhttp://www.": 7911,
      "Ġà¤ķà¤°à¥ģà¤¨": 7912,
      "Ġà¤µà¥įà¤¯à¤µà¤¸à¥įà¤¥": 7913,
      "enth": 7914,
      "Ġà¤¸à¤®à¥ģà¤¦à¥įà¤°": 7915,
      "Ġà¤¤à¤Ĥà¤¤à¥įà¤°": 7916,
      "Ġà¤Ľà¤¹": 7917,
      "Ġà¤¨à¥ĩà¤¤à¤¾à¤ĵà¤Ĥ": 7918,
      "Ġà¤ªà¤°à¥įà¤¯à¤¾à¤¯": 7919,
      "anks": 7920,
      "à¤²à¥įà¤¯à¤¾à¤¨à¥ĩ": 7921,
      "Ġà¤Ĩà¤ªà¤²à¤¾": 7922,
      "à¤ķà¥įà¤¯à¤¾": 7923,
      "Ġ\"A": 7924,
      "Ġà¤¸à¤®à¤¿à¤¤à¤¿": 7925,
      "ĠDem": 7926,
      "Ġperspect": 7927,
      "Ġà¤¦à¤¿à¤¶à¤¾": 7928,
      "Ġà¤µà¥įà¤¯à¤¾à¤µ": 7929,
      "Ġindustrial": 7930,
      "Ġlegisl": 7931,
      "Ġà¤¦à¥ģà¤¸à¤±à¥įà¤¯à¤¾": 7932,
      "à¥ĩà¤Ĥà¤ľ": 7933,
      "Ġà¤¸à¥Ģà¤°à¥Ģà¤ľ": 7934,
      "Ġà¤ļà¤¾à¤¹à¤¤à¤¾": 7935,
      "house": 7936,
      "Ġà¤¦à¥ĩà¤ķà¤°": 7937,
      "Ġà¤¹à¤®à¤¨à¥ĩ": 7938,
      "Ġresource": 7939,
      "Ġalternative": 7940,
      "Ġà¤¹à¤¾à¤²à¤¾à¤Ĥà¤ķà¤¿,": 7941,
      "Ġà¤ħà¤¨à¥įà¤¨": 7942,
      "Ġign": 7943,
      "Ġà¤ªà¤¾à¤°à¥įà¤Ł": 7944,
      "cles": 7945,
      "Ġà¤ľà¤¬à¤¾à¤¬": 7946,
      "Ġstri": 7947,
      "ry,": 7948,
      "ically,": 7949,
      "Ġchance": 7950,
      "Ġlearned": 7951,
      "Ġobjects": 7952,
      "Ġcast": 7953,
      "Ġà¤µà¤¾à¤ķ": 7954,
      "à¥ģà¤¬": 7955,
      "Ġstem": 7956,
      "Ġfreedom": 7957,
      "Ġà¤¸à¤Ĥà¤µà¤¾à¤¦": 7958,
      "pped": 7959,
      "Ġà¤īà¤®à¥ĩà¤¦à¤µà¤¾à¤°": 7960,
      "Ġvary": 7961,
      "Ġocean": 7962,
      "à¤¾à¤¯à¤ļà¥Ģ": 7963,
      "Ġà¤ĩà¤²à¥ĩà¤ķà¥įà¤Łà¥įà¤°": 7964,
      "ĠJames": 7965,
      "Ġà¤ħà¤ªà¥įà¤°à¥Īà¤²": 7966,
      "à¥ĩà¤¤à¥Ģà¤²": 7967,
      "à¤¿à¤³": 7968,
      "Ġà¤¬à¤¾à¤§": 7969,
      "Ġà¤µà¤¾à¤Łà¤¤": 7970,
      "Ġà¤¦à¤¾à¤¨": 7971,
      "Ġà¤¸à¥Īà¤¨à¤¿à¤ķ": 7972,
      "Ġà¤ĩà¤Ĥà¤¸à¥įà¤Ł": 7973,
      "à¤Ļ": 7974,
      "ic.": 7975,
      "Ġwater,": 7976,
      "Ġà¤ľà¤¾à¤ķà¤°": 7977,
      "à¤®à¥Ģà¤Łà¤°": 7978,
      "ous,": 7979,
      "Ġsurger": 7980,
      "Ġà¤ªà¥ĩ": 7981,
      "char": 7982,
      "ĠGovernment": 7983,
      "ault": 7984,
      "Ġà¤ªà¥įà¤°à¤¾à¤ļà¥Ģà¤¨": 7985,
      "que": 7986,
      "ulum": 7987,
      "Ġdesp": 7988,
      "Ġà¤¤à¥ģà¤°": 7989,
      "Ġà¤¶à¤µ": 7990,
      "à¥įà¤µà¤¾à¤¸": 7991,
      "Ġà¤Ńà¤¾à¤Ĺà¤¾à¤¤": 7992,
      "Ġchronic": 7993,
      "Ġà¤ļà¤¿à¤ķà¤¿à¤¤à¥įà¤¸à¤¾": 7994,
      "roph": 7995,
      "ĠProject": 7996,
      "ulf": 7997,
      "edic": 7998,
      "à¤¾à¤¦à¥ĩà¤¶": 7999,
      "Ġserve": 8000,
      "Ġdistinct": 8001,
      "Ġusers": 8002,
      "Ġà¤®à¤¿à¤¶à¥įà¤°": 8003,
      "Ġà¤ľà¥ģà¤²à¤¾à¤Ī": 8004,
      "iated": 8005,
      "Ġincreases": 8006,
      "ĠPaul": 8007,
      "ĠEv": 8008,
      "Ġpractices": 8009,
      "ĠPost": 8010,
      "Ġà¤°à¤¾à¤ĸ": 8011,
      "ĠSpanish": 8012,
      "ness.": 8013,
      "Ġà¤¶à¤¾à¤ĸ": 8014,
      "à¥įà¤°à¥ĩà¤ľ": 8015,
      "road": 8016,
      "Ġearlier": 8017,
      "s://": 8018,
      "Ġlife,": 8019,
      "iec": 8020,
      "Ġà¤ķà¤²à¤¾à¤ķà¤¾à¤°": 8021,
      "ise,": 8022,
      "à¥Įà¤²": 8023,
      "Ġcourse,": 8024,
      "ĠE.": 8025,
      "ĠFurther": 8026,
      "Ġmag": 8027,
      "Ġà¤ªà¤°à¥įà¤¯à¤¾à¤µà¤°à¤£": 8028,
      "Ġà¤Ĺà¥įà¤²": 8029,
      "Ġutil": 8030,
      "ĠMuseum": 8031,
      "Ġcountr": 8032,
      "can": 8033,
      "à¤Ĥà¤¦à¥Ģ": 8034,
      "Ġà¤¸à¤¦à¤¸à¥įà¤¯à¥ĭà¤Ĥ": 8035,
      "Ġstream": 8036,
      "Ġà¤®à¤Ĥà¤Ĺà¤²à¤µà¤¾à¤°": 8037,
      "Ġà¤ªà¤¹à¤¿à¤²à¥įà¤¯à¤¾": 8038,
      "Ġprocesses": 8039,
      "Ġsteps": 8040,
      "Ġà¤Ĺà¥ģà¤¨à¥įà¤¹à¤¾": 8041,
      "aus": 8042,
      "à¤£à¥įà¤¯à¤¾à¤¸": 8043,
      "Ġ(m": 8044,
      "Ġsetting": 8045,
      "Ġà¤¸à¤Ĥà¤Ńà¤µ": 8046,
      "à¥įà¤¹à¥ĩ": 8047,
      "porary": 8048,
      "Ġà¤¬à¤¾à¤ľà¥Ĥ": 8049,
      "à¤¬à¤¤": 8050,
      "Ġnovel": 8051,
      "Ġà¤¸à¤¿à¤Ĥà¤Ĺ": 8052,
      "Ġà¤¬à¤¾à¤¤à¤®": 8053,
      "Ġprojects": 8054,
      "Ġà¤®à¥ģà¤¨": 8055,
      "Ġestimated": 8056,
      "Ġheavy": 8057,
      "Ġà¤¬à¤¿à¤ľà¤²à¥Ģ": 8058,
      "omas": 8059,
      "Ġà¤ªà¥įà¤°à¤£à¤¾à¤²à¥Ģ": 8060,
      "ĠÙ": 8061,
      "Ġfamous": 8062,
      "Ġtherapy": 8063,
      "Ġà¤Ńà¥įà¤°": 8064,
      "ognitive": 8065,
      "Ġà¤¶à¤ķà¤¤": 8066,
      "Ġesc": 8067,
      "Ġrot": 8068,
      "Ġves": 8069,
      "/or": 8070,
      "Ġà¤ªà¤¾à¤Ĭ": 8071,
      "ani": 8072,
      "CC": 8073,
      "Ġmoved": 8074,
      "à¤¿à¤Ĥà¤¬": 8075,
      "Ġà¤¨à¤¿à¤¯à¤®à¥ĭà¤Ĥ": 8076,
      "Ġà¤ļà¤°": 8077,
      "ar,": 8078,
      "rm": 8079,
      "cop": 8080,
      "-à¤¸à¤¾à¤¥": 8081,
      "Ġ(e.": 8082,
      "ĠLike": 8083,
      "Ġà¤Ĭà¤°à¥įà¤ľ": 8084,
      "Ġà¤Łà¥įà¤µà¥Ģà¤Ł": 8085,
      "Ġà¤µà¤¿à¤°à¤¾à¤Ł": 8086,
      "ĠSo,": 8087,
      "à¥ģà¤°à¤¾": 8088,
      "Ġà¤²à¥Įà¤Ł": 8089,
      "Ġà¤«à¥Ģà¤¸à¤¦à¥Ģ": 8090,
      "à¥Ģà¤£": 8091,
      "à¥įà¤¯à¥ĭ": 8092,
      "ĠProfess": 8093,
      "à¥īà¤«": 8094,
      "Ġà¤¹à¤¿à¤¸à¥įà¤¸": 8095,
      "Ġà¤¸à¤¾à¤ķà¥įà¤·": 8096,
      "Ġà¤¬à¤Ĥà¤Ĺà¤¾à¤²": 8097,
      "Ġwat": 8098,
      "Ġà¤¬à¥īà¤²à¥Ģà¤µà¥ģà¤¡": 8099,
      "Ġà¤īà¤¤à¥įà¤ķ": 8100,
      "Ġà¤ļà¤¾à¤²à¥Ĥ": 8101,
      "Ġà¤¶à¥Ģà¤°à¥įà¤·": 8102,
      "Ġà¤¸à¥įà¤Łà¥įà¤°": 8103,
      "ĠSy": 8104,
      "Ġbody.": 8105,
      "Ġà¤µà¤¿à¤¶à¥ĩà¤·à¤ľà¥įà¤ŀ": 8106,
      "ĠRev": 8107,
      "Ùİ": 8108,
      "Ġà¤Ĩà¤¦à¥Ģ": 8109,
      "Ġà¤¬à¤¿à¤Ĺ": 8110,
      "Ġfig": 8111,
      "Ġà¤®à¤¿à¤¨à¤Ł": 8112,
      "Ġremove": 8113,
      "Ġbattle": 8114,
      "Ġsample": 8115,
      "Ġstage": 8116,
      "Ġà¤®à¥ģà¤¸à¥įà¤²à¤¿à¤®": 8117,
      "anch": 8118,
      "Ġà¤ĩà¤¨à¤®à¥ĩà¤Ĥ": 8119,
      "Ġà¤ĸà¤¤à¥įà¤®": 8120,
      "Ġbaby": 8121,
      "à¤Łà¤ķà¤¾": 8122,
      "Ġbottom": 8123,
      "Ġmetal": 8124,
      "Ġà¤²à¥īà¤¨": 8125,
      "Ġmineral": 8126,
      "à¤Ńà¤¾à¤°à¤¤": 8127,
      "Ġà¤¬à¤¹à¥ģ": 8128,
      "Ġintellig": 8129,
      "Ġweeks": 8130,
      "à¤¨à¤Ī": 8131,
      "ĠSom": 8132,
      "Ġà¤ħà¤Ĺà¥įà¤¨": 8133,
      "Ġà¤°à¤¿à¤¸": 8134,
      "ĠMet": 8135,
      "RE": 8136,
      "Ġà¤¬à¥įà¤°à¤¾à¤¹": 8137,
      "iny": 8138,
      "Ġà¤¯à¥Ĥà¤°": 8139,
      "Ġsand": 8140,
      "onic": 8141,
      "lick": 8142,
      "à¤¿à¤¶à¥įà¤ļà¤¿à¤¤": 8143,
      "Ġgod": 8144,
      "ĠMal": 8145,
      "à¤¾à¤Ĥà¤¤à¥Ģà¤²": 8146,
      "Ġstarting": 8147,
      "Ġannual": 8148,
      "Ġà¤¨à¥ĩà¤®": 8149,
      "ain,": 8150,
      "Ġliterature": 8151,
      "Ġdoub": 8152,
      "à¤«à¥ĭà¤¨": 8153,
      "ulated": 8154,
      "ĠWrit": 8155,
      "Ġà¤ħà¤¸à¤²à¥įà¤¯à¤¾à¤ļà¥Ģ": 8156,
      "Ġà¤¶à¤¾à¤¨à¤¦à¤¾à¤°": 8157,
      "Ġoutput": 8158,
      "Ġcycle": 8159,
      "ĠGra": 8160,
      "Ġmale": 8161,
      "à¤¾à¤Ĺà¥įà¤°à¤¾à¤®": 8162,
      "Ġà¤ħà¤Ĺà¤¸à¥įà¤¤": 8163,
      "à¤¶à¤¾à¤¸à¥įà¤¤à¥įà¤°": 8164,
      "Ġcausing": 8165,
      "Ġà¤¸à¤Ĺà¤³": 8166,
      "ĠWashington": 8167,
      "Ġà¤ľà¥ģà¤¡à¤¼à¥ĩ": 8168,
      "Ġsuggests": 8169,
      "Ġà¤°à¤¾à¤ľà¥įà¤¯à¤¾à¤¤": 8170,
      "Ġcampaign": 8171,
      "Ġoption": 8172,
      "ĠâĢ¦": 8173,
      "à¥ĥà¤·à¥įà¤£": 8174,
      "Ġà¤ĺà¥įà¤¯à¤¾à¤µ": 8175,
      "Ġ(W": 8176,
      "Ġcombination": 8177,
      "ĠBas": 8178,
      "Ġinjur": 8179,
      "Ġà¤ħà¤Ńà¤¿à¤¨à¥ĩà¤¤à¥įà¤°à¥Ģ": 8180,
      "ĠFore": 8181,
      "ras": 8182,
      "à¤ķà¥įà¤¤à¤¾": 8183,
      "Ġà¤¸à¤®à¥ĩà¤¤": 8184,
      "à¤ªà¥įà¤°à¤¤": 8185,
      "Ġà¤¹à¥ĩà¤¤à¥ģ": 8186,
      "Ġshape": 8187,
      "Ġà¤ħà¤§à¤¿à¤ķà¤¾à¤±": 8188,
      "Ġà¤µà¤¾à¤¸à¥įà¤¤à¤µ": 8189,
      "Ġà¤Ĩà¤®à¥įà¤¹à¤¾à¤²à¤¾": 8190,
      "le.": 8191,
      "Ġagg": 8192,
      "à¤¾à¤¸à¤¾à¤¹à¥ĩà¤¬": 8193,
      "Ġà¤°à¥Ĥà¤¸": 8194,
      "ms": 8195,
      "à¤«à¥įà¤°": 8196,
      "Ġà¤¬à¤¤à¤¾à¤¤": 8197,
      "Ġturned": 8198,
      "Ġinterpret": 8199,
      "Ġà¤¤à¤¤à¥įà¤µ": 8200,
      "ĠPhys": 8201,
      "ices,": 8202,
      "at.": 8203,
      "icial": 8204,
      "Ġà¤µà¥įà¤¯à¤¾à¤ªà¤ķ": 8205,
      "ĠIts": 8206,
      "Ġà¤¹à¤¿à¤Ĥà¤¦à¥Ģ": 8207,
      "Ġà¤¶à¥ĩà¤¤à¤ķà¤°à¥Ģ": 8208,
      "Ġburn": 8209,
      "iding": 8210,
      "Ġà¤¸à¤¾à¤®à¤Ĺà¥įà¤°à¥Ģ": 8211,
      "Ġpassed": 8212,
      "Ġà¤ħà¤ļà¥įà¤Ľà¥ĩ": 8213,
      "eared": 8214,
      "ĠSun": 8215,
      "Ġà¤®à¤¾à¤§à¥įà¤¯à¤®à¤¾à¤¤à¥Ĥà¤¨": 8216,
      "Ġisol": 8217,
      "Ġà¤¬à¤¨à¤¨à¥ĩ": 8218,
      "Ġà¤¥à¤¾à¤Ĥà¤¬": 8219,
      "Ġreasons": 8220,
      "Ġmodels": 8221,
      "Ġà¤®à¥Įà¤¸à¤®": 8222,
      "Ġfundam": 8223,
      "Ġinitial": 8224,
      "ĠSal": 8225,
      "ula": 8226,
      "à¤¾à¤ĩà¤ľ": 8227,
      "Ġà¤¸à¤¾à¤Ĥ": 8228,
      "Ġresulting": 8229,
      "Ġà¤¹à¤¿à¤Ĥà¤¦à¥Ĥ": 8230,
      "Ġgrant": 8231,
      "Ġà¤ħà¤¨à¥ģà¤¦": 8232,
      "ills": 8233,
      "ees": 8234,
      "Ġà¤¦à¥ĩà¤Ĭà¤¨": 8235,
      "ij": 8236,
      "Ġà¤ĺà¤¾à¤Ł": 8237,
      "Ġcovered": 8238,
      "lease": 8239,
      "Ġchanged": 8240,
      "à¤ħà¤°": 8241,
      "ĠCongress": 8242,
      "Ġà¤ªà¤°à¤¿à¤µà¤°à¥įà¤¤à¤¨": 8243,
      "life": 8244,
      "Ġclick": 8245,
      "ments,": 8246,
      "Ġconducted": 8247,
      "tered": 8248,
      "Ġà¤¡à¥īà¤²": 8249,
      "Ġà¤¨à¤¿à¤µà¥ĩà¤¶": 8250,
      "Ġà¤ķà¤°à¥įà¤®à¤ļà¤¾à¤°": 8251,
      "Ġà¤ĳà¤«à¤¿à¤¸": 8252,
      "Ġoxygen": 8253,
      "Ġdate": 8254,
      "à¥ģà¤µà¤¾à¤°à¥Ģ": 8255,
      "Ġà¤ķà¤²à¥įà¤ªà¤¨à¤¾": 8256,
      "Ġexpert": 8257,
      "Ġà¤®à¤Ĥà¤¡à¤³": 8258,
      "Ġà¤¸à¤¾à¤¥-à¤¸à¤¾à¤¥": 8259,
      "Ġinstruct": 8260,
      "Ġà¤ªà¥įà¤°à¤¤à¤¿à¤ķà¥įà¤°à¤¿à¤¯à¤¾": 8261,
      "à¤ĩà¤¨": 8262,
      "Ġ(d": 8263,
      "Ġà¤¸à¥ĩ,": 8264,
      "Ġà¤ĵà¤µà¤°": 8265,
      "Ġtransform": 8266,
      "Ġà¤ľà¥įà¤ŀ": 8267,
      "à¤¾à¤ªà¤ķ": 8268,
      "Ġhop": 8269,
      "Ġà¤Ĩà¤µà¤¡": 8270,
      "Ġà¤ħà¤¸à¥įà¤¤": 8271,
      "Ġà¤¦à¥ģà¤ĥà¤ĸ": 8272,
      "Ġà¤ĸà¤¿à¤²à¤¾à¤¡à¤¼à¥Ģ": 8273,
      "Ġsignificantly": 8274,
      "Ġà¤Ĩà¤§à¤¾à¤°à¤¿à¤¤": 8275,
      "Ġà¤¬à¤¾à¤Ĺ": 8276,
      "à¤¾à¤¯à¤¾à¥¤": 8277,
      "Ġà¤ĺà¥ĩà¤¤à¤²à¥Ģ": 8278,
      "Ġà¤Ńà¤¿à¤¨à¥įà¤¨": 8279,
      "Ġà¤¸à¤Ĥà¤ķà¥ĩà¤¤": 8280,
      "Ġà¤¬à¥ĩà¤Łà¥Ģ": 8281,
      "ĠBoth": 8282,
      "Ġà¤ļà¥ĭà¤°": 8283,
      "ocal": 8284,
      "Ġflood": 8285,
      "Ġpresented": 8286,
      "Ġà¤Ńà¥Ģà¤¤à¤°": 8287,
      "Ġunivers": 8288,
      "Ġà¤ķà¥ĭà¤¹à¤²à¥Ģ": 8289,
      "Ġand/or": 8290,
      "Â°": 8291,
      "erâĢĻs": 8292,
      "Ġà¤¹à¥ģ": 8293,
      "Ġ(J": 8294,
      "à¤ĸà¤¨à¤Ĭ": 8295,
      "Ġà¤ĺà¥ĭà¤·à¤¿à¤¤": 8296,
      "Ġà¤µà¤Ĺ": 8297,
      "à¤ķà¥įà¤·à¤®": 8298,
      "à¤¿à¤ķà¥ĭ": 8299,
      "à¤Ĥà¤¡à¤³": 8300,
      "Ġà¤ĩà¤®": 8301,
      "Ġtrig": 8302,
      "Ġà¤²à¥ĭà¤ķà¤¾à¤Ĥà¤¨à¤¾": 8303,
      "Ġconnected": 8304,
      "ĠTwo": 8305,
      "tical": 8306,
      "à¤¡à¥ĩà¤Ł": 8307,
      "Ġà¤ħà¤¹à¤®à¤¦": 8308,
      "à¤¾à¤Ĥà¤¶à¥Ģ": 8309,
      "Ġprepar": 8310,
      "Ġà¤®à¥Ģà¤Łà¤°": 8311,
      "Ġintroduced": 8312,
      "à¤ļà¥Ģà¤¤": 8313,
      "Ġwidely": 8314,
      "Ġà¤¦à¥įà¤¯à¤¾à¤µ": 8315,
      "Ġgets": 8316,
      "à¤¾à¤Ĥà¤ķà¤¡à¥Ĥà¤¨": 8317,
      "isher": 8318,
      "à¤µà¤²à¥ĩ": 8319,
      "Ġà¤Łà¥Ģà¤ķà¤¾": 8320,
      "Ġà¤¨à¥Ī": 8321,
      "Ġcloud": 8322,
      "Ġspeech": 8323,
      "à¥įà¤ķà¤¿à¤²": 8324,
      "antic": 8325,
      "Ġscale": 8326,
      "ĠPlan": 8327,
      "Ġinternal": 8328,
      "Ġconv": 8329,
      "Ġ(à¤µ": 8330,
      "ĠCath": 8331,
      "Ġspot": 8332,
      "à¤¹à¤®à¥įà¤®à¤¦": 8333,
      "Ġà¤°à¤¾à¤·à¥įà¤Łà¥įà¤°à¤µà¤¾à¤¦à¥Ģ": 8334,
      "What": 8335,
      "Ġà¤¤à¥įà¤¯à¤¾à¤®": 8336,
      "atically": 8337,
      "Ġà¤ľà¤¾à¤µ": 8338,
      "à¤¾à¤ªà¥ģà¤°": 8339,
      "à¥įà¤¯à¤¾à¤ªà¥Ģ": 8340,
      "Ġà¤Ĺà¤¹": 8341,
      "Ġgraph": 8342,
      "Ġà¤µà¤¾à¤¯à¤°à¤²": 8343,
      "bed": 8344,
      "ĠDist": 8345,
      "Ġà¤¸à¥ģà¤¨à¥Ģ": 8346,
      "ĠTreat": 8347,
      "Ġlocation": 8348,
      "Ġreferred": 8349,
      "Ġbeautiful": 8350,
      "Ġà¤ªà¤¾à¤°à¥įà¤ķ": 8351,
      "Ġprice": 8352,
      "Ġcapacity": 8353,
      "Ġà¤°à¤ĸà¤¤à¥ĩ": 8354,
      "Ġà¤Łà¥įà¤µà¤¿à¤Łà¤°": 8355,
      "ĠSecond": 8356,
      "bal": 8357,
      "Ġalg": 8358,
      "à¥ĩà¤¬à¤²": 8359,
      "à¤¿à¤ĥ": 8360,
      "Ġnumerous": 8361,
      "à¥įà¤¦à¥Ģ": 8362,
      "ĠOff": 8363,
      "Ġsem": 8364,
      "encies": 8365,
      "Ġobserved": 8366,
      "Ġà¤ļà¥ĭà¤°à¥Ģ": 8367,
      "Ġà¤¨à¤¿à¤Ń": 8368,
      "à¥Ĥà¤¬à¤°": 8369,
      "ĠBudd": 8370,
[...]
