{
  "version": "1.0",
  "truncation": null,
  "padding": null,
  "added_tokens": [
    {
      "id": 0,
      "content": "<pad>",
      "single_word": false,
      "lstrip": false,
      "rstrip": false,
      "normalized": false,
      "special": true
    },
    {
      "id": 1,
      "content": "<eos>",
      "single_word": false,
      "lstrip": false,
      "rstrip": false,
      "normalized": false,
      "special": true
    },
    {
      "id": 2,
      "content": "<bos>",
      "single_word": false,
      "lstrip": false,
      "rstrip": false,
      "normalized": false,
      "special": true
    },
    {
      "id": 3,
      "content": "<unk>",
      "single_word": false,
      "lstrip": false,
      "rstrip": false,
      "normalized": false,
      "special": true
    }
  ],
  "normalizer": {
    "type": "NFC"
  },
  "pre_tokenizer": {
    "type": "Sequence",
    "pretokenizers": [
      {
        "type": "Split",
        "pattern": {
          "Regex": " ?[^\\s\\d]+| ?\\d+|\\s+"
        },
        "behavior": "Isolated",
        "invert": false
      },
      {
        "type": "Digits",
        "individual_digits": true
      },
      {
        "type": "ByteLevel",
        "add_prefix_space": false,
        "trim_offsets": true,
        "use_regex": false
      }
    ]
  },
  "post_processor": null,
  "decoder": {
    "type": "ByteLevel",
    "add_prefix_space": true,
    "trim_offsets": true,
    "use_regex": true
  },
  "model": {
    "type": "BPE",
    "dropout": null,
    "unk_token": "<unk>",
    "continuing_subword_prefix": null,
    "end_of_word_suffix": null,
    "fuse_unk": false,
    "byte_fallback": false,
    "ignore_merges": false,
    "vocab": {
      "<pad>": 0,
      "<eos>": 1,
      "<bos>": 2,
      "<unk>": 3,
      "!": 4,
      "\"": 5,
      "#": 6,
      "$": 7,
      "%": 8,
      "&": 9,
      "'": 10,
      "(": 11,
      ")": 12,
      "*": 13,
      "+": 14,
      ",": 15,
      "-": 16,
      ".": 17,
      "/": 18,
      "0": 19,
      "1": 20,
      "2": 21,
      "3": 22,
      "4": 23,
      "5": 24,
      "6": 25,
      "7": 26,
      "8": 27,
      "9": 28,
      ":": 29,
      ";": 30,
      "<": 31,
      "=": 32,
      ">": 33,
      "?": 34,
      "@": 35,
      "A": 36,
      "B": 37,
      "C": 38,
      "D": 39,
      "E": 40,
      "F": 41,
      "G": 42,
      "H": 43,
      "I": 44,
      "J": 45,
      "K": 46,
      "L": 47,
      "M": 48,
      "N": 49,
      "O": 50,
      "P": 51,
      "Q": 52,
      "R": 53,
      "S": 54,
      "T": 55,
      "U": 56,
      "V": 57,
      "W": 58,
      "X": 59,
      "Y": 60,
      "Z": 61,
      "[": 62,
      "\\": 63,
      "]": 64,
      "^": 65,
      "_": 66,
      "`": 67,
      "a": 68,
      "b": 69,
      "c": 70,
      "d": 71,
      "e": 72,
      "f": 73,
      "g": 74,
      "h": 75,
      "i": 76,
      "j": 77,
      "k": 78,
      "l": 79,
      "m": 80,
      "n": 81,
      "o": 82,
      "p": 83,
      "q": 84,
      "r": 85,
      "s": 86,
      "t": 87,
      "u": 88,
      "v": 89,
      "w": 90,
      "x": 91,
      "y": 92,
      "z": 93,
      "{": 94,
      "|": 95,
      "}": 96,
      "~": 97,
      "¡": 98,
      "¢": 99,
      "£": 100,
      "¤": 101,
      "¥": 102,
      "¦": 103,
      "§": 104,
      "¨": 105,
      "©": 106,
      "ª": 107,
      "«": 108,
      "¬": 109,
      "®": 110,
      "¯": 111,
      "°": 112,
      "±": 113,
      "²": 114,
      "³": 115,
      "´": 116,
      "µ": 117,
      "¶": 118,
      "·": 119,
      "¸": 120,
      "¹": 121,
      "º": 122,
      "»": 123,
      "¼": 124,
      "½": 125,
      "¾": 126,
      "¿": 127,
      "À": 128,
      "Á": 129,
      "Â": 130,
      "Ã": 131,
      "Ä": 132,
      "Å": 133,
      "Æ": 134,
      "Ç": 135,
      "È": 136,
      "É": 137,
      "Ê": 138,
      "Ë": 139,
      "Ì": 140,
      "Í": 141,
      "Î": 142,
      "Ï": 143,
      "Ð": 144,
      "Ñ": 145,
      "Ò": 146,
      "Ó": 147,
      "Ô": 148,
      "Õ": 149,
      "Ö": 150,
      "×": 151,
      "Ø": 152,
      "Ù": 153,
      "Ú": 154,
      "Û": 155,
      "Ü": 156,
      "Ý": 157,
      "Þ": 158,
      "ß": 159,
      "à": 160,
      "á": 161,
      "â": 162,
      "ã": 163,
      "ä": 164,
      "å": 165,
      "æ": 166,
      "ç": 167,
      "è": 168,
      "é": 169,
      "ê": 170,
      "ë": 171,
      "ì": 172,
      "í": 173,
      "î": 174,
      "ï": 175,
      "ð": 176,
      "ñ": 177,
      "ò": 178,
      "ó": 179,
      "ô": 180,
      "õ": 181,
      "ö": 182,
      "÷": 183,
      "ø": 184,
      "ù": 185,
      "ú": 186,
      "û": 187,
      "ü": 188,
      "ý": 189,
      "þ": 190,
      "ÿ": 191,
      "Ā": 192,
      "ā": 193,
      "Ă": 194,
      "ă": 195,
      "Ą": 196,
      "ą": 197,
      "Ć": 198,
      "ć": 199,
      "Ĉ": 200,
      "ĉ": 201,
      "Ċ": 202,
      "ċ": 203,
      "Č": 204,
      "č": 205,
      "Ď": 206,
      "ď": 207,
      "Đ": 208,
      "đ": 209,
      "Ē": 210,
      "ē": 211,
      "Ĕ": 212,
      "ĕ": 213,
      "Ė": 214,
      "ė": 215,
      "Ę": 216,
      "ę": 217,
      "Ě": 218,
      "ě": 219,
      "Ĝ": 220,
      "ĝ": 221,
      "Ğ": 222,
      "ğ": 223,
      "Ġ": 224,
      "ġ": 225,
      "Ģ": 226,
      "ģ": 227,
      "Ĥ": 228,
      "ĥ": 229,
      "Ħ": 230,
      "ħ": 231,
      "Ĩ": 232,
      "ĩ": 233,
      "Ī": 234,
      "ī": 235,
      "Ĭ": 236,
      "ĭ": 237,
      "Į": 238,
      "į": 239,
      "İ": 240,
      "ı": 241,
      "Ĳ": 242,
      "ĳ": 243,
      "Ĵ": 244,
      "ĵ": 245,
      "Ķ": 246,
      "ķ": 247,
      "ĸ": 248,
      "Ĺ": 249,
      "ĺ": 250,
      "Ļ": 251,
      "ļ": 252,
      "Ľ": 253,
      "ľ": 254,
      "Ŀ": 255,
      "ŀ": 256,
      "Ł": 257,
      "ł": 258,
      "Ń": 259,
      "à¤": 260,
      "à¥": 261,
      "Ġà¤": 262,
      "à¤¾": 263,
      "à¤¾à¤": 264,
      "à¥į": 265,
      "à¥įà¤": 266,
      "à¥ĩ": 267,
      "à¥Ģ": 268,
      "à¤°": 269,
      "à¤¿": 270,
      "Ġt": 271,
      "Ġà¤ķ": 272,
      "à¤¿à¤": 273,
      "Ġa": 274,
      "he": 275,
      "Ĥà¤": 276,
      "à¥ĩà¤": 277,
      "in": 278,
      "à¥ĭ": 279,
      "à¥įà¤¯": 280,
      "re": 281,
      "Ġthe": 282,
      "on": 283,
      "à¤¨": 284,
      "Ġà¤¸": 285,
      "à¤ķ": 286,
      "à¤¤": 287,
      "er": 288,
      "à¤²": 289,
      "at": 290,
      "Ġo": 291,
      "Ġs": 292,
      "Ġà¤®": 293,
      "Ġà¤ª": 294,
      "Ġà¤¹": 295,
      "à¥ģ": 296,
      "en": 297,
      "à¤¸": 298,
      "Ġc": 299,
      "à¤¹": 300,
      "es": 301,
      "Ġw": 302,
      "à¥įà¤°": 303,
      "is": 304,
      "nd": 305,
      "à¤¾à¤°": 306,
      "it": 307,
      "or": 308,
      "à¥ĭà¤": 309,
      "Ġà¤Ĩ": 310,
      "Ġp": 311,
      "al": 312,
      "an": 313,
      "ed": 314,
      "Ġb": 315,
      "à¤Ĥà¤": 316,
      "Ġof": 317,
      "Ġf": 318,
      "à¤®": 319,
      "ing": 320,
      "Ġà¤µ": 321,
      "Ġà¤ħ": 322,
      "Ġin": 323,
      "ar": 324,
      "ou": 325,
      "Ġà¤¨": 326,
      "Ġm": 327,
      "à¥įà¤¯à¤¾à¤": 328,
      "Ġand": 329,
      "Ġà¤¤": 330,
      "à¥Ī": 331,
      "Ġto": 332,
      "ic": 333,
      "à¤µ": 334,
      "à¤£": 335,
      "ion": 336,
      "Ġd": 337,
      "Ġà¤ľ": 338,
      "Ġà¤¦": 339,
      "Ġà¤¬": 340,
      "à¤ª": 341,
      "le": 342,
      "ro": 343,
      "à¤°à¥įà¤": 344,
      "as": 345,
      "à¥Ĥà¤": 346,
      "à¥¤": 347,
      "Ġà¤°": 348,
      "Ġà¤¯": 349,
      "Ġh": 350,
      "à¤¾à¤¨": 351,
      "ent": 352,
      "Ġth": 353,
      "à¥Ģà¤": 354,
      "Ġà¤¹à¥Ī": 355,
      "à¤¾à¤Ĥà¤": 356,
      "à¥įà¤¯à¤¾": 357,
      "à¤¾à¤¤": 358,
      "à¥ĩà¤Ĥ": 359,
      "Ġà¤²": 360,
      "Ġà¤ķà¥ĩ": 361,
      "à¤¦": 362,
      "ct": 363,
      "Ġe": 364,
      "il": 365,
      "à¤¾à¤²": 366,
      "Ġre": 367,
      "ĠT": 368,
      "om": 369,
      "ve": 370,
      "à¥ģà¤": 371,
      "Ġl": 372,
      "Ġà¤ķà¤°": 373,
      "à¤¿à¤ķ": 374,
      "Ġn": 375,
      "st": 376,
      "à¤¯": 377,
      "Ġà¤Ĺ": 378,
      "ly": 379,
      "Ġà¤ī": 380,
      "à¥įà¤¤": 381,
      "Ġà¤ªà¥įà¤°": 382,
      "Ġbe": 383,
      "Ġà¤¶": 384,
      "Ġà¤®à¥ĩà¤Ĥ": 385,
      "âĢ": 386,
      "Ġis": 387,
      "Ġà¤Ń": 388,
      "à¤¿à¤¯": 389,
      "à¤Ĥ": 390,
      "à¤ļ": 391,
      "ĠA": 392,
      "ol": 393,
      "se": 394,
      "à¤¿à¤¤": 395,
      "Ġg": 396,
      "à¥ĩà¤²": 397,
      "ation": 398,
      "à¤¾à¤µ": 399,
      "im": 400,
      "Ġà¤ķà¥Ģ": 401,
      "id": 402,
      "ĠS": 403,
      "à¤¾à¤¹": 404,
      "et": 405,
      "à¥ĩ.": 406,
      "ut": 407,
      "à¤Ĺ": 408,
      "ur": 409,
      "ot": 410,
      "ĠI": 411,
      "ce": 412,
      "à¤¡": 413,
      "ra": 414,
      "Ġ(": 415,
      "ch": 416,
      "à¥ĭà¤Ĥ": 417,
      "ow": 418,
      "Ġà¤ĩ": 419,
      "Ġà¤Ĩà¤¹": 420,
      "à¤¿à¤²": 421,
      "Ġà¤ļ": 422,
      "Ġà¤ı": 423,
      "ĠC": 424,
      "Ġfor": 425,
      "ig": 426,
      "à¤¾à¤¸": 427,
      "à¤§": 428,
      "à¤¾à¤®": 429,
      "Ġu": 430,
      "Ġon": 431,
      "à¤ľ": 432,
      "Ġthat": 433,
      "à¥Ĥ": 434,
      "Ġst": 435,
      "ver": 436,
      "à¥įà¤Ł": 437,
      "à¥įà¤¹": 438,
      "à¤¨à¥ĩ": 439,
      "ĠThe": 440,
      "Ġà¤ªà¤°": 441,
      "Ġà¤¹à¥ĭ": 442,
      "ir": 443,
      "à¤¾à¤¯": 444,
      "Ġà¤ķà¥ĭ": 445,
      "Ġy": 446,
      "à¥ĩà¤¤": 447,
      "à¥Ĥà¤¨": 448,
      "à¥įà¤µ": 449,
      "à¤¾à¤ļ": 450,
      "ul": 451,
      "Ġà¤Ķ": 452,
      "am": 453,
      "ay": 454,
      "à¤¬": 455,
      "à¤¶": 456,
      "s,": 457,
      "Ġà¤Ķà¤°": 458,
      "el": 459,
      "Ġas": 460,
      "ith": 461,
      "ad": 462,
      "Ġà¤¸à¥ĩ": 463,
      "à¤¤à¤¾": 464,
      "à¤¾à¤ľ": 465,
      "ĠM": 466,
      "à¥įà¤·": 467,
      "her": 468,
      "s.": 469,
      "Ġpro": 470,
      "à¤Ł": 471,
      "Ġà¤ħà¤¸": 472,
      "Ġare": 473,
      "Ġcon": 474,
      "Ġà¤µà¤¿à¤": 475,
      "ĠĠ": 476,
      "Ġan": 477,
      "Ġwith": 478,
      "ĠP": 479,
      "à¤¼": 480,
      "à¤¿à¤¸": 481,
      "if": 482,
      "Ġwh": 483,
      "Ġà¤ıà¤ķ": 484,
      "Ġyou": 485,
      "Ġor": 486,
      "Ġit": 487,
      "Ġal": 488,
      "à¤Ĥà¤¤": 489,
      "ter": 490,
      "od": 491,
      "à¥Ģà¤²": 492,
      "ĠB": 493,
      "Ġà¤ĸ": 494,
      "Ġà¤ķà¤¾": 495,
      "Ġ-": 496,
      "Ġà¤¤à¥įà¤¯à¤¾à¤": 497,
      "Ġà¤Ĩà¤¹à¥ĩ.": 498,
      "ment": 499,
      "Ġà¤«": 500,
      "ge": 501,
      "à¤¾à¤Ĺ": 502,
      "th": 503,
      "à¤¿à¤¨": 504,
      "Ġà¤¹à¥Īà¥¤": 505,
      "op": 506,
      "ĠW": 507,
      "ist": 508,
      "Ġà¤¸à¤Ĥà¤": 509,
      "ate": 510,
      "à¤Ń": 511,
      "à¥ĩà¤¶": 512,
      "ĠH": 513,
      "à¤¿à¤¯à¤¾": 514,
      "Ġde": 515,
      "à¤¾à¤¦": 516,
      "Ġà¤ĺ": 517,
      "ies": 518,
      "ill": 519,
      "ab": 520,
      "Ġhe": 521,
      "Ġex": 522,
      "Ġsu": 523,
      "Ġwe": 524,
      "ore": 525,
      "Ġà¤ĩà¤¸": 526,
      "Ġcom": 527,
      "ect": 528,
      "à¥ģà¤°": 529,
      "ĠD": 530,
      "à¥ĩà¤ķ": 531,
      "à¥įà¤¥": 532,
      "ity": 533,
      "à¤¨à¤¾": 534,
      "Ġà¤¹à¥Īà¤Ĥ": 535,
      "à¤¿à¤µ": 536,
      "est": 537,
      "âĢĻ": 538,
      "Ġà¤¥": 539,
      "à¥ī": 540,
      "ive": 541,
      "ac": 542,
      "ļà¥įà¤¯à¤¾": 543,
      "um": 544,
      "Ġha": 545,
      "ess": 546,
      "us": 547,
      "à¤²à¤¾": 548,
      "rom": 549,
      "ld": 550,
      "ĠE": 551,
      "à¤¿à¤Ĥà¤": 552,
      "ĠF": 553,
      "Ġv": 554,
      "ĠR": 555,
      "à¤°à¥Ģ": 556,
      "ke": 557,
      "os": 558,
      "ure": 559,
      "Ġby": 560,
      "ant": 561,
      "iv": 562,
      "em": 563,
      "ers": 564,
      "ain": 565,
      "Ġà¤¨à¥ĩ": 566,
      "Ġà¤Ĩà¤£": 567,
      "qu": 568,
      "Ġà¤¸à¤®": 569,
      "Ġat": 570,
      "pp": 571,
      "nt": 572,
      "à¤ķà¥įà¤·": 573,
      "à¤¤à¥Ģ": 574,
      "Ġà¤Ł": 575,
      "à¥ĥ": 576,
      "igh": 577,
      "ĠN": 578,
      "à¤¾à¤Ĥà¤¨": 579,
      "à¤¿à¤ı": 580,
      "à¤²à¥Ģ": 581,
      "Ġwas": 582,
      "ud": 583,
      "à¥ĭà¤Ĺ": 584,
      "à¤¾à¤ª": 585,
      "Ġfrom": 586,
      "à¤²à¥ĩ": 587,
      "ĠâĢ": 588,
      "à¤¾à¤£": 589,
      "Ġcan": 590,
      "oc": 591,
      "à¥Į": 592,
      "and": 593,
      "Ġch": 594,
      "Ġne": 595,
      "à¤¾à¤°à¥Ģ": 596,
      "Ġà¤Ĩà¤£à¤¿": 597,
      "Ġr": 598,
      "à¥Ģà¤Ĥ": 599,
      "ort": 600,
      "ĠG": 601,
      "à¥ĩà¤µ": 602,
      "à¤¿à¤°": 603,
      "Ġà¤¯à¤¾": 604,
      "à¥ĩà¤Ĥà¤": 605,
      "ĠL": 606,
      "à¤³": 607,
      "à¤£à¥įà¤¯à¤¾à¤": 608,
      "Ġse": 609,
      "res": 610,
      "ial": 611,
      "Ġà¤ķà¥ĩà¤²": 612,
      "à¤¤à¥ĩ": 613,
      "à¥įà¤®": 614,
      "Ġà¤ķà¤¿": 615,
      "à¤¾à¤ķ": 616,
      "à¤¾à¤¹à¥Ģ": 617,
      "ļà¥Ģ": 618,
      "Ġà¤°à¤¹": 619,
      "à¤¾à¤ł": 620,
      "un": 621,
      "à¥įà¤ķ": 622,
      "Ġnot": 623,
      "Ġà¤¡": 624,
      "art": 625,
      "ical": 626,
      "Ġle": 627,
      "à¥įà¤¸": 628,
      "à¥ģà¤ķ": 629,
      "Ġà¤®à¤¹": 630,
      "Ġà¤Ńà¥Ģ": 631,
      "à¥įà¤²": 632,
      "ļà¥ĩ": 633,
      "Ġà¤ħà¤¨": 634,
      "Ġhave": 635,
      "ri": 636,
      "Ġà¤Ŀ": 637,
      "ļà¤¾": 638,
      "à¤Ī": 639,
      "og": 640,
      "Ġà¥¤": 641,
      "à¥įà¤ª": 642,
      "Ġsh": 643,
      "à¤ķà¥ĩ": 644,
      "Ġà¤ķà¤¾à¤°": 645,
      "Ġen": 646,
      "Ġsp": 647,
      "Ġà¤Ĩà¤ª": 648,
      "ĠO": 649,
      "à¤§à¥įà¤¯": 650,
      "Ġthis": 651,
      "Ġà¤¹à¥Ģ": 652,
      "Ġ\"": 653,
      "à¤¾à¤¨à¥ĩ": 654,
      "ĠIn": 655,
      "Ġà¤ħà¤ª": 656,
      "à¤ķà¤¾à¤°": 657,
      "ight": 658,
      "Ġab": 659,
      "à¥ģà¤²": 660,
      "pt": 661,
      "à¤ĸ": 662,
      "à¤°à¥įà¤µ": 663,
      "rou": 664,
      "ich": 665,
      "red": 666,
      "all": 667,
      "Ġwor": 668,
      "à¥įà¤°à¥Ģ": 669,
      "·à¥įà¤Ł": 670,
      "à¤¸à¥ĩ": 671,
      "à¤¾à¤¬": 672,
      "gh": 673,
      "ther": 674,
      "our": 675,
      "à¥ĩà¤¨": 676,
      "ould": 677,
      "ost": 678,
      "à¤¾à¤Ī": 679,
      "ome": 680,
      "Ġà¤īà¤¨": 681,
      "à¤Ĥà¤¦": 682,
      "à¤¾à¤łà¥Ģ": 683,
      "à¤¹à¥Ģà¤Ĥ": 684,
      "Ĥà¤¨": 685,
      "ated": 686,
      "du": 687,
      "âĢĻs": 688,
      "Ġim": 689,
      "Ġà¤§": 690,
      "à¥ĩà¤Ł": 691,
      "à¥Ģà¤¯": 692,
      "ine": 693,
      "Ġà¤²à¤¿à¤ı": 694,
      "per": 695,
      "ag": 696,
      "ard": 697,
      "out": 698,
      "à¥įà¤¨": 699,
      "Ġpl": 700,
      "ĠJ": 701,
      "Ġtheir": 702,
      "Ġus": 703,
      "ide": 704,
      "Ġà¤¸à¤¾à¤": 705,
      "ell": 706,
      "à¤ķà¤°": 707,
      "ĠU": 708,
      "ff": 709,
      "act": 710,
      "à¤Ĥà¤Ĺ": 711,
      "à¥įà¤§": 712,
      "Ġà¤Ŀà¤¾à¤²": 713,
      "à¥ģà¤¨": 714,
      "à¤«": 715,
      "ak": 716,
      "Ġint": 717,
      "ast": 718,
      "ĠTh": 719,
      "pl": 720,
      "à¥ĩà¤¸": 721,
      "ear": 722,
      "à¥Ģà¤¨": 723,
      "age": 724,
      "Ġà¤°à¤¾à¤ľ": 725,
      "ust": 726,
      "Ġk": 727,
      "Ġwhich": 728,
      "à¤Ĥà¤¡": 729,
      "Ġ'": 730,
      "à¤¯à¤¾": 731,
      "Ġà¤¯à¤¹": 732,
      "ec": 733,
      "à¥įà¤¦": 734,
      "Ġà¤¨à¤¹à¥Ģà¤Ĥ": 735,
      "Ġwhe": 736,
      "à¤¡à¤¼": 737,
      "à¥Ģà¤¤": 738,
      "à¤¾à¤Ĥà¤¨à¥Ģ": 739,
      "Ġthey": 740,
      "Ġyour": 741,
      "à¤¤à¥įà¤¤": 742,
      "iz": 743,
      "à¤²à¥įà¤¯à¤¾à¤": 744,
      "ew": 745,
      "Ġall": 746,
      "ia": 747,
      "Ġà¤¤à¥ĭ": 748,
      "à¤ı": 749,
      "à¤¥": 750,
      "à¤°à¥įà¤®": 751,
      "à¥§": 752,
      "ood": 753,
      "ib": 754,
      "ult": 755,
      "à¥ĭà¤¨": 756,
      "Ġcont": 757,
      "Ġad": 758,
      "Ġwill": 759,
      "Ġà¤¤à¤°": 760,
      "end": 761,
      "ous": 762,
      "ru": 763,
      "à¤§à¥įà¤¯à¥ĩ": 764,
      "Ġinc": 765,
      "Ġà¤¹à¥Īà¤Ĥà¥¤": 766,
      "cc": 767,
      "Ġà¤ķà¥ĭà¤": 768,
      "ans": 769,
      "Ġdis": 770,
      "Ġmore": 771,
      "ap": 772,
      "ong": 773,
      "ip": 774,
      "à¥įà¤¯à¤¾à¤¤": 775,
      "Ġà¤ľà¤¾à¤¤": 776,
      "à¥ĭà¤²": 777,
      "âĢĿ": 778,
      "Ġcomp": 779,
      "à¥ĩ,": 780,
      "ĠâĢľ": 781,
      "Ġres": 782,
      "ions": 783,
      "vel": 784,
      "Ġhas": 785,
      "à¥ģà¤®": 786,
      "Ġà¤¸à¥įà¤µ": 787,
      "es,": 788,
      "Ġà¤¦à¥ĩà¤": 789,
      "à¥ĭà¤ķ": 790,
      "Ġà¤ķà¤¿à¤¯à¤¾": 791,
      "e.": 792,
      "Ġà¤īà¤ª": 793,
      "Ġà¤¹à¥ĭà¤¤": 794,
      "à¥įà¤¯à¤ķ": 795,
      "ere": 796,
      "Ġà¤¹à¥ģà¤": 797,
      "à¤¾à¤³": 798,
      "à¥Ĥà¤°": 799,
      "Ġdo": 800,
      "so": 801,
      "e,": 802,
      "orm": 803,
      "ary": 804,
      "Ġà¤®à¥įà¤¹": 805,
      "ater": 806,
      "Ġà¤ł": 807,
      "Ġà¤ªà¤¹": 808,
      "à¤¾à¤ĩ": 809,
      "à¥¦": 810,
      "à¤¸à¥įà¤¤": 811,
      "à¥ĭà¤¡": 812,
      "Ġà¤ħà¤§": 813,
      "à¤¾à¤²à¤¾": 814,
      "are": 815,
      "Ġà¤ķà¤¹": 816,
      "ence": 817,
      "ild": 818,
      "able": 819,
      "es.": 820,
      "Ġman": 821,
      "Ġother": 822,
      "à¤¾à¤Ł": 823,
      "Ġcl": 824,
      "ual": 825,
      "à¤¿à¤¶": 826,
      "à¤¿à¤®": 827,
      "ind": 828,
      "à¤¾,": 829,
      "Ġbut": 830,
      "à¥ĭà¤ľ": 831,
      "Ġà¤¦à¤¿à¤²": 832,
      "Ġwere": 833,
      "ry": 834,
      "à¥ģà¤³": 835,
      "ok": 836,
      "Ġà¤ķà¤°à¤£à¥įà¤¯à¤¾à¤": 837,
      "ep": 838,
      "à¤¹à¥Ģ": 839,
      "ach": 840,
      "à¤¾à¤Ĥà¤Ĺ": 841,
      "Ġà¤µà¤°à¥įà¤": 842,
      "ance": 843,
      "Ġte": 844,
      "Ġper": 845,
      "Ġà¤¨à¤¾à¤¹à¥Ģ": 846,
      "'s": 847,
      "ition": 848,
      "Ġalso": 849,
      "à¤¾à¤§": 850,
      "Ġimp": 851,
      "ction": 852,
      "à¤ķà¥Ģ": 853,
      "Ġà¤Ĩà¤¹à¥ĩà¤¤": 854,
      "à¤ł": 855,
      "ĠSt": 856,
      "ose": 857,
      "Ġà¤īà¤¸": 858,
      "à¥¨": 859,
      "reat": 860,
      "à¤¾.": 861,
      "Ġme": 862,
      "Ġà¤®à¥įà¤¹à¤£": 863,
      "à¤ļà¥įà¤¯à¤¾": 864,
      "av": 865,
      "à¤¨à¥Ģ": 866,
      "ĠK": 867,
      "ign": 868,
      "à¤¾à¥¤": 869,
      "ake": 870,
      "à¥ĩà¤°": 871,
      "à¥ħ": 872,
      "à¤¾à¤ļà¥įà¤¯à¤¾": 873,
      "Ġone": 874,
      "ack": 875,
      "à¤Ĥà¤¬": 876,
      "à¥ĭà¤°": 877,
      "à¤¾à¤°à¤¤": 878,
      "ber": 879,
      "au": 880,
      "Ġj": 881,
      "à¥ģà¤ĸ": 882,
      "à¥ģà¤¦": 883,
      "Ġà¤ªà¥įà¤°à¤¤": 884,
      "à¥Ģà¤µ": 885,
      "Ġso": 886,
      "à¥ģà¤¸": 887,
      "Ġà¤¸à¤°": 888,
      "à¥Ĥà¤ª": 889,
      "Ġà¤Ĺà¤¯à¤¾": 890,
      "ĠIt": 891,
      "Ġout": 892,
      "à¤¾à¤¶": 893,
      "à¤¾à¤¡": 894,
      "Ġun": 895,
      "Ġar": 896,
      "Ġapp": 897,
      "very": 898,
      "ass": 899,
      "ations": 900,
      "Ġà¤¸à¤ķ": 901,
      "Ġà¤¹à¥ĭà¤": 902,
      "Ġpart": 903,
      "à¤¢": 904,
      "Ġà¤ħà¤§à¤¿à¤ķ": 905,
      "Ġà¤ķà¤°à¤¨à¥ĩ": 906,
      "Ġtim": 907,
      "à¤¿à¤Ł": 908,
      ").": 909,
      "Ġabout": 910,
      "Ġà¤¸à¤¾à¤¥": 911,
      "ord": 912,
      "ish": 913,
      "à¥ģà¤ª": 914,
      "ace": 915,
      "ire": 916,
      "à¤²à¥ĩà¤²": 917,
      "Ġev": 918,
      "ory": 919,
      "Ġwho": 920,
      "Ġstud": 921,
      "ĠThis": 922,
      "à¤¾à¤µà¤°": 923,
      "ress": 924,
      "ount": 925,
      "à¤ķà¤¾": 926,
      "Ġà¤²à¤Ĺ": 927,
      "à¥ģà¤³à¥ĩ": 928,
      "à¥Ģ.": 929,
      "Ġà¤¨à¤¿": 930,
      "à¤¾à¤¨à¤¾": 931,
      "ub": 932,
      "Ġhis": 933,
      "µà¤°": 934,
      "Ġà¤¸à¤°à¥įà¤µ": 935,
      "à¤¿à¤Ĥà¤Ĺ": 936,
      "à¥įà¤°à¤®": 937,
      "Ġpe": 938,
      "ric": 939,
      "Ġinf": 940,
      "à¤¾à¤Ĥà¤¨à¤¾": 941,
      "ĠCh": 942,
      "à¥įà¤¯à¤¾à¤Ĥà¤": 943,
      "à¤¾à¤Ĥà¤¤": 944,
      "Ġà¤¹à¥ĩ": 945,
      "ents": 946,
      "Ġsy": 947,
      "Ġthem": 948,
      "Ġcomm": 949,
      "à¤¾à¤ĸ": 950,
      "à¤¾à¤Ĥ": 951,
      "ang": 952,
      "Ġsc": 953,
      "Ġà¤¹à¥Ī,": 954,
      "à¤¿à¤¯à¥ĭà¤Ĥ": 955,
      "ens": 956,
      "low": 957,
      "Ġwork": 958,
      "à¥įà¤ļ": 959,
      "Ġup": 960,
      "ike": 961,
      "olog": 962,
      "ound": 963,
      "Ġà¤Ľ": 964,
      "à¥ĭà¤Ł": 965,
      "à¤°à¥įà¤£": 966,
      "now": 967,
      "ian": 968,
      "¸à¤¾à¤łà¥Ģ": 969,
      "ĠV": 970,
      "Ġà¤¸à¥įà¤¥": 971,
      "Ġà¤Ńà¤¾à¤°à¤¤": 972,
      "à¥įà¤¯à¤¾à¤¨": 973,
      "à¥ĭà¤ª": 974,
      "ame": 975,
      "Ġà¤ķà¤¾à¤®": 976,
      "Ġbec": 977,
      "à¤¾à¤ı": 978,
      "à¤Ĥà¤¤à¤°": 979,
      "y,": 980,
      "Ġpre": 981,
      "one": 982,
      "à¥Ģà¤°": 983,
      "ile": 984,
      "à¥ĥà¤¤": 985,
      "ase": 986,
      "Ġà¤¯à¥ĩà¤": 987,
      "Ġthan": 988,
      "ook": 989,
      "à¤¾à¤°à¤¾": 990,
      "rit": 991,
      "Ġà¤Ĩà¤¹à¥ĩà¤¤.": 992,
      "Ġmay": 993,
      "à¥ĩà¤³": 994,
      "Ġqu": 995,
      "ree": 996,
      "Ġà¤¸à¥ģà¤°": 997,
      "iff": 998,
      "Ġà¤ķà¤®": 999,
      "Ġsome": 1000,
      "à¥ĩà¤ļ": 1001,
      "ople": 1002,
      "ĠY": 1003,
      "Ġrec": 1004,
      "Ġyear": 1005,
      "à¤¾à¤¤à¥įà¤°": 1006,
      "ie": 1007,
      "à¥ģà¤¤": 1008,
      "ail": 1009,
      "à¤¾à¤Ĥà¤ļà¥įà¤¯à¤¾": 1010,
      "à¤¸à¥įà¤¥": 1011,
      "Ġthere": 1012,
      "nder": 1013,
      "à¥Ģ,": 1014,
      "mer": 1015,
      "Ġbeen": 1016,
      "Ġwhen": 1017,
      "Ġà¤¬à¤¨": 1018,
      "ue": 1019,
      "à¥ĩà¤ľ": 1020,
      "Ġag": 1021,
      "Ġgo": 1022,
      "à¥ĩà¤Ĺ": 1023,
      "ough": 1024,
      "à¥Ģà¤¸": 1025,
      "ph": 1026,
      "à¤¾à¤ļà¤¾": 1027,
      "à¤¾à¤°à¥ĩ": 1028,
      "ice": 1029,
      "Ġinto": 1030,
      "Ġits": 1031,
      "Ġà¤¯à¤¾à¤Ĥà¤¨à¥Ģ": 1032,
      "Ġà¤¤à¥ĩ": 1033,
      "ren": 1034,
      "Ġà¤¹à¥ĭà¤¤à¤¾": 1035,
      "Ġà¤µà¤¿à¤¶": 1036,
      "à¥ĩà¤¦": 1037,
      "Ġà¤µà¤¹": 1038,
      "),": 1039,
      "Ġà¤ľà¥ĭ": 1040,
      "ces": 1041,
      "Ġà¤ķà¥ģà¤": 1042,
      "erv": 1043,
      "Ġà¤īà¤¨à¥įà¤¹": 1044,
      "Ġà¤¶à¤ķ": 1045,
      "à¥ĩà¤¹": 1046,
      "Ġover": 1047,
      "Ġtra": 1048,
      "à¥Ģà¤ļ": 1049,
      "à¥Ģà¤®": 1050,
      "Ġà¤ħà¤¶": 1051,
      "à¤¾à¤ļà¥Ģ": 1052,
      "à¤¿à¤·": 1053,
      "à¤Ĥà¤§": 1054,
      "à¥ĩà¤®": 1055,
      "Ġthese": 1056,
      "Ġà¤¸à¤¾à¤®": 1057,
      "ally": 1058,
      "iver": 1059,
      "Ġpeople": 1060,
      "rough": 1061,
      "à¤¿à¤ľ": 1062,
      "Ġdiff": 1063,
      "Ġà¤Ĩà¤°": 1064,
      "Ġhow": 1065,
      "ing,": 1066,
      "ite": 1067,
      "ond": 1068,
      "lud": 1069,
      "à¤¾à¤·à¥įà¤Ł": 1070,
      "Ġnew": 1071,
      "à¤ĥ": 1072,
      "tern": 1073,
      "Ġtr": 1074,
      "Ġhad": 1075,
      "Ġà¤®à¤¿à¤": 1076,
      "à¤¾à¤¯à¤¾": 1077,
      "ove": 1078,
      "ause": 1079,
      "ll": 1080,
      "Ġro": 1081,
      "Ġcons": 1082,
      "à¥ĩà¤Ĥà¤¦": 1083,
      "Ġour": 1084,
      "à¤¾à¤¤à¥Ģà¤²": 1085,
      "Ġcol": 1086,
      "Ġà¤¹à¤®": 1087,
      "Ġuse": 1088,
      "y.": 1089,
      "Ġra": 1090,
      "à¤¾à¤·à¥įà¤Łà¥įà¤°": 1091,
      "ific": 1092,
      "Ġà¤¤à¥įà¤¯à¤¾à¤Ĥà¤": 1093,
      "Ġà¤¤à¤ķ": 1094,
      "Ġà¤¬à¤¾à¤¦": 1095,
      "à¤¿à¤ª": 1096,
      "int": 1097,
      "à¤¿à¤¦": 1098,
      "à¤²à¥įà¤¯à¤¾": 1099,
      "Ġà¤²à¥ĩà¤ķ": 1100,
      "Ġà¤Ĳ": 1101,
      "ors": 1102,
      "à¤Ĥà¤ķ": 1103,
      "à¤¾à¤ļà¥ĩ": 1104,
      "à¥Ģà¤ľ": 1105,
      "Ġbet": 1106,
      "à¤¤à¥įà¤°": 1107,
      "Ġmost": 1108,
      "Ġà¤¸à¤¹": 1109,
      "Ġact": 1110,
      "Ġà¤Ĩà¤ľ": 1111,
      "Ġà¤µà¤°à¥įà¤·": 1112,
      "à¥Ģà¥¤": 1113,
      "we": 1114,
      "lic": 1115,
      "Ġunder": 1116,
      "Ġsa": 1117,
      "ities": 1118,
      "à¤¦à¤¾à¤°": 1119,
      "Ġknow": 1120,
      "irst": 1121,
      "Ġà¤²à¤¾à¤Ĺ": 1122,
      "te": 1123,
      "Ġlike": 1124,
      "Ġwould": 1125,
      "Ġdes": 1126,
      "Ġà¤®à¥ĭà¤": 1127,
      "Ġbl": 1128,
      "ed.": 1129,
      "alth": 1130,
      "à¥ģà¤µ": 1131,
      "Ġà¤ħà¤Ń": 1132,
      "Ġà¤ħà¤ªà¤¨à¥ĩ": 1133,
      "lect": 1134,
      "..": 1135,
      "ject": 1136,
      "à¥ĩà¤¡": 1137,
      "Ġacc": 1138,
      "à¤°à¥įà¤¥": 1139,
      "erm": 1140,
      "row": 1141,
      "à¤¾à¤¢": 1142,
      "Ġà¤ĳ": 1143,
      "ient": 1144,
      "velop": 1145,
      "Ġà¤¹à¥Ī.": 1146,
      "ob": 1147,
      "Ġà¤ªà¥Ĥ": 1148,
      "Ġà¤¦à¥ĩà¤ĸ": 1149,
      "Ġà¤Ĩà¤µ": 1150,
      "Ġtw": 1151,
      "à¥Ĥà¤²": 1152,
      "Ġrel": 1153,
      "stem": 1154,
      "ark": 1155,
      "Ġsuch": 1156,
      "Ġà¤¹à¥ĭà¤¤à¥Ģ": 1157,
      "Ġà¤ľà¤¿à¤¸": 1158,
      "ning": 1159,
      "à¥įà¤ŀ": 1160,
      "Ġà¤®à¤¿à¤²": 1161,
      "ational": 1162,
      "Ġà¤®à¤¿à¤³": 1163,
      "ys": 1164,
      "Ġà¤®à¥Ī": 1165,
      "Ġrep": 1166,
      "à¤£à¥ĩ": 1167,
      "ates": 1168,
      "Ġif": 1169,
      "à¤¾à¤¨à¥Ģ": 1170,
      "ram": 1171,
      "ious": 1172,
      "ons": 1173,
      "Ġà¤ĩà¤¨": 1174,
      "à¤Ĺà¤°": 1175,
      "à¤µà¤°": 1176,
      "Ġneed": 1177,
      "ays": 1178,
      "ath": 1179,
      "Ġà¤¦à¥ĩà¤¶": 1180,
      "Ġà¤®à¤¨": 1181,
      "à¤ħ": 1182,
      "ffect": 1183,
      "Ġà¤¸à¤°à¤ķà¤¾à¤°": 1184,
      "à¤¾à¤²à¥Ģ": 1185,
      "à¥įà¤¡": 1186,
      "à¤Ĥà¤ļ": 1187,
      "à¥ĭà¤§": 1188,
      "Ġà¤ĵ": 1189,
      "Ġà¤²à¥ĭà¤ķ": 1190,
      "Ġchild": 1191,
      "ov": 1192,
      "Ġinclud": 1193,
      "Ġany": 1194,
      "Ġà¤²à¥ĭà¤Ĺ": 1195,
      "Ġgen": 1196,
      "ink": 1197,
      "Ġà¤ħà¤¸à¤¤": 1198,
      "à¤Ĥà¤¤à¥įà¤°": 1199,
      "hed": 1200,
      "ĠUn": 1201,
      "Ġà¤Ĩà¤¯": 1202,
      "ative": 1203,
      "Ġhel": 1204,
      "ĠWh": 1205,
      "Ġà¤¦à¥ĭà¤¨": 1206,
      "à¤Ĩ": 1207,
      "à¤°à¥įà¤¤": 1208,
      "Ġà¤Ĩà¤®": 1209,
      "Ġà¤µà¤¿à¤ķ": 1210,
      "Ġà¤Ĩà¤¹à¥ĩ": 1211,
      "ple": 1212,
      "Ġwhat": 1213,
      "Ġà¤¤à¥įà¤¯à¤¾à¤Ĥà¤¨": 1214,
      "à¥Ģà¤¡": 1215,
      "ular": 1216,
      "Ġà¤®à¤¾à¤°": 1217,
      "Ġà¤¦à¤¿à¤¯à¤¾": 1218,
      "Ġà¤ķà¤¹à¤¾": 1219,
      "à¤Ĥà¤¤à¥įà¤°à¥Ģ": 1220,
      "à¤¿à¤§": 1221,
      "Ġonly": 1222,
      "à¥Įà¤°": 1223,
      "yp": 1224,
      "Ġph": 1225,
      "Ġhelp": 1226,
      "Ġà¤¹à¤¾": 1227,
      "ool": 1228,
      "à¤ªà¥įà¤°": 1229,
      "Ġno": 1230,
      "à¥ĩà¥¤": 1231,
      "Ġam": 1232,
      "à¤°à¥įà¤ľ": 1233,
      "ĵà¤Ĥ": 1234,
      "à¤Ĥà¤ª": 1235,
      "Ġprov": 1236,
      "à¥ĭà¤Ĥà¤": 1237,
      "à¥ĩà¤Ĥà¤¦à¥įà¤°": 1238,
      "Ġà¤®à¤¾à¤¨": 1239,
      "à¤¾à¤ģ": 1240,
      "ings": 1241,
      "Ġà¤Ĺà¥įà¤°": 1242,
      "Ġind": 1243,
      "à¤·à¥įà¤Ł": 1244,
      "Ġprodu": 1245,
      "Ġà¤ľà¤¨": 1246,
      "Ġthrough": 1247,
      "Ġà¤¨à¤µ": 1248,
      "Ġà¤ķà¤°à¤¤": 1249,
      "Ġoff": 1250,
      "à¤¿à¤£": 1251,
      "ced": 1252,
      "Ġfirst": 1253,
      "Ġused": 1254,
      "Ġdevelop": 1255,
      "Ġà¤ķà¥įà¤·": 1256,
      "Ġmany": 1257,
      "ating": 1258,
      "®à¥ģà¤³à¥ĩ": 1259,
      "à¤Ĥà¤Ł": 1260,
      "Ġspec": 1261,
      "Ġà¤īà¤¤": 1262,
      "ck": 1263,
      "ĠAs": 1264,
      "Ġ:": 1265,
      "fter": 1266,
      "Ġfe": 1267,
      "à¤ļà¥ĩ": 1268,
      "à¤¡à¥ĩ": 1269,
      "à¥«": 1270,
      "à¥©": 1271,
      "à¥įà¤¯à¤µ": 1272,
      "ĠHe": 1273,
      "Ġà¤ķà¤¿à¤¸": 1274,
      "iet": 1275,
      "à¤¦à¥ĩà¤¶": 1276,
      "Ġpo": 1277,
      "round": 1278,
      "à¤°à¥ĩ": 1279,
      "Ġreg": 1280,
      "Ġà¤¤à¥ģà¤®": 1281,
      "Ġà¤¹à¥ģà¤ı": 1282,
      "rib": 1283,
      "Ġà¤¬à¤¹": 1284,
      "Ġem": 1285,
      "hen": 1286,
      "Ġà¤ĩà¤¤": 1287,
      "Ġexp": 1288,
      "à¥ĭà¤¹": 1289,
      "Ġpr": 1290,
      "à¥įà¤¯à¤®": 1291,
      "Ġà¤¹à¥ĭà¤¤à¥ĩ.": 1292,
      "ing.": 1293,
      "les": 1294,
      "à¤°à¤£": 1295,
      "old": 1296,
      "Ġà¤ķà¤¾à¤¹à¥Ģ": 1297,
      "à¤¾à¤Ĥà¤ļà¥Ģ": 1298,
      "Ġtwo": 1299,
      "ful": 1300,
      "iss": 1301,
      "à¥Ģà¤ı": 1302,
      "cess": 1303,
      "Ġsystem": 1304,
      "oth": 1305,
      "oss": 1306,
      "à¤ĺ": 1307,
      "à¤£à¥Ģ": 1308,
      "Ġdiffere": 1309,
      "eth": 1310,
      "à¤¾à¤Ĥà¤ļ": 1311,
      "uring": 1312,
      "à¤ļà¥įà¤": 1313,
      "Ġac": 1314,
      "à¤¾à¤²à¥ĩ": 1315,
      "Ġà¤īà¤¦": 1316,
      "à¤¢à¤¼": 1317,
      "à¥ĩà¤·": 1318,
      "à¤µà¤¾à¤°": 1319,
      "a,": 1320,
      "Ġtime": 1321,
      "ne": 1322,
      "Ġob": 1323,
      "ility": 1324,
      "à¤ķà¥ĭ": 1325,
      "ert": 1326,
      "à¤¿à¤µà¤¸": 1327,
      "Ġà¤¨à¤¾à¤¹à¥Ģ.": 1328,
      "Ġass": 1329,
      "à¤¿à¤¤à¥Ģ": 1330,
      "ible": 1331,
      "ed,": 1332,
      "Ġatt": 1333,
      "à¥įà¤¹à¤¾": 1334,
      "à¤°à¥įà¤¶": 1335,
      "aw": 1336,
      "ĠâĢĵ": 1337,
      "à¥Ģà¤ª": 1338,
      "Ġà¤°à¥Ĥà¤ª": 1339,
      "dition": 1340,
      "Ġà¤ĺà¥ĩà¤¤": 1341,
      "à¥Ģà¤ļà¥įà¤¯à¤¾": 1342,
      "à¤ķà¥įà¤¤": 1343,
      "à¤®à¥ĩà¤Ĥ": 1344,
      "à¥Ģà¤Ł": 1345,
      "Ġdec": 1346,
      "ature": 1347,
      "Ġà¤ľà¤¿à¤²": 1348,
      "rop": 1349,
      "Ġsur": 1350,
      "à¥ĭà¤Ĥà¤¨": 1351,
      "ments": 1352,
      "Ġà¤°à¤¾à¤¹": 1353,
      "ten": 1354,
      "Ġà¤ħà¤¸à¥ĩ": 1355,
      "Ġà¤Ĺà¤Ī": 1356,
      "Ġà¤ķà¤°à¤£à¥įà¤¯à¤¾à¤¤": 1357,
      "Ġform": 1358,
      "à¥ĭà¤Ĥà¤¨à¥ĩ": 1359,
      "à¤¾à¤¸à¥įà¤¤": 1360,
      "à¤ļà¤¾": 1361,
      "ower": 1362,
      "Ġà¤ħà¤¸à¤²à¥įà¤¯à¤¾à¤": 1363,
      "à¥Ĥà¤¸": 1364,
      "à¤·": 1365,
      "Ġà¤ªà¤¾à¤°": 1366,
      "ange": 1367,
      "ng": 1368,
      "à¤Ĥà¤ľ": 1369,
      "à¤¾à¤±": 1370,
      "ution": 1371,
      "à¤¾à¤«": 1372,
      "à¤°à¥įà¤Ł": 1373,
      "Ġà¤ľà¤¬": 1374,
      "Ġà¤¬à¤¾à¤¤": 1375,
      "Ġà¤ľà¤¾": 1376,
      "à¤²à¥ĩ.": 1377,
      "Ġshould": 1378,
      "Ġfl": 1379,
      "à¥ĭ.": 1380,
      "Ġà¤°à¤¹à¥ĩ": 1381,
      "fore": 1382,
      "Ġsupp": 1383,
      "à¤¾à¤¤.": 1384,
      "Ġwater": 1385,
      "à¥įà¤¯à¤ķà¥įà¤¤": 1386,
      "à¥ĩà¤ĸ": 1387,
      "Ġwell": 1388,
      "ble": 1389,
      "à¤¿à¤ķà¥įà¤·": 1390,
      "Ġà¤ªà¥įà¤°à¤¶": 1391,
      "arch": 1392,
      "ased": 1393,
      "à¥ĭà¤¬": 1394,
      "Ġà¤ħà¤µ": 1395,
      "ick": 1396,
      "ween": 1397,
      "own": 1398,
      "à¤¾à¤ĵà¤Ĥ": 1399,
      "à¤®à¤§à¥įà¤¯à¥ĩ": 1400,
      "Ġà¤®à¥ģà¤ĸ": 1401,
      "Ġrem": 1402,
      "à¥ĩà¤¬": 1403,
      "gan": 1404,
      "Ġ.": 1405,
      "à¥ª": 1406,
      "sel": 1407,
      "Ġà¤¸à¥įà¤Ł": 1408,
      "à¤¿à¤¤à¥įà¤°": 1409,
      "Ġsub": 1410,
      "Ġinv": 1411,
      "ract": 1412,
      "Ġà¤ĺà¤°": 1413,
      "Ġco": 1414,
      "xt": 1415,
      "ied": 1416,
      "à¤¿à¤ĸ": 1417,
      "Ġà¤°à¤¹à¤¾": 1418,
      "Ġà¤¨à¤¿à¤µ": 1419,
      "ism": 1420,
      "à¥įà¤¯à¤¾à¤Ĥà¤¨": 1421,
      "ise": 1422,
      "à¤¾à¤¥": 1423,
      "à¥Ĥà¤®": 1424,
      "Ġà¤¸à¤¾à¤Ĥà¤Ĺ": 1425,
      "Ġà¤µà¤¿à¤¦": 1426,
      "Ġà¤¸à¤¬": 1427,
      "Ġà¤¦à¥įà¤µ": 1428,
      "Ġà¤ļà¤¾à¤¹": 1429,
      "Ġà¤ķà¤¾à¤°à¤£": 1430,
      "à¤Ńà¥Ģ": 1431,
      "Ġsm": 1432,
      "Ġpres": 1433,
      "à¤¹à¤°": 1434,
      "Ġbetween": 1435,
      "Ġà¤µà¥įà¤¯à¤ķà¥įà¤¤": 1436,
      "Ġcould": 1437,
      "à¤¸à¤¾": 1438,
      "ation.": 1439,
      "Ġwhere": 1440,
      "à¤¿à¤ķà¤¾": 1441,
      "Ġà¤ķà¥ģà¤Ľ": 1442,
      "à¥ģà¤Ĥà¤¬": 1443,
      "à¥įà¤¯à¤¾à¤ª": 1444,
      "Ġà¤¬à¥Ī": 1445,
      "uc": 1446,
      "à¤¿à¤Ĺ": 1447,
      "Ġhealth": 1448,
      "Ġà¤µà¤¿à¤Ń": 1449,
      "à¥ģà¤·": 1450,
      "ident": 1451,
      "Ġhigh": 1452,
      "Ġà¤¸à¤Ĥà¤¸": 1453,
      "à¥ĩà¤²à¥įà¤¯à¤¾": 1454,
      "à¤¿à¤¹": 1455,
      "Ġbu": 1456,
      "uch": 1457,
      "Ġà¤ħà¤²": 1458,
      "ever": 1459,
      "Ġtrans": 1460,
      "wn": 1461,
      "Ġà¤ªà¥įà¤°à¤ķ": 1462,
      "à¤¸à¥įà¤Ł": 1463,
      "Ĭà¤¨": 1464,
      "Ġget": 1465,
      "à¥įà¤¯à¤¾à¤¸": 1466,
      "Ġmake": 1467,
      "Ġà¤ķà¤°à¤¤à¥ĩ": 1468,
      "à¤°à¥įà¤¸": 1469,
      "ĠIf": 1470,
      "Ġlif": 1471,
      "Ġher": 1472,
      "à¤ļà¥Ģ": 1473,
      "Ġà¤°à¥ģà¤ª": 1474,
      "enc": 1475,
      "à¤°à¤¾": 1476,
      "ation,": 1477,
      "ĠWe": 1478,
      "chn": 1479,
      "à¤¿à¤Ĥà¤¦": 1480,
      "à¥įà¤£": 1481,
      "Ġpers": 1482,
      "à¥įà¤¯à¤¾à¤¯": 1483,
      "ural": 1484,
      "à¤²à¥ĩà¤²à¥įà¤¯à¤¾": 1485,
      "Ġpol": 1486,
      "form": 1487,
      "ict": 1488,
      "Ġear": 1489,
      "à¥įà¤¹à¥Ģ": 1490,
      "à¥ĩà¤Ĥà¤Ł": 1491,
      "Ġimport": 1492,
      "à¥ģà¤£": 1493,
      "ork": 1494,
      "ft": 1495,
      "à¥ĩà¤¤à¥įà¤°": 1496,
      "ience": 1497,
      "Ġrese": 1498,
      "ade": 1499,
      "à¥ģà¤Ĺ": 1500,
      "à¥ģà¤ķà¥įà¤¤": 1501,
      "chool": 1502,
      "Ġinter": 1503,
      "à¤ķà¥įà¤ķ": 1504,
      "ĠAl": 1505,
      "ĠRe": 1506,
      "ly,": 1507,
      "à¥ģà¤¦à¥įà¤§": 1508,
      "meric": 1509,
      "à¥ĩà¤ª": 1510,
      "Ġà¤¥à¤¾à¥¤": 1511,
      "ont": 1512,
      "Ġà¤ªà¤¾à¤¹": 1513,
      "à¥ĩà¤¨à¥ĩ": 1514,
      "à¥īà¤²": 1515,
      "Ġà¤ħà¤®": 1516,
      "Ġà¤°à¤¾à¤ľà¥įà¤¯": 1517,
      "land": 1518,
      "ivers": 1519,
      "Ġnum": 1520,
      "Ġdisc": 1521,
      "ĠAn": 1522,
      "Ġmod": 1523,
      "Ġà¤ªà¤£": 1524,
      "à¥Ĥà¤¤": 1525,
      "Ġinst": 1526,
      "Ġà¤ķà¤¾à¤¯": 1527,
      "Ġà¤ªà¥ģà¤°": 1528,
      "à¤£à¤¾à¤°": 1529,
      "Ġà¤°à¤¹à¥Ģ": 1530,
      "Ġà¤¦à¤¿à¤¨": 1531,
      "Ġà¤¯à¥ĩà¤¤": 1532,
      "Ġway": 1533,
      "à¤¯à¥ĩ": 1534,
      "à¥įà¤¯à¤¾à¤²": 1535,
      "er,": 1536,
      "ļà¤¾à¤°": 1537,
      "ĠFor": 1538,
      "à¤¸à¥Ģ": 1539,
      "Ġexam": 1540,
      "ited": 1541,
      "à¥ĭà¤¡à¤¼": 1542,
      "à¥¯": 1543,
      "Ġà¤ħà¤¨à¥ĩà¤ķ": 1544,
      "à¥¬": 1545,
      "Ġà¤ĺà¥ĩà¤": 1546,
      "Ġfound": 1547,
      "à¤¾à¤¸à¥Ĥà¤¨": 1548,
      "Ġà¤®à¤¾à¤¹": 1549,
      "Ġà¤īà¤¨à¥įà¤¹à¥ĭà¤Ĥà¤¨à¥ĩ": 1550,
      "¨à¥ĩ": 1551,
      "Ġà¤Ĩà¤¦": 1552,
      "à¤Ĥà¤¸": 1553,
      "à¤¾à¤µà¤¾": 1554,
      "Ġà¤¸à¥ģà¤": 1555,
      "Ġmed": 1556,
      "âĢĻt": 1557,
      "ics": 1558,
      "Ġbecause": 1559,
      "Ġà¤ľà¤¾à¤¨": 1560,
      "à¤¾à¤Ĥà¤ļà¤¾": 1561,
      "à¥įà¤Ĺ": 1562,
      "à¤¾à¤Ĥà¤ķ": 1563,
      "Ġlear": 1564,
      "Ġlar": 1565,
      "Ġafter": 1566,
      "Ġà¤¸à¥įà¤ª": 1567,
      "ĠHow": 1568,
      "Ġthen": 1569,
      "Ġsim": 1570,
      "Ġà¤Ĩà¤§": 1571,
      "urn": 1572,
      "Ġworld": 1573,
      "à¤¥à¤¾": 1574,
      "Ġdifferent": 1575,
      "Ġà¤ªà¤¦": 1576,
      "Ġà¤ªà¤¹à¤²à¥ĩ": 1577,
      "Ġvery": 1578,
      "Ġà¤¸à¥ĭà¤": 1579,
      "Ġlong": 1580,
      "Ġcent": 1581,
      "Ġjust": 1582,
      "Ġà¤ħà¤¬": 1583,
      "à¥ĩà¤¶à¤¨": 1584,
      "Ġinform": 1585,
      "Ġeven": 1586,
      "à¤¾à¤²à¤¯": 1587,
      "Ġà¤¯à¥ĩà¤¥": 1588,
      "Ġà¤¤à¤¸": 1589,
      "Ġcar": 1590,
      "Ġà¤²à¥ĩà¤ķà¤¿à¤¨": 1591,
      "ollow": 1592,
      "ĠNew": 1593,
      "Ġà¤Ńà¤¾à¤Ĺ": 1594,
      "à¥įà¤°à¥ĩà¤¸": 1595,
      "anc": 1596,
      "Ġexper": 1597,
      "arm": 1598,
      "Ġà¤¨à¤¿à¤¯": 1599,
      "Ġeffect": 1600,
      "Ġà¤ªà¥įà¤°à¤®": 1601,
      "à¥Ĥà¤ķ": 1602,
      "oy": 1603,
      "Ġà¤ªà¥įà¤°à¤ķà¤¾à¤°": 1604,
      "erg": 1605,
      "Ġdet": 1606,
      "ĠAmeric": 1607,
      "Ġhum": 1608,
      "Ġincre": 1609,
      "Ġà¤ħà¤¤": 1610,
      "a.": 1611,
      "à¤ļà¥įà¤Ľ": 1612,
      "Ġà¤®à¤¾à¤¤à¥įà¤°": 1613,
      "cept": 1614,
      "Ġà¤¦à¥ĩà¤£": 1615,
      "à¥įà¤¯à¤¾à¤µà¤°": 1616,
      "ĠPro": 1617,
      "other": 1618,
      "itt": 1619,
      "eral": 1620,
      "Ġà¤ķà¥įà¤°": 1621,
      "Ġà¤¹à¥ĭà¤Ĺ": 1622,
      "à¥Ģà¤¬": 1623,
      "Ġcount": 1624,
      "à¤°à¥įà¤¯": 1625,
      "Ġtyp": 1626,
      "ines": 1627,
      "Ġà¤¦à¤°": 1628,
      "ily": 1629,
      "Ġref": 1630,
      "Ġà¤ĺà¤Ł": 1631,
      "vent": 1632,
      "à¤¿à¤²à¤¾": 1633,
      "get": 1634,
      "Ġà¤ķà¥ĩà¤²à¥Ģ": 1635,
      "à¥®": 1636,
      "Ġà¤¹à¥Īà¤Ĥ,": 1637,
      "Ġà¤¹à¥ĭà¤£": 1638,
      "Ġresp": 1639,
      "à¥Īà¤¨": 1640,
      "hes": 1641,
      "ually": 1642,
      "ock": 1643,
      "à¤°à¥įà¤Ĺ": 1644,
      "Ġthose": 1645,
      "Ġà¤¸à¤®à¤¯": 1646,
      "Ġà¤¹à¥ĭà¤¨à¥ĩ": 1647,
      "Ġke": 1648,
      "Ġà¤ľà¤¾à¤¤à¤¾": 1649,
      "à¤ģ": 1650,
      "aking": 1651,
      "Ġsign": 1652,
      "Ġà¤ķà¤°à¥Ĥà¤¨": 1653,
      "ĠCom": 1654,
      "Ġvar": 1655,
      "Ġà¤ķà¥įà¤·à¥ĩà¤¤à¥įà¤°": 1656,
      "Ġcall": 1657,
      "à¥ĭà¤·": 1658,
      "Ġsaid": 1659,
      "Ġed": 1660,
      "à¥ģà¤¸à¤¾à¤°": 1661,
      "Ġprog": 1662,
      "Ġà¤ķà¤¿à¤Ĥà¤": 1663,
      "Ġsee": 1664,
      "iew": 1665,
      "Ġà¤ĩà¤¸à¤ķà¥ĩ": 1666,
      "Ġà¤ķà¥ĭà¤£": 1667,
      "à¤¿à¤¡": 1668,
      "Ġà¤ķà¥ĭà¤Ī": 1669,
      "Ġevery": 1670,
      "Ġpub": 1671,
      "Ġà¤¤à¥įà¤¯à¤¾": 1672,
      "à¤¾à¤Ń": 1673,
      "Ġà¤¹à¤ľ": 1674,
      "à¤®à¤¾à¤¨": 1675,
      "à¥Īà¤¸à¥ĩ": 1676,
      "Ġà¤¦à¥ĩà¤¤": 1677,
      "Ġà¤¥à¤¾": 1678,
      "à¤ĩ": 1679,
      "Ġext": 1680,
      "à¤¾à¤Ĥà¤¸": 1681,
      "Ġà¤µà¤¾à¤¢": 1682,
      "ef": 1683,
      "Ġchildren": 1684,
      "Ġà¤¨à¤¾à¤®": 1685,
      "its": 1686,
      "à¥įà¤ł": 1687,
      "à¤¤à¤¿": 1688,
      "Ġdat": 1689,
      "Ġpat": 1690,
      "à¤¯à¥ĭà¤Ĺ": 1691,
      "Ġà¤ªà¥įà¤°à¤µ": 1692,
      "Ġà¤°à¤ĸ": 1693,
      "à¤²à¥įà¤²": 1694,
      "Ġà¤ľà¤¾à¤ı": 1695,
      "Ġà¤ħà¤ªà¤¨à¥Ģ": 1696,
      "à¤¾à¤Ĥà¤ļà¥ĩ": 1697,
      "à¥Ń": 1698,
      "Ġà¤¬à¤¤": 1699,
      "¬à¤Ĥà¤§": 1700,
      "ros": 1701,
      "Ġfact": 1702,
      "Ġà¤Ĩà¤¤à¤¾": 1703,
      "Ġresult": 1704,
      "Ġà¤ľà¥Ģà¤µ": 1705,
      "io": 1706,
      "\\n": 1707,
      "Ġeach": 1708,
      "Ġsec": 1709,
      "Ġbeing": 1710,
      "ĠThey": 1711,
      "à¥Ģà¤ļà¥ĩ": 1712,
      "roup": 1713,
      "Ġart": 1714,
      "Ġà¤Ńà¤°": 1715,
      "à¥Ģà¤ķ": 1716,
      "als": 1717,
      "Ġfollow": 1718,
      "vern": 1719,
      "Ġà¤ķà¤¿à¤¸à¥Ģ": 1720,
      "Ġsoc": 1721,
      "Ġpartic": 1722,
      "Ġset": 1723,
      "à¥įà¤¯à¥Ĥà¤": 1724,
      "Ġà¤¬à¤¾à¤°": 1725,
      "iron": 1726,
      "Ġà¤²à¥ĭà¤Ĺà¥ĭà¤Ĥ": 1727,
      "ĠThere": 1728,
      "ection": 1729,
      "Ġà¤®à¥įà¤¹à¤£à¥Ĥà¤¨": 1730,
      "Ġca": 1731,
      "Ġà¤¬à¥įà¤°": 1732,
      "Ġà¤°à¤¾à¤·à¥įà¤Łà¥įà¤°": 1733,
      "Ġtechn": 1734,
      "Ġmy": 1735,
      "à¥įà¤Łà¤°": 1736,
      "à¥įà¤¬": 1737,
      "Ġà¤¸à¤¦": 1738,
      "Ġimportant": 1739,
      "Ġà¤®à¥ĭà¤ł": 1740,
      "Ġà¤¦à¥įà¤µà¤¾à¤°à¤¾": 1741,
      "Ġmuch": 1742,
      "Ġà¤¯à¥ĩ": 1743,
      "Ġà¤ħà¤¸à¥Ĥà¤¨": 1744,
      "à¤°à¥įà¤¦": 1745,
      "Ġà¤¤à¥įà¤¯à¤¾à¤®à¥ģà¤³à¥ĩ": 1746,
      "Ġà¤¹à¥ĭà¤¤à¥Ģ.": 1747,
      "Ġcommun": 1748,
      "Ġdist": 1749,
      "Ġà¤µà¤¿à¤ļà¤¾à¤°": 1750,
      "à¥Ģà¤Ĥà¤": 1751,
      "à¤¾à¤°à¥įà¤¥": 1752,
      "ather": 1753,
      "ruct": 1754,
      "Ġloc": 1755,
      "Ġà¤īà¤¤à¥įà¤¤": 1756,
      "µà¤¾": 1757,
      "Ġrequ": 1758,
      "cent": 1759,
      "à¤²à¤¾.": 1760,
      "ĠInd": 1761,
      "Ġà¤Ĺà¤ı": 1762,
      "Ġà¤Ĺà¥ĭà¤": 1763,
      "Ġcre": 1764,
      "Ġà¤¡à¥ī": 1765,
      "Ġend": 1766,
      "Ġfam": 1767,
      "Ġshe": 1768,
      "à¤¾à¤£à¥Ģ": 1769,
      "Ġent": 1770,
      "Ġdep": 1771,
      "Ġmon": 1772,
      "rain": 1773,
      "®à¤§à¥įà¤¯à¥ĩ": 1774,
      "Ġà¤Ĺà¥ĩà¤²": 1775,
      "à¥Ģà¤¦": 1776,
      "Ġdef": 1777,
      "led": 1778,
      "Ġà¤Ĩà¤¤": 1779,
      "ward": 1780,
      "ĠAr": 1781,
      "ists": 1782,
      "Ġread": 1783,
      "Ġown": 1784,
      "blem": 1785,
      "ants": 1786,
      "Ġà¤µà¤¿à¤°": 1787,
      "Ġà¤ªà¥ģà¤²": 1788,
      "à¤²à¤Ĥ": 1789,
      "Ġà¤¹à¥ģà¤Ĩ": 1790,
      "à¥įà¤ľ": 1791,
      "Ġà¤Łà¥įà¤°": 1792,
      "Ġright": 1793,
      "Ġà¤ıà¤µ": 1794,
      "Ġduring": 1795,
      "ically": 1796,
      "Ġà¤®à¥Į": 1797,
      "Ġà¤µà¤¾à¤²à¥ĩ": 1798,
      "à¤ķà¤°à¤£": 1799,
      "Ġà¤«à¤¿à¤°": 1800,
      "à¤¤à¥įà¤¨": 1801,
      "gg": 1802,
      "Ġlevel": 1803,
      "Ġà¤¸à¤¿à¤Ĥà¤": 1804,
      "er.": 1805,
      "Ġfood": 1806,
      "Ġà¤¦à¤¿à¤µà¤¸": 1807,
      "Ġà¤¬à¤¦": 1808,
      "à¤¾à¤¸à¤¾à¤łà¥Ģ": 1809,
      "à¤¾à¤¸à¤¨": 1810,
      "à¤±": 1811,
      "Ġlead": 1812,
      "Ġà¤¦à¥ĭ": 1813,
      "Ġday": 1814,
      "Ġà¤¤à¥Ģà¤¨": 1815,
      "Ġà¤¨à¥ĩà¤¤": 1816,
      "Ġà¤µà¥įà¤¹": 1817,
      "Ġà¤ªà¥ĭ": 1818,
      "hip": 1819,
      "ĠSp": 1820,
      "ah": 1821,
      "à¤²à¥Ģ.": 1822,
      "Ġà¤Ĩà¤ªà¤²à¥įà¤¯à¤¾": 1823,
      "Ġà¤¨à¤¿à¤°à¥įà¤®": 1824,
      "ts": 1825,
      "Ġà¤µà¤¿à¤Ńà¤¾à¤Ĺ": 1826,
      "Ġmin": 1827,
      "Ġà¤¹à¤°": 1828,
      "Ġadd": 1829,
      "Ġperson": 1830,
      "à¥įà¤ŀà¤¾à¤¨": 1831,
      "ĠBut": 1832,
      "à¥ģà¤Ĥà¤¬à¤Ī": 1833,
      "Ġà¤¤à¥įà¤¯à¤¾à¤Ĥà¤¨à¥Ģ": 1834,
      "Ġsk": 1835,
      "Ġaut": 1836,
      "ting": 1837,
      "à¥įà¤¯à¤¾à¤¦": 1838,
      "Ġà¤ķà¤¾à¤°à¥įà¤¯à¤ķ": 1839,
      "Ġà¤¸à¤Ĥà¤ª": 1840,
      "Ġyears": 1841,
      "à¤¡à¥Ĥà¤¨": 1842,
      "Ġà¤ľà¤Ĺ": 1843,
      "Ġà¤µà¥įà¤¯à¤µ": 1844,
      "Ġbod": 1845,
      "Ġà¤¦à¤¿à¤¸": 1846,
      "Ġà¤²à¤ķà¥įà¤·": 1847,
      "ever,": 1848,
      "The": 1849,
      "Ġà¤µà¥Ī": 1850,
      "Ġfind": 1851,
      "Ġins": 1852,
      "à¥ĩà¤¯": 1853,
      "Ġà¤ķà¤²": 1854,
      "à¥ĩà¤³à¥Ģ": 1855,
      "Ġà¤ķà¥ĩà¤Ĥà¤¦à¥įà¤°": 1856,
      "und": 1857,
      "à¤¿à¤µà¤¾à¤°": 1858,
      "Ġback": 1859,
      "ĠYou": 1860,
      "Ġà¤¹à¥ĭà¤¤à¤¾.": 1861,
      "à¤¾à¤ľà¤ª": 1862,
      "ology": 1863,
      "Ġsame": 1864,
      "Ġcur": 1865,
      "Ġà¤¶à¤¿à¤ķà¥įà¤·": 1866,
      "ern": 1867,
      "Ġgrow": 1868,
      "Ġproblem": 1869,
      "Ġdoes": 1870,
      "Ġstr": 1871,
      "Ġà¤ķà¥ĭà¤°": 1872,
      "à¤ķà¤¾à¤°à¥Ģ": 1873,
      "ank": 1874,
      "Ġche": 1875,
      "à¥ĩà¤Ĥà¤Ĺ": 1876,
      "Ġà¤µà¤¿à¤§": 1877,
      "à¤¾à¤Ĭ": 1878,
      "Ġgood": 1879,
      "Ġav": 1880,
      "Ġà¤®à¤°": 1881,
      "à¤ľà¥ĩ": 1882,
      "Ġà¤®à¤¾à¤Ĺ": 1883,
      "Ġà¤ķà¥ĩà¤²à¥ĩ": 1884,
      "Ġà¤¹à¤ľà¤¾à¤°": 1885,
      "Ġà¤īà¤¨à¤ķà¥ĩ": 1886,
      "Ġà¤¨à¤¿à¤ķ": 1887,
      "Ġà¤¬à¤¹à¥ģà¤¤": 1888,
      "Ġà¤®à¤¤": 1889,
      "Ġpop": 1890,
      "Ġboth": 1891,
      "Ġà¤¤à¤°à¤¹": 1892,
      "à¤¾à¤Ĥà¤¡": 1893,
      "Ġà¤¤à¤°à¥Ģ": 1894,
      "Ġmade": 1895,
      "Ġà¤¶à¥įà¤°": 1896,
      "Ġà¤ķà¤°à¤¤à¤¾": 1897,
      "ved": 1898,
      "onom": 1899,
      "iversity": 1900,
      "à¥ĩà¤ķà¥įà¤·": 1901,
      "à¤¦à¤¾": 1902,
      "Ġà¤µà¤¿à¤¶à¥įà¤µ": 1903,
      "Ġà¤¬à¤¡à¤¼": 1904,
      "Ġ|": 1905,
      "Ġà¤ļà¤²": 1906,
      "à¤¾à¤¦à¥Ģ": 1907,
      "up": 1908,
      "ized": 1909,
      "à¤ķà¥įà¤·à¤¾": 1910,
      "viron": 1911,
      "Ġschool": 1912,
      "Ġbefore": 1913,
      "ĠSc": 1914,
      "Ġexpl": 1915,
      "Ġgroup": 1916,
      "Ġà¤®à¥ģà¤²": 1917,
      "à¥ģà¤Ń": 1918,
      "Ġà¤®à¤¦": 1919,
      "Ġgra": 1920,
      "à¤¾à¤ªà¥įà¤¤": 1921,
      "Ġà¤Ńà¤¾à¤°à¤¤à¥Ģà¤¯": 1922,
      "Ġà¤¹à¥ĭà¤¤à¥ĩ": 1923,
      "Ġsmall": 1924,
      "Ġà¤ķà¤°à¤¨à¤¾": 1925,
      "orn": 1926,
      "Ġshow": 1927,
      "Ġà¤ħà¤¨à¥įà¤¯": 1928,
      "Ġà¤Ĩà¤°à¥ĭà¤ª": 1929,
      "Ġcomple": 1930,
      "Ġà¤¸à¤Ĥà¤ĺ": 1931,
      "Ġagain": 1932,
      "inal": 1933,
      "Ġà¤¤à¤¿à¤": 1934,
      "à¤¾à¤·": 1935,
      "Ġà¤µà¤¿à¤µ": 1936,
      "Ġhist": 1937,
      "omen": 1938,
      "stand": 1939,
      "Ġà¤¦à¥ĩà¤µ": 1940,
      "Ġà¤ªà¤¡": 1941,
      "Ġusing": 1942,
      "à¤¾à¤¯à¤ķ": 1943,
      "Ġà¤µà¥ĩ": 1944,
      "Ġ)": 1945,
      "rol": 1946,
      "Ġà¤ķà¤Ī": 1947,
      "ince": 1948,
      "Ġlook": 1949,
      "à¤°à¥įà¤¡": 1950,
      "Ġà¤¬à¤¸": 1951,
      "Ġwrit": 1952,
      "Ġprot": 1953,
      "Ġà¤¸à¤¾à¤²": 1954,
      "Ġnumber": 1955,
      "Ġà¤Ĩà¤Ĺ": 1956,
      "Ġà¤ľà¤¾à¤£": 1957,
      "ax": 1958,
      "Ġgl": 1959,
      "ivid": 1960,
      "à¥ĭà¤ľà¤¨": 1961,
      "read": 1962,
      "ality": 1963,
      "Ġà¤ķà¥ĩà¤²à¤¾": 1964,
      "oh": 1965,
      "ĠAnd": 1966,
      "Ġà¤¹à¥ģà¤Ī": 1967,
      "eld": 1968,
      "Ġtreat": 1969,
      "Ġà¤ļà¥Į": 1970,
      "Ġhuman": 1971,
      "à¥ĭà¤¤": 1972,
      "Ġà¤ķà¤Ĥà¤ª": 1973,
      "à¤Ŀ": 1974,
      "ness": 1975,
      "ash": 1976,
      "nce": 1977,
      "Ġmain": 1978,
      "Ġprocess": 1979,
      "Ġà¤¸à¤ķà¤¤à¤¾": 1980,
      "Ġtest": 1981,
      "Ġoften": 1982,
      "ix": 1983,
      "Ġà¤ªà¥ģà¤²à¤¿à¤¸": 1984,
      "Ġà¤®à¤¹à¤¾à¤°": 1985,
      "Ġà¤ħà¤Ĺ": 1986,
      "Ġà¤¬à¥ĭà¤²": 1987,
      "Ġà¤¤à¤¥à¤¾": 1988,
      "ives": 1989,
      "Ġà¤«à¤¿à¤²": 1990,
      "à¥ģà¤¢": 1991,
      "Ġà¤ķà¤¾à¤°à¥įà¤¯": 1992,
      "Ġà¤¬à¤¢à¤¼": 1993,
      "ished": 1994,
      "Ġà¤ľà¤®": 1995,
      "Ġà¤ķà¤¿à¤Ĥà¤µà¤¾": 1996,
      "Ġà¤µà¤¾à¤ª": 1997,
      "à¤¾à¤ľà¥Ģ": 1998,
      "Ġbr": 1999,
      "Ġris": 2000,
      "Ġposs": 2001,
      "Ġval": 2002,
      "Ġstudents": 2003,
      "Ġsol": 2004,
      "Ġhim": 2005,
      "Ġà¤¸à¥ģà¤°à¥Ĥ": 2006,
      "à¤¿à¤¯à¥ĩ": 2007,
      "cl": 2008,
      "Ġwhile": 2009,
      "vironment": 2010,
      "Ġstate": 2011,
      "à¥įà¤¯à¤¾à¤ļà¥Ģ": 2012,
      "ins": 2013,
      "Ġà¤ľà¤°": 2014,
      "à¤°à¥įà¤·": 2015,
      "Ġà¤®à¤¾à¤®": 2016,
      "Ġà¤¯à¥ĭà¤Ĺ": 2017,
      "ral": 2018,
      "Ġorgan": 2019,
      "Ġà¤µà¤¿à¤¶à¥ĩà¤·": 2020,
      "à¤¦à¤¾à¤¨": 2021,
      "Ġtake": 2022,
      "on,": 2023,
      "ential": 2024,
      "ues": 2025,
      "imate": 2026,
      "ize": 2027,
      "Ġà¤¶à¥įà¤°à¥Ģ": 2028,
      "aj": 2029,
      "Ġnow": 2030,
      "Ġà¤¨à¤¸": 2031,
      "Ġà¤¤à¥Ģ": 2032,
      "Ġpower": 2033,
      "Ġserv": 2034,
      "Ġà¤ħà¤§à¥įà¤¯": 2035,
      "Ġà¤łà¥ĩà¤µ": 2036,
      "Ġà¤¦à¥Ģ": 2037,
      "Ġà¤¶à¤ķà¤¤": 2038,
      "à¤¾à¤Ĥà¤§": 2039,
      "Ġà¤ļà¤¾à¤°": 2040,
      "Ġà¤ħà¤°à¥įà¤¥": 2041,
      "à¤¾à¤Ĺà¤°": 2042,
      "Ġocc": 2043,
      "Ġdise": 2044,
      "Ġà¤¶à¤¹à¤°": 2045,
      "Ġinformation": 2046,
      "à¥ĩà¤²à¤¾": 2047,
      "Ġprogram": 2048,
      "à¤ļà¤¾à¤°": 2049,
      "Ġà¤²à¤¾à¤ĸ": 2050,
      ".,": 2051,
      "ures": 2052,
      "vers": 2053,
      "Ġà¤®à¥Ģ": 2054,
      "ion.": 2055,
      "Ġà¤¸à¤Ńà¥Ģ": 2056,
      "Ġdi": 2057,
      "Ġà¤ħà¤¶à¥Ģ": 2058,
      "Ġless": 2059,
      "Ġà¤ªà¥įà¤°à¤¤à¥įà¤¯": 2060,
      "Ġà¤Ĩà¤¹à¥ĩ,": 2061,
      "²à¤¾": 2062,
      "à¤µà¤¾": 2063,
      "Ġà¤Ńà¤¾à¤ľà¤ª": 2064,
      "tt": 2065,
      "Ġà¤Ī": 2066,
      "com": 2067,
      "Ġmem": 2068,
      "ĠWhat": 2069,
      "Ġà¤µà¤¾à¤Ł": 2070,
      "à¤¶à¥įà¤¯à¤ķ": 2071,
      "Ġcell": 2072,
      "||": 2073,
      "Ġà¤ªà¥įà¤°à¤¸": 2074,
      "à¥Ģà¤²à¤¾": 2075,
      "à¤£à¥įà¤¯à¤¾à¤¤": 2076,
      "à¥Ģà¤ļà¤¾": 2077,
      "Ġà¤ķà¥Ī": 2078,
      "à¤°à¥įà¤ķ": 2079,
      "Ġvis": 2080,
      "ered": 2081,
      "ital": 2082,
      "Ġà¤ªà¥įà¤°à¤Ń": 2083,
      "Ġprovid": 2084,
      "irect": 2085,
      "air": 2086,
      "Ġà¤ªà¥Ĥà¤°à¥įà¤µ": 2087,
      "Ġactiv": 2088,
      "Ġà¤īà¤¤à¥įà¤ª": 2089,
      "à¥ĩà¤ļà¥įà¤¯à¤¾": 2090,
      "ies,": 2091,
      "Ġà¤ªà¥įà¤°à¤¯": 2092,
      "à¤¯à¤¾à¤°": 2093,
      "à¤¾à¤¤à¥Ĥà¤¨": 2094,
      "Ġchar": 2095,
      "Ġà¤ĸà¤°": 2096,
      "Ġsupport": 2097,
      "Ġà¤ıà¤ķà¤¾": 2098,
      "Ġresearch": 2099,
      "any": 2100,
      "à¥įà¤¯à¤¾à¤¨à¥ĩ": 2101,
      "iqu": 2102,
      "ex": 2103,
      "à¤ªà¥ģà¤°": 2104,
      "à¥ģà¤¡": 2105,
      "à¤¾à¤±à¥įà¤¯à¤¾": 2106,
      "Ġfun": 2107,
      "à¤¾à¤Ŀ": 2108,
      "à¤¾à¤ī": 2109,
      "Ġà¤¸à¤Ĥà¤¬à¤Ĥà¤§": 2110,
      "Ġdesign": 2111,
      "Ġà¤¸à¤¿à¤Ĥà¤¹": 2112,
      "ĠWhen": 2113,
      "Ġà¤¸à¥įà¤¥à¤¾à¤¨": 2114,
      "à¤¿à¤¤à¤¾": 2115,
      "Ġbel": 2116,
      "Ġec": 2117,
      "Ġà¤ªà¥ĭà¤²": 2118,
      "à¤¾à¤ķà¤°": 2119,
      "Ġà¤ļà¤¾à¤²": 2120,
      "Ġà¤Ĩà¤ªà¤£": 2121,
      "Ġà¤ªà¤ķà¥įà¤·": 2122,
      "Ġmust": 2123,
      "Ġdown": 2124,
      "Ġà¤īà¤®": 2125,
      "ale": 2126,
      "der": 2127,
      "à¤¶à¥Ģ": 2128,
      "ages": 2129,
      "Ġà¤¸à¥ĩà¤µ": 2130,
      "à¤°à¥įà¤¯à¤Ĥà¤¤": 2131,
      "Ġà¤²à¥ĩà¤ķà¤°": 2132,
      "Ġaround": 2133,
      "à¥ģà¤ľ": 2134,
      "à¥ģà¤Ł": 2135,
      "Ġà¤¦à¤¾à¤ĸ": 2136,
      "Ġhand": 2137,
      "ĠIs": 2138,
      "day": 2139,
      "Ġest": 2140,
      "ven": 2141,
      "Ġstudy": 2142,
      "Ġplan": 2143,
      "à¤ļà¥įà¤ļ": 2144,
      "ĠThese": 2145,
      "uss": 2146,
      "Ġgovern": 2147,
      "Ġà¤¦à¥Įà¤°": 2148,
      "Ġdata": 2149,
      "ies.": 2150,
      "ion,": 2151,
      "Ġà¤ķà¥ĩà¤µ": 2152,
      "à¤²à¤¬": 2153,
      "Ġconf": 2154,
      "Ġà¤¸à¥įà¤¤": 2155,
      "à¥Ģà¤¨à¥ĩ": 2156,
      "Ġthree": 2157,
      "Ġstart": 2158,
      "Ġà¤¶à¥ĩà¤¤": 2159,
      "Ġà¤ķà¤¾à¤³": 2160,
      "Ġà¤Ĩà¤Ī": 2161,
      "Ġà¤¸à¤ķà¤¤à¥ĩ": 2162,
      "Ġredu": 2163,
      "ield": 2164,
      "à¤§à¤¾à¤¨": 2165,
      "Ġà¤¹à¥Īà¤Ĥ.": 2166,
      "Ġpoint": 2167,
      "à¥ĥà¤·à¥įà¤Ł": 2168,
      "Ġà¤¦à¤¿à¤²à¥įà¤²": 2169,
      "Ġgreat": 2170,
      "Ġà¤ªà¥įà¤°à¤¦à¥ĩà¤¶": 2171,
      "Ġdid": 2172,
      "à¤¿à¤¦à¥įà¤§": 2173,
      "à¤µà¤¾à¤¨": 2174,
      "ium": 2175,
      "Ġà¤īà¤¨à¥įà¤¹à¥ĩà¤Ĥ": 2176,
      "akes": 2177,
      "à¤¤à¥įà¤µ": 2178,
      "à¤ªà¤°": 2179,
      "à¥Ĥà¤°à¥įà¤£": 2180,
      "way": 2181,
      "à¤°à¥įà¤ļ": 2182,
      "rent": 2183,
      "Ġà¤¸à¥įà¤ķ": 2184,
      "Ġà¤µà¤¿à¤·": 2185,
      "ute": 2186,
      "Ġcommon": 2187,
      "Ġword": 2188,
      "ave": 2189,
      "à¥įà¤Łà¥Ģ": 2190,
      "eg": 2191,
      "Ġà¤¯à¤¾à¤Ĥà¤ļà¥įà¤¯à¤¾": 2192,
      "à¤ķà¥įà¤¸": 2193,
      "self": 2194,
      "à¥įà¤¯à¤¾à¤²à¤¯": 2195,
      "Ġà¤¶à¥ģà¤°": 2196,
      "Ġà¤ªà¤¡à¤¼": 2197,
      "ĠTo": 2198,
      "à¤°à¥įà¤§": 2199,
      "Ġà¤¸à¥ģà¤¨": 2200,
      "Ġcle": 2201,
      "Ġà¤ķà¤ª": 2202,
      "Ġà¤µà¤°": 2203,
      "Ġà¤µà¤¿à¤ľ": 2204,
      "Ġser": 2205,
      "Ġland": 2206,
      "à¥ĥà¤·": 2207,
      "Ġcontin": 2208,
      "Ġà¤ķà¤°à¥įà¤®": 2209,
      "à¥ģà¤®à¤¾à¤°": 2210,
      "Ġà¤®à¥ĩ": 2211,
      "Ġlarge": 2212,
      "Ġelect": 2213,
      "Ġà¤¤à¤¸à¥ĩà¤ļ": 2214,
      "Ġà¤®à¤¾à¤²": 2215,
      "ouse": 2216,
      "-b": 2217,
      "ars": 2218,
      "ĠSe": 2219,
      "the": 2220,
      "à¤Ĥà¤Ń": 2221,
      "iving": 2222,
      "ional": 2223,
      "à¤£à¤¾": 2224,
      "à¥Ģà¤ļà¥Ģ": 2225,
      "à¤¦à¥įà¤§": 2226,
      "Ġà¤¸à¤Ĥà¤ķ": 2227,
      "Ġà¤Ĩà¤µà¤¶à¥įà¤¯à¤ķ": 2228,
      "ron": 2229,
      "Ġà¤ªà¥Ī": 2230,
      "Ġà¤¤à¥įà¤¯à¤¾à¤Ĥà¤¨à¤¾": 2231,
      "ined": 2232,
      "Ġexample": 2233,
      "à¥¥": 2234,
      "Ġcor": 2235,
      "Ġà¤¸à¤¾à¤§": 2236,
      "à¤¤à¤ĥ": 2237,
      "ier": 2238,
      "Ġà¤®à¤¾à¤¹à¤¿à¤¤à¥Ģ": 2239,
      "Ġà¤¦à¥Ĥà¤¸": 2240,
      "Ġreport": 2241,
      "Ġà¤ķà¥įà¤¯à¤¾": 2242,
      "-s": 2243,
      "Ġcare": 2244,
      "ared": 2245,
      "ĠSh": 2246,
      "Ġà¤Łà¥Ģà¤®": 2247,
      "à¥įà¤¯à¤¾à¤ļà¥įà¤¯à¤¾": 2248,
      "Ġà¤¬à¥Īà¤ł": 2249,
      "Ġthough": 2250,
      "Ġà¤ħà¤¸à¤¾": 2251,
      "à¤¿à¤¸à¥įà¤¤": 2252,
      "ull": 2253,
      "Ġà¤¸à¥Ĥà¤": 2254,
      "acter": 2255,
      "ases": 2256,
      "à¥įà¤¶": 2257,
      "Ġ?": 2258,
      "à¤°à¥įà¤Ń": 2259,
      "âĢĶ": 2260,
      "à¥įà¤¯à¤¾à¤µ": 2261,
      "Ġop": 2262,
      "o,": 2263,
      "ving": 2264,
      "Ġret": 2265,
      "Ġconst": 2266,
      "Ġà¤ļà¤¿à¤¤à¥įà¤°": 2267,
      "à¤¾à¤®à¥Ģ": 2268,
      "Ġcour": 2269,
      "Ġincluding": 2270,
      "Ġà¤¸à¥įà¤¥à¤¿à¤¤": 2271,
      "Ġà¤¸à¤¾à¤Ĥà¤Ĺà¤¿à¤¤": 2272,
      "Ġà¤«à¤¿à¤²à¥įà¤®": 2273,
      "Ġà¤Ĩà¤²à¥ĩ": 2274,
      "Ġallow": 2275,
      "Ġà¤Ńà¤¾à¤µ": 2276,
      "Ġà¤ıà¤µà¤Ĥ": 2277,
      "à¥ĭà¤¸": 2278,
      "ulation": 2279,
      "Ġà¤ħà¤¶à¤¾": 2280,
      "Ġunderstand": 2281,
      "à¤¡à¤£": 2282,
      "ergy": 2283,
      "à¤Ĥ.": 2284,
      "à¤°à¥įà¤¶à¤¨": 2285,
      "ices": 2286,
      "Ġthink": 2287,
      "ross": 2288,
      "ĠDe": 2289,
      "Ġrisk": 2290,
      "Ġà¤¬à¤¾à¤ľ": 2291,
      "Ġà¤īà¤¸à¤ķà¥ĩ": 2292,
      "Ġà¤¬à¤¾à¤¹": 2293,
      "Ġsom": 2294,
      "Ġà¤¬à¤Ĥà¤¦": 2295,
      "à¤¾à¤ĩà¤¨": 2296,
      "Ġgener": 2297,
      "ek": 2298,
      "à¤ķà¥ĭà¤Ĥ": 2299,
      "Ġclass": 2300,
      "Ġà¤īà¤¤à¥įà¤¤à¤°": 2301,
      "Ġà¤¤à¥įà¤¯à¤¾à¤Ĥà¤ļà¥įà¤¯à¤¾": 2302,
      "Ġmet": 2303,
      "Ġeduc": 2304,
      "Ġbuild": 2305,
      "eng": 2306,
      "à¤®à¥Ģ": 2307,
      "¶à¥Ģ": 2308,
      "Ġà¤ªà¥ĭà¤²à¤¿à¤¸": 2309,
      "iven": 2310,
      "Ġequ": 2311,
      "à¤¾à¤Ĥà¤ª": 2312,
      "Ġlife": 2313,
      "Ġstill": 2314,
      "ik": 2315,
      "ĠAd": 2316,
      "Ġcalled": 2317,
      "outh": 2318,
      "Ġà¤ħà¤ľ": 2319,
      "Ġà¤ļà¥ģà¤ķ": 2320,
      "à¤¾à¤§à¤¿à¤ķ": 2321,
      "Ġpublic": 2322,
      "Ġà¤®à¥ģà¤Ĥà¤¬à¤Ī": 2323,
      "alk": 2324,
      "Ġadv": 2325,
      "Ġà¤®à¥ģà¤": 2326,
      "à¤°à¥įà¤¨": 2327,
      "Ġsay": 2328,
      "Ġ[": 2329,
      "Ġà¤ªà¥įà¤°à¤¾à¤ªà¥įà¤¤": 2330,
      "ĠRes": 2331,
      "inc": 2332,
      "Ġà¤¹à¤¾à¤²": 2333,
      "Ġà¤µà¤¿à¤ķà¤¾à¤¸": 2334,
      "Ġbeh": 2335,
      "Ġà¤ķà¤®à¥Ģ": 2336,
      "Īà¤²": 2337,
      "ĠCon": 2338,
      "Ġpract": 2339,
      "ĠâĢĺ": 2340,
      "reen": 2341,
      "à¥įà¤¯à¤¾à¤ļà¥ĩ": 2342,
      "à¤¾à¤¯à¤°": 2343,
      "à¤¨à¥įà¤¨": 2344,
      "à¤ľà¤¨": 2345,
      "à¤Ńà¤¾": 2346,
      "Ġknown": 2347,
      "ior": 2348,
      "ividual": 2349,
      "aterial": 2350,
      "Ġà¤ķà¥įà¤¯": 2351,
      "Ġà¤ªà¤°à¤¿à¤¸": 2352,
      "Ġdon": 2353,
      "à¥įà¤¯à¤¾à¤Ĥà¤¨à¤¾": 2354,
      "à¤ī": 2355,
      "à¥įà¤¯à¤¾à¤¤à¥Ģà¤²": 2356,
      "à¥Ĥà¤°à¥įà¤µ": 2357,
      "à¥ĩà¤¹à¥Ģ": 2358,
      "Ġlearn": 2359,
      "Ġà¤¥à¥Ģà¥¤": 2360,
      "Ġdr": 2361,
      "à¥ĭà¤®": 2362,
      "Ġà¤ħà¤§à¥įà¤¯à¤ķà¥įà¤·": 2363,
      "oci": 2364,
      "Ġenvironment": 2365,
      "Ġà¤¶à¤¾à¤®": 2366,
      "Ġquest": 2367,
      "Ġà¤ªà¤¾à¤¸": 2368,
      "à¤ľà¥Ģ": 2369,
      "Ġ&": 2370,
      "ired": 2371,
      "Ġà¤ľà¤²": 2372,
      "Ġeas": 2373,
      "erest": 2374,
      "à¥ĭà¤Ĥà¤ķ": 2375,
      "Ġà¤ªà¥ģà¤¢": 2376,
      "Ġide": 2377,
      "Ġplace": 2378,
      "Ġà¤®à¤¾à¤Ŀ": 2379,
      "Ġà¤µà¤¾à¤¹": 2380,
      "ially": 2381,
      "Ġà¤¯à¥ĩà¤£": 2382,
      "Ġmat": 2383,
      "à¤¿à¤¸à¥įà¤Ł": 2384,
      "Ġgu": 2385,
      "lish": 2386,
      "Ġà¤ľà¤¿à¤¨": 2387,
      "Ġà¤¨à¥įà¤¯à¤¾à¤¯": 2388,
      "Ġappro": 2389,
      "ĠEng": 2390,
      "Ġfew": 2391,
      "iod": 2392,
      "ĠAmerican": 2393,
      "ird": 2394,
      "ĠPh": 2395,
      "à¥Ĥà¤Ł": 2396,
      "itive": 2397,
      "à¤¦à¥įà¤¦": 2398,
      "à¥ĩà¤¨à¤¾": 2399,
      "à¤ªà¤Ł": 2400,
      "Ġstand": 2401,
      "Ġà¤ªà¥ģà¤¨": 2402,
      "oun": 2403,
      "à¤¾à¤°à¤ĸ": 2404,
      "à¥įà¤¯à¤®à¤Ĥà¤¤à¥įà¤°à¥Ģ": 2405,
      "à¤µà¤¾à¤²": 2406,
      "ĠUniversity": 2407,
      "hers": 2408,
      "ense": 2409,
      "Ġbo": 2410,
      "Ġà¤¥à¥ĩà¥¤": 2411,
      "Ġmight": 2412,
      "Ġà¤°à¤¾à¤®": 2413,
      "Ġà¤°à¥ģà¤ªà¤¯à¥ĩ": 2414,
      "ĠEx": 2415,
      "à¤µà¤¾à¤Ī": 2416,
      "à¤¿à¤«": 2417,
      "Ġà¤µà¥ĩà¤³": 2418,
      "Ġbook": 2419,
      "à¤°à¤µ": 2420,
      "Ġà¤ªà¥ģ": 2421,
      "à¥ĩà¤¸à¥įà¤Ł": 2422,
      "Ġà¤¬à¤¤à¤¾à¤¯à¤¾": 2423,
      "raph": 2424,
      "Ġà¤ľà¥Ģà¤µà¤¨": 2425,
      "Ġwant": 2426,
      "Ġà¤¸à¤Ĥà¤Ĺ": 2427,
      "Ġdem": 2428,
      "ains": 2429,
      "amp": 2430,
      "à¤¾à¤¤à¥įà¤®": 2431,
      "Ġpresent": 2432,
      "ertain": 2433,
      "à¥Ģà¤µà¤°": 2434,
      "Ġà¤ĺà¥ĩà¤£": 2435,
      "Ġ!": 2436,
      "ffic": 2437,
      "Ġchang": 2438,
      "Ġwithout": 2439,
      "str": 2440,
      "à¥ĭà¤ļ": 2441,
      "Ġà¤¨à¤¿à¤°à¥įà¤®à¤¾à¤£": 2442,
      "Ġwithin": 2443,
      "Ġcaus": 2444,
      "ty": 2445,
      "à¤£à¥įà¤¯à¤¾à¤¸à¤¾à¤łà¥Ģ": 2446,
      "Ġsym": 2447,
      "Ġplay": 2448,
      "ug": 2449,
      "man": 2450,
      "Ġà¤ķà¤°à¤£": 2451,
      "Ġà¤ªà¤¤à¥įà¤°": 2452,
      "Ġà¤¬à¤°": 2453,
      "Ġsit": 2454,
      "Ġà¤ªà¤¹à¥ģ": 2455,
      "ason": 2456,
      "Ġindividual": 2457,
      "ethod": 2458,
      "à¥įà¤µà¤°": 2459,
      "Ġà¤°à¥ĭà¤ľ": 2460,
      "Ġiss": 2461,
      "Ġtem": 2462,
      "à¤¾à¤¤à¤¾": 2463,
      "Ġà¤®à¥įà¤¹à¤£à¤ľà¥ĩ": 2464,
      "Ġà¤Ĩà¤¶": 2465,
      "Ġà¤ªà¥įà¤°à¤®à¤¾à¤£": 2466,
      "ator": 2467,
      "Ġbre": 2468,
      "Ġà¤Ĩà¤²à¥Ģ": 2469,
      "Ġbas": 2470,
      "line": 2471,
      "Ġà¤¶à¤¿à¤µ": 2472,
      "lement": 2473,
      "Ġdevelopment": 2474,
      "Ġà¤ªà¥Ĥà¤°à¥įà¤£": 2475,
      "Ġphys": 2476,
      "ording": 2477,
      "Ġà¤²à¤¿à¤¯à¤¾": 2478,
      "Ġmark": 2479,
      "à¥įà¤¯à¤¾à¤ļà¤¾": 2480,
      "Ġà¤¨à¤¾à¤µ": 2481,
      "Ġpur": 2482,
      "ĠAt": 2483,
      "Ġà¤ľà¤¾à¤ıà¤Ĺ": 2484,
      "Ġchange": 2485,
      "Ġident": 2486,
      "Ġà¤®à¤§à¥įà¤¯à¥ĩ": 2487,
      "esp": 2488,
      "Ġpos": 2489,
      "Ġterm": 2490,
      "ger": 2491,
      "à¤¸à¥įà¤¯": 2492,
      "Ġà¤µà¤¾à¤ªà¤°": 2493,
      "az": 2494,
      "Ġà¥¥": 2495,
      "Ġà¤¬à¤¦à¤²": 2496,
      "Ġimm": 2497,
      "Ġà¤¸à¤¤": 2498,
      "Ġproduct": 2499,
      "Ġà¤ĸà¤¿à¤²": 2500,
      "Ġcap": 2501,
      "âĢĵ": 2502,
      "Ġmaterial": 2503,
      "orth": 2504,
      "à¤¸à¤°": 2505,
      "à¤ķà¥įà¤·à¤£": 2506,
      "à¥ĭà¤¨à¤¾": 2507,
      "angu": 2508,
      "à¥īà¤¨": 2509,
      "ves": 2510,
      "ĠOn": 2511,
      "atic": 2512,
      "Ġà¤ļà¤¾à¤¹à¤¿à¤ı": 2513,
      "Ġsocial": 2514,
      "à¤µà¤³": 2515,
      "à¤¾à¤¯à¤²à¤¾": 2516,
      "à¤¾à¤®à¥ģà¤³à¥ĩ": 2517,
      "ĠHowever,": 2518,
      "Ġà¤¸à¤®à¤¾à¤ľ": 2519,
      "à¥Ĥà¤¦": 2520,
      "erc": 2521,
      ".âĢĿ": 2522,
      "ris": 2523,
      "Ġlaw": 2524,
      "à¥ģà¤Ĺà¥įà¤£": 2525,
      "Ġà¤ªà¤¾à¤²": 2526,
      "à¤¾à¤¡à¤¼": 2527,
      "agn": 2528,
      "Ġà¤Ńà¥Ĥà¤®": 2529,
      "Ġspe": 2530,
      "me": 2531,
      "Ġà¤ķà¥Ģ,": 2532,
      "¨à¤Ĥà¤¤à¤°": 2533,
      "à¥įà¤¯à¤¾à¤Ĥà¤¨à¥Ģ": 2534,
      "Ġanother": 2535,
      "Ġpot": 2536,
      "Ġwomen": 2537,
      "Ġair": 2538,
      "Ġà¤¸à¤¬à¤¸à¥ĩ": 2539,
      "Ġà¤¬à¥Ģà¤ļ": 2540,
      "ers,": 2541,
      "Ġconc": 2542,
      "à¤°à¤¾à¤¤": 2543,
      "Ġben": 2544,
      "-c": 2545,
      "Ġpass": 2546,
      "Ġà¤¨à¤¿à¤°à¥įà¤£": 2547,
      "Ġimpro": 2548,
      "Ġà¤ĳà¤«": 2549,
      "Ġproject": 2550,
      "arent": 2551,
      "'t": 2552,
      "Ġà¤īà¤¸à¥ĩ": 2553,
      "Ġprof": 2554,
      "ological": 2555,
      "Ġve": 2556,
      "Ġant": 2557,
      "osed": 2558,
      "Ġsl": 2559,
      "oid": 2560,
      "ĸà¥įà¤¯à¤¾": 2561,
      "Ġà¤Ńà¤¾à¤·": 2562,
      "à¤¾à¤¸à¥įà¤¥": 2563,
      "Ġdirect": 2564,
      "Ġà¤ľà¤¾à¤Ĺ": 2565,
      "Ġà¤®à¤Ĥà¤¤à¥įà¤°à¥Ģ": 2566,
      "pect": 2567,
      "Ġà¤ľà¤¾à¤¨à¥ĩ": 2568,
      "Ġ,": 2569,
      "iety": 2570,
      "à¤¦à¥Ģ": 2571,
      "Ġà¤Ĺà¤°": 2572,
      "ia,": 2573,
      "S.": 2574,
      "à¥įà¤¯à¤¾à¤¸à¤¾à¤łà¥Ģ": 2575,
      "Ġà¤Ĩà¤ķ": 2576,
      "Ġà¤°à¥ģà¤Ĺà¥įà¤£": 2577,
      "ability": 2578,
      "Ġbelie": 2579,
      "Ġà¤ķà¤¾à¤¢": 2580,
      "Ġmill": 2581,
      "Ġlight": 2582,
      "Ġà¤ľà¤¿à¤²à¥įà¤¹": 2583,
      "Ġà¤¦à¥ĭà¤¨à¥ĭà¤Ĥ": 2584,
      "à¤¤à¥ĩ.": 2585,
      "Ġà¤®à¥ĥà¤¤": 2586,
      "à¤°,": 2587,
      "Ġbody": 2588,
      "Ġmus": 2589,
      "Ġà¤Ŀà¤¾à¤²à¥Ģ": 2590,
      "ency": 2591,
      "à¤Ĺà¥Ģ": 2592,
      "à¤¨à¥įà¤¤": 2593,
      "ĠCl": 2594,
      "Ġà¤ıà¤¸": 2595,
      "Ġhome": 2596,
      "à¤¸à¥įà¤¥à¤¿à¤¤": 2597,
      "Ġà¤ķà¥ĩà¤²à¥Ģ.": 2598,
      "à¤µà¥Ģ": 2599,
      "Ġà¤®à¤¾à¤°à¥įà¤Ĺ": 2600,
      "ived": 2601,
      "Ġdesc": 2602,
      "Ġgovernment": 2603,
      "Ġcult": 2604,
      "Ġà¤¦à¥Įà¤°à¤¾à¤¨": 2605,
      "Ġà¤§à¤°à¥įà¤®": 2606,
      "ajor": 2607,
      "Ġà¤ķà¤¾à¤²": 2608,
      "Ġà¤ªà¥įà¤²": 2609,
      "gin": 2610,
      "Ġinterest": 2611,
      "Ġà¤ļà¥ģà¤¨": 2612,
      "à¥ĥà¤¤à¥įà¤¤": 2613,
      "ider": 2614,
      "Ġet": 2615,
      "Ġà¤¸à¤Ĥà¤¸à¥įà¤¥": 2616,
      "Ġà¤®à¥Īà¤Ĥ": 2617,
      "Ġà¤¨à¤¿à¤°à¥įà¤£à¤¯": 2618,
      "ĠPl": 2619,
      "ret": 2620,
      "Ġà¤®à¤ľ": 2621,
      "Ġà¤¦à¥ģà¤¸": 2622,
      "Ġrest": 2623,
      "ental": 2624,
      "ters": 2625,
      "arc": 2626,
      "Ġinclude": 2627,
      "Ġbest": 2628,
      "Ġcontrol": 2629,
      "Ġtre": 2630,
      "Ġà¤¯à¤¾à¤Ĥà¤ļ": 2631,
      "Ġanim": 2632,
      "Ġplant": 2633,
      "Ġà¤ħà¤Ĥà¤¤": 2634,
      "Ġmeas": 2635,
      "bs": 2636,
      "Ġà¤µà¤¿à¤°à¥ĭà¤§": 2637,
      "rist": 2638,
      "Ġpain": 2639,
      "Ġblood": 2640,
      "à¥įà¤ķà¤¾à¤°": 2641,
      "à¤¤à¤°": 2642,
      "Ġà¤Ŀà¤¾à¤²à¥ĩ": 2643,
      "Ġà¤ªà¥įà¤°à¤¶à¥įà¤¨": 2644,
      "hor": 2645,
      "à¤¾à¤¤à¥ĩ": 2646,
      "Ġà¤®à¤¾à¤§": 2647,
      "rap": 2648,
      "ĠQ": 2649,
      "Ġold": 2650,
      "Ġeng": 2651,
      "Ġà¤¸à¤¾à¤¹": 2652,
      "Ġbecome": 2653,
      "atural": 2654,
      "Ġopp": 2655,
      "-f": 2656,
      "Ġà¤īà¤¨à¤ķà¥Ģ": 2657,
      "lished": 2658,
      "à¥Ĥà¤ľ": 2659,
      "Ġagainst": 2660,
      "rodu": 2661,
      "à¥ĩà¤ļà¥ĩ": 2662,
      "Ġwar": 2663,
      "Ġà¤ªà¤¾à¤ł": 2664,
      "ĠZ": 2665,
      "Ġmil": 2666,
      "à¤¾à¤Ĥà¤µà¤°": 2667,
      "ption": 2668,
      "Ġanal": 2669,
      "Ġà¤¯à¤¾à¤µ": 2670,
      "Ġsever": 2671,
      "de": 2672,
      "Ġmethod": 2673,
      "Ġà¤Ĳà¤¸à¥ĩ": 2674,
      "Ġà¤®à¤¹à¤¾à¤°à¤¾à¤·à¥įà¤Łà¥įà¤°": 2675,
      "-à¤¸": 2676,
      "à¥ĭà¤¦": 2677,
      "à¥ĩà¤Ĥà¥¤": 2678,
      "work": 2679,
      "Ġleg": 2680,
      "Ġà¤ħà¤§à¤¿à¤ķà¤¾à¤°à¥Ģ": 2681,
      "att": 2682,
      "à¤ªà¤¾à¤¸": 2683,
      "ĠCol": 2684,
      "Ġà¤Ĺà¤¯à¤¾à¥¤": 2685,
      "à¤¿à¤¯à¤¨": 2686,
      "Ġlow": 2687,
      "Ġà¤ªà¤°à¤Ĥà¤¤": 2688,
      "ource": 2689,
      "à¤¾à¤¬à¤¤": 2690,
      "ify": 2691,
      "Ġproper": 2692,
      "Ġmean": 2693,
      "ers.": 2694,
      "à¤§à¥Ģà¤²": 2695,
      "Ġà¤®à¥ģ": 2696,
      "Ġmove": 2697,
      "Ġeconom": 2698,
      "Ġà¤Ĭ": 2699,
      "Ġhere": 2700,
      "...": 2701,
      "ĠEn": 2702,
      "à¤¬à¤°": 2703,
      "nâĢĻt": 2704,
      "Ġbetter": 2705,
      "à¤¾à¤Ĥà¤¬": 2706,
      "à¤¤à¥įà¤¤à¥įà¤µ": 2707,
      "à¥įà¤«": 2708,
      "ination": 2709,
      "ĠBe": 2710,
      "-t": 2711,
      "ly.": 2712,
      "à¤¾à¤£à¥ĩ": 2713,
      "here": 2714,
      "Ġà¤¯à¥ĩà¤¥à¥ĩ": 2715,
      "Ġà¤«à¥Ī": 2716,
      "à¤²à¥Ģà¤¸": 2717,
      "ead": 2718,
      "Ġà¤ľà¥Ģ": 2719,
      "Ġreal": 2720,
      "Ġlast": 2721,
      "Ġà¤ªà¥įà¤°à¤¤à¥įà¤¯à¥ĩà¤ķ": 2722,
      "Ġà¤¤à¤¬": 2723,
      "ization": 2724,
      "à¤²à¥įà¤ª": 2725,
      "Ġsecond": 2726,
      "s:": 2727,
      "Ġfore": 2728,
      "icle": 2729,
      "à¤¤à¥įà¤¯à¤¾": 2730,
      "Ġkeep": 2731,
      "ĠâĢĶ": 2732,
      "rim": 2733,
      "Ġprovide": 2734,
      "Ġfeel": 2735,
      "à¤¿à¤¬": 2736,
      "Ġtop": 2737,
      "Ġearly": 2738,
      "Ġà¤ªà¥Ĥà¤°": 2739,
      "Ġoper": 2740,
      "ĠUnited": 2741,
      "use": 2742,
      "Ġà¤Ŀà¤¾à¤²à¤¾": 2743,
      "Ġà¤µà¤¿à¤¦à¥įà¤¯": 2744,
      "Ġà¤¶à¤¾à¤®à¤¿à¤²": 2745,
      "Ġunt": 2746,
      "à¤®à¤¤": 2747,
      "à¥įà¤¯à¤¾à¤ķ": 2748,
      "ĠComm": 2749,
      "Ġà¤ħà¤¸à¥ĩà¤²": 2750,
      "Ġhistory": 2751,
      "bers": 2752,
      "Ġà¤¤à¥ĩà¤µ": 2753,
      "Ġà¤ªà¤°à¤Ĥà¤¤à¥ģ": 2754,
      "Ġparticular": 2755,
      "Ġmajor": 2756,
      "Ġcause": 2757,
      "ccess": 2758,
      "Ġà¤¨à¤Ĺà¤°": 2759,
      "Ġà¤®à¥ģà¤ĸà¥įà¤¯": 2760,
      "à¤¾à¤Ĥà¤µ": 2761,
      "Ġoccur": 2762,
      "ted": 2763,
      "ified": 2764,
      "Ġdev": 2765,
      "ity.": 2766,
      "Ġenergy": 2767,
      "ww": 2768,
      "Ġavail": 2769,
      "ision": 2770,
      "Ġà¤®à¥ĭà¤¦": 2771,
      "Ġà¤ĩà¤Ĥà¤¡": 2772,
      "Ġpar": 2773,
      "ĠAll": 2774,
      "à¤¿à¤¤à¥įà¤¯": 2775,
      "Ġpossible": 2776,
      "ware": 2777,
      "Ġfre": 2778,
      "lu": 2779,
      "tain": 2780,
      "ury": 2781,
      "Ġà¤ľà¤¹": 2782,
      "à¤°à¤¾à¤ľ": 2783,
      "Ġà¤ķà¤°à¤¾à¤µ": 2784,
      "à¤¾à¤ĩà¤Ł": 2785,
      "Ġà¤Ĩà¤²à¤¾": 2786,
      "Ġfin": 2787,
      "Ġcurrent": 2788,
      "Ġà¤ķà¤¾à¤°à¥įà¤¯à¤ķà¥įà¤°à¤®": 2789,
      "ity,": 2790,
      "à¤¬à¥įà¤¦": 2791,
      "Ġpercent": 2792,
      "Ġà¤ħà¤¸à¤²à¥ĩà¤²à¥įà¤¯à¤¾": 2793,
      "à¤Ĥà¤¬à¤°": 2794,
      "ĠTe": 2795,
      "Ġhapp": 2796,
      "Ġseveral": 2797,
      "ected": 2798,
      "Ġnear": 2799,
      "Ġà¤ļà¤¾à¤Ĥà¤Ĺ": 2800,
      "Ġà¤ķà¥ĩà¤²à¥ĩ.": 2801,
      "ograph": 2802,
      "à¥ĭà¤µ": 2803,
      "à¤Łà¤ķ": 2804,
      "à¤¾à¤Ĥà¤®à¤§à¥įà¤¯à¥ĩ": 2805,
      "ission": 2806,
      "Ġà¤ķà¤°à¤£à¥įà¤¯à¤¾à¤¸à¤¾à¤łà¥Ģ": 2807,
      "Ġaddition": 2808,
      "à¥ĭ,": 2809,
      "Ġorig": 2810,
      "à¤¨à¤²": 2811,
      "ittle": 2812,
      "Ġà¤®à¥Ģà¤¡": 2813,
      "ways": 2814,
      "Ġtreatment": 2815,
      "view": 2816,
      "Ġsaf": 2817,
      "ration": 2818,
      "Ġindu": 2819,
      "Ġinvol": 2820,
      "Ġà¤¬à¤²": 2821,
      "Ġperiod": 2822,
      "less": 2823,
      "ĠGod": 2824,
      "Ġable": 2825,
      "Ġorder": 2826,
      "Ġperform": 2827,
      "Ġà¤ķà¥įà¤²": 2828,
      "Ġà¤¶à¥ģà¤°à¥Ĥ": 2829,
      "ogn": 2830,
      "ħà¤°": 2831,
      "par": 2832,
      "à¤¾à¤®à¤§à¥įà¤¯à¥ĩ": 2833,
      "à¤¸à¥įà¤¥à¤¾": 2834,
      "idence": 2835,
      "Ġhig": 2836,
      "sy": 2837,
      "Ġà¤¨à¤¾à¤Ĺà¤°": 2838,
      "Ġà¤µà¤¿à¤·à¤¯": 2839,
      "Ġmeans": 2840,
      "Ġbus": 2841,
      "Ġà¤Ĩà¤ªà¤ķà¥ĭ": 2842,
      "Ġlim": 2843,
      "Ġà¤Ĩà¤§à¤¾à¤°": 2844,
      "à¥ĭà¤ľà¤¨à¤¾": 2845,
      "à¤²à¥ĩà¤²à¥ĩ": 2846,
      "Ġà¤¦à¤¿à¤ĸ": 2847,
      "à¤®à¥įà¤¯à¤¾à¤¨": 2848,
      "à¥įà¤°à¤¿à¤¯à¤¾": 2849,
      "irc": 2850,
      "ĠMar": 2851,
      "Ġà¤ªà¤°à¤¿à¤µà¤¾à¤°": 2852,
      "ering": 2853,
      "Ġà¤ĸà¤¾à¤¸": 2854,
      "Ġà¤¤à¥įà¤¯à¤¾à¤¤": 2855,
      "Ġsince": 2856,
      "itions": 2857,
      "Ġbenef": 2858,
      "à¥ĭà¤°à¥įà¤Ł": 2859,
      "Ġmen": 2860,
      "Ġlangu": 2861,
      "Ġà¤¤à¥įà¤¯à¤¾à¤ļ": 2862,
      "Ġnon": 2863,
      "Ġà¤ĵà¤°": 2864,
      "à¤°à¥įà¤ļà¤¾": 2865,
      "Ġcal": 2866,
      "Ġà¤¦à¥ĩà¤ĸà¥Ģà¤²": 2867,
      "Ġà¤®à¥ģà¤ĸà¥įà¤¯à¤®à¤Ĥà¤¤à¥įà¤°à¥Ģ": 2868,
      "à¤¾à¤«à¥Ģ": 2869,
      "Ġel": 2870,
      "Ġà¤ľà¤¾à¤°à¥Ģ": 2871,
      "Ġopen": 2872,
      "Ġprom": 2873,
      "Ġà¤¨à¤¿à¤°": 2874,
      "Ġà¤¨à¤¿à¤¯à¤®": 2875,
      "Ġà¤ªà¥įà¤°à¤¯à¤¤à¥įà¤¨": 2876,
      "Ġà¤Ĺà¥ģà¤°": 2877,
      "Ġà¤¦à¤¿à¤²à¥įà¤²à¥Ģ": 2878,
      "ole": 2879,
      "Ġtoo": 2880,
      "Ġà¤Ĺà¤¾à¤µ": 2881,
      "à¥Ģà¤Ĩ": 2882,
      "ateg": 2883,
      "à¤¹à¤¾à¤°": 2884,
      "Ġareas": 2885,
      "Ġà¤¤à¥ģà¤®à¥įà¤¹": 2886,
      "Ġà¤®à¤Ĥà¤¤à¥įà¤°": 2887,
      "iness": 2888,
      "à¤¡à¥Ģ": 2889,
      "à¤¾à¤°à¤£": 2890,
      "Ġà¤ĩà¤²": 2891,
      "Ġà¤ĸà¥ĩà¤³": 2892,
      "els": 2893,
      "Ġ/": 2894,
      "oms": 2895,
      "Ġà¤ªà¥ĭà¤²à¥Ģà¤¸": 2896,
      "ote": 2897,
      "Ġà¤Ĩà¤ł": 2898,
      "osp": 2899,
      "Ġamong": 2900,
      "à¥ĥà¤¹": 2901,
      "Ġscient": 2902,
      "-p": 2903,
      "Ġà¤Ĺà¤¿à¤°": 2904,
      "à¤µà¤¤": 2905,
      "ĠOne": 2906,
      "à¥Ģà¤¶": 2907,
      "though": 2908,
      "Ġà¤¶à¤¬à¥įà¤¦": 2909,
      "Ġà¤²à¤¾à¤µ": 2910,
      "Ġà¤¤à¥įà¤¯à¤¾à¤²à¤¾": 2911,
      "Ġà¤¬à¤¾à¤°à¥ĩ": 2912,
      "Ġà¤ħà¤ļà¥įà¤Ľ": 2913,
      "à¤µà¤¿à¤£": 2914,
      "Ġaffect": 2915,
      "Ġà¤®à¤¹à¤¿à¤²à¤¾": 2916,
      "à¤ıà¤¸": 2917,
      "¹à¥Ģ": 2918,
      "Ġà¤ªà¥įà¤°à¤¦": 2919,
      "Ġà¤¶à¥ĩà¤¤à¤ķ": 2920,
      "Ġà¤īà¤ł": 2921,
      "Ġà¤²à¤¿à¤ĸ": 2922,
      "à¤¿à¤ļ": 2923,
      "à¥ĩà¤Ĥà¤¸": 2924,
      "ĠOr": 2925,
      "Ġà¤¡à¥ī.": 2926,
      "ilar": 2927,
      "Ġà¤¨à¤¾à¤Ĺà¤°à¤¿à¤ķ": 2928,
      "¶à¤²": 2929,
      "Ġà¤¯à¤¾à¤¦": 2930,
      "Ġà¤µà¤¾à¤²à¥Ģ": 2931,
      "Ġsignific": 2932,
      "Ġà¤²à¥ĩà¤ĸ": 2933,
      "Ġà¤ªà¤¾à¤Ł": 2934,
      "à¤°à¥įà¤«": 2935,
      "Ġà¤®à¤¾à¤§à¥įà¤¯à¤®": 2936,
      "à¥įà¤¯à¤¾à¤¦à¤¾": 2937,
      "Ġhead": 2938,
      "Ġà¤µà¤¾à¤°": 2939,
      "__": 2940,
      "Ġcost": 2941,
      "Ġà¤¯à¥ĩà¤¥à¥Ģà¤²": 2942,
      "ining": 2943,
      "ources": 2944,
      "à¤¿à¤¤à¥įà¤¤": 2945,
      "¬à¤°": 2946,
      "Ġà¤®à¤²à¤¾": 2947,
      "Ġcountry": 2948,
      "Ġlocal": 2949,
      "aper": 2950,
      "elf": 2951,
      "à¥ĭà¤¬à¤¤": 2952,
      "Ġà¤ķà¥ĭà¤Ł": 2953,
      "à¥ĩà¤ķà¥įà¤·à¤¾": 2954,
      "Ġà¤Ĩà¤¤à¥įà¤®": 2955,
      "port": 2956,
      "Ġavailable": 2957,
      "ner": 2958,
      "à¤²à¤¬à¥įà¤§": 2959,
      "urop": 2960,
      "Ġfour": 2961,
      "Ġcertain": 2962,
      "à¤¾à¤¸à¥įà¤¥à¥įà¤¯": 2963,
      "Ġbased": 2964,
      "ention": 2965,
      "Ġfollowing": 2966,
      "ĠCent": 2967,
      "Ġà¤¯à¤¹à¤¾à¤Ĥ": 2968,
      "Ġà¤Ĳà¤¸à¤¾": 2969,
      "Ġà¤ħà¤¨à¥ģà¤Ń": 2970,
      "Ġà¤ªà¥įà¤°à¤Ńà¤¾à¤µ": 2971,
      "ians": 2972,
      "Ġà¤®à¤¹à¤¿à¤²": 2973,
      "Ġà¤¥à¥Ģ": 2974,
      "Ġlearning": 2975,
      "à¥Ģà¤ıà¤®": 2976,
      "Ġà¤µà¤¨": 2977,
      "Ġà¤¤à¤¾à¤²": 2978,
      "Ġà¤ħà¤¹": 2979,
      "Ġgr": 2980,
      "Ġà¤ħà¤§à¤¿à¤ķà¤¾à¤°": 2981,
      "Ġfac": 2982,
      "à¥įà¤¯à¤¾à¤ļ": 2983,
      "Ġà¤¥à¥ĩ": 2984,
      "Ġà¤¯à¥ģà¤µ": 2985,
      "ott": 2986,
      "ĠU.": 2987,
      "à¤¿à¤¯à¥ĭ": 2988,
      "à¤¾à¤ģà¤Ĺ": 2989,
      "Ġprevent": 2990,
      "Ġobject": 2991,
      "Ġà¤īà¤ªà¤²à¤¬à¥įà¤§": 2992,
      "ĠNational": 2993,
      "Ġpost": 2994,
      "ploy": 2995,
      "Ġà¤¬à¤¾à¤¬": 2996,
      "stit": 2997,
      "à¤¿à¤·à¥įà¤Ł": 2998,
      "Ġdel": 2999,
      "Ġà¤ĩà¤¤à¤°": 3000,
      "à¤¸à¤Ńà¤¾": 3001,
      "à¤µà¤£": 3002,
      "Ġà¤¯à¤¾à¤Ĥà¤¨à¤¾": 3003,
      "Ġà¤°à¤Ĥà¤Ĺ": 3004,
      "à¤¸à¥įà¤µ": 3005,
      "Ġà¤µà¤¿à¤¨": 3006,
      "Ġà¤ķà¤¿à¤¯à¤¾à¥¤": 3007,
      "à¤Łà¥Ģ": 3008,
      "Ġà¤µà¥ĩà¤Ĺ": 3009,
      "ĠChrist": 3010,
      "à¥Ĥà¤Ĥ": 3011,
      "Ġconn": 3012,
      "urther": 3013,
      "Ġrun": 3014,
      "Ġview": 3015,
      "Ġlist": 3016,
      "ĠSome": 3017,
      "Ġà¤¨à¤¿à¤µà¤¡à¤£": 3018,
      "à¤µà¥įà¤¹": 3019,
      "ĠWith": 3020,
      "à¥įà¤¦à¥įà¤°": 3021,
      "Ġ(S": 3022,
      "Ġà¤¸à¥įà¤µà¤¾à¤¸à¥įà¤¥à¥įà¤¯": 3023,
      "ĠCan": 3024,
      "Ġà¤¢": 3025,
      "à¤¦à¤¿": 3026,
      "Ġage": 3027,
      "Ġstruct": 3028,
      "Ġà¤īà¤ªà¤¸à¥įà¤¥à¤¿à¤¤": 3029,
      "à¤ľà¤°": 3030,
      "Ġà¤¹à¤¿à¤Ĥà¤¦": 3031,
      "une": 3032,
      "à¤¾à¤¯à¤¤": 3033,
      "Ġà¤¦à¥ĩà¤¨à¥ĩ": 3034,
      "à¥įà¤¯à¤¤à¤¾": 3035,
      "Ġweek": 3036,
      "gen": 3037,
      "Ġà¤®à¤¾à¤®à¤²à¥ĩ": 3038,
      "à¤¿à¤¯à¤®": 3039,
      "Ġà¤ħà¤Ĺà¤°": 3040,
      "-d": 3041,
      "Ġà¤ªà¤°à¥Ģ": 3042,
      "à¤¿à¤·à¤¦": 3043,
      "Ġit.": 3044,
      "Ġà¤łà¤¿à¤ķ": 3045,
      "à¤µà¤¾à¤°à¥Ģ": 3046,
      "ĠGo": 3047,
      "Ġà¤īà¤¤à¥įà¤ªà¤¾à¤¦": 3048,
      "Ġà¤īà¤ªà¤¯à¥ĭà¤Ĺ": 3049,
      "Ġbro": 3050,
      "olution": 3051,
      "r.": 3052,
      "à¤¿à¤·à¥įà¤ł": 3053,
      "Ġà¤¨à¤µà¥įà¤¹": 3054,
      "Ġbi": 3055,
      "à¤¿à¤¸à¥įà¤¤à¤¾à¤¨": 3056,
      "à¥īà¤ķ": 3057,
      "à¥Ĥà¤Ĥà¤": 3058,
      "Ġà¤ķà¥ĭà¤°à¥ĭà¤¨à¤¾": 3059,
      "Ġvol": 3060,
      "Ġlab": 3061,
      "Ġmar": 3062,
      "ean": 3063,
      "resent": 3064,
      "Ġà¤¤à¤¯à¤¾à¤°": 3065,
      "Ġhard": 3066,
      "Ġà¤µà¤¿à¤§à¤¾à¤¨": 3067,
      "Ġà¤¦à¤¿à¤µ": 3068,
      "Ġrece": 3069,
      "Ġfunction": 3070,
      "Ġput": 3071,
      "Ġà¤Ĩà¤¨": 3072,
      "Ġmonth": 3073,
      "hem": 3074,
      "ien": 3075,
      "Ġà¤ĺà¤¡": 3076,
      "Ġà¤µà¤¿à¤¸": 3077,
      "à¥ĩà¤Ĥà¤¡": 3078,
      "oint": 3079,
      "Ġlittle": 3080,
      "br": 3081,
      "Ġà¤¹à¥ĭà¤£à¤¾à¤°": 3082,
      "i,": 3083,
      "ently": 3084,
      "à¤¿à¤Łà¥Ģ": 3085,
      "Ġintern": 3086,
      "Ġyoung": 3087,
      "Ġcreat": 3088,
      "Ġpolit": 3089,
      "à¤¿à¤¨à¥įà¤¨": 3090,
      "Ġà¤ħà¤¨à¥ģà¤¸à¤¾à¤°": 3091,
      "ocus": 3092,
      "à¤¾à¤¨à¥įà¤¯": 3093,
      "Ġà¤®à¤¹à¤¿à¤¨": 3094,
      "Ġaccess": 3095,
      "por": 3096,
      "Ġà¤¹à¤¾à¤¤": 3097,
      "Ġ$": 3098,
      "ggest": 3099,
      "Ġà¤ħà¤ªà¤¨à¤¾": 3100,
      "à¤§à¥Ģ": 3101,
      "Ġnatural": 3102,
      "Ġà¤ªà¤¿à¤": 3103,
      "à¤¾à¤ıà¤Ĥ": 3104,
      "ym": 3105,
      "Ġà¤¬à¥ĭ": 3106,
      "Ġà¤¸à¤¾à¤¤": 3107,
      "Ġà¤Łà¤ķà¥įà¤ķ": 3108,
      "Ġà¤¶à¤¿à¤ķ": 3109,
      "ĠMed": 3110,
      "Ġlet": 3111,
      "Ġlater": 3112,
      "à¤ķà¥Ģà¤¯": 3113,
      "icult": 3114,
      "ids": 3115,
      "Ġà¤¤à¥įà¤¯à¤¾à¤ļà¥įà¤¯à¤¾": 3116,
      "Ġà¤ľà¥Īà¤¸à¥ĩ": 3117,
      "Ġà¤ķà¥ģà¤®à¤¾à¤°": 3118,
      "orld": 3119,
      "Ġà¤¸à¤Ĥà¤Ń": 3120,
      "à¤¿à¤¯à¤¾à¤Ĥ": 3121,
      "Ġassoci": 3122,
      "Ġuntil": 3123,
      "let": 3124,
      "Ġà¤ķà¤¿à¤ı": 3125,
      "Ġà¤µà¤¿à¤¦à¥įà¤¯à¤¾à¤°à¥įà¤¥": 3126,
      "ats": 3127,
      "Ġà¤ľà¤¾à¤¤à¥Ģ": 3128,
      "lection": 3129,
      "Ġà¤¤à¥Ī": 3130,
      "Ġà¤¨à¤¿à¤¶": 3131,
      "ended": 3132,
      "Ġà¤¸à¤ª": 3133,
      "Ġpress": 3134,
      "Ġà¤Ĺà¥ĭà¤·à¥įà¤Ł": 3135,
      "ĠFr": 3136,
      "Ġà¤¸à¤®à¤Ŀ": 3137,
      "Ġgiven": 3138,
      "etic": 3139,
      "à¥ĭà¤³": 3140,
      "iter": 3141,
      "Ġflow": 3142,
      "Ġheart": 3143,
      "ples": 3144,
      "Ġarea": 3145,
      "Ġà¤ªà¥įà¤°à¤ķà¤¾à¤¶": 3146,
      "ĠLe": 3147,
      "ĠAf": 3148,
      "Ġà¤®à¤§à¥įà¤¯": 3149,
      "Ġà¤ªà¤¶": 3150,
      "Ġcanc": 3151,
      "ets": 3152,
      "ĠSo": 3153,
      "à¤¨,": 3154,
      "à¤Ĥà¤¦à¥įà¤°": 3155,
      "over": 3156,
      "uture": 3157,
      "à¥įà¤¯à¥Ĥ": 3158,
      "not": 3159,
      "Ġà¤ķà¥ĩà¤²à¤¾.": 3160,
      "Ġcome": 3161,
      "à¥ģà¤§": 3162,
      "Ġamount": 3163,
      "ĠBy": 3164,
      "à¤¾à¤³à¥Ģ": 3165,
      "ither": 3166,
      "Ġseem": 3167,
      "ling": 3168,
      "nes": 3169,
      "Ġà¤¸à¤¦à¤¸à¥įà¤¯": 3170,
      "ledge": 3171,
      "Ġcomput": 3172,
      "Ġà¤¨à¥įà¤¯à¥Ĥà¤": 3173,
      "Ġbrain": 3174,
      "Ġà¤¶à¤°à¥Ģ": 3175,
      "ortun": 3176,
      "Ġsuggest": 3177,
      "Ġà¤¸à¥Ĥà¤ļ": 3178,
      "à¥ĩà¤²à¥ĩ": 3179,
      "Ġturn": 3180,
      "Ġà¤ķà¥ĥà¤·": 3181,
      "Ġà¤Ńà¤µ": 3182,
      "yd": 3183,
      "à¤¿à¤Ń": 3184,
      "Ġobs": 3185,
      "Ġà¤ªà¤¹à¤¿à¤²": 3186,
      "Ġà¤®à¥ĭà¤¦à¥Ģ": 3187,
      "à¤¤à¤¾à¤¤.": 3188,
      "Ġsw": 3189,
      "Ġà¤®à¥ģà¤¦": 3190,
      "Ġà¤¦à¥Ĥà¤°": 3191,
      "Ġmult": 3192,
      "ably": 3193,
      "Ġà¤¸à¥įà¤ªà¤·à¥įà¤Ł": 3194,
      "-m": 3195,
      "Ġà¤¸à¤Ĥà¤ĸà¥įà¤¯à¤¾": 3196,
      "Ġà¤ħà¤®à¥ĩà¤°": 3197,
      "Ġfree": 3198,
      "Ġ(C": 3199,
      "Ġess": 3200,
      "Ġcho": 3201,
      "agement": 3202,
      "à¥ĭà¤¬à¤°": 3203,
      "atory": 3204,
      "Ġà¤Ĺà¥ģà¤£": 3205,
      "Ġà¤¸à¥įà¤µà¤¤à¤ĥ": 3206,
      "ured": 3207,
      "Ġà¤ļà¥ģà¤¨à¤¾à¤µ": 3208,
      "Ġdeterm": 3209,
      "ients": 3210,
      "à¤¨à¥ĭà¤Ĥ": 3211,
      "Ġà¤µà¥įà¤¯à¤¾à¤ª": 3212,
      "ĠEurop": 3213,
      "Ġà¤ĩà¤¸à¥Ģ": 3214,
      "Ġà¤¸à¤¾à¤®à¤¨à¥ĩ": 3215,
      "Ġshort": 3216,
      "à¥ĩà¤²à¥Ģ": 3217,
      "Ġsometh": 3218,
      "Ġimpact": 3219,
      "ĠUS": 3220,
      "oad": 3221,
      "aken": 3222,
      "Ġsignificant": 3223,
      "à¥ĩà¤ļà¤¾": 3224,
      "à¤¾à¤¸à¥Ģ": 3225,
      "Ġfamily": 3226,
      "Ġà¤ªà¤°à¤¿à¤£": 3227,
      "Ġfield": 3228,
      "aster": 3229,
      "Ġbehav": 3230,
      "Ġà¤ħà¤ķ": 3231,
      "Ġà¤ªà¤¾à¤ķ": 3232,
      "à¥įà¤°à¤¾à¤®": 3233,
      "i.": 3234,
      "Ġà¤ķà¥Į": 3235,
      "omm": 3236,
      "Ġà¤¤à¤¹": 3237,
      "ries": 3238,
      "Ġà¤ļà¤°à¥įà¤ļà¤¾": 3239,
      "à¤£à¥įà¤¯à¤¾à¤ļà¥Ģ": 3240,
      "à¥įà¤¶à¤¨": 3241,
      "Ġà¤łà¤°": 3242,
      "Ġà¤ıà¤®": 3243,
      "Ġà¤Ĩà¤¸": 3244,
      "Ġtype": 3245,
      "ised": 3246,
      "Ġalong": 3247,
      "ĠBl": 3248,
      "ĠEar": 3249,
      "Ġà¤ķà¤¾à¤«à¥Ģ": 3250,
      "Ġà¤µà¤¸à¥įà¤¤": 3251,
      "Ġcondition": 3252,
      "Ġfar": 3253,
      "Ġà¤ħà¤¸à¤²à¥įà¤¯à¤¾à¤ļà¥ĩ": 3254,
      "Ġà¤µà¤¹à¥Ģà¤Ĥ": 3255,
      "Ġmaking": 3256,
      "Ġthings": 3257,
      "Ġcourse": 3258,
      "ask": 3259,
      "à¥įà¤¯à¤¾à¤Ĥà¤ļà¥įà¤¯à¤¾": 3260,
      "Ġà¤ĺà¥ĩà¤Ĭà¤¨": 3261,
      "Ġà¤ħà¤Ńà¤¿à¤¨": 3262,
      "Ġcomb": 3263,
      "Ġinvest": 3264,
      "Ġdue": 3265,
      "Ġà¤ľà¤¿à¤¸à¤®à¥ĩà¤Ĥ": 3266,
      "Ġ(A": 3267,
      ".\"": 3268,
      "Ġname": 3269,
      "Ġà¤¦à¥ģ": 3270,
      "Ġà¤¸à¥įà¤®": 3271,
      "Ġà¤®à¤Ĥà¤¦": 3272,
      "Ġà¤ľà¤¾à¤¯": 3273,
      "Ġstudent": 3274,
      "Ġask": 3275,
      "Ġexample,": 3276,
      "isc": 3277,
      "Ġà¤¬à¤¾à¤²": 3278,
      "Ġvir": 3279,
      "Ġà¤¨à¤°": 3280,
      "ann": 3281,
      "Ġà¤ħà¤¦": 3282,
      "Ġdeath": 3283,
      "istic": 3284,
      "ends": 3285,
      "à¤¾à¤ģà¤Ĺà¥įà¤°à¥ĩà¤¸": 3286,
      "Ġexist": 3287,
      "à¤¸à¤¾à¤¯": 3288,
      "Ġfil": 3289,
      "Ġà¤ĩà¤¸à¥ĩ": 3290,
      "oph": 3291,
      "ohn": 3292,
      "atch": 3293,
      "Ġpotential": 3294,
      "à¤µà¥Ĥà¤¨": 3295,
      "Ġà¤¦à¥ĩ": 3296,
      "Ġclear": 3297,
      "Ġrad": 3298,
      "à¤¾à¤Ĥà¤Ĺà¥įà¤°à¥ĩà¤¸": 3299,
      "Ġà¤ªà¤¾à¤°à¥įà¤Łà¥Ģ": 3300,
      "Ġà¤ľà¤¾à¤¨à¤ķà¤¾à¤°à¥Ģ": 3301,
      "Ġappear": 3302,
      "à¤¤à¥įà¤¤à¤¾": 3303,
      "Ġcirc": 3304,
      "Ġenc": 3305,
      "Ġà¤ĸà¤¾à¤¨": 3306,
      "Ġà¤Ĩà¤®à¥įà¤¹à¥Ģ": 3307,
      "Ġà¤¬à¥ī": 3308,
      "Ġà¤®à¥ĩà¤°": 3309,
      "Ġteac": 3310,
      "cle": 3311,
      "Ġsing": 3312,
      "Ġà¤ħà¤¸à¤Ĥ": 3313,
      "Ġauthor": 3314,
      "us,": 3315,
      "ia.": 3316,
      "Ġà¤Ńà¤Ĺ": 3317,
      "à¤¾à¤ĩà¤²": 3318,
      "Ġà¤ĺà¤Łà¤¨à¤¾": 3319,
      "à¥ħà¤¨": 3320,
      "Ġà¤ķà¥ī": 3321,
      "ruction": 3322,
      "à¤¯à¥Ģ": 3323,
      "Ġpast": 3324,
      "Ġfocus": 3325,
      "Ġlikely": 3326,
      "Ġà¤ķà¤Ĥà¤ªà¤¨à¥Ģ": 3327,
      "Ġà¤ķà¤°à¥Ĥ": 3328,
      "à¥įà¤¯à¤¾.": 3329,
      "Ġà¤¬à¥Īà¤łà¤ķ": 3330,
      "Ġsuccess": 3331,
      "ĠU.S.": 3332,
      "à¤¸à¤Ĥà¤": 3333,
      "Ġà¤²à¤¾à¤Ń": 3334,
      "à¥ĩà¤£": 3335,
      "Ġà¤²à¤¡à¤¼": 3336,
      "oot": 3337,
      "Ġnews": 3338,
      "ication": 3339,
      "ember": 3340,
      "Ġà¤¯à¤¾à¤ļ": 3341,
      "vious": 3342,
      "Ġà¤¦à¤°à¥įà¤ľ": 3343,
      "à¤¾à¤Ĥà¤¦": 3344,
      "ĠThat": 3345,
      "Ġalways": 3346,
      "Ġà¤¸à¥ĭà¤¶à¤²": 3347,
      "Ġline": 3348,
      "Ġà¤°à¤¾à¤¤": 3349,
      "ames": 3350,
      "Ġà¤ªà¥įà¤°à¥ĩà¤®": 3351,
      "Ġstat": 3352,
      "Ġusually": 3353,
      "Ġà¤ļà¤¿à¤¤à¥įà¤°à¤ªà¤Ł": 3354,
      "à¤¿à¤ķà¥ĩà¤Ł": 3355,
      "ox": 3356,
      "Ġtoday": 3357,
      "à¤Łà¤¨": 3358,
      "Ġà¤µà¤¿à¤µà¤¿à¤§": 3359,
      "Ġà¤¸à¤²": 3360,
      "Ġskill": 3361,
      "Ġdescrib": 3362,
      "Ġà¤µà¥ĭ": 3363,
      "Ġgive": 3364,
      "Ġà¤ĺà¥ĭà¤·": 3365,
      "ope": 3366,
      "Ġlanguage": 3367,
      "Ġà¤ħà¤¡": 3368,
      "Ġabove": 3369,
      "face": 3370,
      "Ġà¤ĩà¤¸à¤²": 3371,
      "Ġà¤ľà¤¾à¤¸à¥įà¤¤": 3372,
      "Ġconsider": 3373,
      "Ġdifficult": 3374,
      "ĠAm": 3375,
      "app": 3376,
      "à¤ªà¤£à¥ĩ": 3377,
      "o.": 3378,
      "ilt": 3379,
      "Ġrele": 3380,
      "Ġspecies": 3381,
      "Ġà¤ªà¤°à¤¿à¤·à¤¦": 3382,
      "-à¤ª": 3383,
      "Ġà¤¯à¥ĭà¤ľà¤¨à¤¾": 3384,
      "Ġcreate": 3385,
      "ecially": 3386,
      "Ġsimilar": 3387,
      "ĠIm": 3388,
      "Ġà¤ħà¤¨à¥ģà¤Ńà¤µ": 3389,
      "put": 3390,
      "Ġà¤¦à¤¾à¤ĸà¤²": 3391,
      "Ġspace": 3392,
      "Ġbegin": 3393,
      "Ġspecific": 3394,
      "idd": 3395,
      "Ġsomething": 3396,
      "Ġcontain": 3397,
      "Ġconsum": 3398,
      "à¤¾à¤¬à¤¾à¤¦": 3399,
      "Ġrecord": 3400,
      "ument": 3401,
      "Ġdra": 3402,
      "Ġfamil": 3403,
      "Ġà¤¥à¤¾,": 3404,
      "à¥ĭà¤Ĥà¤ķà¤¿": 3405,
      "af": 3406,
      "ribut": 3407,
      "Ġà¤¬à¤¾à¤ľà¤¾à¤°": 3408,
      "à¤®à¤Ĥà¤¤à¥įà¤°à¥Ģ": 3409,
      "Ġà¤¤à¥įà¤°": 3410,
      "Ġey": 3411,
      "Ġà¤ķà¤¾à¤ģà¤Ĺà¥įà¤°à¥ĩà¤¸": 3412,
      "etim": 3413,
      "Ġexperience": 3414,
      "Ġà¤ªà¤Ł": 3415,
      "Ġfuture": 3416,
      "Ġà¤¸à¤ļ": 3417,
      "ring": 3418,
      "Ġà¤¸à¤ķà¤¤à¥Ģ": 3419,
      "Ġà¤ľà¥įà¤¯à¤¾à¤¦à¤¾": 3420,
      "à¤¸à¥įà¤ª": 3421,
      "ored": 3422,
      "Ġlot": 3423,
      "Ġtext": 3424,
      "obal": 3425,
      "Ġà¤Ĩà¤²à¥ĩ.": 3426,
      "Ġà¤®à¥Ĥà¤²": 3427,
      "Ġnext": 3428,
      "Ġà¤¶à¤°à¥Ģà¤°": 3429,
      "Ġspecial": 3430,
      "Ġill": 3431,
      "Ġmov": 3432,
      "à¤¿à¤°à¥Ģ": 3433,
      "itor": 3434,
      "à¥ĩà¤².": 3435,
      "ged": 3436,
      "ĠBrit": 3437,
      "Ġà¤¸à¥ĭà¤¡": 3438,
      "à¤°à¥įà¤¥à¤¿à¤ķ": 3439,
      "Ġà¤ķà¥įà¤¯à¥ĭà¤Ĥà¤ķà¤¿": 3440,
      "à¤Ĺà¤¾à¤°": 3441,
      "Ġprim": 3442,
      "nal": 3443,
      "ane": 3444,
      "Ġà¤ªà¥įà¤°à¤®à¥ģà¤ĸ": 3445,
      "Ġeffective": 3446,
      "ending": 3447,
      "à¥ĩà¤ķà¥įà¤Ł": 3448,
      "Ġà¤īà¤ļà¥įà¤ļ": 3449,
      "à¤µà¤¾à¤¦": 3450,
      "Ġdiscuss": 3451,
      "Ġà¤¦à¥ĩà¤£à¥įà¤¯à¤¾à¤¤": 3452,
      "Ġstandard": 3453,
      "Ġà¤¸à¤®à¤¸": 3454,
      "of": 3455,
      "Ġà¤ľà¤¾à¤¤à¥ĩ": 3456,
      "Ġestab": 3457,
      "à¤ªà¥Ĥà¤°": 3458,
      "Ġer": 3459,
      "à¤²à¥ĭà¤Ĥ": 3460,
      "Ġparent": 3461,
      "ĠGen": 3462,
      "Ġà¤ıà¤¨": 3463,
      "aim": 3464,
      "Ġà¤°à¤µ": 3465,
      "à¤¸à¤®": 3466,
      "Ġincrease": 3467,
      "à¤³à¥Ģ": 3468,
      "Ġà¤®à¥ĭà¤¹": 3469,
      "à¤¾à¤¤à¥įà¤®à¤ķ": 3470,
      "Ġà¤¤à¥įà¤¯à¤¾à¤Ĥà¤ļ": 3471,
      "min": 3472,
      "Ġtemper": 3473,
      "Ġà¤¨à¤¾à¤¹à¥Ģ,": 3474,
      "Ġesp": 3475,
      "Ġprop": 3476,
      "Ġcrit": 3477,
      "Ġà¤ķà¤¾à¤Ĥà¤Ĺà¥įà¤°à¥ĩà¤¸": 3478,
      "ried": 3479,
      "Ġnecess": 3480,
      "à¤°à¥Ĥà¤ª": 3481,
      "Ġà¤®à¥ģà¤Ŀ": 3482,
      "rug": 3483,
      "Ġà¤¦à¥ĥà¤·à¥įà¤Ł": 3484,
      "Ġà¤Ľà¥ĭà¤Ł": 3485,
      "Ġà¤¸à¤¿à¤¦à¥įà¤§": 3486,
      "Ġcharacter": 3487,
      "Ġà¤ªà¤¾à¤µ": 3488,
      "ĠitâĢĻs": 3489,
      "Ġà¤¸à¤§": 3490,
      "Ġà¤²à¥ĩ": 3491,
      "Ġà¤°à¤¾à¤·à¥įà¤Łà¥įà¤°à¥Ģà¤¯": 3492,
      "Ġgre": 3493,
      "à¤¿,": 3494,
      "most": 3495,
      "Ġkind": 3496,
      "iate": 3497,
      "à¤²à¥ĩà¤²à¥Ģ": 3498,
      "ina": 3499,
      "Ġsympt": 3500,
      "Ġapplic": 3501,
      "ĠWorld": 3502,
      "Ġà¤¸à¥Į": 3503,
      "Ġà¤ľà¤¨à¥įà¤®": 3504,
      "Ġdam": 3505,
      "Ġtry": 3506,
      "Ġhigher": 3507,
      "Ġnever": 3508,
      "aps": 3509,
      "Ġstrong": 3510,
      "ĠPol": 3511,
      "in,": 3512,
      "oman": 3513,
      "ĠAfric": 3514,
      "Ġà¤Łà¤¾à¤ķ": 3515,
      "Ġvarious": 3516,
      "Ġside": 3517,
      "à¤µà¤¿à¤²": 3518,
      "Ġrespons": 3519,
      "Ġà¤¸à¤«": 3520,
      "Ġleast": 3521,
      "ĠJohn": 3522,
      "Ġà¤¶à¤¿à¤µà¤¸": 3523,
      "ĠAb": 3524,
      "-l": 3525,
      "Ġà¤¸à¤Ĥà¤¦": 3526,
      "à¤¾à¤µà¥ĩ": 3527,
      "Ġà¤¬à¤¾à¤Ĥà¤§": 3528,
      "Ġà¤Ĩà¤°à¥įà¤¥à¤¿à¤ķ": 3529,
      "Ġleft": 3530,
      "Ġmillion": 3531,
      "asing": 3532,
      "Ġà¤¨à¤¾à¤¹": 3533,
      "Ġtoget": 3534,
      "Ġà¤ĩà¤¸à¤¸à¥ĩ": 3535,
      "Ġtogether": 3536,
      "ories": 3537,
      "Ġà¤Łà¥įà¤µ": 3538,
      "à¥ĩà¤µà¤°": 3539,
      "Ġevent": 3540,
      "Ġà¤§à¤¨": 3541,
      "Ġà¤®à¥įà¤¹à¤Ł": 3542,
      ",âĢĿ": 3543,
      "Ġà¤Ĺà¤£": 3544,
      "à¥ĭà¤ĸ": 3545,
      "ĠWar": 3546,
      "Ġoffic": 3547,
      "Ġtru": 3548,
      "à¤¾à¤¤,": 3549,
      "Ġà¤ªà¤¹à¥ģà¤Ĥà¤ļ": 3550,
      "Ġdisease": 3551,
      "Ġwhy": 3552,
      "ĠWhile": 3553,
      "Ġà¤ľà¥įà¤ŀà¤¾à¤¨": 3554,
      "ĠGerm": 3555,
      "Ġà¤ĸà¤¿à¤²à¤¾à¤«": 3556,
      "Ġà¤®à¤¹à¤¤à¥įà¤µ": 3557,
      "à¤¦à¥įà¤¦à¤²": 3558,
      "Ġà¤ľà¥ĩ": 3559,
      "ilities": 3560,
      "Ġà¤¬à¤ļ": 3561,
      "Ġà¤²à¤¿à¤¯à¥ĩ": 3562,
      "Ġacross": 3563,
      "Ġà¤Ĩà¤ªà¤²à¥įà¤¯à¤¾à¤": 3564,
      "Ġlive": 3565,
      "Ġresearc": 3566,
      "Ġprofess": 3567,
      "Ġà¤¦à¥ģà¤": 3568,
      "à¥įà¤¯à¤¾à¤¨à¤Ĥà¤¤à¤°": 3569,
      "yl": 3570,
      "ush": 3571,
      "à¥įà¤¯à¥ĭà¤Ĺ": 3572,
      "sc": 3573,
      "Ġà¤¸à¤Ĥà¤µ": 3574,
      "Ġà¤¤à¥įà¤¯à¤¾à¤¨à¤Ĥà¤¤à¤°": 3575,
      "Ġaway": 3576,
      "Ġà¤¯à¤¦à¤¿": 3577,
      "à¤ķà¥įà¤Łà¤°": 3578,
      "Ġà¤ķà¥ĩà¤µà¤²": 3579,
      "à¤¿à¤¹à¤¾à¤¸": 3580,
      "à¥ĩà¤¯à¤°": 3581,
      "Ġà¤¨à¥ģà¤ķ": 3582,
      "à¤²à¥ĩà¤²à¤¾": 3583,
      "Ġenough": 3584,
      "Ġlink": 3585,
      "Ġhour": 3586,
      "sw": 3587,
      "Ġà¤¹à¥ĭà¤Īà¤²": 3588,
      "Ġgeneral": 3589,
      "Ġà¤°à¥ĩà¤²": 3590,
      "Ġà¤¤à¥ģà¤®à¥įà¤¹à¥Ģ": 3591,
      "à¤¾à¤¸à¥įà¤¤à¥įà¤°": 3592,
      "Ġà¤Ĩà¤¦à¤¿": 3593,
      "Ġà¤ªà¤¾à¤Łà¥Ģà¤²": 3594,
      "à¤¾à¤ķà¤¾à¤°": 3595,
      "ĠNe": 3596,
      "Ġà¤łà¤¾à¤ķ": 3597,
      "duct": 3598,
      "Ġà¤®à¤Ĥà¤¡": 3599,
      "à¤Ĥà¤¦à¤°": 3600,
      "etwork": 3601,
      "Ġmic": 3602,
      "Ġchem": 3603,
      "NA": 3604,
      "alf": 3605,
      "ĠAfter": 3606,
      "Ġrequire": 3607,
      "Ġtool": 3608,
      "sh": 3609,
      "-à¤ķ": 3610,
      "Ġà¤ªà¤¾à¤£": 3611,
      "Ġ(P": 3612,
      "yn": 3613,
      "Ġà¤Ĺà¤¾à¤Ĥà¤§": 3614,
      "à¤®à¤¨": 3615,
      "ung": 3616,
      "à¥ĩà¤¥": 3617,
      "amm": 3618,
      "pr": 3619,
      "Ġà¤Ĩà¤¦à¥ĩà¤¶": 3620,
      "ode": 3621,
      "à¤µà¤¡": 3622,
      "Ġplac": 3623,
      "à¥īà¤Ł": 3624,
      "Ġà¤¹à¤µ": 3625,
      "Ġà¤¸à¥įà¤¥à¤¾à¤ª": 3626,
      "Ġà¤ªà¥įà¤°à¤¶à¤¾à¤¸à¤¨": 3627,
      "ton": 3628,
      "Ġà¤īà¤¸à¤ķà¥Ģ": 3629,
      "à¤Ńà¤¾à¤Ĺ": 3630,
      "Ġ=": 3631,
      "is,": 3632,
      "Ġimprove": 3633,
      "à¤¿à¤¯à¤°": 3634,
      "Ġmot": 3635,
      "à¥ĩà¤ļà¥Ģ": 3636,
      "Ġà¤¸à¥ģà¤µ": 3637,
      "Ġespecially": 3638,
      "à¤¨à¤¾à¤¥": 3639,
      "à¥Ģà¤Łà¤°": 3640,
      "Ġà¤¨à¤¿à¤°à¥įà¤¦": 3641,
      "Ġhaving": 3642,
      "à¤¾à¤¨à¥ĭà¤Ĥ": 3643,
      "à¤ĩà¤¸": 3644,
      "à¥ĩà¤ķà¤°": 3645,
      "ĠEnglish": 3646,
      "Ġà¤ķà¤Ĥà¤ªà¤¨": 3647,
      "âĢĻre": 3648,
      "Ġà¤¸à¤¾à¤°": 3649,
      "Ġmodel": 3650,
      "ttp": 3651,
      "à¥įà¤°à¤¿à¤¯": 3652,
      "Ġà¤Ĺà¥ģ": 3653,
      "Ġà¤ªà¤°à¤¿à¤£à¤¾à¤®": 3654,
      "Ġà¤¨à¥įà¤¯à¤¾à¤¯à¤¾à¤²à¤¯": 3655,
      "ĠIntern": 3656,
      "Ġà¤«à¤¾à¤°": 3657,
      "Ġà¤¸à¤¨": 3658,
      "Ġà¤Ĺà¥ģà¤¨": 3659,
      "Ġà¤®à¥Ģà¤¡à¤¿à¤¯à¤¾": 3660,
      "Ġà¤ľà¥Ī": 3661,
      "Ġà¤ªà¥Ĥà¤°à¥Ģ": 3662,
      "Ġà¤ķà¥ģà¤²": 3663,
      "à¥Ģà¤².": 3664,
      "à¤¤à¥Ģà¤¨à¥ĩ": 3665,
      "ipp": 3666,
      "ance,": 3667,
      "Ġà¤°à¤¸à¥įà¤¤": 3668,
      "à¥įà¤°à¤¹": 3669,
      "ĠStud": 3670,
      "Ġreason": 3671,
      "ray": 3672,
      "Ġà¤ªà¥įà¤°à¤¸à¥įà¤¤": 3673,
      "Ġà¤īà¤¨à¤ķà¤¾": 3674,
      "Ġz": 3675,
      "Ġfull": 3676,
      "Ġà¤¸à¥ģà¤§": 3677,
      "aut": 3678,
      "ĠCar": 3679,
      "Ġà¤ķà¥ģ": 3680,
      "Ġtimes": 3681,
      "à¥Ģà¤¤à¤¿": 3682,
      "//": 3683,
      "Ġà¤¦à¤¿à¤²à¥Ģ": 3684,
      "Ġpolic": 3685,
      "à¤ľà¥įà¤ŀ": 3686,
      "Ġsens": 3687,
      "Ġà¤ħà¤°": 3688,
      "Ġcomplete": 3689,
      "Ġworking": 3690,
      "Ġrepresent": 3691,
      "Ġà¤¤à¥ĩà¤ľ": 3692,
      "Ġà¤®à¤Ĥà¤Ĺ": 3693,
      "Ġknowledge": 3694,
      "Ġsubject": 3695,
      "Ġà¤¨à¤µà¥Ģà¤¨": 3696,
      "Ġà¤ķà¥ĭà¤£à¤¤": 3697,
      "le,": 3698,
      "ĠPres": 3699,
      "Ġteam": 3700,
      "à¥ĩà¤ħà¤°": 3701,
      "Ġprotect": 3702,
      "ĠHealth": 3703,
      "à¤Ńà¤°": 3704,
      "Ġbecame": 3705,
      "Ġà¤¨à¤¾à¤¹à¥Ģà¤¤": 3706,
      "à¥įà¤¯à¤¾à¤²à¤¾": 3707,
      "Ġtemperature": 3708,
      "Ġaccount": 3709,
      "à¤ªà¥Ĥà¤°à¥įà¤£": 3710,
      "ĠShe": 3711,
      "Ġà¤¸à¤®à¤ľ": 3712,
      "à¤²à¥įà¤¯à¤¾à¤¨à¥ĩ": 3713,
      "Ġremain": 3714,
      "Ġpopulation": 3715,
      "Ġà¤®à¤¹à¤¤à¥įà¤¤à¥įà¤µ": 3716,
      "Ġphysical": 3717,
      "sych": 3718,
      "Ġà¤ĩà¤¸à¤²à¤¿à¤ı": 3719,
      "Ġsal": 3720,
      "ĠAg": 3721,
      "Ġnorm": 3722,
      "Ġà¤ķà¤¾à¤¨": 3723,
      "Ġcase": 3724,
      "Ġwhether": 3725,
      "apt": 3726,
      "Ġà¤ĩà¤®": 3727,
      "Ġà¤¸à¥ĩà¤µà¤¾": 3728,
      "Ġà¤ķà¤°à¥įà¤®à¤ļ": 3729,
      "ĠTr": 3730,
      "Ġà¤ķà¥įà¤°à¤¿à¤ķà¥ĩà¤Ł": 3731,
      "Ġself": 3732,
      "Ġà¤ªà¥įà¤°à¤§à¤¾à¤¨": 3733,
      "Ġsum": 3734,
      "ression": 3735,
      "Ġà¤Ŀà¤¾à¤²à¥ĩà¤²à¥įà¤¯à¤¾": 3736,
      "Ġfund": 3737,
      "ream": 3738,
      "à¤Ĺà¤³": 3739,
      "Ġà¤°à¤¿à¤ª": 3740,
      "à¤ªà¤¾à¤²": 3741,
      "à¤¯à¤¨": 3742,
      "Ġkey": 3743,
      "Ġstep": 3744,
      "Ġprob": 3745,
      "Ġmind": 3746,
      "Ġhouse": 3747,
      "amin": 3748,
      "à¥Ĥà¤°à¥įà¤µà¥Ģ": 3749,
      "Ġquestion": 3750,
      "Ġà¤ªà¤µà¤¾à¤°": 3751,
      "Ġà¤¸à¤Ĥà¤¤": 3752,
      "ife": 3753,
      "an,": 3754,
      "Ġà¤®à¥ĭà¤łà¥įà¤¯à¤¾": 3755,
      "Ġground": 3756,
      "Ġà¤ĸà¥Ĥà¤ª": 3757,
      "erence": 3758,
      "Ġà¤®à¥įà¤¹à¤£à¤¾à¤²": 3759,
      "Ġà¤¸à¤Ĥà¤ľ": 3760,
      "Ġà¤®à¤Ĥà¤¦à¤¿à¤°": 3761,
      "ances": 3762,
      "Ġà¤ªà¥ģà¤¨à¥įà¤¹à¤¾": 3763,
      "side": 3764,
      "Ġmakes": 3765,
      "à¤²à¥įà¤¯à¤¾à¤£": 3766,
      "ment,": 3767,
      "Ġà¤ķà¥īà¤²": 3768,
      "Ġfurther": 3769,
      "Ġinflu": 3770,
      "Ġà¤®à¤¹à¤¾à¤ª": 3771,
      "Ġlower": 3772,
      "Ġà¤ľà¤¯": 3773,
      "Ġà¤¸à¤®à¤¿à¤¤": 3774,
      "unt": 3775,
      "ĠGe": 3776,
      "à¤¹à¤¾à¤¨": 3777,
      "chie": 3778,
      "Ġlevels": 3779,
      "Ġbig": 3780,
      "Ġà¤ªà¤¾à¤ļ": 3781,
      "ĠdonâĢĻt": 3782,
      "Ġà¤Ńà¥ĩà¤Ł": 3783,
      "Ġà¤µà¤¾à¤ļ": 3784,
      "à¤ľà¥Ĥà¤¦": 3785,
      "cing": 3786,
      "Ġà¤ªà¤¿à¤Ľ": 3787,
      "Ġscience": 3788,
      "--": 3789,
      "ler": 3790,
      "à¥įà¤Ń": 3791,
      "Ġà¤ħà¤ĸ": 3792,
      "ure,": 3793,
      "Ġà¤ĩà¤¸à¤ķà¤¾": 3794,
      "Ġà¤ĺà¤Łà¤¨": 3795,
      "Ġà¤¹à¤¾à¤¥": 3796,
      "Ġrelations": 3797,
      "ĠCal": 3798,
      "Ġà¤¦à¤¿à¤¯à¤¾à¥¤": 3799,
      "Ġgoing": 3800,
      "mber": 3801,
      "Ġtradition": 3802,
      "à¥Ģà¤ıà¤¸": 3803,
      "ique": 3804,
      "Ġà¤«à¤¾à¤¯": 3805,
      "iol": 3806,
      "Ġstory": 3807,
      "à¤µà¤¾à¤¦à¥Ģ": 3808,
      "Ġà¤¤à¤¾à¤²à¥ģà¤ķ": 3809,
      "à¥ĭà¤Ĥà¤¦": 3810,
      "à¥įà¤¤à¤¾à¤°": 3811,
      "Ġchall": 3812,
      "iation": 3813,
      "Ġà¤®à¥Īà¤ļ": 3814,
      "Ġsays": 3815,
      "Ġà¤µà¥įà¤¯à¤ķà¥įà¤¤à¤¿": 3816,
      "à¤ķà¥įà¤Ł": 3817,
      "Ġà¤ħà¤Ńà¥Ģ": 3818,
      "aching": 3819,
      "Ġà¤ĩà¤¸à¤®à¥ĩà¤Ĥ": 3820,
      "à¥ĩà¤Ĥ.": 3821,
      "acc": 3822,
      "à¤¾à¤Īà¤²": 3823,
      "Ġà¤¸à¥ģà¤ª": 3824,
      "augh": 3825,
      "ump": 3826,
      "Ġindic": 3827,
      "Ġsure": 3828,
      "Ġeff": 3829,
      "Ġactivities": 3830,
      "Ġà¤¯à¥ĭà¤Ĺà¥įà¤¯": 3831,
      "Ġpred": 3832,
      "à¥Ĥà¤°à¥įà¤¤": 3833,
      "Ġnut": 3834,
      "Ġcontinu": 3835,
      "Ġà¤¯à¥ĩà¤£à¤¾à¤°": 3836,
      "Ġà¤ķà¤¿à¤²": 3837,
      "Ġà¤Ĩà¤ı": 3838,
      "Ġparticip": 3839,
      "Ġarm": 3840,
      "ĠResear": 3841,
      "Ġà¤¸à¥ģ": 3842,
      "Ġcond": 3843,
      "ibility": 3844,
      "à¥ĩà¤¦à¤¨": 3845,
      "ER": 3846,
      "Ġbelow": 3847,
      "Ġà¤Ĩà¤²": 3848,
      "ready": 3849,
      "Ġà¤ħà¤Ĥà¤¤à¤°": 3850,
      "Ġà¤ªà¤¾à¤¯": 3851,
      "Ġseen": 3852,
      "Ġdig": 3853,
      "Ġemploy": 3854,
      "à¤¥à¤®": 3855,
      "à¥ħà¤Ł": 3856,
      "rel": 3857,
      "bon": 3858,
      "Ġclose": 3859,
      "Ġthem.": 3860,
      "Ġtoward": 3861,
      "Ġ(M": 3862,
      "ĠDo": 3863,
      "Ġà¤µà¤¿à¤¶à¥įà¤µà¤¾à¤¸": 3864,
      "Ġà¤¶à¤¾à¤¸à¤¨": 3865,
      "Ġà¤Ĺà¥įà¤°à¤¾à¤®": 3866,
      "Ġà¤ªà¤¾à¤¹à¤¿à¤ľ": 3867,
      "Ġrather": 3868,
      "or,": 3869,
      "Ġà¤«à¥ĭà¤Ł": 3870,
      "à¤ķà¥įà¤·à¤ķ": 3871,
      "à¤¾à¤ļà¤¾à¤°": 3872,
      "Ġà¤ħà¤¸à¤¤à¥ĩ.": 3873,
      "Ġrole": 3874,
      "ment.": 3875,
      "Ġà¤Ĩà¤Ĺà¥ĩ": 3876,
      "Ġà¤®à¥ĩà¤Ĥ,": 3877,
      "Ġà¤Ĺà¤°à¤ľ": 3878,
      "Ġà¤ªà¤Ĥà¤ļ": 3879,
      "Ġà¤®à¥ģà¤ķ": 3880,
      "Ġopt": 3881,
      "ĠMay": 3882,
      "urch": 3883,
      "Ġà¤ħà¤Ĥà¤Ĺ": 3884,
      "Ġà¤«à¥įà¤°": 3885,
      "à¤¾à¤Ĥà¤¸à¤¾à¤łà¥Ģ": 3886,
      "rict": 3887,
      "ai": 3888,
      "Ġà¤§à¥įà¤¯à¤¾à¤¨": 3889,
      "Ġà¤°à¥ĭà¤ľà¥Ģ": 3890,
      "Ġcells": 3891,
      "ĠSoc": 3892,
      "Ġà¤¨à¤¾à¤°": 3893,
      "ĠX": 3894,
      "Ġà¤ħà¤²à¤Ĺ": 3895,
      "Ġà¤®à¥ģà¤¸": 3896,
      "Ġà¤Ĩà¤¨à¥ĩ": 3897,
      "ides": 3898,
      "Ġà¤ķà¤°à¤ķà¥ĩ": 3899,
      "Ġà¤°à¥ģà¤ªà¤¯": 3900,
      "cul": 3901,
      "Ġà¤ªà¥įà¤°à¤µà¥ĩà¤¶": 3902,
      "à¤°à¥įà¤Ĺà¤¤": 3903,
      "à¥ĩà¤Ĥà¤Ĺà¥ĩà¥¤": 3904,
      "Ġà¤¹à¥ĭà¤Ĺà¤¾à¥¤": 3905,
      "Ġrange": 3906,
      "Ġà¤Ĩà¤¨à¤Ĥà¤¦": 3907,
      "Ġdeg": 3908,
      "Ġneg": 3909,
      "Ġthought": 3910,
      "ĠÂ": 3911,
      "Th": 3912,
      "Ġà¤ľà¤¨à¤¤à¤¾": 3913,
      "Ġà¤¯à¤¶": 3914,
      "oura": 3915,
      "Ġà¤ļà¥Ģà¤¨": 3916,
      "ĠRep": 3917,
      "Ġchanges": 3918,
      "Ġens": 3919,
      "Ġà¤®à¤¦à¤¤": 3920,
      "Ġà¤¨à¤ľà¤°": 3921,
      "Ġà¤ķà¤°à¤¤à¥Ģ": 3922,
      "Ġà¤Łà¥Ģ": 3923,
      "Ġpaper": 3924,
      "Ġreally": 3925,
      "Ġà¤¤à¥ĩà¤µà¥įà¤¹à¤¾": 3926,
      "Ġresults": 3927,
      "à¥įà¤ļà¤¿à¤¤": 3928,
      "Ġgrowth": 3929,
      "Ġrecogn": 3930,
      "thing": 3931,
      "Ġcy": 3932,
      "Ġfr": 3933,
      "ublic": 3934,
      "Ġà¤®à¤°à¤¾à¤łà¥Ģ": 3935,
      "Ġà¤ķà¤°à¥Ģà¤¤": 3936,
      "Ġtypes": 3937,
      "orts": 3938,
      "Ġflu": 3939,
      "ĠStates": 3940,
      "ones": 3941,
      "Ġur": 3942,
      "Ġà¤ªà¤°à¤®": 3943,
      "Ġeither": 3944,
      "ival": 3945,
      "verage": 3946,
      "Ġà¤µà¤¿à¤®": 3947,
      "aring": 3948,
      "ĠAss": 3949,
      "à¤¿à¤ķà¤²": 3950,
      "Ġproduction": 3951,
      "irm": 3952,
      "Ġà¤¸à¤Ĥà¤¬à¤Ĥà¤§à¤¿à¤¤": 3953,
      "Ġà¤¦à¥Ĥà¤¸à¤°à¥ĩ": 3954,
      "ĠNorth": 3955,
      "Ġwind": 3956,
      "Ġphot": 3957,
      "ournal": 3958,
      "ĠAcc": 3959,
      "Ġalready": 3960,
      "Ġevidence": 3961,
      "Ġà¤¨à¤¿à¤": 3962,
      "Ġà¤²à¤¾à¤Ĺà¤¤": 3963,
      "overed": 3964,
      "val": 3965,
      "ape": 3966,
      "Ġà¤ķà¥ģà¤Ł": 3967,
      "ysis": 3968,
      "à¥įà¤¯à¤ķà¥įà¤·": 3969,
      "à¥Ģà¤Ĺ": 3970,
      "Ġsitu": 3971,
      "):": 3972,
      "Ġà¤¨à¥įà¤¯à¥Ĥà¤ľ": 3973,
      "Ġà¤¸à¤Ĥà¤ļ": 3974,
      "Ġarticle": 3975,
      "Ġà¤ķà¤¾à¤°à¥įà¤¯à¤¾à¤²à¤¯": 3976,
      "ure.": 3977,
      "à¥Ģà¤ł": 3978,
      "Ġà¤¯à¤¾à¤µà¥ĩà¤³à¥Ģ": 3979,
      "à¥ģà¤¡à¤¼": 3980,
      "Ġà¤¬à¥ĩà¤¹": 3981,
      "eb": 3982,
      "ĠMan": 3983,
      "iam": 3984,
      "à¥Īà¤°": 3985,
      "Ġà¤²à¤¿à¤¹": 3986,
      "Ġà¤®à¥ģà¤Ŀà¥ĩ": 3987,
      "Ġoil": 3988,
      "Ġà¤®à¤¾à¤¸": 3989,
      "Ġfall": 3990,
      "à¤¾à¤ķà¥įà¤·": 3991,
      "à¤Ĺà¤¾à¤µ": 3992,
      "Ġdiet": 3993,
      "Ġreturn": 3994,
      "à¥Ĥà¤¡": 3995,
      "Ġà¤ªà¥ģà¤¢à¥ĩ": 3996,
      "à¤¿à¤ķà¥įà¤¤": 3997,
      "Ġfive": 3998,
      "Ġquality": 3999,
      "Ġdom": 4000,
      "ĠCont": 4001,
      "Ġbusiness": 4002,
      "Ġnational": 4003,
      "Ġà¤¸à¤§à¥įà¤¯à¤¾": 4004,
      "for": 4005,
      "wh": 4006,
      "Ġmarket": 4007,
      "Ġonce": 4008,
      "Ġothers": 4009,
      "esc": 4010,
      "Ġneeds": 4011,
      "Ġà¤ķà¤µ": 4012,
      "Ġà¤ıà¤ķà¥įà¤¸": 4013,
      "iting": 4014,
      "Ġmeet": 4015,
      "à¥Ģà¤Ĥà¤¨": 4016,
      "à¤£à¥įà¤¯à¤¾à¤ļà¤¾": 4017,
      "Ġele": 4018,
      "à¥ĩà¤Ĥ,": 4019,
      "ĠSouth": 4020,
      "Ġsun": 4021,
      "Ġà¤¸à¥Ĥà¤°": 4022,
      "Ġà¤ļà¥Įà¤ķ": 4023,
      "enn": 4024,
      "Ġà¤ĺà¤¾à¤²": 4025,
      "Ġcas": 4026,
      "Ġà¤¬à¤¡à¤¼à¥Ģ": 4027,
      "Ġà¤ªà¤°à¤¿à¤¸à¥įà¤¥": 4028,
      "ations.": 4029,
      "à¥Īà¤²": 4030,
      "Ġà¤ªà¤°à¤¤": 4031,
      "à¤¿à¤¨à¤¾": 4032,
      "Ġà¤¶à¤¿à¤ķà¥įà¤·à¤£": 4033,
      "Ġaccording": 4034,
      "rad": 4035,
      "Ġà¤ķà¤²à¥įà¤¯à¤¾à¤£": 4036,
      "Ġà¤ħà¤°à¥įà¤ľ": 4037,
      "Ġà¤¦à¤ķà¥įà¤·": 4038,
      "Ġsingle": 4039,
      "Ġnature": 4040,
      "à¥ĭà¤¶": 4041,
      "Ġà¤¯à¤¾à¤¤": 4042,
      "Ġà¤µà¤¿à¤ľà¤¯": 4043,
      "Ġblack": 4044,
      "ĠAct": 4045,
      "ivil": 4046,
      "Ġmedical": 4047,
      "Ġà¤ķà¤°à¤£à¥ĩ": 4048,
      "Ġcollect": 4049,
      "Ġachie": 4050,
      "à¤¾à¤¨à¥įà¤¤": 4051,
      "Ġà¤¹à¤¿à¤¸": 4052,
      "à¥įà¤¯à¤¾à¤Ĥà¤ļà¥Ģ": 4053,
      "Ġà¤łà¤¿à¤ķà¤¾à¤£à¥Ģ": 4054,
      "idered": 4055,
      "ĠAust": 4056,
      "à¤¾à¤¤à¥Ģ": 4057,
      "Ġà¤¶à¥ģà¤ķ": 4058,
      "org": 4059,
      "à¤¾à¤°à¥įà¤Ł": 4060,
      "Ġtaken": 4061,
      "Ġred": 4062,
      "Ġà¤®à¤¾à¤Ĥà¤Ĺ": 4063,
      "ĠDep": 4064,
      "Ġabs": 4065,
      "ibr": 4066,
      "Ġdetail": 4067,
      "Ġà¤ªà¤¾à¤£à¥Ģ": 4068,
      "Ġsam": 4069,
      "à¤¿à¤Ĥà¤ķ": 4070,
      "à¤ķà¤¿": 4071,
      "à¤¾à¤ľà¤¿à¤ķ": 4072,
      "omes": 4073,
      "Ġà¤¸à¥ĭà¤®": 4074,
      "Ġcommunity": 4075,
      "Ġà¤¸à¤Ĥà¤¯": 4076,
      "Ġà¤ªà¤°à¥įà¤¯": 4077,
      "Ġà¤ľà¤¹à¤¾à¤Ĥ": 4078,
      "Ġà¤ķà¤Ńà¥Ģ": 4079,
      "Ġupon": 4080,
      "ĠNews": 4081,
      "à¤ªà¥įà¤ª": 4082,
      "à¤Ĥà¤°": 4083,
      "à¥ĩà¤Ĺà¤¾à¥¤": 4084,
      "Ġà¤ķà¥Ģà¥¤": 4085,
      "Ġà¤ĩà¤Ĥà¤Ĺ": 4086,
      "Ġà¤¸à¤°à¥įà¤µà¤¾à¤¤": 4087,
      "Ġà¤ħà¤¸à¤²à¥įà¤¯à¤¾à¤¨à¥ĩ": 4088,
      "Ġinit": 4089,
      "Ġà¤Ŀà¤¾à¤²à¤¾.": 4090,
      "Ġrelig": 4091,
      "ee": 4092,
      "Ġtime.": 4093,
      "Ġà¤ĸà¥ĩà¤²": 4094,
      "Ġanimal": 4095,
      "Ġà¤¦à¤²": 4096,
      "Ġà¤¸à¥įà¤¤à¤°": 4097,
      "Ġà¤¶à¥ĭà¤§": 4098,
      "Ġrate": 4099,
      "Ġfrequ": 4100,
      "Ġtime,": 4101,
      "à¤¾à¤¡à¥Ģ": 4102,
      "Ġtechnology": 4103,
      "à¥įà¤ķà¥ĥà¤¤": 4104,
      "Ġbuilding": 4105,
      "Ġdrug": 4106,
      "Ġsurface": 4107,
      "à¤®à¤§à¥Ģà¤²": 4108,
      "Ġdoct": 4109,
      "Ġsource": 4110,
      "Ġà¤ķà¤°à¥ĭà¤¡à¤¼": 4111,
      "Ġreduce": 4112,
      "Ġà¤µà¥ĥ": 4113,
      "Ġà¤¬à¤¿à¤²": 4114,
      "Ġcut": 4115,
      "à¥Ĥà¤¬": 4116,
      "fact": 4117,
      "Ġann": 4118,
      "Ġsent": 4119,
      "ĠYork": 4120,
      "rect": 4121,
      "à¥Ĥà¤£": 4122,
      "Ġà¤®à¤¾à¤Ĺà¤£à¥Ģ": 4123,
      "\".": 4124,
      "Ġà¤Ĺà¥ĩà¤²à¥įà¤¯à¤¾": 4125,
      "Ġà¤¬à¤¨à¤¾": 4126,
      "Ġhold": 4127,
      "Ġà¤µà¤°à¥įà¤Ĺ": 4128,
      "Ġà¤¦à¤¹": 4129,
      "Ġclimate": 4130,
      "Ġà¤ĸà¤°à¥įà¤ļ": 4131,
      "Ġconcept": 4132,
      "ime": 4133,
      "Ġthemsel": 4134,
      "Ġtot": 4135,
      "Ġà¤¶à¤ķà¥įà¤¤": 4136,
      "Ġdest": 4137,
      "iple": 4138,
      "Ġpolitical": 4139,
      "à¤¤à¥Ģà¤¤": 4140,
      "Ġà¤ķà¥ĩà¤µà¤³": 4141,
      "à¤¦à¤°": 4142,
      "Ġobserv": 4143,
      "à¤¤à¤¾à¤²": 4144,
      "Ġà¤ļà¥įà¤¯à¤¾": 4145,
      "Ġcreated": 4146,
      "à¤ģà¤ķ": 4147,
      "Ġà¤¤à¥įà¤¯à¤¾à¤ļà¤¾": 4148,
      "Ġà¤ĩà¤Ĥà¤Ł": 4149,
      "Ġfri": 4150,
      "Ġattack": 4151,
      "Ġà¤ªà¤¾à¤ķà¤¿à¤¸à¥įà¤¤à¤¾à¤¨": 4152,
      "Ġà¤Ĩà¤®à¤¦à¤¾à¤°": 4153,
      "à¥Īà¤Ĥà¤¡": 4154,
      "Ġconsidered": 4155,
      "Ġà¤ĩà¤ļà¥įà¤Ľ": 4156,
      "Ġà¤¨à¤¾à¤¹à¥Ģà¤Ĥ": 4157,
      "Ġfat": 4158,
      "Ġcannot": 4159,
      "Ġà¤®à¤Ĺ": 4160,
      "Ġà¤ľà¤¾à¤Ĥà¤ļ": 4161,
      "à¤¾à¤¯à¤ļ": 4162,
      "Ġwide": 4163,
      "ae": 4164,
      "ĠSu": 4165,
      "fficient": 4166,
      "fer": 4167,
      "roll": 4168,
      "Ġproblems": 4169,
      "Ġeducation": 4170,
      "Ġà¤¸à¥Ģà¤®": 4171,
      "à¤¸à¤¾à¤¨": 4172,
      "à¥įà¤¸à¤¾": 4173,
      "Ġà¤Ĩà¤°à¥ĭà¤Ĺ": 4174,
      "Ġà¤¸à¥Īà¤¨": 4175,
      "leep": 4176,
      "Ġà¤¶à¤¾à¤³": 4177,
      "Ġver": 4178,
      "Ġdiseas": 4179,
      "Ġà¤¬à¤ļà¥įà¤ļ": 4180,
      "Ġà¤ªà¤¶à¥įà¤ļ": 4181,
      "etimes": 4182,
      "Ġintrodu": 4183,
      "à¤ķà¥įà¤·à¤¿à¤¤": 4184,
      "Ġà¤Ĺà¤Īà¥¤": 4185,
      "Ġà¤Ńà¥Ĥà¤®à¤¿à¤ķà¤¾": 4186,
      "Ġà¤¹à¥ĭà¤Ĭ": 4187,
      "Ġà¤µà¥įà¤¯": 4188,
      "Ġà¤¸à¥ĭà¤¨": 4189,
      "Ġcame": 4190,
      "Ġfail": 4191,
      "Ġassociated": 4192,
      "à¤Ĺà¥įà¤°": 4193,
      "Ġà¤¤à¥įà¤¯à¤¾à¤¨à¥ĩ": 4194,
      "Ġaction": 4195,
      "Ġhappen": 4196,
      "à¤µà¥įà¤¯": 4197,
      "Ġhistor": 4198,
      "Ġlay": 4199,
      "Ġhowever,": 4200,
      "Ġtell": 4201,
      "à¥Ĥà¤ģ": 4202,
      "Ġhttp": 4203,
      "ĠHist": 4204,
      "Ġfeature": 4205,
      "Ġà¤ľà¥ĩà¤µ": 4206,
      "Ġà¤ªà¥įà¤°à¤ķà¤°à¤£": 4207,
      "Ġwhole": 4208,
      "à¤¡à¤¼à¥ĩ": 4209,
      "à¥Ĥà¤°à¥Ģ": 4210,
      "Ġà¤¨à¤®": 4211,
      "Ġrecomm": 4212,
      "Ġrelated": 4213,
      "Ġà¤¸à¥Ĥà¤ļà¤¨à¤¾": 4214,
      "Ġsoil": 4215,
      "rown": 4216,
      "Ġ(I": 4217,
      "à¤¿à¤¨à¤¿à¤§": 4218,
      "Ġà¤ªà¥įà¤°à¤¤à¤¿": 4219,
      "à¤¸à¥įà¤¥à¤¾à¤¨": 4220,
      "oney": 4221,
      "Ġweight": 4222,
      "ators": 4223,
      "reme": 4224,
      "Ġadult": 4225,
      "epend": 4226,
      "ensive": 4227,
      "ĠEarth": 4228,
      "Ġà¤¬à¤¨à¤¾à¤¨à¥ĩ": 4229,
      "Ġà¤ªà¤¾à¤¨à¥Ģ": 4230,
      "Ġeconomic": 4231,
      "-à¤¬": 4232,
      "à¥ģà¤Ĩ": 4233,
      "acy": 4234,
      "ĠGu": 4235,
      "Ġà¤¬à¤ľ": 4236,
      "Ġmass": 4237,
      "Ġà¤ªà¥ģà¤°à¥ģà¤·": 4238,
      "Ġà¤¦à¤¿à¤¸à¤¤": 4239,
      "c.": 4240,
      "Ġà¤¤à¤ªà¤¾à¤¸": 4241,
      "à¥ģà¤¶": 4242,
      "ober": 4243,
      "Ġà¤®à¤¿à¤³à¤¾à¤²": 4244,
      "à¤±à¥įà¤¯à¤¾": 4245,
      "abit": 4246,
      "Ġdeveloped": 4247,
      "à¤¤à¤¿à¤ķ": 4248,
      "Ġà¤¦à¤°à¤®à¥įà¤¯à¤¾à¤¨": 4249,
      "à¤§à¥Ĥà¤¨": 4250,
      "Ġnetwork": 4251,
      "ires": 4252,
      "Ġitself": 4253,
      "Ġà¤¤à¥Īà¤¯à¤¾à¤°": 4254,
      "Ġà¤¶à¤°à¥įà¤®": 4255,
      "à¥ĩà¤Ĥà¤¬à¤°": 4256,
      "Ġpay": 4257,
      "eter": 4258,
      "ĠPe": 4259,
      "Ġà¤¦à¤¿à¤²à¥ĩ": 4260,
      "Ġsimple": 4261,
      "ister": 4262,
      "à¥ĭà¤ĺ": 4263,
      "à¤¤à¤¾.": 4264,
      "ĠMany": 4265,
      "ĠHis": 4266,
      "reg": 4267,
      "Ġà¤¨à¤¿à¤µà¤¡à¤£à¥ģà¤ķ": 4268,
      "à¥Ģà¤«": 4269,
      "Ġà¤¸à¤¿à¤¨": 4270,
      "Ġarg": 4271,
      "Ġthing": 4272,
      "Ġà¤µà¤¾à¤¦": 4273,
      "à¤¾à¤¶à¥Ģ": 4274,
      "Ġsound": 4275,
      "ĠEm": 4276,
      "à¤Ĥà¤¦à¤¾à¤ľ": 4277,
      "Ġactually": 4278,
      "Ġdays": 4279,
      "à¤ľà¥įà¤ľ": 4280,
      "à¥įà¤°à¤¿à¤ķ": 4281,
      "Ġrepl": 4282,
      "Ġà¤«à¥ĭà¤¨": 4283,
      "Ġà¤Ĩà¤¢": 4284,
      "Ġà¤Ĳà¤¸à¥Ģ": 4285,
      "Ġà¤ħà¤²à¤¾à¤µà¤¾": 4286,
      "Ġways": 4287,
      "on.": 4288,
      "Ġconcern": 4289,
      "Ġpublished": 4290,
      "Ġà¤µà¤ľ": 4291,
      "Ġeffects": 4292,
      "à¥Ĥà¤¤à¥įà¤°": 4293,
      "Ġentire": 4294,
      "à¤Ľ": 4295,
      "à¥ģà¤·à¥įà¤¯": 4296,
      "Ġstudies": 4297,
      "umb": 4298,
      "Ġà¤¸à¥ģà¤°à¤ķà¥įà¤·à¤¾": 4299,
      "à¥įà¤°à¤®à¤¾à¤£à¥ĩ": 4300,
      "Ġopportun": 4301,
      "Ġà¤¸à¤¾à¤®à¤¾à¤ľà¤¿à¤ķ": 4302,
      "Ġà¤¬à¥įà¤²": 4303,
      "Ġpatients": 4304,
      "ally,": 4305,
      "Ġà¤Łà¤ķà¥įà¤ķà¥ĩ": 4306,
      "Ġrelationship": 4307,
      "à¥ĭà¤²à¤¨": 4308,
      "Ġrequired": 4309,
      "à¤¾à¤ªà¤¾à¤¸à¥Ĥà¤¨": 4310,
      "à¤¸à¤¾à¤łà¥Ģ": 4311,
      "à¤¦à¤®": 4312,
      "SA": 4313,
      "Ġà¤¯à¤¾à¤Ĥà¤ļà¥Ģ": 4314,
      "Ġà¤ªà¥ĭà¤¸à¥įà¤Ł": 4315,
      "Ġcomplex": 4316,
      "Ġà¤°à¤¾à¤ľà¤¨": 4317,
      "Ġà¤ªà¤¦à¥įà¤§": 4318,
      "Ġà¤ľà¤µà¤³": 4319,
      "sequ": 4320,
      "à¤¾à¤¨à¤Ĥà¤¤à¤°": 4321,
      "ification": 4322,
      "Ġà¤¡à¥īà¤ķà¥įà¤Łà¤°": 4323,
      "itud": 4324,
      "Ġà¤īà¤¸à¤ķà¤¾": 4325,
      "Ġtalk": 4326,
      "Ġà¤¬à¤¾à¤¹à¥ĩà¤°": 4327,
      ",\"": 4328,
      "aves": 4329,
      "à¥Ĥà¤¹": 4330,
      "Ġà¤īà¤¸à¤¨à¥ĩ": 4331,
      "ĠState": 4332,
      "Ġglobal": 4333,
      "Ġalmost": 4334,
      "Ġà¤¸à¥ģà¤°à¥ģà¤µ": 4335,
      "Ġà¤Ĩà¤²à¥Ģ.": 4336,
      "Ġà¤ħà¤¥": 4337,
      "Ġà¤¨à¤¿à¤°à¥įà¤¦à¥ĩà¤¶": 4338,
      "Ġà¤ľà¤¿à¤²à¥įà¤¹à¤¾": 4339,
      "à¤Ĥà¤Ńà¥Ģà¤°": 4340,
      "Ġaddress": 4341,
      "ystem": 4342,
      "Ġà¤®à¤Ĥà¤¤à¥įà¤°à¤¾à¤²à¤¯": 4343,
      "Ġà¤°à¤¿à¤ªà¥ĭà¤°à¥įà¤Ł": 4344,
      "Ġà¤ħà¤®à¥ĩà¤°à¤¿à¤ķ": 4345,
      "à¤°à¤¾à¤µ": 4346,
      "Ġability": 4347,
      "Ġà¤µà¤¸": 4348,
      "Ġà¤¬à¤¾à¤¹à¤°": 4349,
      "Ġà¤Ńà¤¾à¤ľà¤ªà¤¾": 4350,
      "sp": 4351,
      "Ġrecent": 4352,
      "Ġà¤ħà¤«": 4353,
      "Ġà¤ªà¤ķ": 4354,
      "à¥ĩà¤¦à¤¾à¤°": 4355,
      "âĢ¦": 4356,
      "Ġavoid": 4357,
      "Ġà¤¦à¤¿à¤²à¥Ģ.": 4358,
      "à¤ľà¥įà¤ŀà¤¾à¤¨": 4359,
      "Ġà¤ľà¤¿à¤¸à¤ķà¥ĩ": 4360,
      "à¤¸à¤¨": 4361,
      "erve": 4362,
      "Ġà¤¤à¥ģà¤®à¥įà¤¹à¤¾à¤²à¤¾": 4363,
      "Ġà¤¸à¤Ĥà¤¶": 4364,
      "or.": 4365,
      "Ġà¤Ŀà¤¾à¤²à¥Ģ.": 4366,
      "à¤¾à¤Ĭà¤¨": 4367,
      "Ġà¤¸à¤¾à¤®à¤¾à¤¨à¥įà¤¯": 4368,
      "Ġkill": 4369,
      "Ġcentur": 4370,
      "Ġregard": 4371,
      "à¤Ĥà¤¤à¥įà¤°à¤£": 4372,
      "ule": 4373,
      "Ġquick": 4374,
      "Ġà¤ķà¥ĭà¤°à¥ĭà¤¨": 4375,
      "Ġresearchers": 4376,
      "Ġport": 4377,
      "Ġà¤Ĺà¤¾à¤Ĥà¤µ": 4378,
      "Ġà¤Ľà¥ĭà¤¡à¤¼": 4379,
      "à¤¾à¤¬à¤¾à¤¬à¤¤": 4380,
      "uel": 4381,
      "Ġliving": 4382,
      "Ġà¤ķà¤°à¤£à¥įà¤¯à¤¾à¤ļà¥Ģ": 4383,
      "Ġà¤¸à¥įà¤¥à¤¿à¤¤à¤¿": 4384,
      "hib": 4385,
      "à¥īà¤ª": 4386,
      "ĠCo": 4387,
      "Ġdoc": 4388,
      "à¥ĭà¤°à¥Ģ": 4389,
      "à¤¤à¤¾à¤¨à¤¾": 4390,
      "Ġà¤ªà¤¤à¥įà¤¨": 4391,
      "Ġà¤¥à¤¾.": 4392,
      "à¤®à¥ĩà¤Ĥà¤Ł": 4393,
      "en,": 4394,
      "Ġmanagement": 4395,
      "ance.": 4396,
      "Ġà¤ħà¤¸à¤¤à¤¾à¤¨à¤¾": 4397,
      "Ġexerc": 4398,
      "Ġhalf": 4399,
      "Ġà¤¬à¤¡à¤¼à¥ĩ": 4400,
      "Ġengine": 4401,
      "itary": 4402,
      "Ġà¤Ĺà¤Ĥà¤Ńà¥Ģà¤°": 4403,
      "à¤¿à¤Ĥà¤¤": 4404,
      "Ġà¤«à¤²": 4405,
      "à¥ĭà¤ľà¤¿à¤¤": 4406,
      "à¥Ģà¤¸à¤¾à¤łà¥Ģ": 4407,
      "Ġter": 4408,
      "Ġtook": 4409,
      "Ġvers": 4410,
      "Ġpurp": 4411,
      "Ġfarm": 4412,
      "Ġà¤ªà¤¢à¤¼": 4413,
      "à¥ĩà¤¨à¥įà¤¦à¥įà¤°": 4414,
      "Ġmodern": 4415,
      "Ġfish": 4416,
      "Ġà¤¤à¥ĩà¤²": 4417,
      "Ġstrateg": 4418,
      "ands": 4419,
      "Ġcity": 4420,
      "Ġprovides": 4421,
      "Ġfire": 4422,
      "Ġsuper": 4423,
      "Ġà¤ķà¤¨": 4424,
      "Ġbar": 4425,
      "à¤¡à¤ķ": 4426,
      "Ġà¤¶à¤°": 4427,
      "Ġgas": 4428,
      "ript": 4429,
      "Ġà¤ķà¥ĩà¤²à¥ĩà¤²à¥įà¤¯à¤¾": 4430,
      "Ġà¤µà¤¾à¤²à¤¾": 4431,
      "gest": 4432,
      "Ġà¤®à¤¦à¤¦": 4433,
      "à¤ķà¥įà¤°": 4434,
      "Ġà¤īà¤Ń": 4435,
      "Ġà¤ªà¤¦à¤¾à¤°": 4436,
      "Ġà¤µà¤¾à¤¸à¥įà¤¤": 4437,
      "Ġà¤¨à¥ĭà¤Ĥà¤¦": 4438,
      "Ġprote": 4439,
      "Ġbehavior": 4440,
      "Ġansw": 4441,
      "ĠâĢľI": 4442,
      "Ġà¤¬à¥ĩà¤Ł": 4443,
      "Ġà¤¹à¤¾à¤²à¤¾à¤Ĥà¤ķ": 4444,
      "à¤Ĥà¤¥": 4445,
      "al,": 4446,
      "Ġà¤īà¤²à¥įà¤²": 4447,
      "Ġsystems": 4448,
      "Ġà¤¸à¤Ĺà¤³": 4449,
      "Ġà¤ķà¥ĭà¤²": 4450,
      "Ġà¤ªà¥įà¤°à¤¥à¤®": 4451,
      "Ġà¤«à¤ķà¥įà¤¤": 4452,
      "Ġvalue": 4453,
      "à¥ħà¤®": 4454,
      "Ġà¤Ĩà¤Ĥà¤¦": 4455,
      "Ġà¤¯à¤¾à¤¤à¥įà¤°": 4456,
      "Ġincreased": 4457,
      "Ġcomes": 4458,
      "Ġà¤°à¤¾à¤¶": 4459,
      "chan": 4460,
      "Ġà¤ªà¤¤à¤¾": 4461,
      "ĠMore": 4462,
      "Ġclaim": 4463,
      "Ġpriv": 4464,
      "Ġgreen": 4465,
      "artment": 4466,
      "by": 4467,
      "Ġà¤¦à¤ķà¥įà¤·à¤¿à¤£": 4468,
      "Ġà¤ªà¥ĩà¤Ł": 4469,
      "gar": 4470,
      "à¤°à¤¨": 4471,
      "Ġà¤ķà¥įà¤°à¤®": 4472,
      "Ġà¤¸à¥įà¤ķà¥Ĥà¤²": 4473,
      "Ġà¤¸à¤Ĥà¤°": 4474,
      "à¤¿à¤¨à¥įà¤¦": 4475,
      "Ġà¤¦à¤¿à¤²à¤¾": 4476,
      "Ġà¤¸à¥ģà¤ĸ": 4477,
      "Ġà¤ķà¤¿à¤¨": 4478,
      "Ġà¤īà¤ªà¤ļà¤¾à¤°": 4479,
      "à¤Ĩà¤Ī": 4480,
      "Ġbill": 4481,
      "stry": 4482,
      "Ġà¤īà¤¤à¥įà¤¸": 4483,
      "ĠInstit": 4484,
      "Ġcancer": 4485,
      "Ġà¤Ĺà¤¾à¤Ĥà¤§à¥Ģ": 4486,
      "Ġjob": 4487,
      "Ġà¤ķà¤¸": 4488,
      "à¤¾à¤ĺ": 4489,
      "Ġmeasure": 4490,
      "Ġà¤Ŀà¤¾à¤²à¥ĩ.": 4491,
      "à¤¾à¤Łà¤ķ": 4492,
      "Ġà¤®à¤¿à¤³à¤¤": 4493,
      "vere": 4494,
      "Ġà¤µà¥ĩà¤¬": 4495,
      "Ġnecessary": 4496,
      "ĠApp": 4497,
      "atter": 4498,
      "à¤¡à¤¼à¥Ģ": 4499,
      "Ġà¤ľà¥ĭà¤°": 4500,
      "light": 4501,
      "Ġcoll": 4502,
      "oll": 4503,
      "Ġà¤ķà¥ģà¤Łà¥ģà¤Ĥà¤¬": 4504,
      "inter": 4505,
      "à¥ĩà¤¶à¥įà¤µà¤°": 4506,
      "à¥įà¤®à¤¾à¤¨": 4507,
      "Ġever": 4508,
      "Ġà¤µà¥Ģà¤¡": 4509,
      "à¥ģà¤ļ": 4510,
      "à¤¾à¤ķà¤¡à¥ĩ": 4511,
      "Ġarch": 4512,
      "n't": 4513,
      "Ġà¤¶à¥ĩà¤¤à¤ķà¤±": 4514,
      "à¤¿à¤¤à¥įà¤µ": 4515,
      "Ġ--": 4516,
      "Ġmor": 4517,
      "Ġà¤¹à¤®à¤¾à¤°à¥ĩ": 4518,
      "ĠMost": 4519,
      "Ġbegan": 4520,
      "Ġà¤¸à¤Ĥà¤ļà¤¾à¤²": 4521,
      "Ġà¤¤à¥įà¤¯à¤¾à¤Ĥà¤ļà¥Ģ": 4522,
      "à¤Ĩà¤°": 4523,
      "Ġarr": 4524,
      "Ġà¤¶à¤¿à¤ķà¥įà¤·à¤¾": 4525,
      "à¤ļà¤¨": 4526,
      "osis": 4527,
      "Ġdone": 4528,
      "à¥ģà¤¤à¥įà¤°": 4529,
      "Ġà¤§à¤¾à¤°": 4530,
      "Ġcop": 4531,
      "Ġsuff": 4532,
      "Ġreact": 4533,
      "Ġà¤®à¤¿à¤¨": 4534,
      "Ġcheck": 4535,
      "Ġà¤¸à¤Ń": 4536,
      "Ġà¤¯à¥ĭà¤ľà¤¨": 4537,
      "Ġà¤¨à¤¾à¤Ĺ": 4538,
      "Ġpatient": 4539,
      "Ġcompan": 4540,
      "à¤¤à¤®": 4541,
      "i-": 4542,
      "Ġà¤ªà¥ĭà¤¹": 4543,
      "à¤¡à¤¼à¤¾": 4544,
      "Ġpath": 4545,
      "Ġà¤®à¤¾à¤£": 4546,
      "à¤°à¤²": 4547,
      "Ġà¤¸à¤®à¤°à¥įà¤¥": 4548,
      "Ġà¤®à¤¿à¤¶": 4549,
      "Ġmatter": 4550,
      "Ġà¤µà¤¾à¤ľ": 4551,
      "Ġà¤ªà¤¿à¤Ľà¤²à¥ĩ": 4552,
      "ID": 4553,
      "Ġnam": 4554,
      "Ġà¤¦à¤¿à¤¨à¥ĭà¤Ĥ": 4555,
      "Ġunderstanding": 4556,
      "Ġà¤¸à¥ģà¤µà¤¿à¤§": 4557,
      "age.": 4558,
      "Ġwhite": 4559,
      "Ġwords": 4560,
      "Ġanc": 4561,
      "Ġà¤¸à¤®à¤¾à¤µ": 4562,
      "Ġà¤¯à¤¾à¤ª": 4563,
      "ĠII": 4564,
      "Ġconduct": 4565,
      "à¤ļà¤¾à¤¨": 4566,
      "ison": 4567,
      "ĠResearch": 4568,
      "Ġyet": 4569,
      "à¥Ģà¤¸à¥Ģ": 4570,
      "Ġà¤ľà¤¾à¤¤à¥ĩ.": 4571,
      "Ġapproach": 4572,
      "Ġà¤¨à¤¿à¤§": 4573,
      "-à¤ħ": 4574,
      "Ġà¤ķà¤¾à¤°à¥įà¤¯à¤ķà¤°à¥įà¤¤": 4575,
      "Ġassess": 4576,
      "urity": 4577,
      "Ġà¤¦à¥ĭà¤ĺ": 4578,
      "Ġproduce": 4579,
      "ots": 4580,
      "Ġà¤µà¥įà¤¯à¤µà¤¸à¥įà¤¥à¤¾": 4581,
      "Ġpattern": 4582,
      "Ġà¤µà¤°à¥įà¤¤": 4583,
      "à¤ķà¤¡à¥ĩ": 4584,
      "Ġsense": 4585,
      "à¤¾à¤§à¥įà¤¯à¤ķà¥įà¤·": 4586,
      "à¤Ĭ": 4587,
      "Ġà¤¨à¤¿à¤®": 4588,
      "ĠâĢ¢": 4589,
      "Ġloss": 4590,
      "Ġà¤°à¤¾à¤¹à¥ģà¤²": 4591,
      "be": 4592,
      "Ġposition": 4593,
      "Ġwebs": 4594,
      "ĠAlthough": 4595,
      "Ġà¤ķà¥ĭà¤°à¥įà¤Ł": 4596,
      "Ġà¤ªà¥įà¤°à¤¸à¤¿à¤¦à¥įà¤§": 4597,
      "het": 4598,
      "Ġà¤¨à¥Į": 4599,
      "Ġmembers": 4600,
      "Ġge": 4601,
      "Ġà¤®à¤¹à¤¾à¤µ": 4602,
      "o-": 4603,
      "à¤¿à¤¦à¥įà¤¯à¤¾à¤²à¤¯": 4604,
      "Ġessential": 4605,
      "Ġà¤ľà¤¾à¤¨à¤¾": 4606,
      "Ġà¤¤à¥įà¤¯à¤¾à¤ļà¥Ģ": 4607,
      "Ġà¤ľà¤Ĺà¤¹": 4608,
      "ery": 4609,
      "à¤Ĥà¤¶": 4610,
      "empt": 4611,
      "-à¤®": 4612,
      "ks": 4613,
      "à¤ĵ": 4614,
      "ĠHere": 4615,
      "Ġà¤ķà¤¾à¤°à¤µà¤¾à¤Ī": 4616,
      "Ġchemical": 4617,
      "Ġà¤®à¤¾à¤¤à¥įà¤°,": 4618,
      "Ġà¤ħà¤Ńà¤¿à¤¨à¥ĩà¤¤": 4619,
      "ĠBritish": 4620,
      "Ġprinc": 4621,
      "à¤¾à¤ªà¥Ĥà¤°": 4622,
      "Ġcamp": 4623,
      "iment": 4624,
      "Ĥà¤Ĺ": 4625,
      "ply": 4626,
      "à¥Īà¤ķà¥Ģ": 4627,
      "Ġà¤®à¤¾à¤°à¥įà¤ļ": 4628,
      "Ġtherap": 4629,
      "Ġplants": 4630,
      "Ġstop": 4631,
      "à¥įà¤¯à¤¾,": 4632,
      "à¤µà¥ĩ": 4633,
      "Ġrul": 4634,
      "Ġpopular": 4635,
      "Ġà¤®à¤²": 4636,
      "Ġà¤°à¥ĭà¤Ĺ": 4637,
      "Ġà¤ªà¥įà¤°à¤ķà¥įà¤°à¤¿à¤¯à¤¾": 4638,
      "ĠCanad": 4639,
      "Ġà¤ļà¤¾à¤¹à¤¿à¤ıà¥¤": 4640,
      "Ġà¤®à¥ģà¤¦à¥įà¤¦": 4641,
      "Ġà¤¦à¥ĩà¤¤à¥ĩ": 4642,
      "Ġà¤ķà¤°à¤£à¤¾à¤°": 4643,
      "Ġcontent": 4644,
      "Ġà¤²à¤Ĺà¤¾": 4645,
      "Ġliter": 4646,
      "Ġmedic": 4647,
      "à¥ĭà¤Ĥ,": 4648,
      "AT": 4649,
      "ĠSec": 4650,
      "Ġà¤ķà¥ĭà¤Łà¥Ģ": 4651,
      "Ġà¤ķà¤¿à¤¤": 4652,
      "Ġà¤ľà¤£": 4653,
      "Ġà¤Ĺà¥ģà¤ľ": 4654,
      "Ġthroughout": 4655,
      "Ġsepar": 4656,
      "Ġà¤²à¤µ": 4657,
      "à¤°à¥įà¤ª": 4658,
      "duc": 4659,
      "Ġà¤Ĺà¥ĭà¤²": 4660,
      "Ġmaintain": 4661,
      "ĠSchool": 4662,
      "Ġà¤ĭ": 4663,
      "Ġemer": 4664,
      "igure": 4665,
      "lying": 4666,
      "ĠJap": 4667,
      "Ġà¤¸à¤Ĥà¤§": 4668,
      "Ġà¤ªà¥Ĥà¤ľ": 4669,
      "Ġtar": 4670,
      "à¤£à¤¾à¤±à¥įà¤¯à¤¾": 4671,
      "ricult": 4672,
      "ine,": 4673,
      "ĠMin": 4674,
      "Ġsymptoms": 4675,
      "Ġà¤ľà¤¼": 4676,
      "Ġà¤¸à¤¾à¤Ĥà¤Ĺà¤¿à¤¤à¤²à¥ĩ.": 4677,
      "Ġà¤Ĩà¤¯à¤¾": 4678,
      "Ġà¤¤à¥įà¤¯à¤¾à¤Ĥà¤ļà¥ĩ": 4679,
      "Ġà¤¸à¤®à¥ģà¤¦": 4680,
      "Ġà¤¬à¤ģà¤ķ": 4681,
      "Ġexplain": 4682,
      "Ġworks": 4683,
      "Ġà¤ľà¤°à¥Ĥà¤°": 4684,
      "ĠJew": 4685,
      "Ġà¤°à¤¨": 4686,
      "ney": 4687,
      "ards": 4688,
      "Ġà¤ľà¥Ģà¤¤": 4689,
      "Ġsoft": 4690,
      "ederal": 4691,
      "à¥įà¤°à¤®à¤£": 4692,
      "à¤¿à¤ĵ": 4693,
      "Ġut": 4694,
      "à¤¸à¥įà¤Łà¥įà¤°": 4695,
      "à¥ĩà¤°à¥Ģ": 4696,
      "ĠPre": 4697,
      "t,": 4698,
      "Ġà¤ĸà¥ģà¤¦": 4699,
      "',": 4700,
      "Ġà¤¨à¥ģà¤ķà¤¸à¤¾à¤¨": 4701,
      "Ġà¤¯à¥ĩà¤Īà¤²": 4702,
      "Ġà¤ħà¤Ńà¥įà¤¯à¤¾à¤¸": 4703,
      "ran": 4704,
      "Ġà¤¦à¥ģà¤¨": 4705,
      "Ġconditions": 4706,
      "Ġdog": 4707,
      "estern": 4708,
      "Ġà¤¸à¤®à¤¾à¤¨": 4709,
      "Ġà¤Ĩà¤ªà¤ķà¥ĩ": 4710,
      "Ġfeed": 4711,
      "Ġp.": 4712,
      "à¥ĩà¤Ĺà¤¾": 4713,
      "à¤¿à¤°à¤¿à¤ķà¥įà¤¤": 4714,
      "Ġà¤²à¤¾à¤²": 4715,
      "Ġà¤µà¤¿à¤§à¤¾à¤¨à¤¸à¤Ńà¤¾": 4716,
      "à¤°à¤¾à¤·à¥įà¤Łà¥įà¤°": 4717,
      "Ġà¤¸à¤®à¥ĭà¤°": 4718,
      "Ġà¤ªà¥ĭà¤²à¤¿à¤¸à¤¾à¤Ĥà¤¨à¥Ģ": 4719,
      "ĠDr.": 4720,
      "Ġà¤ªà¥ģà¤¸à¥įà¤¤": 4721,
      "à¤£à¥įà¤¡": 4722,
      "Ġà¤ľà¤¾à¤ıà¤Ĺà¤¾à¥¤": 4723,
      "Ġà¤¸à¥Ģà¤": 4724,
      "Ġonline": 4725,
      "à¤ªà¤¤à¥įà¤°": 4726,
      "Ġprevious": 4727,
      "hold": 4728,
      "ronic": 4729,
      "Ġà¤łà¤¾à¤ķà¤°à¥ĩ": 4730,
      "onse": 4731,
      "Ġà¤ªà¥ĩà¤¶": 4732,
      "Ġskin": 4733,
      "urs": 4734,
      "Ġà¤ªà¥Ĥà¤°à¤¾": 4735,
      "ley": 4736,
      "Ġà¤ıà¤²": 4737,
      "Ġà¤ħà¤Ńà¤¿à¤¯": 4738,
      "ations,": 4739,
      "Ġà¤ķà¥ģà¤ł": 4740,
      "Ġ(N": 4741,
      "à¤¤à¥ĭ": 4742,
      "ĠPr": 4743,
      "go": 4744,
      "Ġtaking": 4745,
      "Ġà¤°à¤¸": 4746,
      "Ġà¤ľà¥Ĥà¤¨": 4747,
      "emic": 4748,
      "à¤Ńà¤Ĺ": 4749,
      "pid": 4750,
      "abor": 4751,
      "Ġpersonal": 4752,
      "Ġla": 4753,
      "à¥ĭà¤²à¥Ģ": 4754,
      "Ġà¤ĩà¤¤à¤¿à¤¹à¤¾à¤¸": 4755,
      "ĠInt": 4756,
      "Ġà¤¸à¥ģà¤°à¥ģ": 4757,
      "Ġà¤¨à¥ĩà¤¹": 4758,
      "Ġsix": 4759,
      "ĠPer": 4760,
      "Ġcountries": 4761,
      "Ġà¤µà¥Ģà¤¡à¤¿à¤¯à¥ĭ": 4762,
      "Ġheat": 4763,
      "Ġà¤¤à¤¹à¤¤": 4764,
      "ges": 4765,
      "ES": 4766,
      "aged": 4767,
      "son": 4768,
      "à¤ªà¤£": 4769,
      "Ġà¤®à¤¹à¤¾à¤®": 4770,
      "à¤¾à¤µà¥Ģ": 4771,
      "Ġà¤īà¤¤à¥įà¤ªà¤¾à¤¦à¤¨": 4772,
      "Ã©": 4773,
      "ĠOther": 4774,
      "Ġà¤°à¥ĭà¤ķ": 4775,
      "à¤®à¥ģà¤ĸ": 4776,
      "minist": 4777,
      "à¤¤à¤ķ": 4778,
      "Ġà¤Ĩà¤²à¤¾.": 4779,
      "Ġà¤¯à¤¾à¤¦à¤µ": 4780,
      "à¤¸à¥įà¤ķ": 4781,
      "iddle": 4782,
      "cy": 4783,
      "Ġà¤ķà¤°à¥Ģà¤¬": 4784,
      "mb": 4785,
      "Ġinteract": 4786,
      "Ġincreasing": 4787,
      "Ġà¤ªà¤°à¥Ģà¤ķà¥įà¤·à¤¾": 4788,
      "Ġà¤°à¤¹à¤¨à¥ĩ": 4789,
      "Ġà¤ªà¤¾à¤Ĥà¤ļ": 4790,
      "Ġà¤ķà¤¬": 4791,
      "Ġà¤ķà¥ĩà¤Ĥà¤¦à¥įà¤°à¥Ģà¤¯": 4792,
      "à¤¨à¥įà¤§": 4793,
      "à¤ıà¤®": 4794,
      "Ġà¤¸à¤°à¤ķà¤¾à¤°à¥Ģ": 4795,
      "ĠFl": 4796,
      "Ġdisord": 4797,
      "à¤¨à¥įà¤¦": 4798,
      "Ġvide": 4799,
      "astic": 4800,
      "Ġimag": 4801,
      "Ġbuilt": 4802,
      "ĠGerman": 4803,
      "Ġà¤¬à¤¡à¤¼à¤¾": 4804,
      "ĠQu": 4805,
      "à¤Ĥà¤ĸ": 4806,
      "à¤ĸà¥Ģ": 4807,
      "Ġà¤¶à¤¹": 4808,
      "Ġà¤ľà¥įà¤¯à¤¾": 4809,
      "Ġà¤Ĺà¥ĥà¤¹": 4810,
      "Ġà¤ħà¤¤à¥įà¤¯": 4811,
      "Ġà¤¸à¤¾à¤µ": 4812,
      "Ġà¤ľà¤¬à¤ķà¤¿": 4813,
      "Ġà¤¹à¤Ł": 4814,
      "Ġà¤ĩà¤¸à¤ķà¥Ģ": 4815,
      "à¤®à¥įà¤®": 4816,
      "izing": 4817,
      "Ġbur": 4818,
      "aff": 4819,
      "Ġidea": 4820,
      "t.": 4821,
      "Ġindustry": 4822,
      "Ġà¤¶à¤¿à¤Ĥà¤¦": 4823,
      "Ġheav": 4824,
      "Ġà¤¹à¤²": 4825,
      "raft": 4826,
      "à¤µà¤¿à¤ķ": 4827,
      "Ġà¤¦à¤¿à¤ı": 4828,
      "à¤³à¥ĩ": 4829,
      "Ġbring": 4830,
      "Ġà¤µà¤¿à¤Ńà¤¿à¤¨à¥įà¤¨": 4831,
      "abet": 4832,
      "Ġà¤ľà¥ĭà¤¡": 4833,
      "Ġà¤ªà¤¸": 4834,
      "à¤¾à¤¡à¤¼à¥Ģ": 4835,
      "Ġà¤µà¤¾à¤¹à¤¨": 4836,
      "Ġà¤¶à¤¾à¤¹": 4837,
      "Ġbreak": 4838,
      "Ġà¤¦à¥ĭà¤¨à¥įà¤¹à¥Ģ": 4839,
      "Ġsett": 4840,
      "Ġdeb": 4841,
      "à¥ĥà¤¤à¥įà¤µ": 4842,
      "Ġà¤ĵà¤³": 4843,
      "Ġà¤¨à¤¾": 4844,
      "Ġà¤Ńà¥ĩà¤ľ": 4845,
      "itted": 4846,
      "Ġsite": 4847,
      "Ġà¤¬à¥ĭà¤°à¥įà¤¡": 4848,
      "AR": 4849,
      "à¥įà¤¯à¤¾à¤Ĥà¤¤": 4850,
      "ĠYour": 4851,
      "à¥įà¤®à¤¿à¤ķ": 4852,
      "oor": 4853,
      "Ġà¤ªà¤¦à¤¾à¤°à¥įà¤¥": 4854,
      "Ġsurv": 4855,
      "Ġcat": 4856,
      "à¤§à¤¾à¤°": 4857,
      "Ġà¤¡à¥įà¤°": 4858,
      "ĠâĢľThe": 4859,
      "à¥įà¤¯à¤¾à¤¹à¥Ģ": 4860,
      "ety": 4861,
      "ables": 4862,
      "Ġinj": 4863,
      "lt": 4864,
      "à¥Ĥà¤·": 4865,
      "Ġbird": 4866,
      "inary": 4867,
      "ging": 4868,
      "Ġà¤īà¤¦à¥įà¤¦": 4869,
      "Ġexc": 4870,
      "Ġà¤īà¤®à¥įà¤®": 4871,
      "Ġà¤¨à¤Ĥà¤¤à¤°": 4872,
      "Ġà¤ļà¤¿à¤ķ": 4873,
      "ĠAccording": 4874,
      "à¤£à¥įà¤¯à¤¾à¤¸": 4875,
      "Ġenvironmental": 4876,
      "Ġsex": 4877,
      "Ġcontact": 4878,
      "Ġà¤Ĺà¤Ł": 4879,
      "Ġà¤¤à¤¾à¤ķ": 4880,
      "irth": 4881,
      "Ġà¤¯à¤¾à¤Ĥà¤ļà¤¾": 4882,
      "Ġà¤¸à¥įà¤µà¤¯": 4883,
      "Ġà¤²à¤¾à¤Ĺà¥Ĥ": 4884,
      "à¤¤à¤Ĥà¤¤à¥įà¤°": 4885,
      "ites": 4886,
      "Ġtotal": 4887,
      "Ġà¤¹à¥ĭà¤¨à¤¾": 4888,
      "Ġaccept": 4889,
      "Ġà¤īà¤¤à¥įà¤ªà¤¨à¥įà¤¨": 4890,
      "Ġà¤ªà¥įà¤°à¤¦à¤¾à¤¨": 4891,
      "Ġà¤ķà¤ł": 4892,
      "plic": 4893,
      "Ġ'à¤®": 4894,
      "Ġà¤Ľà¤¾à¤¤à¥įà¤°": 4895,
      "Ġà¤°à¤¾à¤¹à¤¿à¤²": 4896,
      "Ġà¤¤à¥ĩà¤¥": 4897,
      "reng": 4898,
      "oon": 4899,
      "Ġeat": 4900,
      "Ġviol": 4901,
      "Ġà¤ªà¤Ĥà¤ľ": 4902,
      "Ġà¤ªà¤¹à¥ģà¤Ĥà¤": 4903,
      "Ġà¤¦à¥ĩà¤Ĥ": 4904,
      "Ġà¤¯à¥ģà¤¦à¥įà¤§": 4905,
      "Ġrev": 4906,
      "Ġà¤ĸà¤¾à¤¤": 4907,
      "à¤¿à¤¹à¤¾à¤°": 4908,
      "Ġà¤¸à¤®à¤¸à¥įà¤¯à¤¾": 4909,
      "ĠPart": 4910,
      "hing": 4911,
      "ropri": 4912,
      "Ġce": 4913,
      "Ġcaused": 4914,
      "osition": 4915,
      "Ġà¤¸à¤¾à¤¹à¤¿à¤¤à¥įà¤¯": 4916,
      "Ġà¤§à¤°": 4917,
      "-based": 4918,
      "Ġlove": 4919,
      "Ġà¤¬à¤ļà¥įà¤": 4920,
      "ĠStat": 4921,
      "Ġhealthy": 4922,
      "Ġshown": 4923,
      "Ġpric": 4924,
      "à¥įà¤¹à¥ĭà¤Ĥà¤¨à¥ĩ": 4925,
      "Ġà¤¨à¥ĭà¤Ł": 4926,
      "Ġà¤ķà¥ĩà¤¸": 4927,
      "Ġà¤ªà¥Ĥà¤": 4928,
      "ĠRec": 4929,
      "ched": 4930,
      "à¥īà¤°à¥įà¤®": 4931,
      "ips": 4932,
      "à¤¾à¤§à¤¿à¤ķà¤¾à¤°à¥Ģ": 4933,
      "Ġblock": 4934,
      "lege": 4935,
      "uck": 4936,
      "Ġà¤ªà¥įà¤°à¤¯à¥ĭà¤Ĺ": 4937,
      "Ġgroups": 4938,
      "Ġà¤¸à¥įà¤ªà¤°à¥įà¤§": 4939,
      "Ġà¤ħà¤¸à¥įà¤ª": 4940,
      "Ġactivity": 4941,
      "Ġà¤ķà¤Ł": 4942,
      "Ġà¤īà¤®à¥įà¤®à¥Ģà¤¦": 4943,
      "Ġà¤¶à¥ĩà¤ħà¤°": 4944,
      "Ġsleep": 4945,
      "Ġquestions": 4946,
      "Ġà¤¬à¥Īà¤Ĥà¤ķ": 4947,
      "Ġà¤µà¤ľà¤¹": 4948,
      "Ġà¤¹à¥ĭà¤Ĥà¤Ĺ": 4949,
      "à¤Ĥà¤§à¤¨": 4950,
      "ĠEd": 4951,
      "irit": 4952,
      "Ġsaid.": 4953,
      "Ġà¤¯à¤¾à¤¸à¤¾à¤łà¥Ģ": 4954,
      "Ġà¤Ńà¤Ĺà¤µà¤¾à¤¨": 4955,
      "Ġà¤¦à¤¿à¤¶": 4956,
      "à¤ķ,": 4957,
      "à¤®à¤¤à¤¾": 4958,
      "à¤ªà¥Ģ": 4959,
      "Ġshows": 4960,
      "à¥įà¤¯à¤¾à¤®à¥ģà¤³à¥ĩ": 4961,
      "à¥Ģà¤ķà¤¾à¤°": 4962,
      "Ġà¤¸à¤¾à¤Ĥà¤¸": 4963,
      "Ġmusic": 4964,
      "Ġincludes": 4965,
      "ediate": 4966,
      "Ġà¤¦à¥ģà¤ķ": 4967,
      "Ġà¤ķà¤°à¥ĩà¤Ĥà¥¤": 4968,
      "Ġ(B": 4969,
      "Ġà¤ķà¥ĭà¤¶": 4970,
      "à¤¡à¤¾": 4971,
      "Ġstress": 4972,
      "Ġà¤ľà¥ģà¤¡à¤¼": 4973,
      "hood": 4974,
      "Ġpositive": 4975,
      "Ġearth": 4976,
      "Ġdiagn": 4977,
      "Ġà¤ķà¤³": 4978,
      "Ġà¤¤à¤²": 4979,
      "ĠWill": 4980,
      "Ġà¤¤à¥ģà¤²": 4981,
      "anced": 4982,
      "Ġvari": 4983,
      "w.": 4984,
      "Ġrelative": 4985,
      "Ġà¤§à¤¾à¤µ": 4986,
      "Ġtravel": 4987,
      "Ġsat": 4988,
      "à¥ģà¤Ŀ": 4989,
      "Ġà¤¸à¤¾à¤ĩ": 4990,
      "Ġà¤ªà¥Ģà¤": 4991,
      "ate,": 4992,
      "ĠComp": 4993,
      "Ġà¤ķà¤¾à¤³à¤¾à¤¤": 4994,
      "Ġà¤Ĩà¤Ĥà¤¦à¥ĭà¤²à¤¨": 4995,
      "Ġresources": 4996,
      "ucle": 4997,
      "à¤¾à¤ĩà¤¡": 4998,
      "Ġà¤ªà¥įà¤°à¤¦à¤°à¥įà¤¶à¤¨": 4999,
      "erous": 5000,
      "Ġoriginal": 5001,
      "à¤¾à¤¦à¤°": 5002,
      "to": 5003,
      "Ġà¤ªà¥Īà¤¸à¥ĩ": 5004,
      "Ġà¤¶à¥ģà¤Ń": 5005,
      "Ġdesigned": 5006,
      "Ġà¤ķà¤¿à¤°": 5007,
      "Ġlack": 5008,
      "Ġà¤īà¤¦à¥įà¤¯à¥ĭà¤Ĺ": 5009,
      "Ġà¤¶à¤¾à¤Ĥà¤¤": 5010,
      "Ġà¤ªà¥ĥ": 5011,
      "Ġà¤¶à¤¨": 5012,
      "Ġà¤¤à¤¾à¤°": 5013,
      "ĠNot": 5014,
      "Ġthreat": 5015,
      "Ġà¤®à¥Įà¤ľà¥Ĥà¤¦": 5016,
      "à¤¯à¤¾à¤¨": 5017,
      "Ġà¤«à¤¼": 5018,
      "ĠCons": 5019,
      "Ġà¤ķà¤°à¤£à¥įà¤¯à¤¾à¤ļà¤¾": 5020,
      "Ġà¤¨à¤¹à¥Ģ": 5021,
      "Ġà¤ľà¥ģà¤²": 5022,
      "ban": 5023,
      "Ġbelieve": 5024,
      "ĠAustral": 5025,
      "Ġà¤®à¤¿à¤¤à¥įà¤°": 5026,
      "Ġà¤īà¤ªà¤¾à¤¯": 5027,
      "Ġà¤ľà¥įà¤¯": 5028,
      "Ġà¤ªà¥Ĥà¤Ľ": 5029,
      "Ġà¤ªà¥įà¤°à¤¸à¥įà¤¤à¤¾à¤µ": 5030,
      "Ġà¤ĩà¤¸à¥įà¤¤": 5031,
      "Ġprovided": 5032,
      "ĠFrom": 5033,
      "ruit": 5034,
      "ĠScience": 5035,
      "ĠOf": 5036,
      "Ġà¤®à¥ĭ": 5037,
      "Ġà¤ķà¤¿à¤®": 5038,
      "Ġà¤¤à¤¿à¤¥": 5039,
      "Ġple": 5040,
      "Ġà¤¸à¥ģà¤§à¤¾à¤°": 5041,
      "Ġparts": 5042,
      "aving": 5043,
      "Ġà¤¨à¥ĩà¤¤à¤¾": 5044,
      "Ġprec": 5045,
      "Ġà¤Ĩà¤¢à¤³": 5046,
      "à¤¸à¥įà¤ķà¤¾à¤°": 5047,
      "Ġpoll": 5048,
      "Ġà¤¸à¥ĩà¤²": 5049,
      "Ġled": 5050,
      "Ġà¤ķà¤¹à¤¤à¥ĩ": 5051,
      "ief": 5052,
      "Ġgreater": 5053,
      "Ġmach": 5054,
      "Ġslow": 5055,
      "room": 5056,
      "Ġà¤¸à¤¾à¤®à¤¨à¤¾": 5057,
      "ĠJapan": 5058,
      "olic": 5059,
      "Ġà¤¨à¤¿à¤ķà¤¾à¤²": 5060,
      "Ġtechnolog": 5061,
      "Ġà¤¶à¥ģà¤ķà¥įà¤°": 5062,
      "Ġà¤¸à¥ģà¤°à¥ģà¤µà¤¾à¤¤": 5063,
      "ay,": 5064,
      "ume": 5065,
      "Ġà¤īà¤®à¥ĩà¤¦": 5066,
      "Ġfem": 5067,
      "://": 5068,
      "PA": 5069,
      "à¤¾à¤¹à¥ĩà¤¬": 5070,
      "Ġmicro": 5071,
      "Ġsubst": 5072,
      "-w": 5073,
      "Ġà¤¹à¥Ĥà¤Ĥ": 5074,
      "Ġà¤®à¥ĩà¤°à¥ĩ": 5075,
      "mon": 5076,
      "Ġregular": 5077,
      "à¤²,": 5078,
      "Ġà¤²à¤¢": 5079,
      "rought": 5080,
      "à¤¤à¥ĩ,": 5081,
      "Ġà¤¬à¤¤à¤¾": 5082,
      "ĠEduc": 5083,
      "Ġspread": 5084,
      "Ġcolor": 5085,
      "Ġà¤¤à¥įà¤¯à¤¾à¤ļà¥ĩ": 5086,
      "Ġà¤Ĩà¤¯à¥ĭà¤ľà¤¿à¤¤": 5087,
      "Ġaverage": 5088,
      "Ġà¤ħà¤¥à¤µà¤¾": 5089,
      "à¤°à¤¿à¤¤": 5090,
      "rior": 5091,
      "à¥ĥà¤¤à¥Ģ": 5092,
      "rench": 5093,
      "Ġà¤®à¥ĭà¤¬": 5094,
      "Ġactive": 5095,
      "Ġrespect": 5096,
      "Ġmeaning": 5097,
      "Ġanalysis": 5098,
      "Ġà¤¥à¥ĭà¤¡": 5099,
      "Ġbacter": 5100,
      "Ġwild": 5101,
      "Ġtarget": 5102,
      "new": 5103,
      "Ġà¤µà¤¿à¤²": 5104,
      "Ġste": 5105,
      "Ġà¤ķà¤¹à¤¾,": 5106,
      "Ġà¤¦à¤¶": 5107,
      "Ġà¤¹à¥ĭà¤Ĺà¤¾": 5108,
      "Ġpressure": 5109,
      "Ġrights": 5110,
      "Ġclean": 5111,
      "Ġà¤®à¤¹à¤¾à¤¨": 5112,
      "rast": 5113,
      "Ġà¤ľà¤¿à¤¸à¤¸à¥ĩ": 5114,
      "Ġà¤®à¤¹à¤¾à¤°à¤¾à¤ľ": 5115,
      "iction": 5116,
      "Ġà¤¹à¤¾à¤°": 5117,
      "eds": 5118,
      "Ġà¤®à¥ģà¤¤": 5119,
      "à¤¨à¤Ĺà¤°": 5120,
      "onstr": 5121,
      "ese": 5122,
      "Ġà¤¤à¤°à¤«": 5123,
      "uge": 5124,
      "Ġà¤¸à¤Ĥà¤ªà¥Ĥà¤°à¥įà¤£": 5125,
      "Ġà¤¸à¤Ĥà¤ľà¤¯": 5126,
      "à¤¾à¤ªà¤°à¥įà¤¯à¤Ĥà¤¤": 5127,
      "à¤¦à¥ĩà¤µ": 5128,
      "Ġà¤ªà¤°à¤¿à¤µ": 5129,
      "lex": 5130,
      "Ġcomputer": 5131,
      "Ġdeep": 5132,
      "Ġà¤¨à¤¿à¤·": 5133,
      "Ġà¤µà¤°à¥įà¤£": 5134,
      "Ġsimply": 5135,
      "ĠAug": 5136,
      "Ġà¤¯à¥Ĥà¤¨": 5137,
      "Ġà¤Łà¥įà¤µà¤¿à¤Ł": 5138,
      "ising": 5139,
      "Ġsize": 5140,
      "as,": 5141,
      "à¤Ĥà¤ķà¤¾": 5142,
      "Ġà¤¯à¤¾à¤ļà¥Ģ": 5143,
      "ĠPar": 5144,
      "à¤¾à¤¤à¥į": 5145,
      "Ġit,": 5146,
      "Ġemb": 5147,
      "à¥įà¤°à¤¾": 5148,
      "age,": 5149,
      "yle": 5150,
      "ĠJan": 5151,
      "Ġà¤ªà¥įà¤°à¤¤à¤¿à¤ķ": 5152,
      "ma": 5153,
      "ĠCO": 5154,
      "ufact": 5155,
      "IN": 5156,
      "Ġmechan": 5157,
      "Ġà¤²à¤¾à¤ĩ": 5158,
      "Ġà¤¶à¤ķà¥įà¤¯à¤¤à¤¾": 5159,
      "alu": 5160,
      "rand": 5161,
      "à¤¿à¤¥": 5162,
      "Ġwritten": 5163,
      "Ġà¤ķà¤¹à¤¨à¤¾": 5164,
      "Ġà¤¯à¤¾à¤Ĥà¤ļà¥ĩ": 5165,
      "à¥ĩà¤¦à¥Ģ": 5166,
      "Ġshare": 5167,
      "Ġpsych": 5168,
      "Ġà¤ķà¤§à¥Ģ": 5169,
      "Ġà¤ĵà¤³à¤ĸ": 5170,
      "Ġà¤µà¥įà¤¯à¤µà¤¸à¤¾à¤¯": 5171,
      "à¤¾à¤®à¥Ģà¤£": 5172,
      "Ġnight": 5173,
      "Ġvariety": 5174,
      "Ġà¤¤à¤¯": 5175,
      "Ġinteg": 5176,
      "Ġbasic": 5177,
      "Ġà¤¦à¥ģà¤¨à¤¿à¤¯à¤¾": 5178,
      "Ġlonger": 5179,
      "Ġpict": 5180,
      "à¤¿à¤¨à¥Ģ": 5181,
      "Ġà¤ħà¤¸à¥Ĥà¤¨,": 5182,
      "à¤¾à¤®à¤¾": 5183,
      "Ġexpress": 5184,
      "à¤ªà¤°à¥įà¤¯à¤Ĥà¤¤": 5185,
      "Ġstructure": 5186,
      "à¤¾à¤£à¤¾": 5187,
      "Ġcit": 5188,
      "Ġproducts": 5189,
      "à¤°à¥ĭà¤Ĥ": 5190,
      "vey": 5191,
      "Ġà¤¤à¤¿à¤¨": 5192,
      "Ġneeded": 5193,
      "Ġ(R": 5194,
      "Ġorigin": 5195,
      "ĠHar": 5196,
      "ster": 5197,
      "asc": 5198,
      "Ġinfection": 5199,
      "Ġface": 5200,
      "Ġà¤ĳà¤¨à¤²": 5201,
      "Ġà¤ªà¥įà¤°à¤¶à¤¿à¤ķà¥įà¤·": 5202,
      "Ġà¤ıà¤ĸ": 5203,
      "à¤¿à¤µà¤¾à¤¯": 5204,
      "à¤®à¥ģà¤Ĥà¤¬à¤Ī": 5205,
      "ĠAc": 5206,
      "Ġsometimes": 5207,
      "idge": 5208,
      "Ġà¤®à¥Įà¤¤": 5209,
      "Ġencoura": 5210,
      "à¤ªà¥įà¤°à¤§à¤¾à¤¨": 5211,
      "ĠIndian": 5212,
      "Ġà¤µà¤ķà¥įà¤¤": 5213,
      "Ġà¤µà¤¹à¤¾à¤Ĥ": 5214,
      "Ġà¤²à¤Ĺà¤Ńà¤Ĺ": 5215,
      "ĠUs": 5216,
      "Ġà¤Ĺà¥įà¤°à¤¾à¤¹": 5217,
      "à¤ªà¤¦": 5218,
      "Ġà¤ĺà¥ĭà¤·à¤£à¤¾": 5219,
      "Ġà¤ľà¤¾à¤£à¤¾à¤°": 5220,
      "Ġà¤¯à¤¾à¤®à¥ģà¤³à¥ĩ": 5221,
      "Ġ(D": 5222,
      "à¥įà¤®à¤£": 5223,
      "Ġyears.": 5224,
      "Ġà¤¬à¤¾à¤³": 5225,
      "attle": 5226,
      "à¤®à¥įà¤¬": 5227,
      "Ġà¥¤à¥¤": 5228,
      "Ġharm": 5229,
      "Ġà¤¨à¤ı": 5230,
      "à¤²à¥įà¤¯à¤¾à¤¨à¤Ĥà¤¤à¤°": 5231,
      "Ġimplement": 5232,
      "hel": 5233,
      "Ġà¤¡à¤¿à¤¸": 5234,
      "Ġà¤®à¤¾à¤²à¤¿à¤ķ": 5235,
      "Ġissues": 5236,
      "à¤°à¥įà¤²": 5237,
      "à¤¤à¤¾,": 5238,
      "Ġtax": 5239,
      "Ġdrink": 5240,
      "à¤Ńà¤¾à¤µ": 5241,
      "Ġrefer": 5242,
      "Ġappl": 5243,
      "ĠKing": 5244,
      "à¥įà¤¤à¤¾": 5245,
      "Ġà¤®à¤Ĥà¤ľ": 5246,
      "Ġcarbon": 5247,
      "ales": 5248,
      "Ġà¤¬à¥ģà¤§": 5249,
      "Ġ*": 5250,
      "Ġà¤¯à¤¹à¥Ģ": 5251,
      "ĠNow": 5252,
      "Ġà¤Ĩà¤ªà¤²à¥įà¤¯à¤¾à¤²à¤¾": 5253,
      "Ġà¤ħà¥ħ": 5254,
      "Ġà¤ªà¤¶à¥įà¤ļà¤¿à¤®": 5255,
      "ļà¤Ĥ": 5256,
      "Ġreading": 5257,
      "Ġà¤ħà¤¸à¤¤à¤¾à¤¤.": 5258,
      "Ġà¤ªà¤¤": 5259,
      "Ġà¤ķà¤°à¤¾.": 5260,
      "nces": 5261,
      "à¤ķà¤¾à¤Ĥà¤¨à¤¾": 5262,
      "à¥īà¤¡": 5263,
      "à¥Īà¤ķ": 5264,
      "à¤¾à¤¨à¥ĩà¤Ĥ": 5265,
      "ĠItâĢĻs": 5266,
      "à¤µà¤¨": 5267,
      "Ġstreng": 5268,
      "ength": 5269,
      "Ġà¤°à¤¾à¤ľà¤ķà¥Ģà¤¯": 5270,
      "Ġstates": 5271,
      "Ġà¤ĸà¤¤": 5272,
      "Ġà¤²à¥ĩà¤¨à¥ĩ": 5273,
      "Ġsqu": 5274,
      "Ġà¤ªà¤¹à¤²à¥Ģ": 5275,
      "Ġresponse": 5276,
      "ribution": 5277,
      "Ġoutside": 5278,
      "Ġà¤¹à¤¸à¥įà¤¤": 5279,
      "à¤²à¥ĩ,": 5280,
      "Ġlate": 5281,
      "ata": 5282,
      "à¤¾à¤¯à¤²": 5283,
      "Ġpractice": 5284,
      "ha": 5285,
      "ellow": 5286,
      "Ġà¤®à¤¾à¤Ŀà¥įà¤¯à¤¾": 5287,
      "Ġcompet": 5288,
      "Ġidentify": 5289,
      "Ġà¤ķà¤¿à¤¤à¥Ģ": 5290,
      "Ġlog": 5291,
      "à¤¤à¥ĭ.": 5292,
      "Ġresist": 5293,
      "à¤ıà¤ķ": 5294,
      "s)": 5295,
      "ĠJu": 5296,
      "Ġà¤µà¤¾à¤¤": 5297,
      "Ġvisit": 5298,
      "ĠA.": 5299,
      "ĠIndia": 5300,
      "Ġà¤µà¥įà¤¹à¤¿à¤¡": 5301,
      "à¤Ĺà¤¾": 5302,
      "ze": 5303,
      "utions": 5304,
      "Ġà¤µà¥ĩà¤¬à¤¸": 5305,
      "Ġforce": 5306,
      "Ġà¤ªà¤Ĥà¤¤": 5307,
      "Ġattempt": 5308,
      "à¤¾à¤ªà¤¨": 5309,
      "Ġà¤ļà¤Ĥà¤¦à¥įà¤°": 5310,
      "à¥ĩà¤ķà¥įà¤¸": 5311,
      "Ġparticularly": 5312,
      "Ġà¤ľà¤¿à¤²à¥ĩ": 5313,
      "Ġà¤Ĩà¤¹à¥ĩà¤¤,": 5314,
      "Ġap": 5315,
      "ĠFirst": 5316,
      "ĠSm": 5317,
      "usion": 5318,
      "Ġà¤¬à¥Ģà¤ľ": 5319,
      "à¤ĺà¤¡": 5320,
      "rated": 5321,
      "Ġà¤«à¥įà¤²": 5322,
      "Ġbal": 5323,
      "Ġà¤®à¤¾à¤ľà¥Ģ": 5324,
      "ached": 5325,
      "Ġà¤®à¥ĭà¤łà¤¾": 5326,
      "à¤¦à¤¯": 5327,
      "Ġhelps": 5328,
      "Ġcases": 5329,
      "Ġthemselves": 5330,
      "Ġdefin": 5331,
      "Ġsuccessful": 5332,
      "Ġà¤ªà¥įà¤°à¤¤à¤¿à¤¨à¤¿à¤§": 5333,
      "Ġà¤¤à¤¤": 5334,
      "Ġcauses": 5335,
      "Ġà¤ıà¤¡": 5336,
      "ĠMy": 5337,
      "à¤Ĥ,": 5338,
      "ĠGl": 5339,
      "Ġà¤ķà¤²à¥įà¤ª": 5340,
      "dom": 5341,
      "Ġà¤¸à¤¾à¤°à¥įà¤µ": 5342,
      "Ġà¤¸à¤®à¤¾à¤µà¥ĩà¤¶": 5343,
      "Ġà¤²à¤Ĺà¥įà¤¨": 5344,
      "stain": 5345,
      "uth": 5346,
      "Ġregion": 5347,
      "aily": 5348,
      "à¤¿à¤ķà¥įà¤¸": 5349,
      "Ġà¤Łà¥ĩà¤¸à¥įà¤Ł": 5350,
      "Ġreview": 5351,
      "ĠKe": 5352,
      "Ġà¤¹à¥ĭà¤Ĭà¤¨": 5353,
      "ĠEl": 5354,
      "à¤³à¤¾": 5355,
      "Ġissu": 5356,
      "Ġà¤¸à¤µà¤¾à¤²": 5357,
      "à¤°à¥įà¤¤à¥Ģ": 5358,
      "ĠJes": 5359,
      "Ġdemonstr": 5360,
      "à¤ķà¤²": 5361,
      "à¤ľà¤¼": 5362,
      "Ġ(F": 5363,
      "Ġà¤¬à¤¿à¤¨à¤¾": 5364,
      "à¤ķà¤¾à¤®": 5365,
      "Ġà¤¤à¥įà¤¯à¤¾à¤Ĥà¤ļà¤¾": 5366,
      "Ġà¤¤à¤¿à¤ļà¥įà¤¯à¤¾": 5367,
      "Ġeasy": 5368,
      "ĠNo": 5369,
      "à¥ĩà¤Ĥà¤Ĺà¥ĩ": 5370,
      "Ġà¤¸à¥ģà¤®": 5371,
      "Ġà¤¯à¤¾à¤ļà¤¾": 5372,
      "Ġà¤Ĺà¥įà¤°à¤¾à¤®à¥Ģà¤£": 5373,
      "Ġremov": 5374,
      "à¥ĩà¤¤à¥Ģà¤²": 5375,
      "Ġà¤ĸà¤¬à¤°": 5376,
      "Ġcoun": 5377,
      "ĠBec": 5378,
      "à¤¿à¤µà¥įà¤¹": 5379,
      "Ġà¤¤à¤ķà¥įà¤°": 5380,
      "Ġspeak": 5381,
      "Ġà¤Ĩà¤°à¥ĭà¤Ĺà¥įà¤¯": 5382,
      "Ġdeal": 5383,
      "à¤ªà¤Ĥà¤ļ": 5384,
      "à¥Ģà¤ķà¤°à¤£": 5385,
      "Ġà¤®à¥ģà¤¤à¤¾à¤¬": 5386,
      "Ġdeveloping": 5387,
      "ĠCount": 5388,
      "fect": 5389,
      "Ġaff": 5390,
      "Ġindepend": 5391,
      "Ġtend": 5392,
      "à¤¾à¤ķà¥Ģ": 5393,
      "ĠTw": 5394,
      "à¤¿à¤µà¤¾à¤°à¥Ģ": 5395,
      "ĠArt": 5396,
      "Ġtask": 5397,
      "ership": 5398,
      "Ġà¤¸à¥įà¤µà¥Ģà¤ķà¤¾à¤°": 5399,
      "oud": 5400,
      "Ġà¤Ńà¤¾à¤·à¤¾": 5401,
      "Ġuses": 5402,
      "Ġensure": 5403,
      "ivity": 5404,
      "right": 5405,
      "Ġord": 5406,
      "Ġwood": 5407,
      "Ġcentury": 5408,
      "Ġà¤®à¥ģà¤¤à¤¾à¤¬à¤¿à¤ķ": 5409,
      "à¥įà¤°à¥ĭà¤²": 5410,
      "à¤¿à¤Łà¤²": 5411,
      "ores": 5412,
      "Ġà¤ľà¤¿à¤²à¤¾": 5413,
      "Ġà¤ķà¥ĭà¤µ": 5414,
      "Ġcompon": 5415,
      "Ġà¤ħà¤¸à¥įà¤ªà¤¤à¤¾à¤²": 5416,
      "Ġconnect": 5417,
      "à¥įà¤¯à¤¾à¤ķà¤¡à¥ĩ": 5418,
      "Ġà¤īà¤²": 5419,
      "Ġnon-": 5420,
      "Ġà¤®à¤¹à¤¾à¤ªà¤¾à¤²": 5421,
      "Ġà¤¬à¤ĺ": 5422,
      "rip": 5423,
      "Ġà¤ķà¤°à¥ĩà¤Ĥ": 5424,
      "Ġparents": 5425,
      "ustom": 5426,
      "à¥įà¤¯à¤¾à¤Ĥà¤ļà¥ĩ": 5427,
      "ĠJ.": 5428,
      "à¤¿à¤°à¥ĭà¤§": 5429,
      "imately": 5430,
      "Ġà¤ķà¤°à¤¤à¤¾à¤¨à¤¾": 5431,
      "à¤¾à¤ĵ": 5432,
      "Ġsou": 5433,
      "arily": 5434,
      "à¥ĭà¤«": 5435,
      "Ġnormal": 5436,
      "à¥Ģà¤¡à¤¼": 5437,
      "Ġà¤µà¥ĩà¤³à¥Ģ": 5438,
      "Ġà¤¸à¤°à¤ķà¤¾à¤°à¤¨à¥ĩ": 5439,
      "Ġà¤¸à¥įà¤µà¤°à¥Ĥà¤ª": 5440,
      "ĠOur": 5441,
      "Ġà¤«à¤°": 5442,
      "Ġà¤¨à¤°à¥ĩà¤Ĥà¤¦à¥įà¤°": 5443,
      "Ġà¤µà¤¾à¤¯à¤°": 5444,
      "Ġdraw": 5445,
      "Ġfeet": 5446,
      "Ġà¤¡à¤¿à¤ľ": 5447,
      "Ġà¤¡à¤¾à¤²": 5448,
      "Ġà¤ħà¤¨à¥ģà¤®": 5449,
      "Ġà¤«à¥ĭà¤Łà¥ĭ": 5450,
      "Ġà¤ķà¥Īà¤¸à¥ĩ": 5451,
      "Ġà¤¦à¥Ĥà¤¸à¤°à¥Ģ": 5452,
      "ĠDuring": 5453,
      "Ġchalleng": 5454,
      "Ġconsist": 5455,
      "Ġreported": 5456,
      "Ġà¤¬à¤ļà¥įà¤ļà¥ĭà¤Ĥ": 5457,
      "imum": 5458,
      "Ġà¤¸à¥ģà¤¬": 5459,
      "Ġskills": 5460,
      "à¥ĩà¤·à¥įà¤ł": 5461,
      "Ġanimals": 5462,
      "Ġdocument": 5463,
      "Ġà¤Ĩà¤ªà¤²à¥ĩ": 5464,
      "à¤¶à¥įà¤¯": 5465,
      "Ġemot": 5466,
      "ice.": 5467,
      "Ġà¤ªà¥įà¤°à¤®à¤¾à¤£à¤¾à¤¤": 5468,
      "Ġmess": 5469,
      "Ġà¤Ĩà¤§à¥Ģ": 5470,
      "Ġmother": 5471,
      "ropriate": 5472,
      "Ġbit": 5473,
      "Ġfactors": 5474,
      "Ġprep": 5475,
      "Ġà¤łà¥Ģà¤ķ": 5476,
      "Ġà¤ªà¤¤à¥įà¤¨à¥Ģ": 5477,
      "uary": 5478,
      "ĠReg": 5479,
      "Ġfa": 5480,
      "Ġà¤Ĩà¤ĸ": 5481,
      "Ġà¤¤à¤¿à¤²à¤¾": 5482,
      "à¤¾à¤¯à¥Ģ": 5483,
      "Ġvalu": 5484,
      "Ġcorrect": 5485,
      "Ġveget": 5486,
      "à¤Ńà¥Ĥà¤®": 5487,
      "iat": 5488,
      "Ġà¤Ĩà¤µà¤¶à¥įà¤¯à¤ķà¤¤à¤¾": 5489,
      "Ġpopul": 5490,
      "ĠChild": 5491,
      "This": 5492,
      "Ġhabit": 5493,
      "Ġforest": 5494,
      "oard": 5495,
      "à¤¿.": 5496,
      "Ġà¤¶à¥ĩà¤µ": 5497,
      "Ġextreme": 5498,
      "Ġinternational": 5499,
      "à¤¾à¤¯à¤¨": 5500,
      "Ġà¤ªà¤¤à¥įà¤°à¤ķà¤¾à¤°": 5501,
      "Ġyears,": 5502,
      "ene": 5503,
      "Ġgenerally": 5504,
      "Ġir": 5505,
      "Ġà¤µà¤¾à¤²": 5506,
      "Ġcover": 5507,
      "Ġmoney": 5508,
      "Ġelectric": 5509,
      "iot": 5510,
      "Ġà¤²à¤¹à¤¾à¤¨": 5511,
      "Ġà¤ªà¥įà¤°à¤§à¤¾à¤¨à¤®à¤Ĥà¤¤à¥įà¤°à¥Ģ": 5512,
      "à¤Ńà¤¾à¤°à¤¤": 5513,
      "Ġà¤¤à¤°à¥ģà¤£": 5514,
      "ine.": 5515,
      "Ġprobably": 5516,
      "Ġsustain": 5517,
      "à¤¤à¥įà¤¯": 5518,
      "Ġà¤®à¤§": 5519,
      "à¤¾à¤Ĥà¤ªà¤¾à¤¸à¥Ĥà¤¨": 5520,
      "Ġassist": 5521,
      "Ġox": 5522,
      "Ġà¤¨à¤Ī": 5523,
      "Ġacid": 5524,
      "Ġà¤ĩà¤Ĥà¤¡à¤¿à¤¯à¤¾": 5525,
      "à¥ĭà¤¤à¥įà¤¸": 5526,
      "Ġaware": 5527,
      "Ġà¤ľà¤²à¥įà¤¦": 5528,
      "Ġdispl": 5529,
      "OR": 5530,
      "Wh": 5531,
      "Ġà¤¨à¤¾à¤¹à¥Ģà¤¤.": 5532,
      "Ġteacher": 5533,
      "\",": 5534,
      "Ġà¤µà¤¿à¤ª": 5535,
      "Ġserious": 5536,
      "Ġtherefore": 5537,
      "Ġà¤ªà¤¾à¤µà¤¸": 5538,
      "à¥Ĥà¤³": 5539,
      "Ġlo": 5540,
      "Ġselect": 5541,
      "Ġdiv": 5542,
      "Ġdou": 5543,
      "Ġcontinue": 5544,
      "Ġrock": 5545,
      "à¤ķà¤¾à¤²": 5546,
      "Ġà¤°à¤¿à¤²": 5547,
      "à¤²à¤Ĥ.": 5548,
      "à¥ģà¤¦à¥įà¤§à¤¾": 5549,
      "Ġthird": 5550,
      "Ġà¤°à¥ģà¤Ĺà¥įà¤£à¤¾à¤²à¤¯": 5551,
      "Ġà¤¬à¤Ĥà¤Ĺ": 5552,
      "Ġà¤®à¤ľà¤¬": 5553,
      "Ġà¤¨à¤¿à¤Ĺ": 5554,
      "Ġà¤¹à¥ĭà¤Ĺà¥Ģà¥¤": 5555,
      "Ġdoing": 5556,
      "Ġà¤Ĩà¤°à¥ĭà¤ªà¥Ģ": 5557,
      "Ġà¤¨à¤Ĥà¤¬à¤°": 5558,
      "Ġà¤¹à¤®à¥ĩà¤Ĥ": 5559,
      "Ġgetting": 5560,
      "ienc": 5561,
      "oly": 5562,
      "www.": 5563,
      "à¤ļà¤²": 5564,
      "Ġà¤¹à¥ĭà¤ķà¤°": 5565,
      "Ġà¤¨à¥ĩà¤¤à¥ĥà¤¤à¥įà¤µ": 5566,
      "à¤ªà¤¾à¤¸à¥Ĥà¤¨": 5567,
      "à¤¾à¤¹à¥Ģà¤°": 5568,
      "Ġmagn": 5569,
      "ST": 5570,
      "à¥ĭà¤£": 5571,
      "Ġà¤®à¤¾à¤¤": 5572,
      "Ġà¤¸à¤¿à¤¨à¥ĩà¤®": 5573,
      "à¤®à¤¾": 5574,
      "Ġhyd": 5575,
      "Ġà¤®à¤¶": 5576,
      "Ġà¤°à¤£": 5577,
      "Ġwriting": 5578,
      "-à¤µ": 5579,
      "ground": 5580,
      "Ġà¤ªà¥įà¤°à¤ķà¤²à¥įà¤ª": 5581,
      "Ġmanufact": 5582,
      "Ġfinanc": 5583,
      "à¤¿à¤Ŀ": 5584,
      "Ġtakes": 5585,
      "Ġà¤¦à¥ĩà¤¤à¤¾": 5586,
      "arden": 5587,
      "Ġproduced": 5588,
      "Ġà¤Ĩà¤®à¥įà¤¹": 5589,
      "Ġgoal": 5590,
      "Ġlife.": 5591,
      "à¤¶à¤¨": 5592,
      "Ġcross": 5593,
      "overy": 5594,
      "Ġinstead": 5595,
      "à¥ĩà¤ªà¥Ģ": 5596,
      "Ġà¤®à¥įà¤¹à¤Łà¤²à¥ĩ": 5597,
      "Ġwalk": 5598,
      "Ġconcent": 5599,
      "ĠCalif": 5600,
      "ĠCor": 5601,
      "Ġindividuals": 5602,
      "Ġà¤Ĩà¤ĺ": 5603,
      "ashing": 5604,
      "Ġà¤¤à¤¾à¤ª": 5605,
      "Ġà¤ķà¤¥": 5606,
      "Ġcompany": 5607,
      "Ġà¤«à¥Īà¤¸": 5608,
      "Ġà¤īà¤¸à¥Ģ": 5609,
      "mit": 5610,
      "Ġà¤ļà¤¿à¤Ĥà¤¤": 5611,
      "Ġà¤ķà¥įà¤¯à¥ĭà¤Ĥ": 5612,
      "aging": 5613,
      "à¤¾à¤¹à¤¨": 5614,
      "bor": 5615,
      "Ġwall": 5616,
      "à¥ĩà¤ķà¥įà¤Łà¤°": 5617,
      "à¤¤à¥Ģà¤²": 5618,
      "Ġà¤¨à¤¿à¤¶à¥įà¤ļà¤¿à¤¤": 5619,
      "ences": 5620,
      "Ġearl": 5621,
      "cil": 5622,
      "utes": 5623,
      "ĠTra": 5624,
      "Ġà¤ıà¤ķà¤¤à¥įà¤°": 5625,
      "Ġtrue": 5626,
      "Ġfront": 5627,
      "Ġà¤¸à¤µ": 5628,
      "à¤¸à¥ĩà¤µ": 5629,
      "Ġbenefit": 5630,
      "Ġeth": 5631,
      "à¤¾à¤¹à¤°à¤£": 5632,
      "Ġà¤¸à¤¾à¤Ĥà¤Ĺà¤¿à¤¤à¤²à¥ĩ": 5633,
      "osing": 5634,
      "Ġestablished": 5635,
      "Ġregul": 5636,
      "Ġgain": 5637,
      "à¥īà¤°à¥įà¤¡": 5638,
      "Ġà¤ĩà¤Ĥà¤¸": 5639,
      "ice,": 5640,
      "à¤¾à¤¤à¤¾à¤°": 5641,
      "Ġscientists": 5642,
      "Ġterms": 5643,
      "Ġservice": 5644,
      "Ġtraining": 5645,
      "Ġtown": 5646,
      "Ġvit": 5647,
      "Ġgrowing": 5648,
      "Ġà¤ªà¥ģà¤¸à¥įà¤¤à¤ķ": 5649,
      "à¤°à¤¤": 5650,
      "Ġcard": 5651,
      "ĠInternational": 5652,
      "Ġestim": 5653,
      "oles": 5654,
      "Ġlooking": 5655,
      "Ġà¤¶à¤¿à¤µà¤¸à¥ĩà¤¨": 5656,
      "Ġà¤µà¤¿à¤ķà¥ĩà¤Ł": 5657,
      "Ġwarm": 5658,
      "Ġprint": 5659,
      "Ġinvestig": 5660,
      "ĠFrench": 5661,
      "rie": 5662,
      "Ġmaterials": 5663,
      "Ġful": 5664,
      "useum": 5665,
      "Ġà¤ķà¤°à¥įà¤ľ": 5666,
      "Ġà¤¤à¥įà¤¯à¤¾à¤¨": 5667,
      "Ġà¤ªà¥Ĥà¤°à¥ĩ": 5668,
      "Ġcr": 5669,
      "Ġdang": 5670,
      "à¤¾à¤Ĥà¤¶": 5671,
      "ate.": 5672,
      "Ġà¤Ĺà¤ıà¥¤": 5673,
      "Ġà¤¸à¤¤à¥įà¤¤": 5674,
      "AN": 5675,
      "à¥ĥà¤¤à¤¿": 5676,
      "Ġà¤°à¥ĩà¤²à¥įà¤µ": 5677,
      "Ġquite": 5678,
      "Ġsafe": 5679,
      "Ġà¤¸à¥Ģà¤Ł": 5680,
      "us.": 5681,
      "à¤®à¤¿à¤ķ": 5682,
      "à¤¿à¤Ĥà¤¸": 5683,
      "Ġà¤¹à¤¿à¤¨à¥įà¤¦": 5684,
      "à¤¾à¤µà¤°à¤£": 5685,
      "Ġà¤®à¤¨à¥ģà¤·à¥įà¤¯": 5686,
      "Ġinstit": 5687,
      "Ġà¤¥à¥Ģà¤Ĥ": 5688,
      "ervation": 5689,
      "Ġà¤¸à¤¿": 5690,
      "Ġheld": 5691,
      "Ġworld.": 5692,
      "We": 5693,
      "uk": 5694,
      "Ġà¤ħà¤ļà¥įà¤Ľà¤¾": 5695,
      "Ġà¤¨à¤¿à¤ĺ": 5696,
      "cell": 5697,
      "ror": 5698,
      "Ġà¤ħà¤Ĥà¤ķ": 5699,
      "ided": 5700,
      "ĠChar": 5701,
      "Ġà¤¸à¥ĭ": 5702,
      "Ġà¤¬à¤¿à¤ľ": 5703,
      "Ġthous": 5704,
      "ĠEuropean": 5705,
      "Ġà¤¶à¥Ī": 5706,
      "Ġcommunities": 5707,
      "Ġmilitary": 5708,
      "Ġcompared": 5709,
      "is.": 5710,
      "____": 5711,
      "Ġà¤¦à¥įà¤°": 5712,
      "ĠRuss": 5713,
      "Ġtheory": 5714,
      "à¤¾à¤°à¥įà¤Ĺ": 5715,
      "Ġdifference": 5716,
      "oses": 5717,
      "Ġà¤¥à¥ĩ,": 5718,
      "Ġà¤ķà¤°à¥įà¤®à¤ļà¤¾à¤°à¥Ģ": 5719,
      "Ġhy": 5720,
      "Ġdetermine": 5721,
      "ĠChristian": 5722,
      "à¥Ģà¤ıà¤²": 5723,
      "à¤¾à¤ĥ": 5724,
      "Ġà¤¦à¥Ģà¤ª": 5725,
      "Ġcapt": 5726,
      "ext": 5727,
      "Ġà¤Ķà¤·": 5728,
      "Ġhours": 5729,
      "à¤Ĺà¤¡": 5730,
      "Ġexpect": 5731,
      "Ġà¤ĺà¥ĩà¤¤à¤²à¤¾": 5732,
      "à¤¾à¤ļà¤Ĥ": 5733,
      "Ġà¤ħà¤ªà¤°": 5734,
      "ĠEven": 5735,
      "Ġà¤Ńà¤µà¤¿à¤·": 5736,
      "Ġtraditional": 5737,
      "à¥Ģà¤ĵ": 5738,
      "Ġà¤ħà¤¨à¥įà¤¤": 5739,
      "à¥Ĥà¤ļ": 5740,
      "Ġà¤īà¤¦à¥įà¤¦à¥ĩà¤¶": 5741,
      "à¥įà¤µà¤¾à¤°à¥ĩ": 5742,
      "ĠRead": 5743,
      "Ġà¤¸à¤«à¤²": 5744,
      "Ġsomeone": 5745,
      "book": 5746,
      "ĠOct": 5747,
      "à¥ģà¤¬": 5748,
      "Ġprimary": 5749,
      "Ġà¤µà¤¿à¤®à¤¾à¤¨": 5750,
      "rew": 5751,
      "Ġà¤¦à¤°à¥įà¤¶à¤¨": 5752,
      "à¤łà¤¨": 5753,
      "à¤¾à¤Īà¤¨": 5754,
      "Ġmedia": 5755,
      "Ġreve": 5756,
      "Ġ'à¤¸": 5757,
      "Ġtur": 5758,
      "Ġà¤µà¥ĥà¤¤à¥įà¤¤": 5759,
      "à¤¤à¤¾à¤¤": 5760,
      "à¤Ĩà¤¯": 5761,
      "ĠHer": 5762,
      "Ġà¤²à¤µà¤ķà¤°": 5763,
      "Ġcivil": 5764,
      "ĠCaliforn": 5765,
      "Ġinvolved": 5766,
      "Ġsold": 5767,
      "ics,": 5768,
      "Ġà¤īà¤¦à¥įà¤§": 5769,
      "ĠBar": 5770,
      "Ġà¤¸à¥ĩà¤Ĥà¤Ł": 5771,
      "Ġà¤¦à¥ĩà¤ĸà¤¾": 5772,
      "à¤°à¤¿à¤ķ": 5773,
      "Ġbab": 5774,
      "Ġà¤Łà¥įà¤°à¥ĩà¤¨": 5775,
      "Ġreflect": 5776,
      "Ġà¤¨à¤¿à¤µà¤¡": 5777,
      "Ġfav": 5778,
      "à¥ģà¤°à¥ģ": 5779,
      "Ġpoor": 5780,
      "à¥ĭà¤Ĥà¤¡": 5781,
      "Ġà¤®à¤¾à¤¨à¤¸": 5782,
      "che": 5783,
      "Ġimmediate": 5784,
      "Ġà¤®à¤¾à¤Ĥà¤¡": 5785,
      "where": 5786,
      "Ġx": 5787,
      "ana": 5788,
      "Ġà¤¸à¤¿à¤°à¥įà¤«": 5789,
      "Ġà¤²à¤ķà¥įà¤·à¤¾à¤¤": 5790,
      "Ġscientific": 5791,
      "Ġà¤¨à¤¾à¤¶": 5792,
      "à¤¸à¥įà¤Łà¥įà¤°à¥ĩà¤²": 5793,
      "Ġ\"The": 5794,
      "set": 5795,
      "Ġà¤¤à¥įà¤¯à¤¾à¤µà¤°": 5796,
      "ĠSince": 5797,
      "Ġsil": 5798,
      "Ġà¤°à¤¾à¤¯": 5799,
      "Ġà¤¸à¥Ĥà¤¤à¥įà¤°": 5800,
      "Ġinside": 5801,
      "ches": 5802,
      "Ġallows": 5803,
      "Ġà¤¶à¤°à¥įà¤®à¤¾": 5804,
      "haps": 5805,
      "à¤Ĥà¤ķà¤°": 5806,
      "Ġà¤Ĺà¥ĩà¤Ĥà¤¦": 5807,
      "undred": 5808,
      "elt": 5809,
      "Ġà¤ľà¤¾à¤¹à¥Ģà¤°": 5810,
      "Ġexperien": 5811,
      "à¤ľà¤¨à¤¿à¤ķ": 5812,
      "Ġà¤°à¤¾à¤ľà¤¾": 5813,
      "Ġà¤µà¥įà¤¯à¤µà¤¹à¤¾à¤°": 5814,
      "Ġà¤Ĺà¤¯à¥ĩ": 5815,
      "Ġà¤ħà¤ªà¥įà¤°": 5816,
      "leg": 5817,
      "ĠMe": 5818,
      "Ġà¤ªà¥Ģà¤Ľ": 5819,
      "à¥ģà¤°à¥Ģ": 5820,
      "Ġdecre": 5821,
      "Ġà¤ķà¤¾à¤°à¥įà¤¡": 5822,
      "hern": 5823,
      "ON": 5824,
      "ĠMarch": 5825,
      "Ġà¤ªà¤°à¤¿à¤¸à¥įà¤¥à¤¿à¤¤": 5826,
      "Ġmovement": 5827,
      "ift": 5828,
      "Ġsolar": 5829,
      "Ġà¤®à¤¾à¤¨à¤µ": 5830,
      "Ġetc.": 5831,
      "Ġsection": 5832,
      "à¥ĩà¤Ĺà¥Ģà¥¤": 5833,
      "IC": 5834,
      "elling": 5835,
      "Ġaltern": 5836,
      "à¥įà¤¯à¤¾à¤Ĥà¤ļà¤¾": 5837,
      "ĠAmerica": 5838,
      "omp": 5839,
      "Ġà¤ĸà¥ģà¤²": 5840,
      "irl": 5841,
      "Ġà¤ħà¤ķà¥įà¤·": 5842,
      "ned": 5843,
      "Ġà¤ªà¥įà¤°à¤£": 5844,
      "Ġà¤¦à¤°à¥įà¤¶": 5845,
      "Ġwent": 5846,
      "Ġà¤¦à¥ĩà¤ĸà¤¨à¥ĩ": 5847,
      "Ġevalu": 5848,
      "à¤µà¤¾à¤¹": 5849,
      "Ġhost": 5850,
      "à¤¾à¤¸à¤¾": 5851,
      "Ġachieve": 5852,
      "Ġà¤¥à¥Ģ,": 5853,
      "Ġbenefits": 5854,
      "ĠDepartment": 5855,
      "Ġroad": 5856,
      "à¤ļà¤¨à¤¾": 5857,
      "Ġà¤®à¤¾à¤¹à¤¿à¤¤": 5858,
      "Ġfoot": 5859,
      "Ġà¤Ĳà¤ķ": 5860,
      "Ġà¤¦à¤¾à¤µà¤¾": 5861,
      "Ġmental": 5862,
      "Ġaspect": 5863,
      "ĠAugust": 5864,
      "à¥įà¤Ľ": 5865,
      "Ġtiss": 5866,
      "à¤µà¤¾à¤¡": 5867,
      "Ġincluded": 5868,
      "Ġmember": 5869,
      "Ġhttp://": 5870,
      "Ġà¤¤à¤¾à¤ľ": 5871,
      "pril": 5872,
      "Ġvacc": 5873,
      "Ġservices": 5874,
      "Ġcolon": 5875,
      "ĠMon": 5876,
      "Ġà¤¸à¤¹à¤¿à¤¤": 5877,
      "Ġthus": 5878,
      "Ġideas": 5879,
      "Ġà¤ķà¥īà¤²à¥ĩà¤ľ": 5880,
      "ĠHistory": 5881,
      "Ġà¤®à¥ģà¤ķà¥įà¤¤": 5882,
      "Ġà¤¤à¥ģà¤®à¤ļà¥įà¤¯à¤¾": 5883,
      "Ġà¤ļà¤¾à¤¹à¤¤à¥ĩ": 5884,
      "Ġà¤¸à¥įà¤¨": 5885,
      "Ġmiss": 5886,
      "thern": 5887,
      "Ġmultiple": 5888,
      "ĠWest": 5889,
      "Ġà¤ļà¥ģà¤ķà¥ĩ": 5890,
      "Ġhor": 5891,
      "-h": 5892,
      "Ġà¤ıà¤ĸà¤¾à¤¦": 5893,
      "Ġsolution": 5894,
      "Ġbott": 5895,
      "Ġà¤°à¤ķà¥įà¤¤": 5896,
      "Ġà¤ħà¤¤à¤¿à¤°à¤¿à¤ķà¥įà¤¤": 5897,
      "Ġbehind": 5898,
      "Ġà¤ľà¤¿à¤¤": 5899,
      "Ġà¤ľà¤¾à¤Ĭ": 5900,
      "Ġadditional": 5901,
      "Ġâ": 5902,
      "Ġnegative": 5903,
      "Ġà¤ħà¤Ĥà¤¤à¤¿à¤®": 5904,
      "Ġà¤ĺà¤¾à¤¤": 5905,
      "Ġbirth": 5906,
      "Ġhighly": 5907,
      "Ġà¤¸à¤¾à¤®à¤¨": 5908,
      "Ġà¤®à¤¹à¥Ģà¤¨à¥ĩ": 5909,
      "à¤Ĥà¤¨à¥ĩ": 5910,
      "Ġaud": 5911,
      "Ġà¤¤à¤¥": 5912,
      "ĠAnt": 5913,
      "-in": 5914,
      "Ġofficial": 5915,
      "Ġhot": 5916,
      "Ġà¤²à¥ĩà¤¤": 5917,
      "Ġà¤ħà¤Łà¤ķ": 5918,
      "Ġà¤°à¥ĭà¤¹": 5919,
      "Ġà¤¶à¤¿à¤Ĥà¤¦à¥ĩ": 5920,
      "icles": 5921,
      "Ġalthough": 5922,
      "à¥ģà¤ĵà¤Ĥ": 5923,
      "amb": 5924,
      "Ġà¤¯à¤¾à¤¸": 5925,
      "Ġà¤®à¤¾à¤¨à¤¾": 5926,
      "Ġang": 5927,
      "Ġà¤Ĩà¤¯à¥ģà¤ķà¥įà¤¤": 5928,
      "Ġà¤¤à¤¾à¤¸": 5929,
      "ying": 5930,
      "à¥ĭà¤§à¤¨": 5931,
      "Ġà¤ªà¤Ĥà¤ľà¤¾à¤¬": 5932,
      "Ġà¤ķà¤¾à¤¯à¤®": 5933,
      "Ġlat": 5934,
      "Ġrout": 5935,
      "à¥ħà¤ķ": 5936,
      "Ġà¤¶à¤¾à¤¦à¥Ģ": 5937,
      "Ġà¤ľà¤¿à¤¸à¥ĩ": 5938,
      "les,": 5939,
      "ilos": 5940,
      "Ġà¤¬à¤ľà¥ĩ": 5941,
      "Ġimage": 5942,
      "à¤°à¤¾à¤®": 5943,
      "Ġà¤ªà¥ĭà¤¹à¥ĭà¤ļ": 5944,
      "à¤¨à¥ĩà¤¸": 5945,
      "Ġà¤Łà¤¿à¤ķ": 5946,
      "ĠM.": 5947,
      "uman": 5948,
      "Ġà¤Ĩà¤¯à¥ĭà¤Ĺ": 5949,
      "Ġà¤Ĺà¤¿à¤°à¤«": 5950,
      "à¤¾à¤µà¤°à¥Ĥà¤¨": 5951,
      "à¥ĩà¤®à¤¾à¤²": 5952,
      "Ġà¤īà¤²à¥įà¤²à¥ĩà¤ĸ": 5953,
      "à¥ĭà¤¯": 5954,
      "Ġà¤®à¥ĩà¤¹": 5955,
      "Ġà¤Ĩà¤ªà¤²à¥Ģ": 5956,
      "Ġà¤Ĩà¤¯à¥ĭà¤ľà¤¨": 5957,
      "à¤¾à¤¯à¤£": 5958,
      "Ġà¤ıà¤ķà¥Ĥà¤£": 5959,
      "p.": 5960,
      "like": 5961,
      "à¤°à¥įà¤¤à¤¨": 5962,
      "Ġsevere": 5963,
      "Ġà¤¬à¥įà¤°à¤¹": 5964,
      "Ġà¤ħà¤¹à¤®": 5965,
      "ĠDav": 5966,
      "osure": 5967,
      "erson": 5968,
      "Ġà¤®à¥ĭà¤łà¥Ģ": 5969,
      "iar": 5970,
      "Ġà¤¬à¥ģà¤¦à¥įà¤§": 5971,
      "Ġproced": 5972,
      "à¤¶à¥Ģà¤²": 5973,
      "nam": 5974,
      "Ġfight": 5975,
      "Ġà¤¯à¤¾à¤¬à¤¾à¤¬à¤¤": 5976,
      "Ġfill": 5977,
      "Ġà¤µà¤¡": 5978,
      "Ġforms": 5979,
      "Ġà¤¸à¤¾à¤°à¥įà¤µà¤ľà¤¨à¤¿à¤ķ": 5980,
      "Ġà¤Ĩà¤²à¥ĩà¤²à¥įà¤¯à¤¾": 5981,
      "Ġà¤ĸà¤°à¥Ģà¤¦": 5982,
      "Ġinterp": 5983,
      "Ġdry": 5984,
      "nov": 5985,
      "sect": 5986,
      "term": 5987,
      "Ġnucle": 5988,
      "Ġà¤īà¤¦à¤¾à¤¹à¤°à¤£": 5989,
      "ĠSept": 5990,
      "Ġà¤¸à¤¿à¤°": 5991,
      "à¥Īà¤¸": 5992,
      "Ġjo": 5993,
      "Ġà¤²à¤Ĺà¤¾à¤¤à¤¾à¤°": 5994,
      "à¥įà¤µà¥Ģà¤°": 5995,
      "Ġprotein": 5996,
      "ĠMus": 5997,
      "Ġà¤ķà¤°à¤£à¥įà¤¯à¤¾à¤¸": 5998,
      "ceed": 5999,
      "Ġà¤®à¥ĩà¤¡": 6000,
      "Ġseems": 6001,
      "rition": 6002,
      "Ġseries": 6003,
      "ĠGovern": 6004,
      "Ġà¤¹à¥ĭà¤¤à¥ĭ.": 6005,
      "Ġextra": 6006,
      "cean": 6007,
      "Ġcritical": 6008,
      "ĠLear": 6009,
      "Ġà¤¹à¤²à¥įà¤²": 6010,
      "Ġà¤¨à¤¿à¤¯à¤Ĥà¤¤à¥įà¤°à¤£": 6011,
      "Ġà¤¦à¤¬": 6012,
      "Ġà¤Ĩà¤µà¤¾à¤ľ": 6013,
      "-à¤¦": 6014,
      "à¤ļà¤Ĥ": 6015,
      "à¥įà¤¯à¥Ĥà¤Ł": 6016,
      "Ġsect": 6017,
      "orthern": 6018,
      "Ġà¤ıà¤ľ": 6019,
      "Ġà¤µà¥ĩà¤¬à¤¸à¤¾à¤ĩà¤Ł": 6020,
      "Ġà¤ĺà¤Ĥà¤Ł": 6021,
      "yond": 6022,
      "Ġtransport": 6023,
      "Ġà¤ļà¤°à¥įà¤ļ": 6024,
      "Ġà¤¶à¤ķà¤¤à¥ĩ.": 6025,
      "Ġà¤¹à¥Ĥà¤ģ": 6026,
      "Ġcentral": 6027,
      "Ġtechniqu": 6028,
      "istics": 6029,
      "Ġà¤ªà¥įà¤°à¤¬": 6030,
      "ipl": 6031,
      "omet": 6032,
      "Ġthat,": 6033,
      "Ġà¤¤à¤¾à¤¤": 6034,
      "Ġwhose": 6035,
      "Ġenj": 6036,
      "Ġmethods": 6037,
      "Ġdecision": 6038,
      "eal": 6039,
      "Ġà¤¹à¥ĭà¤¤à¤Ĥ.": 6040,
      "Ġbroad": 6041,
      "ĠRet": 6042,
      "Ġfram": 6043,
      "Ġà¤ĩà¤Ĥà¤ľ": 6044,
      "Ġspirit": 6045,
      "Ġunique": 6046,
      "ĠServ": 6047,
      "a)": 6048,
      "à¤¾à¤Ĺà¤¤": 6049,
      "Ġà¤Ĩà¤£à¤ĸà¥Ģ": 6050,
      "Ġà¤łà¤¾à¤£": 6051,
      "Ġ(E": 6052,
      "Ġà¤ľà¤®à¥Ģà¤¨": 6053,
      "à¤¾à¤ķà¥ĩ": 6054,
      "vention": 6055,
      "inct": 6056,
      "Ġancient": 6057,
      "à¤®à¥ĭà¤°": 6058,
      "ĠBecause": 6059,
      "Ġ\"I": 6060,
      "Ġuseful": 6061,
      "Ġà¤ľà¥ĭà¤¡à¤¼": 6062,
      "Ġcommunic": 6063,
      "Ġà¤ķà¥ħ": 6064,
      "âĢĻve": 6065,
      "à¤ķà¤°à¤£à¥Ģ": 6066,
      "ino": 6067,
      "Ġnorth": 6068,
      "à¤ªà¤¤à¤¿": 6069,
      "à¥Ģà¤ĸ": 6070,
      "à¥īà¤°": 6071,
      "à¤¾à¤ķà¤¡à¥Ĥà¤¨": 6072,
      "Ġà¤ķà¥ĭà¤£à¤¤à¥įà¤¯à¤¾à¤¹à¥Ģ": 6073,
      "Ġculture": 6074,
      "Ġà¤ķà¤¶": 6075,
      "à¤Ĥà¤¨": 6076,
      "Ġbeginning": 6077,
      "Ġà¤ªà¥ĥà¤¥": 6078,
      "udd": 6079,
      "ĠSch": 6080,
      "Ġhar": 6081,
      "Ġlarger": 6082,
      "olar": 6083,
      "Ġcontribut": 6084,
      "Ġbad": 6085,
      "arian": 6086,
      "à¥Ģà¤Ĩà¤Ī": 6087,
      "Ġà¤¹à¥ĭà¤Īà¤².": 6088,
      "à¤°à¤¾à¤·à¥įà¤Łà¥įà¤°à¥Ģà¤¯": 6089,
      "à¥ĩà¤Ĥà¤ļ": 6090,
      "Ġà¤¸à¥Ģà¤°": 6091,
      "Ġpage": 6092,
      "ism,": 6093,
      "ĠSw": 6094,
      "Ġit's": 6095,
      "ius": 6096,
      "dd": 6097,
      "Ġcustom": 6098,
      "Ġà¤®à¤¤à¤¦à¤¾à¤°": 6099,
      "Ġtowards": 6100,
      "ĠMod": 6101,
      "ĠAfrican": 6102,
      "Ġfactor": 6103,
      "Ġà¤¤à¥Įà¤°": 6104,
      "Ġeasily": 6105,
      "Ġ(s": 6106,
      "Ġanaly": 6107,
      "Ġbank": 6108,
      "Ġà¤Ńà¤ķà¥įà¤¤": 6109,
      "Ġà¤ªà¥ģà¤°à¤¸à¥įà¤ķà¤¾à¤°": 6110,
      "Ġà¤¸à¤ļà¤¿à¤µ": 6111,
      "à¥ĩà¤«": 6112,
      "Ġà¤µà¤¿à¤¦à¥ĩà¤¶": 6113,
      "eration": 6114,
      "à¤ľà¤¾": 6115,
      "Ġà¤ļà¥ĩà¤¹": 6116,
      "à¤ıà¤¨": 6117,
      "eed": 6118,
      "Ġà¤¨à¤¿à¤¦": 6119,
      "coh": 6120,
      "Ġlost": 6121,
      "rogen": 6122,
      "Ġoffer": 6123,
      "Ġà¤¨à¤¸à¤²à¥įà¤¯à¤¾à¤": 6124,
      "Ġà¤®à¥ĥà¤¤à¥įà¤¯à¥Ĥ": 6125,
      "Ġpack": 6126,
      "istry": 6127,
      "Ġà¤¸à¤¹à¤¾à¤¯": 6128,
      "Ġprior": 6129,
      "na": 6130,
      "iverse": 6131,
      "Ġ(H": 6132,
      "ĠCong": 6133,
      "à¤¬à¥įà¤²": 6134,
      "Ġà¤ħà¤¸à¤¤à¥ĭ.": 6135,
      "Ġlimit": 6136,
      "à¥Ģà¤¤à¥Ģà¤²": 6137,
      "Ġà¤¸à¤Ĥà¤ªà¤°à¥įà¤ķ": 6138,
      "Ġà¤ķà¤¾à¤Ĥà¤": 6139,
      "Ġdecl": 6140,
      "Ġà¤¦à¤¿à¤µà¤¶à¥Ģ": 6141,
      "Ġeffort": 6142,
      "Ġelse": 6143,
      "vert": 6144,
      "Ġà¤¬à¥įà¤°à¤¹à¥įà¤®": 6145,
      "Ġdaily": 6146,
      "Ġà¤¨à¥ĩà¤¤à¥ĩ": 6147,
      "ows": 6148,
      "Ġà¤²à¤Ĥà¤¬": 6149,
      "Ġstarted": 6150,
      "Ġprotection": 6151,
      "vant": 6152,
      "Ġdirectly": 6153,
      "Ġà¤Ĺà¥ĩà¤²à¥ĩ": 6154,
      "ĠWork": 6155,
      "Ġleading": 6156,
      "Ġpurpose": 6157,
      "Ġà¤µà¥ĥà¤¦à¥įà¤§": 6158,
      "à¤¨à¥Ģà¤¯": 6159,
      "Ġà¤Ķà¤·à¤§": 6160,
      "Ġappropriate": 6161,
      "gram": 6162,
      "Ġmount": 6163,
      "Ġà¤Ĩà¤ķà¤¾à¤°": 6164,
      "Ġ+": 6165,
      "à¤¿à¤²à¥ĩ": 6166,
      "Ġà¤Ĭà¤ªà¤°": 6167,
      "ming": 6168,
      "Ġà¤ªà¥įà¤°à¤µà¤¾à¤¸": 6169,
      "Ġis,": 6170,
      "ension": 6171,
      "Ġà¤īà¤®à¥ĩà¤¦à¤µà¤¾à¤°": 6172,
      "ĠAlso": 6173,
      "Ġà¤¹à¤¾à¤¸": 6174,
      "ĠThen": 6175,
      "Ġà¤Ńà¤¾à¤Ī": 6176,
      "Ġà¤¨à¤ķ": 6177,
      "âĢĻll": 6178,
      "Ġissue": 6179,
      "Ġaim": 6180,
      "Ġà¤¸à¥įà¤µà¤¤à¤Ĥà¤¤à¥įà¤°": 6181,
      "able.": 6182,
      "Ġclin": 6183,
      "à¤¿à¤¯à¤²": 6184,
      "à¤¡à¤¼à¤ķ": 6185,
      "aches": 6186,
      "Ġà¤ªà¥ī": 6187,
      "Ġà¤ļà¥Ģà¤ľ": 6188,
      "Ġà¤¸à¤¹à¤Ńà¤¾à¤Ĺ": 6189,
      "à¥įà¤ķà¤¿": 6190,
      "ĠGree": 6191,
      "load": 6192,
      "à¥Ģà¤·": 6193,
      "Ġcapital": 6194,
      "Ġà¤ľà¤¾à¤Īà¤²": 6195,
      "Ġsymb": 6196,
      "Ġprivate": 6197,
      "à¤¸à¤¹": 6198,
      "Ġà¤ªà¤¥": 6199,
      "Ġ(G": 6200,
      "pro": 6201,
      "Ġà¤¯à¤¾à¤¤à¥įà¤°à¤¾": 6202,
      "Ġstay": 6203,
      "Ġà¤ªà¤°à¤¿à¤¸à¤°": 6204,
      "Ġdark": 6205,
      "Ġà¤ĩà¤Ĥà¤Ĺà¥įà¤²": 6206,
      "Ġmom": 6207,
      "ĠSim": 6208,
      "à¥īà¤¯": 6209,
      "à¤²à¤¤": 6210,
      "Ġpropert": 6211,
      "Ġà¤ķà¤¾à¤¨à¥Ĥà¤¨": 6212,
      "Ġà¤¹à¤¤à¥įà¤¯à¤¾": 6213,
      "Ġindustr": 6214,
      "Ġà¤ķà¥ĭà¤¶à¤¿à¤¶": 6215,
      "à¤²à¥Ģà¤µ": 6216,
      "ises": 6217,
      "Ġhundred": 6218,
      "Ġdemand": 6219,
      "Ġà¤ľà¤¾à¤Ĺà¤¾": 6220,
      "à¤®à¤¹": 6221,
      "ĠWhy": 6222,
      "Ġà¤ķà¥įà¤µ": 6223,
      "à¤¦à¤¾à¤°à¥Ģ": 6224,
      ".com": 6225,
      "Ġ(L": 6226,
      "Ġ#": 6227,
      "Ġbrought": 6228,
      "Ġshall": 6229,
      "Ġaccur": 6230,
      "ĠApril": 6231,
      "Ġà¤ķà¤¾?": 6232,
      "Ġproces": 6233,
      "Ġlargest": 6234,
      "Ġà¤¶à¤¿à¤ķà¥įà¤·à¤ķ": 6235,
      "et,": 6236,
      "Ġà¤¯à¤¹à¤¾à¤ģ": 6237,
      "Ġà¤¦à¤¿à¤¸à¥Ĥà¤¨": 6238,
      "à¤¿à¤ķà¤¾à¤°": 6239,
      "Ġà¤¬à¤¿à¤¹à¤¾à¤°": 6240,
      "Ġà¤ķà¥ĥà¤·à¥įà¤£": 6241,
      "Ġfast": 6242,
      "Ġà¤īà¤¡": 6243,
      "Ġvideo": 6244,
      "Ġagricult": 6245,
      "Ġà¤īà¤ĺà¤¡": 6246,
      "Ġà¤®à¤¾à¤°à¥įà¤ķ": 6247,
      "Ġmonths": 6248,
      "Ġà¤¥à¥Ģ.": 6249,
      "Ġà¤ªà¥įà¤°à¤¾à¤£": 6250,
      "Ġà¤Ĺà¥ģà¤Ĥà¤¤": 6251,
      "Ġattention": 6252,
      "à¥įà¤°à¥Ģà¤®": 6253,
      "Ġsea": 6254,
      "Ġkids": 6255,
      "Ġadminist": 6256,
      "à¥ĥà¤¦à¤¯": 6257,
      "ĠAssoci": 6258,
      "à¥ģà¤·à¥įà¤ķ": 6259,
      "à¤µà¥Ģà¤¸": 6260,
      "ĠRiver": 6261,
      "ĠPark": 6262,
      "Ġà¤¸à¥ģà¤°à¤ķà¥įà¤·à¤¿à¤¤": 6263,
      "Ġà¤¬à¤¾à¤¤à¤®": 6264,
      "Ġorganiz": 6265,
      "Ġà¤µà¤¾à¤¹à¤¤": 6266,
      "Ġsearch": 6267,
      "Ġà¤µà¤¾à¤¤à¤¾à¤µà¤°à¤£": 6268,
      "Ġà¤ĩà¤¥": 6269,
      "aid": 6270,
      "Ġà¤ļà¤¿à¤ķà¤¿à¤¤": 6271,
      "Ġà¤¸à¥ģà¤¬à¤¹": 6272,
      "Ġà¤ļà¤²à¤¾": 6273,
      "Ġà¤¤à¥įà¤¯à¤¾à¤µ": 6274,
      "Ġà¤®à¥Īà¤Ĥà¤¨à¥ĩ": 6275,
      "Ġà¤¸à¤Ĥà¤¯à¥ģà¤ķà¥įà¤¤": 6276,
      "alt": 6277,
      "ĠMc": 6278,
      "Ġà¤µà¥Īà¤¦": 6279,
      "à¤¨à¤¿": 6280,
      "Ġà¤µà¤°à¥įà¤·à¥ĭà¤Ĥ": 6281,
      "Ġà¤¹à¥įà¤¯à¤¾": 6282,
      "ED": 6283,
      "come": 6284,
      "à¤¾à¤°à¤¿à¤¤": 6285,
      ".)": 6286,
      "Ġà¤¸à¤ķà¤¾à¤³à¥Ģ": 6287,
      "à¥įà¤¯à¤¾à¤®": 6288,
      "Ġà¤ĸà¤°à¥ĩà¤¦à¥Ģ": 6289,
      "Ġgot": 6290,
      "Ġcontains": 6291,
      "Ġà¤ħà¤ļà¥įà¤Ľà¥Ģ": 6292,
      "rag": 6293,
      "Ġcred": 6294,
      "ening": 6295,
      "Ġà¤®à¤¹à¤¤à¥įà¤µà¤ªà¥Ĥà¤°à¥įà¤£": 6296,
      "Ġà¤¤à¥Ģà¤¸": 6297,
      "à¤ħà¤ª": 6298,
      "Ġand,": 6299,
      "ĠJune": 6300,
      "à¥ĩà¤§": 6301,
      "gn": 6302,
      "ham": 6303,
      "à¤¿à¤¶à¤¤": 6304,
      "Ġsafety": 6305,
      "Ġquant": 6306,
      "Ġà¤µà¤¾à¤Łà¤¤": 6307,
      "Ġelement": 6308,
      "itch": 6309,
      "oming": 6310,
      "Ġà¤¸à¤Ĥà¤¸à¥įà¤ķà¥ĥà¤¤": 6311,
      "Ġà¤¸à¥įà¤Łà¥ĩà¤¶à¤¨": 6312,
      "Ġobtain": 6313,
      "à¤£à¥įà¤¯à¤¾à¤ļà¥ĩ": 6314,
      "ened": 6315,
      "Ġ'à¤ķ": 6316,
      "Ġinfluence": 6317,
      "Ġprograms": 6318,
      "ĠInstitute": 6319,
      "gy": 6320,
      "Ġsugar": 6321,
      "Ġà¤¸à¤®à¤¾à¤§": 6322,
      "Ġà¤¸à¥Ģ": 6323,
      "Ġà¤ªà¥įà¤°à¤¯à¤¾à¤¸": 6324,
      "Ġà¤®à¤¸": 6325,
      "Ġà¤®à¤¿à¤³à¤µ": 6326,
      "ĠArm": 6327,
      "Ġfriend": 6328,
      "IV": 6329,
      "à¤¾-": 6330,
      "Ġrat": 6331,
      "-g": 6332,
      "ira": 6333,
      "Ġexact": 6334,
      "ĠFin": 6335,
      "Ġà¤ĩà¤¸à¥įà¤¤à¥ĩà¤®à¤¾à¤²": 6336,
      "arr": 6337,
      "ĠPat": 6338,
      "Ġà¤¬à¤²à¥įà¤ķà¤¿": 6339,
      "Ġsoftware": 6340,
      "à¥ĩà¤¶à¤¨à¤²": 6341,
      "Ġdoctor": 6342,
      "Ġjud": 6343,
      "ĠDis": 6344,
      "ĠPresident": 6345,
      "Ġà¤¶à¥ģà¤°à¥ģà¤Ĩ": 6346,
      "à¤ķà¥įà¤°à¤®": 6347,
      "Ġfinancial": 6348,
      "Ġà¤¨à¤¯": 6349,
      "Ġcapac": 6350,
      "à¤Ĥà¤µ": 6351,
      "Ġà¤ªà¥ģà¤¢à¥Ģà¤²": 6352,
      "Ġsouth": 6353,
      "Ġà¤°à¥ģà¤ªà¤ı": 6354,
      "Ġà¤ªà¥įà¤°à¤¾à¤°": 6355,
      "âĢĿ.": 6356,
      "Ġlength": 6357,
      "Ġà¤ıà¤ķà¤®": 6358,
      "Ġà¤¤à¥ģ": 6359,
      "ĠInst": 6360,
      "Ġsystem.": 6361,
      "à¤¾à¤¯à¤ļà¥ĩ": 6362,
      "Ġcarry": 6363,
      "ibrary": 6364,
      "Ġcommand": 6365,
      "Ġ(T": 6366,
      "hest": 6367,
      "ĠTrans": 6368,
      "ĠTechn": 6369,
      "Ġà¤¹à¤¾à¤²à¤¾à¤Ĥà¤ķà¤¿": 6370,
      "Ġà¤¤à¤®": 6371,
      "Ġà¤®à¤Ĥà¤¡à¤³": 6372,
      "ĠHigh": 6373,
      "Ġà¤¶à¥ĩà¤¤à¤ķà¤°à¥Ģ": 6374,
      "imal": 6375,
      "à¥įà¤¹à¥ĩà¤Ĥ": 6376,
      "Ġà¤µà¤¿à¤§à¤¾à¤¯à¤ķ": 6377,
      "à¤¾à¤¨à¤Ĥ": 6378,
      "Ġà¤°à¤ĸà¤¾": 6379,
      "Ġitem": 6380,
      "Ġvirus": 6381,
      "à¥ĭà¤Łà¥Ģ": 6382,
      "Ġà¤¦à¥ģà¤¸à¤±à¥įà¤¯à¤¾": 6383,
      "ops": 6384,
      "Ġcrim": 6385,
      "à¤²à¥Ģ,": 6386,
      "à¤¾à¤¨à¥ģà¤¸à¤¾à¤°": 6387,
      "Ġà¤°à¥Ĥà¤¸": 6388,
      "ĠEc": 6389,
      "Ġadop": 6390,
      "Ġegg": 6391,
      ");": 6392,
      "Ġà¤ķà¤°à¥ģà¤¨": 6393,
      "Ġà¤ľà¤¬à¤¾à¤¬": 6394,
      "Ġestablish": 6395,
      "à¤°à¥įà¤Ńà¤¾à¤¤": 6396,
      "Ġà¤Ĩà¤ªà¤²à¤¾": 6397,
      "Ġwa": 6398,
      "Ġreach": 6399,
      "ights": 6400,
      "back": 6401,
      "fort": 6402,
      "à¤¾à¤°à¤ĸà¥įà¤¯à¤¾": 6403,
      "Ġbeaut": 6404,
      "Ġep": 6405,
      "Ġisland": 6406,
      "Ġnearly": 6407,
      "Ġà¤°à¤¹à¤¤à¥ĩ": 6408,
      "Ġsoon": 6409,
      "Ġcool": 6410,
      "Ġlocated": 6411,
      "aul": 6412,
      "ĠChines": 6413,
      "Ġexcept": 6414,
      "Ġà¤¨à¥Ģà¤¤à¤¿": 6415,
      "à¤®à¥ĩ": 6416,
      "Ġà¤¨à¤¿à¤ķà¤²": 6417,
      "Ġà¤ªà¤Ĥà¤¤à¤ªà¥įà¤°à¤§à¤¾à¤¨": 6418,
      "Ġà¤ªà¤¹à¤¿à¤²à¥įà¤¯à¤¾": 6419,
      "Ġteachers": 6420,
      "head": 6421,
      "Ġà¤¨à¤¿à¤µà¤¡à¤£à¥Ĥà¤ķ": 6422,
      "Ġà¤°à¥ĭà¤¡": 6423,
      "Ġyear.": 6424,
      "à¥įà¤¯à¤¾à¤¶à¥Ģ": 6425,
      "ĠCenter": 6426,
      "Ġà¤ªà¤¾à¤¤": 6427,
      "Ġà¤ªà¤¿à¤¤à¤¾": 6428,
      "Ġtransl": 6429,
      "ĠEngland": 6430,
      "Ġà¤¹à¥Ī?": 6431,
      "Ġà¤ªà¥ģà¤¤à¥įà¤°": 6432,
      "Ġà¤Ĩà¤µà¤¡": 6433,
      "Ġdamage": 6434,
      "Ġtrack": 6435,
      "ĠRed": 6436,
      "à¥ģà¤¨à¤¿à¤ķ": 6437,
      "Ġà¤ıà¤ķà¥įà¤Ł": 6438,
      "à¤¾à¤Ĥà¤®": 6439,
      "Ġà¤Ĩà¤²à¥įà¤¯à¤¾à¤": 6440,
      "¢à¤¼": 6441,
      "Ġà¤ĺà¤°à¥Ģ": 6442,
      "Ġhimself": 6443,
      "Ġà¤¹à¤¿à¤°": 6444,
      "Ġdisp": 6445,
      "Ġtold": 6446,
      "Ġà¤°à¤¾à¤¤à¥įà¤°à¥Ģ": 6447,
      "vest": 6448,
      "à¤ªà¥įà¤¤": 6449,
      "Ġà¤¸à¥ĩà¤¨à¤¾": 6450,
      "ĠBi": 6451,
      "Ġà¤Ńà¤¾à¤Ĺà¤¾à¤¤": 6452,
      "i)": 6453,
      "mar": 6454,
      "Ġà¤Ĺà¥ģà¤¨à¥įà¤¹à¤¾": 6455,
      "ĠWashing": 6456,
      "Ġà¤Ĺà¥ģà¤¨à¥įà¤¹": 6457,
      "Ġrequires": 6458,
      "Ġprogress": 6459,
      "Ø§": 6460,
      "Ġsn": 6461,
      "Ġà¤ªà¥įà¤°à¤¤à¥įà¤¯à¤ķà¥įà¤·": 6462,
      "EN": 6463,
      "ĠPeople": 6464,
      "-y": 6465,
      "Ġà¤¬à¤ļà¥įà¤ļà¥ĩ": 6466,
      "Ġà¤¨à¤¿à¤°à¥Ģ": 6467,
      "Ġdescribed": 6468,
      "Ġà¤Īà¤¶": 6469,
      "Ġbecomes": 6470,
      "ody": 6471,
      "ender": 6472,
      "Ġà¤¦à¤¾à¤°": 6473,
      "Ġà¤®à¥Īà¤¦à¤¾à¤¨": 6474,
      "Ġschools": 6475,
      "ĠDevelop": 6476,
      "Ġ(the": 6477,
      "à¥Ĥ,": 6478,
      "ogen": 6479,
      "IS": 6480,
      "atur": 6481,
      "Ġdead": 6482,
      "Ġvict": 6483,
      "rig": 6484,
      "Ġà¤¹à¥ī": 6485,
      "Ġà¤Ĺà¥ģà¤ľà¤°à¤¾à¤¤": 6486,
      "Ġrare": 6487,
      "ĠyouâĢĻre": 6488,
      "uit": 6489,
      "Ġsurround": 6490,
      "Ġhous": 6491,
      "Ġteaching": 6492,
      "Ġà¤ĸà¤Ĥà¤¡": 6493,
      "Ġfather": 6494,
      "Ġagree": 6495,
      "Ġfruit": 6496,
      "estic": 6497,
      "Ġfuel": 6498,
      "ĠFeb": 6499,
      "Ġà¤ĸà¥ģ": 6500,
      "à¤¤à¥įà¤¤à¤°": 6501,
      "ĠDay": 6502,
      "Ġà¤ªà¥Ģà¤Ľà¥ĩ": 6503,
      "ĠJust": 6504,
      "Ġà¤ªà¥įà¤°à¤¤à¤¿à¤¶à¤¤": 6505,
      "bit": 6506,
      "Ġsummer": 6507,
      "Ġstru": 6508,
      "Ġadded": 6509,
      "oke": 6510,
      "Ġà¤¦à¥Ģà¥¤": 6511,
      "à¤ķà¤¾à¤°à¤£": 6512,
      "Ġà¤¸à¥ģà¤Ł": 6513,
      "à¤¦à¤°à¥įà¤¶à¤¨": 6514,
      "à¤¿à¤²à¥įà¤²": 6515,
      "Ġunc": 6516,
      "à¤¿à¤Ĥà¤¬": 6517,
      "Ġà¤°à¤¾à¤ľà¥įà¤¯à¤¾à¤¤": 6518,
      "Ġà¤¶à¤¾à¤¸": 6519,
      "ĠWilliam": 6520,
      "Ġà¤¬à¥ģà¤²": 6521,
      "Ġveh": 6522,
      "Ġmole": 6523,
      "itting": 6524,
      "ent,": 6525,
      "à¤¾à¤¸à¥įà¤Ł": 6526,
      "itation": 6527,
      "Ġevents": 6528,
      "equ": 6529,
      "à¤²à¤¾,": 6530,
      "Ġreceived": 6531,
      "ospital": 6532,
      "Ġult": 6533,
      "Ġpolicy": 6534,
      "à¤ķà¤°,": 6535,
      "à¤ģà¤¡": 6536,
      "Ġà¤Ĺà¥įà¤°à¤¹": 6537,
      "Ġlabor": 6538,
      "....": 6539,
      "ology,": 6540,
      "Ġmemory": 6541,
      "itude": 6542,
      "Ġsaw": 6543,
      "'re": 6544,
      "Ġenjoy": 6545,
      "Ġà¤¸à¤¾à¤ª": 6546,
      "itect": 6547,
      "Ġunit": 6548,
      "Ġrespond": 6549,
      "Ġpan": 6550,
      "Ġà¤¦à¥ģà¤ķà¤¾à¤¨": 6551,
      "rael": 6552,
      "à¤¾à¤Łà¤¾": 6553,
      "resh": 6554,
      "à¤¾à¤Ĥà¤¤à¥Ģà¤²": 6555,
      "Ġwebsite": 6556,
      "à¥įà¤®à¥Ģà¤°": 6557,
      "igr": 6558,
      "cember": 6559,
      "Ġdon't": 6560,
      "Ġà¤®à¤°à¤¾à¤ł": 6561,
      "cohol": 6562,
      "à¤ķà¤°à¥Ģ": 6563,
      "Ġteach": 6564,
      "Ġcoast": 6565,
      "IT": 6566,
      "cial": 6567,
      "Ġmention": 6568,
      "Ġrapid": 6569,
      "Ġà¤µà¥įà¤¯à¤¾à¤ªà¤¾à¤°": 6570,
      "Ġà¤¨à¤¿à¤°à¥įà¤§": 6571,
      "ovember": 6572,
      "Ġà¤ªà¥įà¤°à¤¶à¤¿à¤ķà¥įà¤·à¤£": 6573,
      "rab": 6574,
      "Ġfederal": 6575,
      "Ġcontext": 6576,
      "à¤²à¤Ĺ": 6577,
      "Ġà¤ªà¤¾à¤Ĭ": 6578,
      "Ġà¤¬à¥Ģà¤®": 6579,
      "Ġà¤ķà¥ĩà¤²à¤Ĥ": 6580,
      "Ġà¤¸à¤¾à¤«": 6581,
      "Ġà¤¦à¥ĭà¤·": 6582,
      "Ġà¤¶à¤¾à¤¸à¥įà¤¤à¥įà¤°": 6583,
      "Ġborn": 6584,
      "aur": 6585,
      "Ġreligious": 6586,
      "Ġnumbers": 6587,
      "isions": 6588,
      "al.": 6589,
      "à¥Ĥà¤µ": 6590,
      "Ġà¤ħà¤¤à¥įà¤¯à¤Ĥà¤¤": 6591,
      "Ġcitiz": 6592,
      "ĠVir": 6593,
      "à¤µà¤£à¥Ĥà¤ķ": 6594,
      "ĠOver": 6595,
      "Ġfoods": 6596,
      "Ġà¤¶à¥ĩà¤¯à¤°": 6597,
      "à¤¾à¤Īà¤Ł": 6598,
      "Ġà¤Ĩà¤®à¥įà¤¹à¤¾à¤²à¤¾": 6599,
      "iece": 6600,
      "ingu": 6601,
      "Ġà¤¨à¥ĩà¤®": 6602,
      "Ġà¤ķà¥ĭà¤µà¤¿à¤¡": 6603,
      "Ġà¤§à¤®": 6604,
      "ĠJuly": 6605,
      "Ġà¤°à¤ĸà¤¨à¥ĩ": 6606,
      "Ġà¤ªà¥įà¤°à¤¿à¤¯": 6607,
      "Ġà¤¸à¤Ĥà¤Ńà¤¾à¤µ": 6608,
      "Ġà¤¥à¤¾à¤Ĥà¤¬": 6609,
      "ĠJanuary": 6610,
      "Ġroom": 6611,
      "apter": 6612,
      "Ġà¤°à¤¾à¤¶à¤¿": 6613,
      "Ġà¤µà¤¯": 6614,
      "Ġà¤µà¤¿à¤µà¤¾à¤¹": 6615,
      "rong": 6616,
      "raw": 6617,
      "ss": 6618,
      "ĠLet": 6619,
      "Ġsources": 6620,
      "Ġlimited": 6621,
      "Ġà¤ħà¤§à¤¿à¤ķà¤¾à¤°à¤¿à¤¯à¥ĭà¤Ĥ": 6622,
      "ĠGreat": 6623,
      "Ġà¤īà¤¤à¥įà¤¤à¤®": 6624,
      "ic,": 6625,
      "à¤¿à¤¯à¤¾à¤ģ": 6626,
      "Ġà¤²à¥Į": 6627,
      "pper": 6628,
      "ence,": 6629,
      "Ġprofessional": 6630,
      "à¥ĩà¤²,": 6631,
      "à¥Ģà¤®à¤§à¥įà¤¯à¥ĩ": 6632,
      "à¤¾à¤¸à¤¾à¤¹à¥ĩà¤¬": 6633,
      "Ġà¤ħà¤¸à¤²à¥įà¤¯à¤¾à¤ļà¥Ģ": 6634,
      "Ġà¤ĳà¤¸à¥įà¤Łà¥įà¤°à¥ĩà¤²": 6635,
      "Ġà¤¦à¥ĩà¤Ĭà¤¨": 6636,
      "Ġà¤Ĺà¤¤": 6637,
      "Ġcold": 6638,
      "ĠAre": 6639,
      "Ġtypically": 6640,
      "ĠJournal": 6641,
      "Ġà¤ļà¥ģà¤ķà¤¾": 6642,
      "Ġpoints": 6643,
      "Ġdiabet": 6644,
      "Ġà¤ķà¤¾à¤°à¥įà¤°": 6645,
      "Ġà¤°à¤¹à¤¤à¤¾": 6646,
      "ades": 6647,
      "Ġupd": 6648,
      "ĠSeptember": 6649,
      "rick": 6650,
      "Ġà¤®à¥Įà¤ķà¥ĩ": 6651,
      "Ġmonitor": 6652,
      "Ġpet": 6653,
      "à¤Ĥà¤¡à¤³": 6654,
      "Ġà¤¬à¤¨à¤¾à¤¯à¤¾": 6655,
      "Ġà¤¹à¤¿à¤®": 6656,
      "Ġà¤Ĺà¥ģà¤°à¥ģà¤µ": 6657,
      "Ġrecommend": 6658,
      "unch": 6659,
      "Ġdigital": 6660,
      "Ġà¤®à¤ľà¤¬à¥Ĥà¤¤": 6661,
      "à¥įà¤¯à¤¾à¤Ĥà¤µà¤°": 6662,
      "à¤ªà¤¤à¥Ģ": 6663,
      "Ġconstruction": 6664,
      "Ġremains": 6665,
      "à¥Ģà¤Ĩà¤°": 6666,
      "Ġà¤ªà¥ģà¤£à¥ĩ": 6667,
      "Ġast": 6668,
      "Ġà¤¦à¤¿à¤Ĺ": 6669,
      "Ġà¤¬à¤¨à¤¾à¤ı": 6670,
      "Ġcultural": 6671,
      "Ġà¤®à¤¾à¤§à¥įà¤¯à¤®à¤¾à¤¤à¥Ĥà¤¨": 6672,
      "omb": 6673,
      "Ġbul": 6674,
      "Ġder": 6675,
      "Ġguid": 6676,
      "Ġà¤¹à¥ĥà¤¦à¤¯": 6677,
      "Ġcou": 6678,
      "ĠUse": 6679,
      "à¤Ńà¤¾à¤°": 6680,
      "Ġpredict": 6681,
      "ĠEach": 6682,
      "Ġfilm": 6683,
      "à¤¾à¤¯à¤¾à¥¤": 6684,
      "Ġà¤ªà¥Ĥà¤ľà¤¾": 6685,
      "Ġà¤¸à¤¤à¥įà¤¯": 6686,
      "ription": 6687,
      "Ġ(à¤¸": 6688,
      "ĠBlack": 6689,
      "Ġà¤²à¤¿à¤ĸà¤¾": 6690,
      "Ġà¤ħà¤§à¤¿à¤ķà¤¾à¤±": 6691,
      "Ġà¤¬à¤²à¥įà¤²": 6692,
      "irection": 6693,
      "formation": 6694,
      "oring": 6695,
      "Ġà¤¸à¤¹à¥Ģ": 6696,
      "Ġà¤¨à¤¿à¤¯à¥ģà¤ķà¥įà¤¤": 6697,
      "lim": 6698,
      "Ġà¤ļà¥ģà¤ķà¥Ģ": 6699,
      "Ġresponsible": 6700,
      "Ġfib": 6701,
      "ĠAnother": 6702,
      "hens": 6703,
      "Ġà¤¤à¤¸à¥įà¤µà¥Ģà¤°": 6704,
      "Ġà¤²à¥ĭà¤ķà¤ªà¥įà¤°": 6705,
      "ĠSur": 6706,
      "Ġtit": 6707,
      "Ġadapt": 6708,
      "Ġanswer": 6709,
      "à¤Łà¥įà¤Ł": 6710,
      "à¤¾à¤Ĥà¤ķà¤¡à¥Ĥà¤¨": 6711,
      "Ġà¤²à¥ĭà¤ķà¤¾à¤Ĥà¤¨à¤¾": 6712,
      "ĠCoun": 6713,
      "Ġadj": 6714,
      "ourc": 6715,
      "obile": 6716,
      "Ġà¤Ĺà¥ģà¤ª": 6717,
      "Ġdepend": 6718,
      "Ġà¤¯à¥ģà¤µà¤ķ": 6719,
      "Ġà¤ħà¤Ĺà¤¦à¥Ģ": 6720,
      "ics.": 6721,
      "ĠChinese": 6722,
      "Ġi": 6723,
      "Ġgives": 6724,
      "ĠWater": 6725,
      "Ġà¤µà¤¾": 6726,
      "à¤³à¥įà¤¯à¤¾": 6727,
      "ĠSan": 6728,
      "ĠCommun": 6729,
      "Ġà¤ľà¤µ": 6730,
      "Ġà¤ķà¤°à¤¾": 6731,
      "à¥ĩà¤¤à¤¨": 6732,
      "Ġà¤ľà¥ĩà¤µà¥įà¤¹à¤¾": 6733,
      "Ġà¤ķà¤¾à¤°à¥įà¤°à¤µà¤¾à¤Ī": 6734,
      "Ġfinal": 6735,
      "ĠOctober": 6736,
      "Ġseason": 6737,
      "Ġcompanies": 6738,
      "Ġà¤µà¥įà¤¯à¤¾à¤": 6739,
      "Ġà¤¸à¥įà¤µà¤ļà¥įà¤Ľ": 6740,
      "rote": 6741,
      "à¤¾à¤µà¤¤": 6742,
      "Ġà¤ĺà¥ĩà¤¤à¤²à¥Ģ": 6743,
      "Ġà¤ıà¤µà¤¢": 6744,
      "Ġà¤¹à¥ĭ,": 6745,
      "Ġsecurity": 6746,
      "Ġà¤¸à¥ģà¤µà¤¿à¤§à¤¾": 6747,
      "ĠJesus": 6748,
      "Ġà¤µà¥įà¤¯à¤µà¤¸à¥įà¤¥": 6749,
      "ated.": 6750,
      "ĠIS": 6751,
      "ford": 6752,
      "Ġ(c": 6753,
      "Ġbeyond": 6754,
      "ev": 6755,
      "à¤¾à¤Ĥà¤ľ": 6756,
      "ĠOnce": 6757,
      "Ġriver": 6758,
      "ps": 6759,
      "Ġà¤ĩà¤¤à¤¨à¤¾": 6760,
      "Ġweb": 6761,
      "ĠRoman": 6762,
      "Ġà¤®à¤¤à¤¦à¤¾à¤¨": 6763,
      "Ġcreating": 6764,
      "Ġà¤¹à¥ĩà¤¤": 6765,
      "Ġà¤¸à¤®à¥įà¤¬": 6766,
      "Ġà¤µà¤¾à¤¯": 6767,
      "Ġà¤¸à¤Ĥà¤°à¤ķà¥įà¤·à¤£": 6768,
      "aries": 6769,
      "à¤®à¤°": 6770,
      "Ġà¤«à¥ĩà¤¸": 6771,
      "enge": 6772,
      "Ġthem,": 6773,
      "Ġinstall": 6774,
      "Ġinfl": 6775,
      "à¤¾à¤īà¤Ĥà¤Ł": 6776,
      "Ġmix": 6777,
      "à¤¸à¤¿à¤¤": 6778,
      "Ġà¤ħà¤Ĥà¤¤à¤°à¥įà¤Ĺà¤¤": 6779,
      "anish": 6780,
      "Ġà¤ħà¤®à¤¿à¤¤": 6781,
      "ĠArch": 6782,
      "Ġà¤¬à¥Ģ": 6783,
      "ĠLaw": 6784,
      "Ġlives": 6785,
      "Ġà¤®à¤Ĥà¤Ĺà¤²": 6786,
      "à¥ĩà¤ł": 6787,
      "Ġà¤¸à¥ĩà¤¨": 6788,
      "Ġcele": 6789,
      "à¤°à¥įà¤ĺ": 6790,
      "ocol": 6791,
      "Ġcrop": 6792,
      "Ġwrite": 6793,
      "Ġbase": 6794,
      "ĠCour": 6795,
      "Ġà¤°à¤¿à¤ķ": 6796,
      "Ġcities": 6797,
      "Ġà¤ĸà¤¾à¤²à¥Ģ": 6798,
      "Ġtree": 6799,
      "Ġà¤ļà¥ĭà¤°": 6800,
      "à¤§à¤¾à¤¨à¥Ģ": 6801,
      "Ġà¤µà¤°à¤¿à¤·à¥įà¤ł": 6802,
      "à¤¸à¥įà¤µà¥Ģ": 6803,
      "Ġcollection": 6804,
      "à¤ķà¤®": 6805,
      "ĠC.": 6806,
      "à¤¾à¤µà¤Ł": 6807,
      "ĠSystem": 6808,
      "Ġscreen": 6809,
      "Ġconstit": 6810,
      "Ġequip": 6811,
      "à¤Ĩà¤ª": 6812,
      "Ġadvant": 6813,
      "Ġgenetic": 6814,
      "Ġliv": 6815,
      "Ġnation": 6816,
      "à¤ĺà¤¾à¤¤": 6817,
      "Ġseek": 6818,
      "Ġà¤¸à¤Ĥà¤ķà¤Ł": 6819,
      "et.": 6820,
      "Ġà¤ĩà¤ķ": 6821,
      "à¤£à¤¾à¤°à¥ĩ": 6822,
      "Ġà¤¨à¤¿à¤ľ": 6823,
      "Ġà¤°à¤ľ": 6824,
      "Ġmid": 6825,
      "Ġà¤ıà¤ķà¤¦à¤¾": 6826,
      "en.": 6827,
      "Ġhom": 6828,
      "Ġà¤¹à¥ĩà¤²": 6829,
      "Ġgradu": 6830,
      "Ġà¤ªà¤°à¥įà¤¯à¤¾à¤¯": 6831,
      "Ġtrial": 6832,
      "Ġà¤¶à¤ķà¥įà¤¯": 6833,
      "ĠChurch": 6834,
      "à¤Ĺà¤¤": 6835,
      "-A": 6836,
      "-term": 6837,
      "Ġà¤ķà¤°à¤£à¤¾à¤±à¥įà¤¯à¤¾": 6838,
      "Ġà¤µà¤°à¥įà¤¤à¤®à¤¾à¤¨": 6839,
      "ĠIsrael": 6840,
      "Ġbreat": 6841,
      "Ġà¤ħà¤Ĥà¤¦à¤¾à¤ľ": 6842,
      "Ġà¤¬à¤¨à¤µ": 6843,
      "Ġà¤¸à¤¾à¤ľ": 6844,
      "imin": 6845,
      "Ġstar": 6846,
      "isl": 6847,
      "à¤¸à¥įà¤¤à¥įà¤°": 6848,
      "Ġfact,": 6849,
      "Ġà¤ľà¤®à¤¾": 6850,
      "Ġà¤²à¥Ģ": 6851,
      "Ġà¤«à¥ģà¤Ł": 6852,
      "Ġeye": 6853,
      "see": 6854,
      "Ġà¤ķà¤°à¤¤à¤¾à¤¤.": 6855,
      "Ġà¤ĳà¤¨à¤²à¤¾à¤ĩà¤¨": 6856,
      "Ġinsp": 6857,
      "Ġà¤Ĺà¥ĭà¤·à¥įà¤Łà¥Ģ": 6858,
      "know": 6859,
      "ĠGet": 6860,
      "Ġhyp": 6861,
      "Ġhon": 6862,
      "ĠProf": 6863,
      "C.": 6864,
      "Ġà¤«à¤¾à¤¯à¤¦à¤¾": 6865,
      "Ġconsequ": 6866,
      "Ġautom": 6867,
      "mosp": 6868,
      "Ġchoose": 6869,
      "edom": 6870,
      "ĠTod": 6871,
      "Ġà¤µà¤¿à¤¶à¥įà¤µà¤µ": 6872,
      "Ġà¤ľà¤°à¥Ĥà¤°à¤¤": 6873,
      "Ġcru": 6874,
      "Ġfear": 6875,
      "exic": 6876,
      "Ġà¤¶à¥ĭ": 6877,
      "ellig": 6878,
      "Ġà¤¦à¤°à¤µ": 6879,
      "Ġcontroll": 6880,
      "Ġlegal": 6881,
      "à¥įà¤¯à¤¾à¤°": 6882,
      "Ġeating": 6883,
      "Ġfile": 6884,
      "Ġà¤µà¤¿à¤¤à¥įà¤¤": 6885,
      "ĠChina": 6886,
      "Ġà¤ªà¤¾à¤¹à¤¿à¤ľà¥ĩ.": 6887,
      "-st": 6888,
      "à¤¹à¤¾à¤²": 6889,
      "Ġ...": 6890,
      "Ġà¤ªà¤¾à¤¤à¥įà¤°": 6891,
      "Ġà¤ªà¤¾à¤²à¤¨": 6892,
      "ately": 6893,
      "à¤²à¥Ģà¤µà¥ģà¤¡": 6894,
      "Ġà¤¸à¥Ģà¤®à¤¾": 6895,
      "Ġà¤µà¥ĩà¤¦": 6896,
      "Ġà¤ķà¤¦à¤®": 6897,
      "ĠCur": 6898,
      "Ġà¤°à¤¾à¤ĸ": 6899,
      "Ġà¤¡à¥ĩà¤Ł": 6900,
      "Ġà¤ķà¤°à¤£à¥įà¤¯à¤¾à¤ļà¥ĩ": 6901,
      "Ġ(b": 6902,
      "Ġsociet": 6903,
      "ĠGeneral": 6904,
      "à¥Ĥà¤²à¤¾": 6905,
      "Ġal.": 6906,
      "ĠD.": 6907,
      "Ġà¤ľà¤¿à¤²à¥įà¤¹à¥įà¤¯à¤¾à¤¤à¥Ģà¤²": 6908,
      "Ġwinter": 6909,
      "pe": 6910,
      "Ġ(à¤µ": 6911,
      "Ġà¤ľà¤¾à¤Ĭà¤¨": 6912,
      "Ġà¤¦à¤¿à¤²à¥ĩà¤²à¥įà¤¯à¤¾": 6913,
      "Ġproviding": 6914,
      "Ġà¤®à¤¾à¤®à¤²à¤¾": 6915,
      "à¤¡à¤£à¤µà¥Ģà¤¸": 6916,
      "ĠEducation": 6917,
      "sec": 6918,
      "ĠProt": 6919,
      "Ġà¤łà¤°à¤µ": 6920,
      "ĠDecember": 6921,
      "ĠEast": 6922,
      "Ġsociety": 6923,
      "Ġund": 6924,
      "Ġà¤ªà¤Ĥà¤ļà¤¾à¤¯à¤¤": 6925,
      "Ġà¤¦à¥ĩà¤¶à¥ĭà¤Ĥ": 6926,
      "Ġtools": 6927,
      "Ġà¤¤à¥įà¤¯à¤¾à¤ª": 6928,
      "Ġà¤®à¤¿à¤²à¥Ģ": 6929,
      "ive,": 6930,
      "Ġà¤²à¤Ĺà¤¤à¤¾": 6931,
      "Ġà¤¨à¤¾à¤¹à¥Ģà¤Ĥ.": 6932,
      "ĠNovember": 6933,
      "ech": 6934,
      "ĠLat": 6935,
      "Ġà¤ĩà¤ļà¥įà¤Ľà¤¾": 6936,
      "Ġsequ": 6937,
      "Ġà¤®à¤¹à¤¿à¤²à¤¾à¤ĵà¤Ĥ": 6938,
      "ĠDon": 6939,
      "Ġà¤¹à¥ĭà¤¤à¥įà¤¯à¤¾.": 6940,
      "à¥Ģà¤£": 6941,
      "à¤¾à¤Ĥà¤¶à¥Ģ": 6942,
      "Ġà¤Ĩà¤¹à¥ĭà¤¤": 6943,
      "Ġten": 6944,
      "Ġsupply": 6945,
      "Ġà¤®à¤¾à¤¨à¥įà¤¯": 6946,
      "Ġmiddle": 6947,
      "Ġcook": 6948,
      "Ġdestro": 6949,
      "Ġà¤²à¥īà¤ķ": 6950,
      "Ġformer": 6951,
      "In": 6952,
      "Ġkid": 6953,
      "ĠVal": 6954,
      "Ġà¤µà¤¿à¤¶à¤¿à¤·à¥įà¤Ł": 6955,
      "à¤¾à¤¥à¤®à¤¿à¤ķ": 6956,
      "Ġquickly": 6957,
      "Ġyear,": 6958,
      "à¤¬à¥ģà¤ķ": 6959,
      "Ġà¤¬à¥įà¤°à¤¿à¤Ł": 6960,
      "Ġreas": 6961,
      "Ġconflic": 6962,
      "Ġ(or": 6963,
      "Ġà¤ľà¤¿à¤®": 6964,
      "Ġà¤²à¤¿à¤ı,": 6965,
      "Ġà¤Ĺà¤¾à¤¡": 6966,
      "Ġà¤®à¥īà¤¡": 6967,
      "Ġà¤Ĺà¥ģà¤²": 6968,
      "Ġà¤¤à¥įà¤µ": 6969,
      "Ġinstru": 6970,
      "Ġà¤ķà¥Ģà¤®à¤¤": 6971,
      "Ġà¤¦à¥ģà¤ĥ": 6972,
      "Ġà¤¨à¤¦": 6973,
      "ils": 6974,
      "Ġà¤¦à¥ĩà¤ĸà¤¤à¥ĩ": 6975,
      "Ġwoman": 6976,
      "Ġà¤¦à¥ĩà¤¨à¤¾": 6977,
      "Ġteeth": 6978,
      "able,": 6979,
      "à¤¿à¤·à¤¯à¥Ģ": 6980,
      "à¥ĭà¤Ń": 6981,
      "Ġà¤ķà¤Ĥà¤Ł": 6982,
      "Ġapprox": 6983,
      "Ġà¤¥à¥ĩ.": 6984,
      "Ġrain": 6985,
      "mission": 6986,
      "Ġà¤µà¤°à¥įà¤·à¥ĩ": 6987,
      "Ġà¤°à¤¾à¤¹à¤¤": 6988,
      "Ġà¤ªà¥įà¤°à¤ļà¤¾à¤°": 6989,
      "Ġyourself": 6990,
      "Ġelements": 6991,
      "ĠNA": 6992,
      "Ġday.": 6993,
      "Ġà¤ħà¤Ńà¤¿à¤¯à¤¾à¤¨": 6994,
      "Ġoccup": 6995,
      "ĠLond": 6996,
      "ively": 6997,
      "Ġimportance": 6998,
      "à¤µà¤ł": 6999,
      "aught": 7000,
      "ĠMarath": 7001,
      "Ġà¤ľà¤¿à¤²à¥įà¤¹à¥įà¤¯à¤¾à¤¤": 7002,
      "Ġreceive": 7003,
      "à¥ĩà¤¡à¤¼": 7004,
      "Ġà¤Ĺà¥įà¤°à¤Ĥà¤¥": 7005,
      "à¤¿à¤Ĥà¤¹": 7006,
      "à¤¨à¥įà¤¤à¥ģ": 7007,
      "Ġà¤ħà¤ľà¥Ĥà¤¨": 7008,
      "à¥ĩà¤ķà¥įà¤¶à¤¨": 7009,
      "Ġshap": 7010,
      "ism.": 7011,
      "ĠIsland": 7012,
      "à¤¬à¥Ģ": 7013,
      "used": 7014,
      "à¥įà¤¤à¥ģ": 7015,
      "Ġneigh": 7016,
      "Ġà¤¶à¤ķà¤¤à¥ĭ.": 7017,
      "Ġà¤¡à¤¿à¤Ĺ": 7018,
      "Ġcurrently": 7019,
      "à¥Ģà¤Ĥà¤¨à¤¾": 7020,
      "Ġà¤ķà¥ĭà¤£à¥Ģ": 7021,
      "Ġà¤ķà¥ĩà¤¨à¥įà¤¦à¥įà¤°": 7022,
      "Ġà¤²à¤ķà¥įà¤·à¥įà¤¯": 7023,
      "à¤°à¥Ģà¤¤": 7024,
      "Ġà¤®à¥ĩà¤°à¥Ģ": 7025,
      "Ġà¤ķà¥Īà¤²": 7026,
      "Ġà¤Ńà¤¾à¤µà¤¨à¤¾": 7027,
      "Ġvia": 7028,
      "Ġà¤ľà¤¿à¤¸à¤ķà¤¾": 7029,
      "à¤ķà¤¾à¤Ĥà¤¨à¥Ģ": 7030,
      "à¤Ĥà¤¯": 7031,
      "ĠAut": 7032,
      "Ġpoly": 7033,
      "à¥Ĥà¤§": 7034,
      "Ġà¤¯à¤¾à¤µà¤°": 7035,
      "les.": 7036,
      "Ġconstant": 7037,
      "Ġà¤®à¤¿à¤¸": 7038,
      "Ġà¤ļà¤²à¤¤à¥ĩ": 7039,
      "Ġà¤ĸà¥ĩà¤³à¤¾à¤¡": 7040,
      "Ġà¤¸à¤®à¤°à¥įà¤¥à¤¨": 7041,
      "Ġà¤¸à¤®à¥Ĥà¤¹": 7042,
      "à¥įà¤ķà¤°": 7043,
      "Ġspeed": 7044,
      "pris": 7045,
      "Ġà¤®à¥ĭà¤Ł": 7046,
      "Ġà¤ĸà¤¾à¤¦": 7047,
      "Ġà¤¸à¤¹à¤¯à¥ĭà¤Ĺ": 7048,
      "Ġà¤Ĺà¥Į": 7049,
      "Ġroot": 7050,
      "Ġtrying": 7051,
      "à¤¦à¥įà¤°": 7052,
      "à¥īà¤¸": 7053,
      "Ġà¤¡à¥ĭà¤³": 7054,
      "Ġà¤¦à¤¾à¤ĸà¤µ": 7055,
      "aly": 7056,
      "Ġà¤®à¤¿à¤²à¤¨à¥ĩ": 7057,
      "Ġà¤Ĺà¥Īà¤°": 7058,
      "Ġhope": 7059,
      "Ġmiles": 7060,
      "Ġà¤ķà¤¸à¥ĩ": 7061,
      "Ġà¤ľà¤Ĥà¤Ĺ": 7062,
      "ĠProgram": 7063,
      "ĠRel": 7064,
      "Ġnothing": 7065,
      "ought": 7066,
      "Ġà¤¸à¤ķà¥ĩ": 7067,
      "Ġcalcul": 7068,
      "Ġà¤¤à¤¾à¤²à¥ģà¤ķà¥įà¤¯à¤¾à¤¤à¥Ģà¤²": 7069,
      "Ġgold": 7070,
      "Ġà¤ĸà¤¾à¤¸à¤¦à¤¾à¤°": 7071,
      "Ġà¤īà¤¤à¤°": 7072,
      "à¥ģà¤·à¥įà¤Ł": 7073,
      "Ġà¤¸à¥ģà¤Ĥà¤¦à¤°": 7074,
      "Ġà¤ĩà¤¤à¥įà¤¯à¤¾à¤¦": 7075,
      "Ġasked": 7076,
      "Ġà¤µà¥Īà¤¶": 7077,
      "Ġgarden": 7078,
      "Ġà¤®à¤¹à¤¾à¤ªà¤¾à¤²à¤¿à¤ķ": 7079,
      "à¥Ģà¤Ĥà¤¨à¥Ģ": 7080,
      "ĠB.": 7081,
      "Ġleave": 7082,
      "Ġà¤µà¤¿à¤ľà¥įà¤ŀà¤¾à¤¨": 7083,
      "Ġà¤ļà¤°": 7084,
      "Ġà¤ĸà¤¼": 7085,
      "Ġà¤Ĺà¥Įà¤°": 7086,
      "ĠS.": 7087,
      "Ġà¤ıà¤Ĥà¤¡": 7088,
      "Ġ'à¤ħ": 7089,
      "Ġà¤ĺà¥ĩà¤£à¥įà¤¯à¤¾à¤¤": 7090,
      "à¥ĩà¤¶à¤¾": 7091,
      "urg": 7092,
      "Ġà¤ķà¤ªà¥Ĥà¤°": 7093,
      "ĠChe": 7094,
      "ype": 7095,
      "Ġà¤¤à¤Ĥà¤¤à¥įà¤°": 7096,
      "ĠBu": 7097,
      "Ġswe": 7098,
      "ĠMexic": 7099,
      "à¤µà¤¾à¤¸": 7100,
      "Ġpurch": 7101,
      "Ġdirection": 7102,
      "Ġà¤ķà¤¾à¤¯à¤¦": 7103,
      "ĠSee": 7104,
      "Ġà¤¨à¤¾à¤¤": 7105,
      "Ġà¤ªà¥įà¤°à¤¾à¤¥à¤®à¤¿à¤ķ": 7106,
      "Ġà¤¤à¤¾à¤¬": 7107,
      "ent.": 7108,
      "Ġà¤¨à¥Ģà¤ļà¥ĩ": 7109,
      "Ġà¤ªà¤°à¥ĩà¤¶": 7110,
      "Ġà¤¸à¥ģà¤®à¤¾à¤°à¥ĩ": 7111,
      "Ġà¤¨à¤¯à¥ĩ": 7112,
      "Ġfollowed": 7113,
      "atives": 7114,
      "Ġeight": 7115,
      "Ġà¤ķà¤°à¥įà¤®à¤ļà¤¾à¤±": 7116,
      "Ġà¤ħà¤µà¤¸à¤°": 7117,
      "Ġvisual": 7118,
      "Ġà¤ķà¥įà¤°à¤®à¤¾à¤Ĥà¤ķ": 7119,
      "Ġà¤ļà¥Ī": 7120,
      "à¤¿à¤°à¥ģà¤¦à¥įà¤§": 7121,
      "Ġstrength": 7122,
      "Ġà¤ĩà¤¶": 7123,
      "à¤ķà¥įà¤¯à¤¾": 7124,
      "Ġà¤µà¤¿à¤¶à¥įà¤µà¤µà¤¿à¤¦à¥įà¤¯à¤¾à¤²à¤¯": 7125,
      "Ġà¤Ĩà¤ªà¤ķà¥Ģ": 7126,
      "ness,": 7127,
      "Ġà¤ķà¤¹à¥Ģà¤Ĥ": 7128,
      "-year": 7129,
      "oe": 7130,
      "à¥Ģà¤ĥ": 7131,
      "Ġcateg": 7132,
      "à¤¤à¥įà¤¤à¤¿": 7133,
      "Ġmal": 7134,
      "Ġmax": 7135,
      "ruary": 7136,
      "Ġdiscovered": 7137,
      "Ġà¤¶à¤ķà¤¤à¤¾.": 7138,
      "à¤¸à¤Ń": 7139,
      "Ġpregn": 7140,
      "at,": 7141,
      "rical": 7142,
      "Ġà¤¯à¤¾à¤®à¤§à¥įà¤¯à¥ĩ": 7143,
      "à¥ĩà¤ĸà¥Ģà¤²": 7144,
      "Ġpowerful": 7145,
      "à¤Ĥà¤¤à¥Ģ": 7146,
      "à¤°à¥įà¤ľà¥Ģ": 7147,
      "Ġà¤°à¤¾à¤ľà¤¸à¥įà¤¥à¤¾à¤¨": 7148,
      "Ġà¤¸à¤¿à¤²": 7149,
      "Ġden": 7150,
      "Ġà¤®à¥įà¤¹à¤£à¤¾à¤²à¥ĩ": 7151,
      "Ġà¤ķà¥Įà¤¨": 7152,
      "lin": 7153,
      "à¥ĩà¤Ĥà¤ľ": 7154,
      "Ġà¤īà¤¸à¤¸à¥ĩ": 7155,
      "Ġà¤ķà¥įà¤·à¤®à¤¤à¤¾": 7156,
      "Ġwon": 7157,
      "à¥ĩà¤µà¤¾à¤°à¥Ģ": 7158,
      "Ġà¤«à¤¸": 7159,
      "Ġsch": 7160,
      "Ġà¤ħà¤¨à¥įà¤¨": 7161,
      "ounds": 7162,
      "Ġà¤®à¥Ģà¤¡à¤¿à¤¯": 7163,
      "Ġhistorical": 7164,
      "à¥ĩà¤¸à¤¾à¤łà¥Ģ": 7165,
      "Ġà¤ªà¤¸à¤Ĥà¤¦": 7166,
      "Ġà¤¹à¥ĭà¤¤à¥ĩ,": 7167,
      "rate": 7168,
      "Ġwond": 7169,
      "ctions": 7170,
      "umn": 7171,
      "Ġorganization": 7172,
      "Ġperfect": 7173,
      "-S": 7174,
      "ocr": 7175,
      "ĠUnder": 7176,
      "Ġexercise": 7177,
      "Ġà¤īà¤¦à¥įà¤§à¤µ": 7178,
      "ography": 7179,
      "Ġà¤ĸà¤¾à¤²": 7180,
      "Ġà¤¸à¥įà¤¥à¤¾à¤¨à¤¿à¤ķ": 7181,
      "à¤¹à¤¾": 7182,
      "à¤¾à¤µà¤°à¥Ģà¤²": 7183,
      "AL": 7184,
      "verse": 7185,
      "à¥Ģà¤µà¥Ģ": 7186,
      "Ġà¤¸à¤Ĥà¤Ĺà¥Ģà¤¤": 7187,
      "rupt": 7188,
      "Ġbooks": 7189,
      "Ġfair": 7190,
      "ĠHouse": 7191,
      "Ġperformance": 7192,
      "AC": 7193,
      "Ġà¤ļà¤°à¤£": 7194,
      "®à¤¤": 7195,
      "Ġoverall": 7196,
      "Ġmis": 7197,
      "à¤¾à¤°,": 7198,
      "Ġreveal": 7199,
      "mitted": 7200,
      "Ġà¤¤à¥įà¤¯à¤¾à¤¸à¤¾à¤łà¥Ģ": 7201,
      "Ġà¤«à¤¡à¤£à¤µà¥Ģà¤¸": 7202,
      "à¥Ģà¤¤à¤¿à¤ķ": 7203,
      "Ġà¤Ĩà¤®à¤ļà¥įà¤¯à¤¾": 7204,
      "ĠBook": 7205,
      "Ġà¤Ĺà¤¿à¤°à¤«à¥įà¤¤à¤¾à¤°": 7206,
      "Ġcommonly": 7207,
      "Ġfeatures": 7208,
      "Ġà¤µà¥įà¤¯à¤¾à¤µ": 7209,
      "Ġà¤Ľà¥ĭà¤Łà¥ĩ": 7210,
      "iers": 7211,
      "Ġchurch": 7212,
      "Ġà¤¤à¥ģà¤Ŀ": 7213,
      "Ġgoes": 7214,
      "Ġtrain": 7215,
      "ribute": 7216,
      "iest": 7217,
      "Ġà¤¤à¤¤à¥įà¤ķ": 7218,
      "Ġnamed": 7219,
      "ilosoph": 7220,
      "ĠPublic": 7221,
      "à¤¾à¤ĩà¤®": 7222,
      "Ġwatch": 7223,
      "off": 7224,
      "Ġmap": 7225,
      "Ġvill": 7226,
      "Ġthinking": 7227,
      "-C": 7228,
      "Ġà¤ĺà¥įà¤¯à¤¾à¤µ": 7229,
      "à¤¤à¤¾à¤¨": 7230,
      "Ġà¤µà¤¿à¤¸à¥įà¤¤à¤¾à¤°": 7231,
      "Ġexec": 7232,
      "Ġà¤µà¤¿à¤°à¥ĭà¤§à¥Ģ": 7233,
      "water": 7234,
      "one,": 7235,
      "Ġking": 7236,
      "Ġà¤¤à¤ķà¥įà¤°à¤¾à¤°": 7237,
      "Ġvirt": 7238,
      "Ġà¤¸à¥įà¤®à¤¾à¤°à¥įà¤Ł": 7239,
      "orge": 7240,
      "Ġimages": 7241,
      "ĠSocial": 7242,
      "Ġà¤¸à¥Ī": 7243,
      "Ġà¤¦à¥Į": 7244,
      "ĠMedic": 7245,
      "Ġà¤¶à¥ģà¤°à¥ģà¤Ĩà¤¤": 7246,
      "Ġà¤ķà¥ĥ": 7247,
      "à¤Ĥà¤Ĺà¤¾": 7248,
      "à¤ªà¥Ģà¤ıà¤²": 7249,
      "Ġrich": 7250,
      "Ġà¤ļà¤¾à¤²à¥Ĥ": 7251,
      "Ġgave": 7252,
      "Ġà¤°à¤¾à¤ľà¥įà¤¯à¥ĭà¤Ĥ": 7253,
      "Ġjournal": 7254,
      "Ġà¤ªà¤°à¤¨à¥įà¤¤à¥ģ": 7255,
      "Ġà¤²à¤Ĺà¤¾à¤¯à¤¾": 7256,
      "Ġsymbol": 7257,
      "Ġweather": 7258,
      "Ġà¤¸à¥ĭà¤ļ": 7259,
      "ĠTheir": 7260,
      "Ġà¤¹à¤®à¤¾à¤°à¥Ģ": 7261,
      "Ġà¤ħà¤®à¥ĩà¤°à¤¿à¤ķà¤¾": 7262,
      "fl": 7263,
      "ĠBr": 7264,
      "ĠSpec": 7265,
      "Ġeverything": 7266,
      "Ġà¤ªà¥įà¤°à¤ķà¤¾à¤¶à¤¿à¤¤": 7267,
      "Ġà¤ķà¥ĭà¤¹": 7268,
      "Ġà¤Łà¥Ģà¤ķà¤¾": 7269,
      "à¤£à¥įà¤¯à¤¾à¤ļà¥įà¤¯à¤¾": 7270,
      "Ġà¤ķà¤¿à¤¸à¤¾à¤¨à¥ĭà¤Ĥ": 7271,
      "AS": 7272,
      "Ġlatest": 7273,
      "Ġà¤µà¤¹à¥Ģ": 7274,
      "ĠDNA": 7275,
      "Ġà¤¸à¥ĭà¤ª": 7276,
      "Ġ'à¤¬": 7277,
      "Ġcommerc": 7278,
      "Ġà¤¹à¤¿à¤¸à¥įà¤¸à¤¾": 7279,
      "Ġà¤ķà¥ĥà¤¤": 7280,
      "Ġwell.": 7281,
      "Ġà¤Ńà¤¾à¤°à¥Ģ": 7282,
      "ĠEnvironment": 7283,
      "Ġjoint": 7284,
      "Ġstor": 7285,
      "à¤ļà¤¾à¤¨à¤ķ": 7286,
      "Ġà¤¬à¤¾à¤¯": 7287,
      "one.": 7288,
      "Ġplaced": 7289,
      "à¥įà¤ĸ": 7290,
      "ologist": 7291,
      "Ġà¤¸à¥įà¤¤à¥įà¤°à¥Ģ": 7292,
      "Ġgirl": 7293,
      "Ġà¤¬à¥Ģà¤ľà¥ĩà¤ªà¥Ģ": 7294,
      "à¤Ĥà¤ĺ": 7295,
      "Ġbeg": 7296,
      "ĠInc": 7297,
      "izes": 7298,
      "Ġà¤µà¤¿à¤ķà¤¸à¤¿à¤¤": 7299,
      "Ġletter": 7300,
      "Ġà¤¸à¤¤à¥įà¤¤à¤¾": 7301,
      "à¤°à¥įà¤¬": 7302,
      "à¤¾à¤ĩà¤ķ": 7303,
      "Ġà¤¡à¤¿à¤Ĺà¥įà¤°à¥Ģ": 7304,
      "Ġà¤¸à¤Ĥà¤µà¤¾à¤¦": 7305,
      "Ġà¤ªà¤²": 7306,
      "rs": 7307,
      "Ġacqu": 7308,
      "Ġà¤¦à¥ģà¤ĸ": 7309,
      "à¤¿à¤®à¤¾": 7310,
      "Ġemerg": 7311,
      "à¤°à¤¸": 7312,
      "ĠUN": 7313,
      "à¥ĩà¤¬à¤²": 7314,
      "Ġcommunication": 7315,
      "ĠConf": 7316,
      "gypt": 7317,
      "aces": 7318,
      "ancy": 7319,
      "Ġdisplay": 7320,
      "à¤®à¥įà¤ª": 7321,
      "Ġà¤¤à¤¿à¤¨à¥ĩ": 7322,
      "-à¤ľ": 7323,
      "Ġà¤²à¤Ĺà¥ĩ": 7324,
      "Ġapplication": 7325,
      "Ġopportunity": 7326,
      "Ġcorn": 7327,
      "Ġenter": 7328,
      "Ġson": 7329,
      "Ġtox": 7330,
      "à¤ªà¤¾": 7331,
      "ĠMark": 7332,
      "Ġà¤Ĺà¤¯à¥Ģ": 7333,
      "amic": 7334,
      "ive.": 7335,
      "Ġanything": 7336,
      "Ġà¤®à¥ĥà¤¤à¥įà¤¯": 7337,
      "ĠInter": 7338,
      "Ġà¤¦à¥ģà¤ª": 7339,
      "Ġcontinued": 7340,
      "phas": 7341,
      "Ġà¤¸à¤Ĥà¤§à¥Ģ": 7342,
      "à¤¹à¤®": 7343,
      "Ġenh": 7344,
      "Ġà¤ľà¥Īà¤¨": 7345,
      "Ġà¤ķà¤¿à¤¯à¥ĩ": 7346,
      "ĠâĢľA": 7347,
      "Ġshowed": 7348,
      "Ġcommit": 7349,
      "Ġà¤µà¤ķ": 7350,
      "Ġà¤¹à¤¾à¤¸à¤¿à¤²": 7351,
      "ET": 7352,
      "Ġà¤¬à¤¯à¤¾à¤¨": 7353,
      "à¤¾à¤µà¤¾,": 7354,
      "à¤¿à¤µà¤°à¥įà¤¸": 7355,
      "Ġrelatively": 7356,
      "Ġà¤¸à¤¿à¤Ĥà¤Ĺ": 7357,
      "amer": 7358,
      "ore,": 7359,
      "iful": 7360,
      "à¤ķà¤¡à¥Ĥà¤¨": 7361,
      "Ġà¤¦à¤¿à¤ĸà¤¾à¤Ī": 7362,
      "à¤ķà¥įà¤ķà¤®": 7363,
      "Ġà¤ıà¤«": 7364,
      "Ġà¤ľà¤µà¤¾à¤¬": 7365,
      "ato": 7366,
      "Ġà¤ªà¥įà¤°à¤ļ": 7367,
      "ĠDes": 7368,
      "à¤°à¥Ģ,": 7369,
      "Ġtou": 7370,
      "Ġà¤¸à¤Ĥà¤ĺà¤Łà¤¨": 7371,
      "Ġinterpret": 7372,
      "Ġuser": 7373,
      "à¤¾à¤ķà¤¾": 7374,
      "Ġà¤ľà¤¾à¤¤à¥ĭ.": 7375,
      "Ġsmaller": 7376,
      "Ġà¤®à¥ģà¤¸à¥įà¤²": 7377,
      "Ġà¤¶à¤ķà¥įà¤¤à¤¿": 7378,
      "à¤ªà¥Ĥà¤°à¥įà¤µ": 7379,
      "Ġà¤ķà¤¿à¤¸à¤¾à¤¨": 7380,
      "Ġallowed": 7381,
      "Ġà¤ªà¤¿à¤ķ": 7382,
      "Ġà¤Ńà¤¾à¤°": 7383,
      "Ġcompletely": 7384,
      "Ġpeace": 7385,
      "Ġfamilies": 7386,
      "rec": 7387,
      "Ġà¤¶à¥įà¤°à¤¦à¥įà¤§": 7388,
      "Ġà¤¦à¥įà¤¯à¤¾à¤µ": 7389,
      "Ġà¤¶à¤¿à¤°": 7390,
      "Ġà¤Ĩà¤ķà¤°à¥įà¤·": 7391,
      "Ġpeople.": 7392,
      "à¥įà¤¯à¤¾à¤Ĥà¤ķ": 7393,
      "Ġbelief": 7394,
      "Ġà¤¶à¤¿à¤ķà¤¾à¤¯à¤¤": 7395,
      "à¤¾à¤¤à¥įà¤®à¤¾": 7396,
      "Ġrob": 7397,
      "semb": 7398,
      "Ġremember": 7399,
      "Ġà¤¶à¤¿à¤µà¤¸à¥ĩà¤¨à¤¾": 7400,
      "Ġà¤§à¤ķà¥įà¤ķ": 7401,
      "Ġà¤ħà¤ļà¤¾à¤¨à¤ķ": 7402,
      "known": 7403,
      "à¥įà¤¯à¤¾à¤Ĥà¤®à¤§à¥įà¤¯à¥ĩ": 7404,
      "à¤¿à¤¬à¤Ĥà¤§": 7405,
      "à¤¶à¤¾à¤¸à¥įà¤¤à¥įà¤°": 7406,
      "Ġà¤µà¤¿à¤¤": 7407,
      "fully": 7408,
      "m.": 7409,
      "ĠChildren": 7410,
      "Ġtrad": 7411,
      "à¤ħà¤¸": 7412,
      "Ġà¤¨à¤¿à¤¤": 7413,
      "ated,": 7414,
      "à¤µà¤¿à¤£à¥įà¤¯à¤¾à¤¤": 7415,
      "Ġself-": 7416,
      "Ġà¤®à¤¾à¤Ĥ": 7417,
      "Ġà¤ľà¤¿à¤Ĥà¤ķ": 7418,
      "Ġatmosp": 7419,
      "rieved": 7420,
      "à¥įà¤µà¤¾à¤¸": 7421,
      "Ġà¤ħà¤¨à¥ģà¤ª": 7422,
      "Ġassign": 7423,
      "Ġà¤¸à¤²à¥įà¤²": 7424,
      "Ġwaste": 7425,
      "Ġvalues": 7426,
      "à¤ķà¤¾à¤°à¤¾à¤¤à¥įà¤®à¤ķ": 7427,
      "iency": 7428,
      "Ġevolution": 7429,
      "ĠTH": 7430,
      "Ġgame": 7431,
      "Ġà¤ķà¤¿à¤¨à¥įà¤¤à¥ģ": 7432,
      "Ġtrees": 7433,
      "ĠTim": 7434,
      "ste": 7435,
      "Ġhands": 7436,
      "à¤¯à¥ģà¤ķà¥įà¤¤": 7437,
      "Ġà¤µà¤ľà¤¨": 7438,
      "Ġcry": 7439,
      "à¥įà¤¯à¤¾à¤®à¤§à¥įà¤¯à¥ĩ": 7440,
      "à¤µà¥Ģà¤Ĥ": 7441,
      "Ġnutri": 7442,
      "ĠAng": 7443,
      "Ġload": 7444,
      "Ġà¤¸à¤®à¥ģà¤¦à¥įà¤°": 7445,
      "Ġà¤¤à¥įà¤¯à¤¾à¤µà¥ĩà¤³à¥Ģ": 7446,
      "DA": 7447,
      "à¤¤à¤¨": 7448,
      "Ġefforts": 7449,
      "ĠSub": 7450,
      "Ġice": 7451,
      "el,": 7452,
      "à¥įà¤¸,": 7453,
      "Ġexpected": 7454,
      "Ġmut": 7455,
      "ulate": 7456,
      "ogle": 7457,
      "Ġmouth": 7458,
      "Ġà¤ªà¤°à¤µà¤¾à¤¨": 7459,
      "ĠTest": 7460,
      "Ġà¤°à¤®": 7461,
      "Ġà¤¸à¤¹à¤¾": 7462,
      "ĠAmericans": 7463,
      "Ġà¤®à¤¾à¤£à¤¸": 7464,
      "Ġà¤ªà¥ĩà¤Łà¥įà¤°à¥ĭà¤²": 7465,
      "Ġà¤¸à¤¾à¤¦à¤°": 7466,
      "Ġinsect": 7467,
      "Ġà¤µà¤°à¥įà¤£à¤¨": 7468,
      "Ġà¤ªà¤°à¤¿à¤¸à¤°à¤¾à¤¤": 7469,
      "Ġillust": 7470,
      "Ġà¤¥à¥ĭà¤¡à¤¼": 7471,
      "ĠVol": 7472,
      "Ġemp": 7473,
      "Ġantib": 7474,
      "Ġpresence": 7475,
      "Ġclassroom": 7476,
      "ĠdoesnâĢĻt": 7477,
      "Ġà¤¸à¥ĭà¤®à¤µà¤¾à¤°": 7478,
      "Ġcompar": 7479,
      "Ġpromot": 7480,
      "à¥Ĥà¤·à¤£": 7481,
      "à¤¾à¤°à¥ĭà¤Ĥ": 7482,
      "Ġà¤¶à¤¾à¤ĸ": 7483,
      "ĠGreen": 7484,
      "Ġà¤ķà¤°à¥įà¤¤": 7485,
      "ĠTur": 7486,
      "ĠLord": 7487,
      "Ġà¤§à¥ĭà¤ķ": 7488,
      "à¤Ĥà¤Ĺà¥Ģ": 7489,
      "Ġ(U": 7490,
      "Ġà¤¸à¤®à¥įà¤®à¤¾à¤¨": 7491,
      "à¤¨à¤Ĥ": 7492,
      "Ġà¤«à¥Ģà¤¸": 7493,
      "ĠCouncil": 7494,
      "ĠEgypt": 7495,
      "à¥Ģà¤Ĥà¤ļà¥įà¤¯à¤¾": 7496,
      "Ġà¤²à¤¿à¤¯à¤¾à¥¤": 7497,
      "II": 7498,
      "EC": 7499,
      "Ġà¤®à¤¹à¤¾à¤¸": 7500,
      "Ġreduced": 7501,
      "ĠPhil": 7502,
      "Ġà¤¯à¥ĩà¤¤à¥ĩ.": 7503,
      "Ġrates": 7504,
      "craft": 7505,
      "Ġà¤²à¤¾": 7506,
      "ĠMic": 7507,
      "Ġdetect": 7508,
      "Ġpiece": 7509,
      "ibly": 7510,
      "Ġà¤Ŀà¤¾à¤¡": 7511,
      "Ġmo": 7512,
      "Ġworth": 7513,
      "Ġlaws": 7514,
      "Ġà¤¬à¥ĩà¤¹à¤¤à¤°": 7515,
      "Ġà¤ħà¤Ĺà¥įà¤°": 7516,
      "Ġcenter": 7517,
      "Ġdegre": 7518,
      "à¤µà¥ĩà¤Ĺ": 7519,
      "à¤¾à¤Īà¤ķ": 7520,
      "Ġà¤ĩà¤Ĥà¤Łà¤°à¤¨": 7521,
      "Ġà¤°à¥ĩà¤¡": 7522,
      "Ġcourt": 7523,
      "Ġdied": 7524,
      "ĠR.": 7525,
      "Ġà¤ħà¤°à¥įà¤§": 7526,
      "Ġalcohol": 7527,
      "Ġà¤¸à¤¹à¤ľ": 7528,
      "Ġaffected": 7529,
      "Ġball": 7530,
      "Ġà¤¤à¤¿à¤¸": 7531,
      "Ġ(p": 7532,
      "ari": 7533,
      "g.": 7534,
      "hy": 7535,
      "aign": 7536,
      "Ġà¤ľà¤¾à¤µ": 7537,
      "âĢĿ,": 7538,
      "Ġà¤¸à¤¾à¤ĸ": 7539,
      "Ġconstruct": 7540,
      "Ġà¤¨à¤¿à¤µà¤¾à¤¸à¥Ģ": 7541,
      "Ġà¤µà¥Ģà¤ľ": 7542,
      "Ġcoming": 7543,
      "Ġà¤¸à¥ģà¤ªà¤°": 7544,
      "à¤¾à¤¤à¤ļ": 7545,
      "ĠFebruary": 7546,
      "ĠMarathi": 7547,
      "ĠAv": 7548,
      "à¤ļà¤¿à¤¤": 7549,
      "Ġà¤ķà¤²à¥įà¤ªà¤¨à¤¾": 7550,
      "à¤®à¤§à¥Ĥà¤¨": 7551,
      "Ġà¤¥à¤¾à¤¨à¤¾": 7552,
      "Ġà¤Ĺà¤°à¥įà¤Ń": 7553,
      "à¤¾à¤¯à¥ĩ": 7554,
      "Ġperhaps": 7555,
      "à¤¾à¤īà¤¨": 7556,
      "Ġfully": 7557,
      "Ġà¤ķà¤¾à¤µ": 7558,
      "Ġà¤ħà¤¡à¤ļ": 7559,
      "ÙĦ": 7560,
      "à¥įà¤¯à¤¾à¤¬": 7561,
      "Ġwid": 7562,
      "Ġà¤ĸà¥Ĥà¤¬": 7563,
      "Ġà¤¸à¤®à¥įà¤¬à¤¨à¥įà¤§": 7564,
      "enty": 7565,
      "isms": 7566,
      "Ġà¤®à¤¾à¤¨à¤¸à¤¿à¤ķ": 7567,
      "Ġexpand": 7568,
      "Ġcompl": 7569,
      "Ġstrugg": 7570,
      "Ġà¤¬à¤²à¥įà¤²à¥ĩà¤¬": 7571,
      "Ġà¤¬à¤¾à¤µ": 7572,
      "à¤¨à¥ĩà¤¤": 7573,
      "Ġolder": 7574,
      "à¤¾à¤īà¤Ĥà¤¡": 7575,
      "ĠFood": 7576,
      "Ġfresh": 7577,
      "ĠOb": 7578,
      "Ġplaces": 7579,
      "Ġà¤ľà¤Ĺà¤¤": 7580,
      "Ġà¤µà¤°à¥įà¤·à¥Ģà¤¯": 7581,
      "Ġà¤ľà¥ĩà¤²": 7582,
      "le.": 7583,
      "Ġà¤ļà¤®": 7584,
      "à¥įà¤°à¥Ģà¤¨": 7585,
      "Ġà¤®à¥ģà¤ķà¤¾à¤¬": 7586,
      "Ġà¤¹à¤¿à¤¤": 7587,
      "Ġmajority": 7588,
      "rief": 7589,
      "related": 7590,
      "à¥ģà¤¨à¤¾": 7591,
      "ions,": 7592,
      "Ġà¤²à¥ĭà¤ķà¤¸à¤Ńà¤¾": 7593,
      "Ġà¤¨à¥ĩà¤Ł": 7594,
      "Ġforward": 7595,
      "à¤¹à¤¨": 7596,
      "Ġbehavi": 7597,
      "ĠSt.": 7598,
      "à¤²à¥įà¤¯à¤¾.": 7599,
      "à¤¾à¤Ĺà¥įà¤°à¤¾à¤®": 7600,
      "ĠDr": 7601,
      "clus": 7602,
      "Ġà¤²à¥ĭà¤ķà¤ªà¥įà¤°à¤¿à¤¯": 7603,
      "ald": 7604,
      "à¤µà¤°.": 7605,
      "Ġbreast": 7606,
      "à¤¿à¤³": 7607,
      "Ġà¤ľà¤ĸ": 7608,
      "Ġefficient": 7609,
      "à¤¾à¤°à¤ĸà¥ĩ": 7610,
      "Ġà¤ªà¤¾à¤¡": 7611,
      "Ġexperiment": 7612,
      "à¥Ĥà¤Ĺ": 7613,
      "Ġà¤Ĩà¤Ĥà¤¤à¤°": 7614,
      "icip": 7615,
      "Ġtable": 7616,
      "Ġeducational": 7617,
      "iles": 7618,
      "Ġvitamin": 7619,
      "Ġship": 7620,
      "à¤¯à¤°": 7621,
      "à¤¸à¥įà¤¤à¥Ģ": 7622,
      "Ġpeople,": 7623,
      "Ġà¤¤à¤¾à¤ķà¤¿": 7624,
      "ĠEurope": 7625,
      "Ġà¤Łà¥ĩà¤²": 7626,
      "Ġarchitect": 7627,
      "àª": 7628,
      "Ġà¤¦à¥ĥ": 7629,
      "Ġbound": 7630,
      "Ġà¤«à¥Īà¤¸à¤²à¤¾": 7631,
      "Ġà¤®à¥įà¤¹à¤£à¤¤": 7632,
      "Ġrecently": 7633,
      "Ġà¤°à¤¹à¤¤à¥Ģ": 7634,
      "Ġà¤ªà¥įà¤°à¤¤à¥Ģ": 7635,
      "Ġimmune": 7636,
      "à¥ģà¤²à¥įà¤ķ": 7637,
      "ama": 7638,
      "ĠHuman": 7639,
      "ĠPal": 7640,
      "ĠDavid": 7641,
      "Ġwrote": 7642,
      "à¥įà¤°à¤¤": 7643,
      "à¤£à¤Ĥ": 7644,
      "Ġpartn": 7645,
      "Ġà¤ħà¤²à¥Ģ": 7646,
      "Ġà¤ªà¤¾à¤¸à¥Ĥà¤¨": 7647,
      "Ġà¤¬à¤¨à¥ĩ": 7648,
      "Ġexamples": 7649,
      "à¥įà¤°à¥ĩà¤¨": 7650,
      "à¤¾à¤¸à¤¹": 7651,
      "Ġà¤®à¤¾à¤®à¤²à¥ĭà¤Ĥ": 7652,
      "Ġinteresting": 7653,
      "Ġboard": 7654,
      "à¤¿à¤ľà¤¨": 7655,
      "Ġà¤§à¤¾à¤°à¥įà¤®à¤¿à¤ķ": 7656,
      "resp": 7657,
      "Ġincor": 7658,
      "Ġforces": 7659,
      "Ġassum": 7660,
      "ĠEvery": 7661,
      "à¤²à¤¨": 7662,
      "Ġdifferences": 7663,
      "Ġbillion": 7664,
      "uls": 7665,
      "ĠDec": 7666,
      "Ġà¤µà¤¾à¤ªà¤¸": 7667,
      "Ġà¤ķà¤¾à¤Ĺ": 7668,
      "Ġmuscle": 7669,
      "Ġà¤Ĺà¤£à¥ĩà¤¶": 7670,
      "ĠJewish": 7671,
      "Ġà¤°à¤¿à¤²à¥Ģà¤ľ": 7672,
      "Ġstaff": 7673,
      "à¥Ģà¤²,": 7674,
      "Ġworkers": 7675,
      "Ġà¤®à¥ĭà¤¬à¤¾à¤ĩà¤²": 7676,
      "à¥įà¤¯à¤¾à¤µà¤°à¤£": 7677,
      "Ġconvers": 7678,
      "à¤¾à¤¬à¤°": 7679,
      "à¥įà¤¸à¥įà¤Ł": 7680,
      "à¤¾à¤Ĥà¤Ł": 7681,
      "Ġà¤ħà¤¨à¥ģà¤°": 7682,
      "à¥įà¤°à¤®à¤¾à¤£": 7683,
      "Ġapplied": 7684,
      "Ġanx": 7685,
      "force": 7686,
      "Ġà¤ªà¥įà¤°à¥ĩà¤°": 7687,
      "Ġenerg": 7688,
      "Ġà¤Ńà¤¯": 7689,
      "Ġà¤µà¤¾à¤ķ": 7690,
      "Ġà¤ªà¤¾à¤Ĥà¤¡": 7691,
      "Ġwater.": 7692,
      "à¤ķà¤¤": 7693,
      "Ġà¤ķà¤²à¤¾à¤ķà¤¾à¤°": 7694,
      "Ġà¤¸à¤Ĥà¤¬": 7695,
      "à¤µà¥įà¤¯à¤µ": 7696,
      "Ġà¤¶à¥ģà¤¦à¥įà¤§": 7697,
      "Ġà¤¸à¤¾à¤¯": 7698,
      "Ġfigure": 7699,
      "Ġvot": 7700,
      "Ġà¤ķà¤¾à¤°à¥įà¤¯à¤µ": 7701,
      "Ġà¤ªà¤¾à¤°à¥įà¤Ł": 7702,
      "Ġà¤¸à¤®à¥įà¤ª": 7703,
      "Ġà¤ļà¤¾à¤Ĥà¤Ĺà¤²à¥ĩ": 7704,
      "Ġacad": 7705,
      "Ġgiving": 7706,
      "Ġà¤¸à¤²à¤¾à¤¹": 7707,
      "Ġà¤Ĺà¥ĭà¤µ": 7708,
      "Ġfit": 7709,
      "à¤®à¥įà¤Ń": 7710,
      "Ġà¤Ĺà¤¾à¤¯": 7711,
      "Ġà¤ľà¤¾à¤ıà¤Ĥà¤Ĺ": 7712,
      "Ġexisting": 7713,
      "Ġà¤ªà¤¾à¤¹à¥Ĥà¤¨": 7714,
      "itable": 7715,
      "Ġà¤ħà¤°à¥įà¤¥à¤¾à¤¤à¥į": 7716,
      "Ġà¤¯à¥Ĥà¤¨à¤¿à¤µà¤°à¥įà¤¸": 7717,
      "ions.": 7718,
      "Ġà¤ľà¤¾à¤ıà¤Ĺà¥Ģà¥¤": 7719,
      "Ġà¤¬à¤¾à¤§": 7720,
      "Ġrepe": 7721,
      "Ġà¤µà¤¿à¤¦à¥įà¤¯à¤¾à¤ª": 7722,
      "Ġà¤¸à¥įà¤¥à¤¾à¤ªà¤¿à¤¤": 7723,
      "Ġà¤¦à¥Ĥà¤§": 7724,
      "Ġà¤ħà¤¸à¥įà¤¤": 7725,
      "Ġpick": 7726,
      "Ġà¤¶à¤ķà¤¤à¤¾à¤¤.": 7727,
      "Ġà¤ķà¤¿à¤¶": 7728,
      "à¤ľà¤¾à¤¤": 7729,
      "uff": 7730,
      "Ġseparate": 7731,
      "Ġà¤®à¥įà¤¹à¤£à¤ľ": 7732,
      "Ġing": 7733,
      "à¥ĩà¤°à¤¾": 7734,
      "Ġà¤ªà¥įà¤°à¤Ńà¤¾à¤µà¤¿à¤¤": 7735,
      "ara": 7736,
      "Ġvo": 7737,
      "rehens": 7738,
      "ĠMich": 7739,
      "ĠCalifornia": 7740,
      "iples": 7741,
      "à¤®à¤¯": 7742,
      "iant": 7743,
      "à¤ķà¤°à¥įà¤¤": 7744,
      "Ġà¤ªà¥ĭà¤Ł": 7745,
      "à¤²à¥ĭà¤ķ": 7746,
      "Ġwrong": 7747,
      "Ġà¤ļà¤¿à¤¨": 7748,
      "Ġopportunities": 7749,
      "à¤¿à¤¶à¤¯": 7750,
      "Ġà¤ķà¤¾à¤Ł": 7751,
      "Ġà¤®à¤¾à¤¤à¤¾": 7752,
      "Ġà¤®à¥ģà¤¶": 7753,
      "ĠSam": 7754,
      "idents": 7755,
      "ously": 7756,
      "Ġappears": 7757,
      "Ġleaves": 7758,
      "i.e.": 7759,
      "Ġà¤īà¤¦à¥įà¤¦à¥ĩà¤¶à¥įà¤¯": 7760,
      "-up": 7761,
      "Ġà¤ķà¥ģà¤£": 7762,
      "Ġweak": 7763,
      "Ġà¤ĸà¤°à¤¾à¤¬": 7764,
      "à¤ªà¥ģ": 7765,
      "iox": 7766,
      "Ġà¤Łà¤¾à¤³": 7767,
      "Ġthis,": 7768,
      "Ġà¤¸à¤®à¤¾à¤§à¤¾à¤¨": 7769,
      "Ġà¤¸à¤¿à¤¤": 7770,
      "ĠRem": 7771,
      "Ġbox": 7772,
      "à¤¡à¥ĩà¤Ł": 7773,
      "Ġhuge": 7774,
      "Ġà¤ªà¥įà¤°à¤¤à¤¿à¤ķà¥įà¤°à¤¿à¤¯à¤¾": 7775,
      "aint": 7776,
      "abilities": 7777,
      "Ġà¤Ĩà¤¦à¥Ģ": 7778,
      "Ġà¤¸à¥Ĥà¤°à¥įà¤¯": 7779,
      "Ġà¤¸à¤Ĥà¤ĺà¤°à¥įà¤·": 7780,
      "Ġà¤Łà¥Ī": 7781,
      "à¤¯à¤¹": 7782,
      "à¤¶à¥įà¤°": 7783,
      "Ġà¤®à¥įà¤¹à¤£à¤¾à¤²à¥ĩ,": 7784,
      "Ġinnov": 7785,
      "à¥ĩà¤Łà¤°": 7786,
      "Ġtele": 7787,
      "Ġà¤ªà¤¤à¤¿": 7788,
      "Ġmilk": 7789,
      "Ġà¤ħà¤Ńà¤¿à¤¨à¥ĩà¤¤à¥įà¤°à¥Ģ": 7790,
      "à¤¾à¤¦à¥ĩà¤¶": 7791,
      "ĠBra": 7792,
      "à¥įà¤¯à¤¾à¤Ĥà¤ª": 7793,
      "Ġtesting": 7794,
      "ĠMor": 7795,
      "issions": 7796,
      "spect": 7797,
      "Ġà¤µà¤¾à¤¢à¤¤": 7798,
      "Ġà¤®à¤¿à¤²à¤¾": 7799,
      "Ġdegree": 7800,
      "à¤¾à¤ļà¥Ģà¤¨": 7801,
      "ĠStudents": 7802,
      "Ġà¤¯à¥ĩà¤Īà¤².": 7803,
      "Ġhumans": 7804,
      "Ġà¤®à¥įà¤¹à¤£à¤¾à¤²à¥ĩ.": 7805,
      "Ġqual": 7806,
      "Ġoffers": 7807,
      "Ġ(à¤ķ": 7808,
      "Ġà¤ħà¤¨à¥ģà¤¸": 7809,
      "Ġà¤īà¤¤à¥įà¤ķ": 7810,
      "Ġà¤ħà¤¹à¤µà¤¾à¤²": 7811,
      "Ġà¤¨à¤¹à¥Ģà¤Ĥ,": 7812,
      "Ġnative": 7813,
      "Ġinfect": 7814,
      "à¤ªà¤¨": 7815,
      "Ġforeign": 7816,
      "Ġà¤Ĩà¤łà¤µà¤¡": 7817,
      "Ġexposure": 7818,
      "ĠUp": 7819,
      "Ġà¤ªà¤°à¥įà¤¯à¤Ĥà¤¤": 7820,
      "cious": 7821,
      "Ġpen": 7822,
      "in.": 7823,
      "ĠWestern": 7824,
      "Ġseven": 7825,
      "Ġà¤®à¤¾à¤Ĺà¥Ģà¤²": 7826,
      "PS": 7827,
      "Ġà¤ªà¤°à¤¿à¤ļ": 7828,
      "ĠBel": 7829,
      "Ġplastic": 7830,
      "Ġ\"à¤®": 7831,
      "à¤¾à¤µà¤²à¥Ģ": 7832,
      "ices.": 7833,
      "Ġsac": 7834,
      "Ġattract": 7835,
      "ĠUK": 7836,
      "à¥īà¤«": 7837,
      "s.âĢĿ": 7838,
      "Ġà¤ĩà¤Ĥà¤¸à¥įà¤Ł": 7839,
      "Ġdistribution": 7840,
      "Ġà¤°à¤¾à¤ľà¤ķà¤¾à¤°à¤£": 7841,
      "ilit": 7842,
      "Ġeveryone": 7843,
      "Ġà¤ĩà¤²à¥ĩà¤ķà¥įà¤Ł": 7844,
      "an.": 7845,
      "Ġà¤µà¥įà¤¹à¤¿à¤¡à¤¿à¤ĵ": 7846,
      "à¥ĭà¤·à¤£": 7847,
      "Ġtests": 7848,
      "Ġà¤¤à¤¾à¤ªà¤®à¤¾à¤¨": 7849,
      "emy": 7850,
      "Ġrule": 7851,
      "à¤¾à¤¦à¤¨": 7852,
      "Ġà¤®à¤¹à¤¸": 7853,
      "Ġplanet": 7854,
      "Ġphen": 7855,
      "Ġformed": 7856,
      "Ġà¤¥à¥ĩà¤Ł": 7857,
      "Ġà¤¶à¥Ģ": 7858,
      "Ġà¤¤à¥įà¤°à¤¾à¤¸": 7859,
      "à¤®à¥ģà¤³à¥ĩ": 7860,
      "ĸà¥įà¤¯": 7861,
      "Ġstim": 7862,
      "Ġtransfer": 7863,
      "à¤ĸà¤¨": 7864,
      "Ġ(f": 7865,
      "Ġà¤¹à¥ģà¤Ĩà¥¤": 7866,
      "Ġdevice": 7867,
      "ternal": 7868,
      "Ġabsor": 7869,
      "Ġà¤¶à¤°à¤¦": 7870,
      "as.": 7871,
      "Ġtruth": 7872,
      "Ġà¤Ĩà¤¤à¤Ĥà¤ķ": 7873,
      "Ġfert": 7874,
      "à¤ķà¥ģà¤®à¤¾à¤°": 7875,
      "Ġworked": 7876,
      "Ġà¤ªà¤°à¥įà¤¯à¤¾à¤µà¤°à¤£": 7877,
      "Ġfinding": 7878,
      "Ġà¤¦à¥ĩà¤¶à¤¾à¤¤": 7879,
      "Ġmoving": 7880,
      "Ġidentified": 7881,
      "Ġà¤°à¤¾à¤ľà¥įà¤¯à¤¾à¤¤à¥Ģà¤²": 7882,
      "Ġoccurs": 7883,
      "Ġà¤ķà¤°à¤¾à¤µà¤¾": 7884,
      "Ġà¤ķà¤¾à¤®à¤Ĺà¤¾à¤°": 7885,
      "Ġà¤µà¥įà¤¹à¤¾à¤¯à¤°": 7886,
      "Ġà¤µà¥Ģà¤°": 7887,
      "Ġà¤¦à¤¿à¤²à¤¾.": 7888,
      "-e": 7889,
      "à¥įà¤¶à¥įà¤µ": 7890,
      "Ġones": 7891,
      "OS": 7892,
      "Ġà¤ħà¤¨à¥ģà¤ķ": 7893,
      "Ġà¤¯à¥ģà¤µà¤¾": 7894,
      "Ġmathem": 7895,
      "Ġà¤ªà¤°à¥įà¤µ": 7896,
      "ygen": 7897,
      "Ġpow": 7898,
      "roc": 7899,
      "Ġà¤ľà¤¨à¤¤": 7900,
      "Ġexhib": 7901,
      "Ġà¤°à¤¦à¥įà¤¦": 7902,
      "à¤¸à¤Ĥà¤ĺ": 7903,
      "Ġà¤ĸà¥ĭà¤²": 7904,
      "Ġà¤Ĩà¤µà¤¾à¤¹à¤¨": 7905,
      "Ġà¤µà¤¾à¤²à¥ĭà¤Ĥ": 7906,
      "Ġà¤ħà¤¦à¥įà¤¯à¤¾à¤ª": 7907,
      "Ġaddition,": 7908,
      "Ġcelebr": 7909,
      "Ġà¤¸à¥įà¤¥à¤¾à¤ªà¤¨à¤¾": 7910,
      "Ġà¤µà¤¿à¤¦à¥įà¤¯à¤¾à¤°à¥įà¤¥à¥Ģ": 7911,
      "Ġà¤Ĺà¤¯": 7912,
      "Ġà¤µà¥ĩà¤Ĺà¤µà¥ĩà¤Ĺ": 7913,
      "Ġsignal": 7914,
      "Ġconnection": 7915,
      "à¥ĭà¤¨à¥Ģ": 7916,
      "ĠCity": 7917,
      "Ġà¤¯à¤¾à¤¨à¥Ģ": 7918,
      "Ġdisease.": 7919,
      "inn": 7920,
      "Ġà¤¦à¥ĩà¤°": 7921,
      "à¥Ģà¤¬à¥Ģ": 7922,
      "zz": 7923,
      "Ġà¤²à¥īà¤ķà¤¡": 7924,
      "Ġà¤ķà¤¾à¤ª": 7925,
      "ence.": 7926,
      "rest": 7927,
      "Ġà¤¨à¤¾à¤Łà¤ķ": 7928,
      "à¥Ģà¤ľà¤¨": 7929,
      "Ġsaid,": 7930,
      "à¤¸à¤¿à¤Ĥà¤¹": 7931,
      "à¤®à¥į": 7932,
      "ĠMary": 7933,
      "à¤Ĺà¥įà¤°à¥Ģ": 7934,
      "Ġà¤ħà¤¸à¤²à¥ĩà¤²à¥ĩ": 7935,
      "ĠRetrieved": 7936,
      "Ġà¤¸à¥įà¤Łà¤¾à¤°": 7937,
      "Ġcand": 7938,
      "Ġà¤¹à¤®à¥ĩà¤¶à¤¾": 7939,
      "Ġà¤¨à¤¿à¤ķà¤¾à¤¯": 7940,
      "Ġà¤°à¤µà¤¿à¤µà¤¾à¤°": 7941,
      "Ġcontract": 7942,
      "a-": 7943,
      "à¤¾à¤°à¤¾à¤®": 7944,
      "aced": 7945,
      "Ġà¤īà¤¸à¤®à¥ĩà¤Ĥ": 7946,
      "Ġà¤¸à¥ĭà¤¯": 7947,
      "Ġà¤¸à¤Ĥà¤ķà¥ĩà¤¤": 7948,
      "Ġthousands": 7949,
      "Ġfix": 7950,
      "Ġsurvey": 7951,
      "Ġà¤ªà¥įà¤°à¥ĭà¤«": 7952,
      "Ġtour": 7953,
      "à¤µà¥įà¤¯à¤¾": 7954,
      "Ġdivid": 7955,
      "Ġà¤¬à¤¾à¤Ĥà¤§à¤ķà¤¾à¤®": 7956,
      "Ġincome": 7957,
      "Ġminutes": 7958,
      "à¤īà¤¨": 7959,
      "Ġà¤¸à¤¾à¤Ĥà¤¸à¤¦": 7960,
      "Ġrise": 7961,
      "Ġsuppl": 7962,
      "Ġà¤®à¥ĩà¤Ł": 7963,
      "ĠWeb": 7964,
      "Ġproperty": 7965,
      "Ġà¤¤à¤¨": 7966,
      "orial": 7967,
      "à¤Ĥà¤¦à¤¾": 7968,
      "Ġdyn": 7969,
      "Ġà¤¯à¥Ĥà¤ľ": 7970,
      "Ġlines": 7971,
      "Ġguide": 7972,
      "Ġdestroy": 7973,
      "Ġà¤ªà¤¾à¤ª": 7974,
      "à¤¿à¤Ĥà¤ª": 7975,
      "Ġcarried": 7976,
      "Ġà¤īà¤®à¥įà¤®à¥Ģà¤¦à¤µà¤¾à¤°": 7977,
      "igen": 7978,
      "Ġbacteria": 7979,
      "Ġà¤¦à¤¾à¤¨": 7980,
      "raction": 7981,
      "Ġcommercial": 7982,
      "à¤²à¤Ĥà¤¬": 7983,
      "Ġtechniques": 7984,
      "Ġà¤¦à¥ģà¤ĥà¤ĸ": 7985,
      "à¥Īà¤µ": 7986,
      "Ġeffic": 7987,
      "à¥Īà¤¨à¤¿à¤ķ": 7988,
      "Ġà¤¶à¤¹à¤°à¤¾à¤¤à¥Ģà¤²": 7989,
      "erate": 7990,
      "à¥Ģà¤¦à¤¾à¤°": 7991,
      "Ġbasis": 7992,
      "Ġhighest": 7993,
      "Ġà¤«à¥ĩà¤¸à¤¬à¥ģà¤ķ": 7994,
      "Ġà¤¸à¤¤à¥įà¤°": 7995,
      "Ġhair": 7996,
      "Ġà¤Ńà¥Ĥà¤®à¤¿": 7997,
      "ĠCollege": 7998,
      "ĠFound": 7999,
      "ache": 8000,
      "Ġactual": 8001,
      "Ġnuclear": 8002,
      "uments": 8003,
      "Ġbelieved": 8004,
      "à¤¾à¤¬à¤¦à¥įà¤¦à¤²": 8005,
      "Ġà¤µà¤¿à¤¦à¥įà¤¯à¤¾à¤ªà¥Ģà¤ł": 8006,
      "à¤¿à¤®à¤¾à¤¨": 8007,
      "Ġà¤¸à¥Īà¤¨à¤¿à¤ķ": 8008,
      "Ġà¤¸à¤Ńà¤¾": 8009,
      "à¤īà¤Ł": 8010,
      "ographic": 8011,
      "Ġpark": 8012,
      "Ġà¤ªà¤¾à¤łà¤µ": 8013,
      "à¥Ģà¤Ĩà¤¯": 8014,
      "Ġ(and": 8015,
      "Ġversion": 8016,
      "Ġà¤¦à¤®": 8017,
      "Ġtrade": 8018,
      "D,": 8019,
      "Ġà¤Ŀà¥ĭà¤ª": 8020,
      "à¥ĭà¤²à¥ī": 8021,
      "Ġhear": 8022,
      "Ġà¤ħà¤¤à¤¿à¤¶à¤¯": 8023,
      "Ġcosts": 8024,
      "Ġà¤¨à¤ķà¥įà¤ķ": 8025,
      "Ġà¤¸à¥įà¤Łà¥įà¤°": 8026,
      "Ġà¤¸à¤¡à¤¼à¤ķ": 8027,
      "à¤¾à¤§à¤µ": 8028,
      "unction": 8029,
      "Ġà¤µà¤¹à¤¾à¤ģ": 8030,
      "Ġà¤ħà¤Ĺà¥įà¤¨": 8031,
      "Ġ\"A": 8032,
      "Ġà¤¸à¤¾à¤ķà¥įà¤·": 8033,
      "Ġcode": 8034,
      "Ġà¤¬à¤¾à¤Ĺ": 8035,
      "Ġà¤·": 8036,
      "Ġà¤¸à¤Ĥà¤¸à¤¦": 8037,
      "Ġà¤ħà¤²à¥įà¤ª": 8038,
      "Ġlib": 8039,
      "à¤£à¤¾à¤°à¤¾": 8040,
      "mark": 8041,
      "à¤¡à¥įà¤¡": 8042,
      "Ġà¤¸à¤°à¥įà¤µà¤¾à¤§à¤¿à¤ķ": 8043,
      "Ġà¤Ĩà¤Ĥà¤¬": 8044,
      "edia": 8045,
      "Ġà¤°à¤ķà¥įà¤ķà¤®": 8046,
      "à¤ķà¥įà¤·à¤®": 8047,
      "Ġpicture": 8048,
      "Ġà¤°à¤¾à¤µ": 8049,
      "bre": 8050,
      "Ġseed": 8051,
      "Ġà¤°à¤¾à¤·à¥įà¤Łà¥įà¤°à¤µà¤¾à¤¦à¥Ģ": 8052,
      "Ġà¤ĺà¤Ĥà¤Łà¥ĩ": 8053,
      "à¤¿à¤§à¤¾à¤¨": 8054,
      "Ġfaith": 8055,
      "Ġà¤ħà¤Ł": 8056,
      "Ġà¤Ŀà¤¾à¤²à¥įà¤¯à¤¾à¤¨à¤Ĥà¤¤à¤°": 8057,
      "à¤²à¥įà¤¯à¤¾à¤¸": 8058,
      "à¤ªà¥įà¤¨": 8059,
      "Ġà¤¸à¤Ĥà¤¶à¥ĭà¤§à¤¨": 8060,
      "Ġà¤®à¥Ĥà¤°à¥įà¤¤": 8061,
      "Ġà¤ľà¤¾à¤¤à¤¾à¤¤.": 8062,
      "à¥ģà¤ģ": 8063,
      "Ġpresident": 8064,
      "Ġreference": 8065,
      "Ġadults": 8066,
      "Ġà¤ªà¥Į": 8067,
      "D.": 8068,
      "Ġà¤ªà¤¾à¤ı": 8069,
      "Ġà¤¦à¥ģà¤¸à¤°à¥Ģ": 8070,
      "och": 8071,
      "à¤µà¥ĩà¤Ĥ": 8072,
      "Ġà¤¶à¤¾à¤¨": 8073,
      "change": 8074,
      "Ġcollabor": 8075,
      "Ġà¤¦à¥ĩà¤¹": 8076,
      "Ġrules": 8077,
      "Ġà¤²à¥ĭà¤ķà¤®à¤¤": 8078,
      "Ġà¤®à¤Ĥà¤Ĺà¤³": 8079,
      "Ġchallenge": 8080,
      "Ġrunning": 8081,
      "Ġà¤®à¥ĭà¤łà¥ĩ": 8082,
      "Ġà¤¸à¥įà¤µà¤¯à¤Ĥ": 8083,
      "Ġà¤¶à¥ĩà¤µà¤Ł": 8084,
      "wood": 8085,
      "Ġà¤¸à¤¾à¤°à¥ĩ": 8086,
      "à¤Ĥà¤®": 8087,
      "ĠAir": 8088,
      "itis": 8089,
      "à¤µà¤°à¥Ģ": 8090,
      "Ġnote": 8091,
      "Ġplat": 8092,
      "Ġà¤ħà¤ªà¤ĺà¤¾à¤¤": 8093,
      "iring": 8094,
      "à¤¿à¤Ĺà¤¤": 8095,
      "Ġneu": 8096,
      "à¤Ĥà¤¬à¤Ĥà¤§": 8097,
      "Ġà¤ľà¥ģà¤¨": 8098,
      "Ġemphas": 8099,
      "Ġà¤µà¤¿à¤°à¤¾à¤Ł": 8100,
      "Ġapproximately": 8101,
      "à¤µà¤łà¤¾": 8102,
      "EM": 8103,
      "à¤¦à¥įà¤¯à¥ĭà¤Ĺ": 8104,
      "Ġà¤¤à¥ĩà¤µà¥įà¤¹": 8105,
      "Ġà¤Ĺà¥įà¤°à¤¾à¤¹à¤ķ": 8106,
      "Ġà¤Ĺà¥įà¤²": 8107,
      "Ġsituation": 8108,
      "ensity": 8109,
      "Ġscen": 8110,
      "ĠTherefore": 8111,
      "Ġà¤®à¥ĩà¤°à¤¾": 8112,
      "AM": 8113,
      "Ġworld,": 8114,
      "Ġequal": 8115,
      "Ġsave": 8116,
      "Ġà¤¶à¥ģà¤ķà¥įà¤°à¤µà¤¾à¤°": 8117,
      "Ġà¤ĸà¤¾à¤¦à¥įà¤¯": 8118,
      "Ġstore": 8119,
      "roid": 8120,
      "ordin": 8121,
      "Ġfriends": 8122,
      "Ġà¤°à¤¾à¤ľà¤§à¤¾à¤¨à¥Ģ": 8123,
      "Ġurban": 8124,
      "vis": 8125,
      "Ġà¤®à¤¿à¤¶à¥įà¤°": 8126,
      "ĠMah": 8127,
      "à¥ĥà¤·à¥įà¤£": 8128,
      "à¤¾à¤ªà¥ģà¤°": 8129,
      "ĠMat": 8130,
      "Ġextremely": 8131,
      "Ġà¤¸à¤Ĥà¤¸à¥įà¤¥à¤¾": 8132,
      "à¥ĩà¤Ĥà¤¸à¥Ģ": 8133,
      "à¤«à¥īà¤°à¥įà¤®": 8134,
      "Ġà¤¶à¤¹à¤°à¤¾à¤¤": 8135,
      "Ġà¤ªà¥Ģà¤ıà¤®": 8136,
      "Ġsystem,": 8137,
      "Ġà¤ħà¤¨à¤¿à¤²": 8138,
      "ĠJapanese": 8139,
      "à¤¿à¤¯à¤¾,": 8140,
      "ĠDi": 8141,
      "Ġreality": 8142,
      "Ġà¤®à¥ģà¤¸à¥įà¤²à¤¿à¤®": 8143,
      "Ġà¤®à¥ģà¤¨": 8144,
      "à¤²à¥įà¤¯à¤¾à¤µà¤°": 8145,
      "Ġà¤ķà¥įà¤·à¥ĩà¤¤à¥įà¤°à¥ĭà¤Ĥ": 8146,
      "Ġà¤¨à¤¿à¤°à¥įà¤§à¤¾à¤°à¤¿à¤¤": 8147,
      "Ġà¤ķà¥ĭà¤ļ": 8148,
      "Ġà¤¦à¤¿à¤²à¥ĩ.": 8149,
      "Ġà¤ªà¤¾à¤°à¥įà¤¶à¥įà¤µ": 8150,
      "à¥įà¤°à¥ģà¤µ": 8151,
      "à¤¾à¤ļà¥ĩà¤Ĥ": 8152,
      "Ġmeasures": 8153,
      "Ġà¤°à¤¾à¤Ĭ": 8154,
      "ĠOrgan": 8155,
      "Ġà¤ķà¤¾à¤¢à¥Ĥà¤¨": 8156,
      "reet": 8157,
      "ician": 8158,
      "Ġcontrast": 8159,
      "Ġsigns": 8160,
      "ony": 8161,
      "Ġà¤°à¥ĭà¤®": 8162,
      "ĠGreek": 8163,
      "ments.": 8164,
      "Ġà¤Ĩà¤§à¥ģà¤¨à¤¿à¤ķ": 8165,
      "Ġà¤¬à¤Ĥà¤Ĺà¤¾à¤²": 8166,
      "Ġà¤¸à¥ģà¤¶": 8167,
      "ĠST": 8168,
      "Ġconfirm": 8169,
      "Ġeventually": 8170,
      "Ġà¤Ńà¥įà¤°": 8171,
      "Ġà¤ĺà¤°à¤¾à¤¤": 8172,
      "Ġà¤ķà¤°à¥įà¤¨": 8173,
      "Ġclinical": 8174,
      "cular": 8175,
      "Ġiron": 8176,
      "à¤¾à¤°à¤ķ": 8177,
      "Ġindependent": 8178,
      "Ġslight": 8179,
      "Ġcopy": 8180,
      "Ġà¤ħà¤¸à¥ĩà¤².": 8181,
      "Ġà¤ķà¤¾à¤²à¤¾à¤µ": 8182,
      "ĠGeorge": 8183,
      "Ġnutrition": 8184,
      "Ġfemale": 8185,
      "rot": 8186,
      "Ġà¤¡à¥īà¤²": 8187,
      "Ġsymptom": 8188,
      "Ġà¤¶à¥įà¤°à¥ĩà¤£": 8189,
      "Ġà¤¤à¥ĭà¤Ĥà¤¡": 8190,
      "Ġà¤ķà¤¾à¤°à¤ĸ": 8191,
      "Ġexcess": 8192,
      "Ġday,": 8193,
      "ship": 8194,
      "à¤¾à¤ĸà¤¾à¤²à¥Ģ": 8195,
      "ĠEth": 8196,
      "Ġà¤¤à¤ª": 8197,
      "Ġyou.": 8198,
      "Ġwork.": 8199,
      "à¥ģà¤¸à¤¾à¤°,": 8200,
      "Ġdefined": 8201,
      "Ġbecoming": 8202,
      "ĠPolit": 8203,
      "Ġclos": 8204,
      "Ġà¤ªà¤¾à¤¯à¤¾": 8205,
      "Ġliqu": 8206,
      "à¥ĭà¤Ĥà¤Ĺ": 8207,
      "Ġsites": 8208,
      "ĠRepublic": 8209,
      "wise": 8210,
      "à¤¹à¤¿": 8211,
      "Ġà¤°à¤¾à¤¸à¥įà¤¤": 8212,
      "Ġà¤µà¤°à¥įà¤·à¥Ģ": 8213,
      "house": 8214,
      "à¤¿à¤Ĥà¤¡": 8215,
      "Ġà¤Ĩà¤¯à¥ģà¤·": 8216,
      "Ġà¤Ĩà¤¦à¤®à¥Ģ": 8217,
      "cast": 8218,
      "Ġà¤¹à¥īà¤Ł": 8219,
      "Ġà¤ħà¤¹à¤®à¤¦": 8220,
      "Ġmission": 8221,
      "Ġà¤ªà¤¹à¤ļà¤¾à¤¨": 8222,
      "Ġfeeling": 8223,
      "Ġsexual": 8224,
      "Ġstem": 8225,
      "à¥Ģà¤ªà¥Ģ": 8226,
      "ors,": 8227,
      "Ġà¤²à¥Įà¤Ł": 8228,
      "à¤ľà¥įà¤ŀà¤¾à¤¨à¤¿à¤ķ": 8229,
      "Ġà¤®à¤¾à¤Ĺà¥ĩ": 8230,
      "Ġà¤Ľà¤¾à¤ª": 8231,
      "Ġà¤ħà¤ªà¥ĩà¤ķà¥įà¤·à¤¾": 8232,
      "Ġà¤Ńà¤¾à¤°à¤¤à¤¾à¤¤": 8233,
      "à¤¾à¤ªà¤ķ": 8234,
      "Ġà¤ħà¤ªà¤¡à¥ĩà¤Ł": 8235,
      "rack": 8236,
      "Ġà¤¸à¤ªà¥įà¤¤": 8237,
      "wide": 8238,
      "Ġdevices": 8239,
      "Ġfirm": 8240,
      "Ġà¤¬à¥ĭà¤²à¤¤": 8241,
      "iable": 8242,
      "Ġà¤Ĭà¤°à¥įà¤ľ": 8243,
      "à¤¾à¤¯à¤ļà¥Ģ": 8244,
      "Ġcod": 8245,
      "Ġign": 8246,
      "Ġlegisl": 8247,
      "Ġfreedom": 8248,
      "lor": 8249,
      "à¥ģà¤°à¤¾": 8250,
      "Ġà¤ªà¤¾à¤°à¥įà¤ķ": 8251,
      "Ġà¤µà¤¾à¤¹à¤¤à¥Ĥà¤ķ": 8252,
      "Ġopin": 8253,
      "Ġhttp://www.": 8254,
      "enth": 8255,
      "Ġà¤ħà¤¨à¥ģà¤¦": 8256,
      "Ġà¤Ĩà¤§à¤¾à¤°à¤¿à¤¤": 8257,
      "Ġdiseases": 8258,
      "Ġà¤ĩà¤²à¤¾à¤ľ": 8259,
      "Ġocean": 8260,
      "ĠSk": 8261,
      "ĠUsing": 8262,
      "à¥Ģà¤°à¥ĩ": 8263,
      "ry,": 8264,
      "Ġà¤Ĺà¥ĭà¤³": 8265,
      "Ġapply": 8266,
      "Ġà¤¨à¤¿à¤°à¥įà¤µ": 8267,
      "-à¤¨": 8268,
      "Ġstri": 8269,
      "Ġresource": 8270,
      "Ġà¤ħà¤¶à¥ĭà¤ķ": 8271,
      "Ġtrust": 8272,
      "Ġfavor": 8273,
      "roph": 8274,
      "Ġexplore": 8275,
      "Ġà¤Ńà¥ĭà¤ľà¤¨": 8276,
      "à¥Ģà¤Ĥà¤ļà¤¾": 8277,
      "Ġà¤®à¥ģà¤²à¥Ģ": 8278,
      "oo": 8279,
      "Ġlearned": 8280,
      "à¤¾à¤³à¤¾": 8281,
      "Ġalternative": 8282,
      "Ġà¤ªà¥įà¤°à¤¤à¤¿à¤¸": 8283,
      "à¤Ĩà¤ľ": 8284,
      "anks": 8285,
      "Ġà¤¶à¤¨à¤¿à¤µà¤¾à¤°": 8286,
      "Ġà¤¯à¥ĩà¤Ĭà¤¨": 8287,
      "Ġà¤µà¤¿à¤µà¤¾à¤¦": 8288,
      "Ġà¤ªà¤µ": 8289,
      "can": 8290,
      "Ġ(m": 8291,
      "Ġspect": 8292,
      "Ġà¤¤à¥Ĥ": 8293,
      "Ġà¤°à¥Ī": 8294,
      "Ġindustrial": 8295,
      "Ġà¤¹à¤¿à¤Ĥà¤¸": 8296,
      "Ġà¤ħà¤ªà¤°à¤¾à¤§": 8297,
      "pped": 8298,
      "ĠPaul": 8299,
      "Ġchance": 8300,
      "Ġà¤°à¥ĩà¤²à¥įà¤µà¥ĩ": 8301,
      "Ġà¤ľà¤¾à¤§à¤µ": 8302,
      "Ġà¤ķà¥ĩà¤²à¥įà¤¯à¤¾": 8303,
      "ĠJames": 8304,
      "à¤¾à¤¨à¥įà¤¸": 8305,
      "Ġvary": 8306,
      "Ġhousehold": 8307,
      "Ġwater,": 8308,
      "Ġà¤¬à¥įà¤°à¤¾à¤¹": 8309,
      "road": 8310,
      "Ġà¤°à¤¾à¤¬": 8311,
      "Ġà¤Ĺà¥ĭà¤ª": 8312,
      "Ġà¤¸à¤®à¤¾à¤ªà¥įà¤¤": 8313,
      "ĠGovernment": 8314,
      "Ġà¤ªà¤°à¥Ģà¤ķà¥įà¤·": 8315,
      "Ġà¤ļà¤¾à¤ļ": 8316,
      "edic": 8317,
[...]
