{
  "version": "1.0",
  "truncation": null,
  "padding": null,
  "added_tokens": [
    {
      "id": 0,
      "content": "<pad>",
      "single_word": false,
      "lstrip": false,
      "rstrip": false,
      "normalized": false,
      "special": true
    },
    {
      "id": 1,
      "content": "<eos>",
      "single_word": false,
      "lstrip": false,
      "rstrip": false,
      "normalized": false,
      "special": true
    },
    {
      "id": 2,
      "content": "<bos>",
      "single_word": false,
      "lstrip": false,
      "rstrip": false,
      "normalized": false,
      "special": true
    },
    {
      "id": 3,
      "content": "<unk>",
      "single_word": false,
      "lstrip": false,
      "rstrip": false,
      "normalized": false,
      "special": true
    }
  ],
  "normalizer": {
    "type": "NFC"
  },
  "pre_tokenizer": {
    "type": "Sequence",
    "pretokenizers": [
      {
        "type": "Split",
        "pattern": {
          "Regex": " ?[^\\s\\d]+| ?\\d+|\\s+"
        },
        "behavior": "Isolated",
        "invert": false
      },
      {
        "type": "Digits",
        "individual_digits": true
      },
      {
        "type": "ByteLevel",
        "add_prefix_space": false,
        "trim_offsets": true,
        "use_regex": false
      }
    ]
  },
  "post_processor": null,
  "decoder": {
    "type": "ByteLevel",
    "add_prefix_space": true,
    "trim_offsets": true,
    "use_regex": true
  },
  "model": {
    "type": "BPE",
    "dropout": null,
    "unk_token": "<unk>",
    "continuing_subword_prefix": null,
    "end_of_word_suffix": null,
    "fuse_unk": false,
    "byte_fallback": false,
    "ignore_merges": false,
    "vocab": {
      "<pad>": 0,
      "<eos>": 1,
      "<bos>": 2,
      "<unk>": 3,
      "!": 4,
      "\"": 5,
      "#": 6,
      "$": 7,
      "%": 8,
      "&": 9,
      "'": 10,
      "(": 11,
      ")": 12,
      "*": 13,
      "+": 14,
      ",": 15,
      "-": 16,
      ".": 17,
      "/": 18,
      "0": 19,
      "1": 20,
      "2": 21,
      "3": 22,
      "4": 23,
      "5": 24,
      "6": 25,
      "7": 26,
      "8": 27,
      "9": 28,
      ":": 29,
      ";": 30,
      "<": 31,
      "=": 32,
      ">": 33,
      "?": 34,
      "@": 35,
      "A": 36,
      "B": 37,
      "C": 38,
      "D": 39,
      "E": 40,
      "F": 41,
      "G": 42,
      "H": 43,
      "I": 44,
      "J": 45,
      "K": 46,
      "L": 47,
      "M": 48,
      "N": 49,
      "O": 50,
      "P": 51,
      "Q": 52,
      "R": 53,
      "S": 54,
      "T": 55,
      "U": 56,
      "V": 57,
      "W": 58,
      "X": 59,
      "Y": 60,
      "Z": 61,
      "[": 62,
      "\\": 63,
      "]": 64,
      "^": 65,
      "_": 66,
      "`": 67,
      "a": 68,
      "b": 69,
      "c": 70,
      "d": 71,
      "e": 72,
      "f": 73,
      "g": 74,
      "h": 75,
      "i": 76,
      "j": 77,
      "k": 78,
      "l": 79,
      "m": 80,
      "n": 81,
      "o": 82,
      "p": 83,
      "q": 84,
      "r": 85,
      "s": 86,
      "t": 87,
      "u": 88,
      "v": 89,
      "w": 90,
      "x": 91,
      "y": 92,
      "z": 93,
      "{": 94,
      "|": 95,
      "}": 96,
      "~": 97,
      "¡": 98,
      "¢": 99,
      "£": 100,
      "¤": 101,
      "¥": 102,
      "¦": 103,
      "§": 104,
      "¨": 105,
      "©": 106,
      "ª": 107,
      "«": 108,
      "¬": 109,
      "®": 110,
      "¯": 111,
      "°": 112,
      "±": 113,
      "²": 114,
      "³": 115,
      "´": 116,
      "µ": 117,
      "¶": 118,
      "·": 119,
      "¸": 120,
      "¹": 121,
      "º": 122,
      "»": 123,
      "¼": 124,
      "½": 125,
      "¾": 126,
      "¿": 127,
      "À": 128,
      "Á": 129,
      "Â": 130,
      "Ã": 131,
      "Ä": 132,
      "Å": 133,
      "Æ": 134,
      "Ç": 135,
      "È": 136,
      "É": 137,
      "Ê": 138,
      "Ë": 139,
      "Ì": 140,
      "Í": 141,
      "Î": 142,
      "Ï": 143,
      "Ð": 144,
      "Ñ": 145,
      "Ò": 146,
      "Ó": 147,
      "Ô": 148,
      "Õ": 149,
      "Ö": 150,
      "×": 151,
      "Ø": 152,
      "Ù": 153,
      "Ú": 154,
      "Û": 155,
      "Ü": 156,
      "Ý": 157,
      "Þ": 158,
      "ß": 159,
      "à": 160,
      "á": 161,
      "â": 162,
      "ã": 163,
      "ä": 164,
      "å": 165,
      "æ": 166,
      "ç": 167,
      "è": 168,
      "é": 169,
      "ê": 170,
      "ë": 171,
      "ì": 172,
      "í": 173,
      "î": 174,
      "ï": 175,
      "ð": 176,
      "ñ": 177,
      "ò": 178,
      "ó": 179,
      "ô": 180,
      "õ": 181,
      "ö": 182,
      "÷": 183,
      "ø": 184,
      "ù": 185,
      "ú": 186,
      "û": 187,
      "ü": 188,
      "ý": 189,
      "þ": 190,
      "ÿ": 191,
      "Ā": 192,
      "ā": 193,
      "Ă": 194,
      "ă": 195,
      "Ą": 196,
      "ą": 197,
      "Ć": 198,
      "ć": 199,
      "Ĉ": 200,
      "ĉ": 201,
      "Ċ": 202,
      "ċ": 203,
      "Č": 204,
      "č": 205,
      "Ď": 206,
      "ď": 207,
      "Đ": 208,
      "đ": 209,
      "Ē": 210,
      "ē": 211,
      "Ĕ": 212,
      "ĕ": 213,
      "Ė": 214,
      "ė": 215,
      "Ę": 216,
      "ę": 217,
      "Ě": 218,
      "ě": 219,
      "Ĝ": 220,
      "ĝ": 221,
      "Ğ": 222,
      "ğ": 223,
      "Ġ": 224,
      "ġ": 225,
      "Ģ": 226,
      "ģ": 227,
      "Ĥ": 228,
      "ĥ": 229,
      "Ħ": 230,
      "ħ": 231,
      "Ĩ": 232,
      "ĩ": 233,
      "Ī": 234,
      "ī": 235,
      "Ĭ": 236,
      "ĭ": 237,
      "Į": 238,
      "į": 239,
      "İ": 240,
      "ı": 241,
      "Ĳ": 242,
      "ĳ": 243,
      "Ĵ": 244,
      "ĵ": 245,
      "Ķ": 246,
      "ķ": 247,
      "ĸ": 248,
      "Ĺ": 249,
      "ĺ": 250,
      "Ļ": 251,
      "ļ": 252,
      "Ľ": 253,
      "ľ": 254,
      "Ŀ": 255,
      "ŀ": 256,
      "Ł": 257,
      "ł": 258,
      "Ń": 259,
      "à¤": 260,
      "à¥": 261,
      "Ġà¤": 262,
      "à¤¾": 263,
      "à¤¾à¤": 264,
      "à¥ĩ": 265,
      "à¥į": 266,
      "à¥įà¤": 267,
      "à¥Ģ": 268,
      "Ġt": 269,
      "à¤¿": 270,
      "à¤°": 271,
      "Ġà¤ķ": 272,
      "à¤¿à¤": 273,
      "Ġa": 274,
      "he": 275,
      "à¤Ĥ": 276,
      "in": 277,
      "à¥ĭ": 278,
      "à¤¨": 279,
      "re": 280,
      "à¤¤": 281,
      "à¤ķ": 282,
      "Ġthe": 283,
      "on": 284,
      "Ġà¤¸": 285,
      "er": 286,
      "Ġà¤¹": 287,
      "at": 288,
      "Ġo": 289,
      "à¤²": 290,
      "Ġs": 291,
      "Ġà¤®": 292,
      "à¤¸": 293,
      "à¥įà¤¯": 294,
      "Ġà¤ª": 295,
      "en": 296,
      "à¥ģ": 297,
      "Ġc": 298,
      "à¤¹": 299,
      "es": 300,
      "Ġw": 301,
      "is": 302,
      "nd": 303,
      "it": 304,
      "or": 305,
      "à¥įà¤°": 306,
      "Ġp": 307,
      "al": 308,
      "à¤¾à¤°": 309,
      "à¤®": 310,
      "à¥Ī": 311,
      "an": 312,
      "Ġb": 313,
      "ed": 314,
      "Ġof": 315,
      "Ġf": 316,
      "ing": 317,
      "Ġin": 318,
      "ar": 319,
      "ou": 320,
      "Ġm": 321,
      "Ġand": 322,
      "à¤µ": 323,
      "Ġà¤µ": 324,
      "Ġto": 325,
      "Ġà¤¨": 326,
      "Ġà¤ħ": 327,
      "ic": 328,
      "à¤ª": 329,
      "Ġà¤Ĩ": 330,
      "Ġà¤ķà¥ĩ": 331,
      "à¥¤": 332,
      "ion": 333,
      "Ġd": 334,
      "Ġà¤ľ": 335,
      "à¥ĩà¤Ĥ": 336,
      "à¥Ĥ": 337,
      "à¤Ĺ": 338,
      "Ġà¤¬": 339,
      "Ġà¤¹à¥Ī": 340,
      "à¤¦": 341,
      "Ġà¤¦": 342,
      "le": 343,
      "Ġà¤¤": 344,
      "ro": 345,
      "à¤ļ": 346,
      "as": 347,
      "à¤¾à¤¨": 348,
      "Ġà¤°": 349,
      "Ġh": 350,
      "à¤£": 351,
      "à¤°à¥įà¤": 352,
      "ent": 353,
      "Ġth": 354,
      "Ġà¤²": 355,
      "à¤¯": 356,
      "à¥ĩà¤": 357,
      "à¤¾à¤Ĥ": 358,
      "Ġà¤®à¥ĩà¤Ĥ": 359,
      "ct": 360,
      "à¤¾à¤¤": 361,
      "Ġe": 362,
      "il": 363,
      "à¤¡": 364,
      "Ġre": 365,
      "ĠT": 366,
      "Ġà¤¯": 367,
      "à¥ĭà¤Ĥ": 368,
      "om": 369,
      "ve": 370,
      "Ġl": 371,
      "st": 372,
      "Ġn": 373,
      "à¤¾à¤²": 374,
      "à¤ľ": 375,
      "à¤¿à¤¯": 376,
      "Ġà¤ķà¤°": 377,
      "Ġà¤Ĺ": 378,
      "Ġà¤ī": 379,
      "Ġà¤ķà¥Ģ": 380,
      "à¤¨à¥ĩ": 381,
      "à¤¿à¤ķ": 382,
      "à¤¬": 383,
      "ly": 384,
      "âĢ": 385,
      "Ġbe": 386,
      "Ġà¤Ń": 387,
      "Ġis": 388,
      "Ġà¤ķà¥ĭ": 389,
      "à¥įà¤¤": 390,
      "à¤Ł": 391,
      "Ġà¤ªà¥įà¤°": 392,
      "ĠA": 393,
      "ol": 394,
      "se": 395,
      "Ġg": 396,
      "Ġà¤ĩ": 397,
      "Ġà¤¶": 398,
      "ation": 399,
      "im": 400,
      "à¥ģà¤": 401,
      "id": 402,
      "à¥įà¤¯à¤¾": 403,
      "ĠS": 404,
      "et": 405,
      "Ġà¤¸à¥ĩ": 406,
      "ut": 407,
      "à¤§": 408,
      "ur": 409,
      "ce": 410,
      "ot": 411,
      "à¤¿à¤¤": 412,
      "ĠI": 413,
      "ra": 414,
      "ch": 415,
      "Ġà¤Ķ": 416,
      "ow": 417,
      "Ġ(": 418,
      "Ġà¤¹à¥ĭ": 419,
      "Ġà¤Ķà¤°": 420,
      "Ġà¤ı": 421,
      "ĠC": 422,
      "Ġfor": 423,
      "ig": 424,
      "à¥įà¤¯à¤¾à¤": 425,
      "Ġà¤ªà¤°": 426,
      "Ġu": 427,
      "Ġà¤ļ": 428,
      "Ġon": 429,
      "Ġthat": 430,
      "à¤¿à¤²": 431,
      "Ġst": 432,
      "ver": 433,
      "à¤¼": 434,
      "à¤¾à¤®": 435,
      "ĠThe": 436,
      "ir": 437,
      "Ġy": 438,
      "à¥įà¤Ł": 439,
      "à¤¾à¤µ": 440,
      "à¤¶": 441,
      "ul": 442,
      "à¤¾à¤¹": 443,
      "à¤¤à¤¾": 444,
      "ay": 445,
      "à¤¾à¤¯": 446,
      "am": 447,
      "à¤¾à¤¸": 448,
      "Ġà¤ķà¤¾": 449,
      "à¥įà¤µ": 450,
      "s,": 451,
      "à¤¨à¤¾": 452,
      "el": 453,
      "Ġas": 454,
      "ith": 455,
      "ad": 456,
      "Ġà¤¹à¥Īà¥¤": 457,
      "ĠM": 458,
      "s.": 459,
      "her": 460,
      "à¤¹à¥Ģ": 461,
      "Ġpro": 462,
      "à¤¿à¤¸": 463,
      "Ġare": 464,
      "Ġcon": 465,
      "à¤¹à¥ĩ": 466,
      "Ġan": 467,
      "Ġwith": 468,
      "à¤²à¥ĩ": 469,
      "ĠP": 470,
      "à¤¿à¤¯à¤¾": 471,
      "Ġà¤¨à¥ĩ": 472,
      "if": 473,
      "Ġwh": 474,
      "Ġyou": 475,
      "Ġor": 476,
      "Ġà¤ĩà¤¸": 477,
      "Ġit": 478,
      "Ġà¤¹à¥Īà¤Ĥ": 479,
      "Ġal": 480,
      "ter": 481,
      "od": 482,
      "à¥įà¤·": 483,
      "Ġà¤ıà¤ķ": 484,
      "à¤¾à¤ľ": 485,
      "à¤¿à¤¨": 486,
      "ĠĠ": 487,
      "à¤Ń": 488,
      "ĠB": 489,
      "à¥įà¤¹": 490,
      "à¤¤à¥ĩ": 491,
      "Ġ-": 492,
      "ment": 493,
      "ge": 494,
      "Ġà¤¥": 495,
      "Ġà¤ĸ": 496,
      "Ġà¤µà¤¿à¤": 497,
      "th": 498,
      "Ġà¤«": 499,
      "à¤¤à¥Ģ": 500,
      "op": 501,
      "ĠW": 502,
      "ate": 503,
      "ist": 504,
      "ĠH": 505,
      "Ġde": 506,
      "à¤°à¥Ģ": 507,
      "à¤¿à¤ı": 508,
      "à¤¾à¤¦": 509,
      "ies": 510,
      "ill": 511,
      "ab": 512,
      "Ġhe": 513,
      "Ġà¤¸à¤Ĥ": 514,
      "à¤¨à¥Ģ": 515,
      "Ġà¤Ĩà¤¹à¥ĩ": 516,
      "à¥ĩà¤¶": 517,
      "Ġex": 518,
      "à¤¸à¥ĩ": 519,
      "Ġsu": 520,
      "Ġwe": 521,
      "ore": 522,
      "Ġcom": 523,
      "ect": 524,
      "Ġà¤ķà¤¿": 525,
      "âĢĻ": 526,
      "ĠD": 527,
      "à¤Ī": 528,
      "ity": 529,
      "est": 530,
      "à¥Ĥà¤¨": 531,
      "à¤ķà¥ĩ": 532,
      "ive": 533,
      "ac": 534,
      "à¤¾à¤ļ": 535,
      "Ġha": 536,
      "um": 537,
      "ess": 538,
      "us": 539,
      "ld": 540,
      "à¤²à¤¾": 541,
      "rom": 542,
      "ĠE": 543,
      "Ġv": 544,
      "ĠF": 545,
      "ĠR": 546,
      "à¥įà¤¥": 547,
      "ke": 548,
      "à¤¡à¤¼": 549,
      "Ġà¤Ńà¥Ģ": 550,
      "ure": 551,
      "os": 552,
      "à¤²à¥Ģ": 553,
      "Ġby": 554,
      "à¤Ĥà¤¤": 555,
      "ant": 556,
      "iv": 557,
      "à¥Į": 558,
      "em": 559,
      "ers": 560,
      "Ġà¤¸à¤®": 561,
      "à¥ī": 562,
      "ain": 563,
      "qu": 564,
      "Ġat": 565,
      "nt": 566,
      "pp": 567,
      "à¥ģà¤°": 568,
      "à¤ķà¥įà¤·": 569,
      "igh": 570,
      "à¤¾à¤Ĺ": 571,
      "ĠâĢ": 572,
      "Ġwas": 573,
      "ĠN": 574,
      "ud": 575,
      "Ġcan": 576,
      "Ġfrom": 577,
      "à¤¿à¤Ĥ": 578,
      "oc": 579,
      "à¤¿à¤µ": 580,
      "Ġch": 581,
      "and": 582,
      "Ġne": 583,
      "Ġà¤ĺ": 584,
      "Ġr": 585,
      "Ġà¥¤": 586,
      "ort": 587,
      "ĠG": 588,
      "Ġà¤Ł": 589,
      "à¥įà¤®": 590,
      "à¤¾à¤Ĥà¤ļ": 591,
      "à¤¾à¤°à¥Ģ": 592,
      "à¥ĥ": 593,
      "à¤ı": 594,
      "ĠL": 595,
      "Ġse": 596,
      "res": 597,
      "ial": 598,
      "à¤ĸ": 599,
      "à¥įà¤°à¥Ģ": 600,
      "à¤¹à¥Ģà¤Ĥ": 601,
      "Ġà¤īà¤¨": 602,
      "à¤¾à¤¨à¥ĩ": 603,
      "un": 604,
      "à¥ĭà¤Ĺ": 605,
      "Ġnot": 606,
      "Ġà¤ħà¤ª": 607,
      "art": 608,
      "Ġà¤²à¤¿à¤ı": 609,
      "à¤¿à¤°": 610,
      "ical": 611,
      "Ġle": 612,
      "Ġà¤ħà¤¸": 613,
      "Ġhave": 614,
      "à¤ķà¤°": 615,
      "Ġà¤¡": 616,
      "ri": 617,
      "Ġà¤¹à¥Ģ": 618,
      "à¥įà¤¸": 619,
      "Ġà¤¸à¤¾à¤": 620,
      "og": 621,
      "à¥įà¤²": 622,
      "à¥įà¤ķ": 623,
      "Ġsh": 624,
      "à¤¾à¤ķ": 625,
      "Ġà¤Ĩà¤¹à¥ĩ.": 626,
      "à¤¾à¤ª": 627,
      "Ġen": 628,
      "Ġsp": 629,
      "ĠO": 630,
      "à¤«": 631,
      "Ġthis": 632,
      "Ġà¤¨à¤¹à¥Ģà¤Ĥ": 633,
      "ĠIn": 634,
      "ight": 635,
      "Ġab": 636,
      "pt": 637,
      "Ġà¤ķà¤¾à¤°": 638,
      "rou": 639,
      "à¤¹à¤¾": 640,
      "ich": 641,
      "à¤¯à¤¾": 642,
      "red": 643,
      "à¤ķà¥Ģ": 644,
      "Ġ\"": 645,
      "all": 646,
      "Ġwor": 647,
      "à¥įà¤ª": 648,
      "Ġà¤¯à¤¹": 649,
      "à¥ĩà¤¤": 650,
      "Ġà¤¹à¥Īà¤Ĥà¥¤": 651,
      "ther": 652,
      "gh": 653,
      "ould": 654,
      "ost": 655,
      "our": 656,
      "à¤Ĥà¤¦": 657,
      "ome": 658,
      "Ġà¤ħà¤¨": 659,
      "à¥ģà¤²": 660,
      "âĢĻs": 661,
      "à¥įà¤¯à¤¾à¤ļ": 662,
      "à¤ķà¤¾à¤°": 663,
      "Ġim": 664,
      "ated": 665,
      "du": 666,
      "à¤¾à¤£": 667,
      "Ġà¤Ĩà¤ª": 668,
      "ine": 669,
      "Ġà¤ķà¤¿à¤¯à¤¾": 670,
      "per": 671,
      "à¤¾à¤Ī": 672,
      "ag": 673,
      "Ġà¤¤à¥ĭ": 674,
      "Ġà¤®à¤¹": 675,
      "ard": 676,
      "Ġà¤¯à¤¾": 677,
      "out": 678,
      "Ġpl": 679,
      "Ġtheir": 680,
      "ĠJ": 681,
      "à¤·": 682,
      "Ġus": 683,
      "ide": 684,
      "Ġà¤¹à¥ģà¤": 685,
      "ell": 686,
      "ĠU": 687,
      "ff": 688,
      "act": 689,
      "à¥ĩà¤Ł": 690,
      "à¤¥": 691,
      "Ġint": 692,
      "ak": 693,
      "ĠTh": 694,
      "ast": 695,
      "Ġà¤¦à¥ĩ": 696,
      "pl": 697,
      "à¥Ģà¤²": 698,
      "ear": 699,
      "à¤ķà¥įà¤¤": 700,
      "age": 701,
      "Ġà¤§": 702,
      "ust": 703,
      "à¤³": 704,
      "Ġk": 705,
      "Ġà¤ħà¤§": 706,
      "Ġwhich": 707,
      "à¥įà¤¦": 708,
      "à¤ķà¤¾": 709,
      "à¤Ĥà¤Ĺ": 710,
      "à¤ł": 711,
      "Ġà¤Ĩà¤£": 712,
      "ec": 713,
      "Ġwhe": 714,
      "Ġyour": 715,
      "à¥ĩà¤²": 716,
      "Ġthey": 717,
      "à¤¾à¤¬": 718,
      "à¥įà¤¨": 719,
      "à¥įà¤§": 720,
      "iz": 721,
      "Ġà¤²à¥ĩ": 722,
      "Ġall": 723,
      "ood": 724,
      "ia": 725,
      "Ġà¤ªà¤¹": 726,
      "à¤¾à¤ĩ": 727,
      "ib": 728,
      "ult": 729,
      "ew": 730,
      "à¤°à¥įà¤µ": 731,
      "à¤¾à¤¹à¥Ģ": 732,
      "Ġad": 733,
      "Ġcont": 734,
      "Ġwill": 735,
      "Ġà¤¥à¤¾": 736,
      "Ġà¤īà¤¸": 737,
      "end": 738,
      "ous": 739,
      "Ġinc": 740,
      "ru": 741,
      "cc": 742,
      "Ġà¤°à¤¾à¤ľ": 743,
      "à¥įà¤¯à¤¾à¤¤": 744,
      "ans": 745,
      "à¥ģà¤¨": 746,
      "à¤°à¥įà¤®": 747,
      "Ġmore": 748,
      "Ġdis": 749,
      "ip": 750,
      "ong": 751,
      "ap": 752,
      "âĢĿ": 753,
      "Ġà¤Ĩà¤£à¤¿": 754,
      "Ġcomp": 755,
      "ĠâĢľ": 756,
      "à¤Ĥà¤¡": 757,
      "Ġà¤Ĺà¤¯à¤¾": 758,
      "ions": 759,
      "Ġres": 760,
      "Ġà¤ķà¤°à¤¨à¥ĩ": 761,
      "Ġ'": 762,
      "vel": 763,
      "Ġhas": 764,
      "es,": 765,
      "e.": 766,
      "Ġà¤ľà¤¾à¤¤": 767,
      "ere": 768,
      "à¤¾à¤²à¤¾": 769,
      "Ġà¤ľà¥ĭ": 770,
      "Ġà¤Ŀ": 771,
      "so": 772,
      "Ġdo": 773,
      "orm": 774,
      "e,": 775,
      "ary": 776,
      "ater": 777,
      "Ġà¤¸à¤¾à¤¥": 778,
      "à¤¾à¤ł": 779,
      "à¥Ģà¤¨": 780,
      "à¤¤à¥įà¤¤": 781,
      "à¤°à¥ĩ": 782,
      "are": 783,
      "à¤¿à¤¶": 784,
      "ence": 785,
      "ild": 786,
      "able": 787,
      "es.": 788,
      "Ġà¤¸à¥įà¤µ": 789,
      "Ġother": 790,
      "Ġman": 791,
      "ual": 792,
      "Ġcl": 793,
      "à¤¿à¤¯à¥ĭà¤Ĥ": 794,
      "ind": 795,
      "Ġbut": 796,
      "à¤Ĺà¤¾": 797,
      "Ġà¤¦à¥ĭ": 798,
      "ry": 799,
      "Ġwere": 800,
      "Ġà¤¹à¥Ī,": 801,
      "Ġà¤ªà¥Ĥ": 802,
      "Ġà¤īà¤ª": 803,
      "à¤ļà¥įà¤¯à¤¾": 804,
      "ok": 805,
      "à¤¾à¤Ĥà¤¨à¥Ģ": 806,
      "à¥ĩà¤ĸ": 807,
      "à¥ģà¤®": 808,
      "ep": 809,
      "Ġà¤¸à¤ķ": 810,
      "ach": 811,
      "à¤¸à¥įà¤¤": 812,
      "ance": 813,
      "à¤¾à¤ı": 814,
      "Ġte": 815,
      "Ġper": 816,
      "Ġalso": 817,
      "à¤¸à¥Ģ": 818,
      "ition": 819,
      "à¤¿à¤®": 820,
      "Ġimp": 821,
      "à¤¢": 822,
      "ction": 823,
      "'s": 824,
      "Ġà¤¤à¤°": 825,
      "ose": 826,
      "ĠSt": 827,
      "reat": 828,
      "à¥Ĥà¤ª": 829,
      "Ġme": 830,
      "ign": 831,
      "av": 832,
      "ake": 833,
      "ĠK": 834,
      "ack": 835,
      "Ġone": 836,
      "à¥įà¤ļ": 837,
      "à¥ĭà¤ľ": 838,
      "à¤¾à¤¯à¤¾": 839,
      "Ġà¤¤à¥įà¤¯": 840,
      "au": 841,
      "ber": 842,
      "Ġj": 843,
      "à¥ĭà¤²": 844,
      "Ġso": 845,
      "à¥įà¤¯à¥ĩ": 846,
      "à¤¤à¤¿": 847,
      "ĠIt": 848,
      "à¥ĩà¤¸": 849,
      "à¥§": 850,
      "Ġout": 851,
      "Ġun": 852,
      "Ġar": 853,
      "à¤®à¥ĩà¤Ĥ": 854,
      "Ġapp": 855,
      "ass": 856,
      "very": 857,
      "ations": 858,
      "Ġà¤Ľ": 859,
      "Ġpart": 860,
      "Ġtim": 861,
      "à¥ģà¤ķ": 862,
      "à¤¾à¤łà¥Ģ": 863,
      "Ġabout": 864,
      "Ġà¤µà¤¹": 865,
      "ord": 866,
      "à¤¾à¤²à¥ĩ": 867,
      "Ġà¤²à¤Ĺ": 868,
      "ace": 869,
      "ish": 870,
      "ire": 871,
      "à¥Ĥà¤°": 872,
      ").": 873,
      "Ġev": 874,
      "Ġà¤īà¤¨à¥įà¤¹": 875,
      "y,": 876,
      "Ġstud": 877,
      "ĠThis": 878,
      "Ġwho": 879,
      "Ġà¤µà¤°à¥įà¤": 880,
      "ress": 881,
      "à¤¾à¤§": 882,
      "Ġà¤ħà¤§à¤¿à¤ķ": 883,
      "à¥ģà¤¦": 884,
      "ount": 885,
      "à¥ģà¤ĸ": 886,
      "Ġà¤¸à¤°": 887,
      "à¤¾à¤¨à¤¾": 888,
      "ub": 889,
      "Ġpe": 890,
      "Ġhis": 891,
      "à¤¿à¤Ł": 892,
      "Ġinf": 893,
      "à¥¦": 894,
      "ric": 895,
      "Ġà¤ķà¤¹à¤¾": 896,
      "à¤¾à¤°à¤¾": 897,
      "ĠCh": 898,
      "ents": 899,
      "Ġsy": 900,
      "Ġthem": 901,
      "Ġà¤Ńà¤¾à¤°": 902,
      "Ġcomm": 903,
      "à¥ĭà¤ķ": 904,
      "à¤¸à¥įà¤¥": 905,
      "à¤¾à¤²à¥Ģ": 906,
      "Ġsc": 907,
      "ang": 908,
      "à¤Ńà¥Ģ": 909,
      "Ġwork": 910,
      "à¤¿à¤Ĥà¤Ĺ": 911,
      "ens": 912,
      "low": 913,
      "à¤¾à¤¶": 914,
      "Ġà¤¬à¤¾à¤¦": 915,
      "Ġà¤¸à¥įà¤¥": 916,
      "Ġà¤¬à¤¨": 917,
      "ike": 918,
      "Ġà¤ķà¤°à¤£": 919,
      "à¤¾à¤·": 920,
      "Ġup": 921,
      "à¤¾à¤Ł": 922,
      "à¤µà¤°": 923,
      "à¥Ģà¤ļ": 924,
      "Ġà¤ħà¤ªà¤¨à¥ĩ": 925,
      "olog": 926,
      "ound": 927,
      "now": 928,
      "à¥ģà¤ª": 929,
      "Ġà¤¹à¥Ī.": 930,
      "ian": 931,
      "ĠV": 932,
      "Ġbec": 933,
      "ame": 934,
      "ory": 935,
      "one": 936,
      "à¥įà¤¯à¤¾à¤¸": 937,
      "Ġpre": 938,
      "à¤¾à¤Ĥà¤Ĺ": 939,
      "Ġà¤¤à¤ķ": 940,
      "à¥Ģà¥¤": 941,
      "Ġà¤ł": 942,
      "ase": 943,
      "Ġà¤®à¥ĭ": 944,
      "ile": 945,
      "Ġthan": 946,
      "rit": 947,
      "Ġà¤¦à¤¿à¤²": 948,
      "ook": 949,
      "à¤Ĥà¤¬": 950,
      "à¤¤à¥įà¤°": 951,
      "Ġà¤ªà¥įà¤°à¤¤": 952,
      "Ġà¤ľà¤¿à¤¸": 953,
      "Ġmay": 954,
      "à¤ķà¥ĭ": 955,
      "à¤¾à¤¨à¥Ģ": 956,
      "Ġqu": 957,
      "à¥ĩà¤ľ": 958,
      "ree": 959,
      "Ġà¤¨à¤¿": 960,
      "à¤°à¥ĭ": 961,
      "iff": 962,
      "Ġà¤µà¥įà¤¯": 963,
      "Ġsome": 964,
      "à¤Ĥà¤ļ": 965,
      "Ġà¤®à¤¿à¤²": 966,
      "ople": 967,
      "ĠY": 968,
      "à¥ģà¤¸": 969,
      "Ġrec": 970,
      "ie": 971,
      "Ġyear": 972,
      "ail": 973,
      "Ġà¤²à¥ĭà¤Ĺ": 974,
      "Ġà¤¹à¤®": 975,
      "Ġà¤°à¤¹à¥ĩ": 976,
      "à¤°à¤¾": 977,
      "Ġà¤Ĳ": 978,
      "Ġthere": 979,
      "nder": 980,
      "à¤¾à¤Ĥà¤¨à¤¾": 981,
      "Ġwhen": 982,
      "Ġà¤ľà¥Ģ": 983,
      "Ġbeen": 984,
      "mer": 985,
      "à¤ĺ": 986,
      "ĵà¤Ĥ": 987,
      "Ġà¤ķà¤®": 988,
      "à¤ĥ": 989,
      "Ġà¤¦à¤¿à¤¯à¤¾": 990,
      "ue": 991,
      "à¤¿à¤·": 992,
      "Ġgo": 993,
      "Ġà¤ķà¤¾à¤°à¥įà¤¯": 994,
      "Ġag": 995,
      "Ġà¤®à¥Ī": 996,
      "à¤Ĩ": 997,
      "à¤¾à¤¡": 998,
      "à¤§à¥įà¤¯à¥ĩ": 999,
      "ough": 1000,
      "Ġà¤¸à¥ĭ": 1001,
      "à¤¾à¤°à¥ĩ": 1002,
      "ph": 1003,
      "Ġinto": 1004,
      "Ġits": 1005,
      "ice": 1006,
      "ren": 1007,
      "Ġà¤ĩà¤¨": 1008,
      "à¥įà¤°à¤®": 1009,
      "ces": 1010,
      "à¤µà¤¾": 1011,
      "Ġtra": 1012,
      "Ġover": 1013,
      "erv": 1014,
      "à¤°à¤£": 1015,
      "à¤¦à¥Ģ": 1016,
      "Ġthese": 1017,
      "Ġà¤µà¤¿à¤¶": 1018,
      "à¤¢à¤¼": 1019,
      "),": 1020,
      "à¥ģà¤¤": 1021,
      "à¤²à¥įà¤¯à¤¾": 1022,
      "ally": 1023,
      "Ġpeople": 1024,
      "rough": 1025,
      "à¥¨": 1026,
      "Ġdiff": 1027,
      "Ġhow": 1028,
      "ite": 1029,
      "ing,": 1030,
      "iver": 1031,
      "Ġà¤ķà¤¾à¤®": 1032,
      "lud": 1033,
      "ond": 1034,
      "Ġà¤¸à¥Ģ": 1035,
      "ove": 1036,
      "à¤¿à¤ª": 1037,
      "Ġà¤¹à¥ģà¤ı": 1038,
      "ause": 1039,
      "à¤¿à¤ľ": 1040,
      "Ġtr": 1041,
      "tern": 1042,
      "ll": 1043,
      "Ġour": 1044,
      "Ġcons": 1045,
      "Ġhad": 1046,
      "Ġro": 1047,
      "à¥ĩà¥¤": 1048,
      "Ġà¤ķà¤¿à¤¸": 1049,
      "Ġà¤ķà¥ģà¤": 1050,
      "Ġuse": 1051,
      "y.": 1052,
      "Ġcol": 1053,
      "Ġra": 1054,
      "ific": 1055,
      "Ġnew": 1056,
      "Ġà¤®à¥ĩ": 1057,
      "à¥ĭà¤Ł": 1058,
      "int": 1059,
      "Ġà¤¸à¤¾à¤®": 1060,
      "à¤¾à¤³": 1061,
      "Ġà¤¦à¥ĩà¤ĸ": 1062,
      "Ġbet": 1063,
      "ors": 1064,
      "Ġmost": 1065,
      "Ġact": 1066,
      "à¤°à¥įà¤£": 1067,
      "ities": 1068,
      "we": 1069,
      "Ġunder": 1070,
      "lic": 1071,
      "Ġknow": 1072,
      "Ġsa": 1073,
      "Ġà¤®à¥įà¤¹": 1074,
      "irst": 1075,
      "alth": 1076,
      "Ġlike": 1077,
      "à¤Ĥà¤§": 1078,
      "te": 1079,
      "Ġà¤¨à¤¾à¤¹à¥Ģ": 1080,
      "Ġà¤°à¤¹à¤¾": 1081,
      "Ġwould": 1082,
      "ed.": 1083,
      "Ġbl": 1084,
      "Ġdes": 1085,
      "lect": 1086,
      "ject": 1087,
      "Ġacc": 1088,
      "erm": 1089,
      "Ġà¤¹à¥ĭà¤¤à¤¾": 1090,
      "row": 1091,
      "à¤¾à¤Ĥà¤ļà¥įà¤¯à¤¾": 1092,
      "Ġà¤Ĺà¤Ī": 1093,
      "à¤¿à¤¦": 1094,
      "ient": 1095,
      "Ġà¤¯à¥ĩ": 1096,
      "velop": 1097,
      "à¥ĭà¤Ĥà¤¨à¥ĩ": 1098,
      "à¤¾à¤ĸ": 1099,
      "à¥įà¤Łà¥įà¤°": 1100,
      "à¤¾à¤¤à¥įà¤°": 1101,
      "à¤¦à¤¾à¤°": 1102,
      "Ġrel": 1103,
      "à¤ħ": 1104,
      "à¥ĩà¤µ": 1105,
      "..": 1106,
      "stem": 1107,
      "Ġtw": 1108,
      "à¥Įà¤°": 1109,
      "ob": 1110,
      "à¥įà¤¡": 1111,
      "Ġsuch": 1112,
      "ning": 1113,
      "Ġà¤ľà¤¾": 1114,
      "à¤ªà¥Ģ": 1115,
      "à¤¾à¤ĵà¤Ĥ": 1116,
      "ational": 1117,
      "Ġif": 1118,
      "ark": 1119,
      "ys": 1120,
      "Ġrep": 1121,
      "Ġneed": 1122,
      "ons": 1123,
      "ious": 1124,
      "Ġà¤°à¤¹": 1125,
      "ates": 1126,
      "ffect": 1127,
      "ram": 1128,
      "ays": 1129,
      "à¤¾à¤ģ": 1130,
      "à¥ĩà¤¡": 1131,
      "Ġà¤¹à¥ĩ": 1132,
      "Ġà¤°à¥Ĥà¤ª": 1133,
      "à¤Ĺà¤°": 1134,
      "Ġinclud": 1135,
      "Ġchild": 1136,
      "ov": 1137,
      "Ġany": 1138,
      "Ġhel": 1139,
      "à¥ģà¤³": 1140,
      "à¥įà¤ŀ": 1141,
      "Ġà¤¬à¤¹": 1142,
      "ink": 1143,
      "Ġgen": 1144,
      "à¥ĥà¤¤": 1145,
      "ĠWh": 1146,
      "à¤°à¥įà¤¥": 1147,
      "ative": 1148,
      "ĠUn": 1149,
      "hed": 1150,
      "à¥Ģà¤¤": 1151,
      "ple": 1152,
      "Ġà¤¸à¤°à¥įà¤µ": 1153,
      "Ġwhat": 1154,
      "Ġà¤ĳ": 1155,
      "à¥ĭà¤°": 1156,
      "ular": 1157,
      "ath": 1158,
      "Ġonly": 1159,
      "yp": 1160,
      "Ġhelp": 1161,
      "Ġà¤ķà¥ģà¤Ľ": 1162,
      "Ġph": 1163,
      "à¤·à¥įà¤Ł": 1164,
      "à¤µà¤¾à¤°": 1165,
      "à¥ħ": 1166,
      "ool": 1167,
      "Ġam": 1168,
      "Ġà¤ĵ": 1169,
      "Ġà¤Ĩà¤¹à¥ĩà¤¤": 1170,
      "à¤°à¥įà¤¤": 1171,
      "Ġà¤¸à¤¬": 1172,
      "Ġà¤µà¥ĩ": 1173,
      "Ġno": 1174,
      "Ġà¤ľà¤¨": 1175,
      "Ġà¤Ĩà¤ľ": 1176,
      "à¤Ĥà¤¤à¥įà¤°à¥Ģ": 1177,
      "à¤Ĥà¤Ł": 1178,
      "Ġprov": 1179,
      "Ġà¤¹à¥ĭà¤¤à¥ĩ": 1180,
      "à¥ĩ,": 1181,
      "Ġà¤¸à¤°à¤ķà¤¾à¤°": 1182,
      "Ġà¤°à¤¹à¥Ģ": 1183,
      "ings": 1184,
      "à¤¾à¤²à¤¯": 1185,
      "à¤¸à¤¾": 1186,
      "Ġind": 1187,
      "Ġà¤ľà¤¬": 1188,
      "Ġà¤ķà¤°à¤¤à¥ĩ": 1189,
      "à¤¿à¤ĸ": 1190,
      "Ġà¤¦à¥ĩà¤¶": 1191,
      "Ġà¤ļà¤¾à¤¹": 1192,
      "Ġà¤ķà¥įà¤·": 1193,
      "Ġà¤®à¥įà¤¹à¤£": 1194,
      "Ġthrough": 1195,
      "à¤¾à¤«": 1196,
      "Ġprodu": 1197,
      "Ġoff": 1198,
      "Ġà¤¸à¤¹": 1199,
      "ced": 1200,
      "Ġà¤¦à¥įà¤µ": 1201,
      "Ġà¤¬à¤¾à¤¤": 1202,
      "à¥Ģà¤®": 1203,
      "Ġused": 1204,
      "ating": 1205,
      "Ġfirst": 1206,
      "Ġà¤®à¤¨": 1207,
      "Ġdevelop": 1208,
      "à¤¾à¤ļà¥įà¤¯à¤¾": 1209,
      "Ġmany": 1210,
      "à¥Ĥà¤²": 1211,
      "à¤ļà¥ĩ": 1212,
      "à¤¦à¥ĩà¤¶": 1213,
      "Ġspec": 1214,
      "ck": 1215,
      "à¤µà¥Ģ": 1216,
      "ĠAs": 1217,
      "Ġà¤µà¤¿à¤ķ": 1218,
      "Ġfe": 1219,
      "fter": 1220,
      "Ġà¤¸à¥ģà¤°": 1221,
      "iet": 1222,
      "round": 1223,
      "Ġà¤µà¤°à¥įà¤·": 1224,
      "Ġà¤¥à¤¾à¥¤": 1225,
      "ĠHe": 1226,
      "Ġreg": 1227,
      "Ġpo": 1228,
      "à¤ķà¤¿à¤¨": 1229,
      "Ġem": 1230,
      "Ġpr": 1231,
      "Ġexp": 1232,
      "hen": 1233,
      "rib": 1234,
      "ing.": 1235,
      "à¥Ģ,": 1236,
      "à¤°à¥įà¤ľ": 1237,
      "les": 1238,
      "à¤°à¥įà¤Ł": 1239,
      "ful": 1240,
      "Ġà¤Ĩà¤µ": 1241,
      "Ġtwo": 1242,
      "old": 1243,
      "Ġà¤®à¤¾à¤¨": 1244,
      "à¤¾à¤Ĥà¤¤": 1245,
      "à¤¨à¥ĭà¤Ĥ": 1246,
      "Ġà¤ķà¤¹": 1247,
      "oth": 1248,
      "cess": 1249,
      "iss": 1250,
      "à¤Ĥà¤¤à¤°": 1251,
      "Ġsystem": 1252,
      "Ġà¤Ĩà¤¯": 1253,
      "Ġà¤īà¤¨à¥įà¤¹à¥ĭà¤Ĥà¤¨à¥ĩ": 1254,
      "Ġdiffere": 1255,
      "oss": 1256,
      "eth": 1257,
      "uring": 1258,
      "à¥Ĥà¤¸": 1259,
      "à¤¾,": 1260,
      "Ġà¤Ĺà¥įà¤°": 1261,
      "Ġac": 1262,
      "à¤Ĥà¤ª": 1263,
      "à¥ģà¤³à¥ĩ": 1264,
      "Ġà¤Ńà¤¾à¤°à¤¤": 1265,
      "à¥įà¤¯à¤¾à¤µ": 1266,
      "Ġtime": 1267,
      "Ġob": 1268,
      "à¥ĩà¤¨": 1269,
      "ility": 1270,
      "Ġass": 1271,
      "ert": 1272,
      "a,": 1273,
      "ne": 1274,
      "à¥ĩà¤·": 1275,
      "ible": 1276,
      "Ġà¤īà¤¤": 1277,
      "ĠâĢĵ": 1278,
      "à¤ªà¥įà¤°": 1279,
      "Ġà¤¹à¥ĭà¤¤à¥Ģ": 1280,
      "Ġà¤ªà¤¹à¤²à¥ĩ": 1281,
      "à¤Ĥà¤¤à¥įà¤°": 1282,
      "Ġatt": 1283,
      "ed,": 1284,
      "dition": 1285,
      "Ġà¤¹à¥ĭà¤¨à¥ĩ": 1286,
      "Ġà¤¦à¥Ģ": 1287,
      "Ġà¤¬à¥Ī": 1288,
      "ature": 1289,
      "aw": 1290,
      "Ġà¤²à¥ĩà¤ķà¤¿à¤¨": 1291,
      "Ġdec": 1292,
      "à¤ļà¤¾": 1293,
      "rop": 1294,
      "à¥ĩà¤°": 1295,
      "ten": 1296,
      "Ġsur": 1297,
      "Ġà¤¦à¤¿à¤¨": 1298,
      "ments": 1299,
      "à¤Ĥà¤ľ": 1300,
      "Ġform": 1301,
      "à¥įà¤¯à¤®": 1302,
      "Ġà¤®à¤¾à¤°": 1303,
      "ower": 1304,
      "à¥ĭà¤§": 1305,
      "ange": 1306,
      "à¥įà¤¯à¥Ĥ": 1307,
      "à¤¿à¤§": 1308,
      "Ġshould": 1309,
      "ution": 1310,
      "à¤¶à¥Ģ": 1311,
      "ng": 1312,
      "Ġà¤ªà¤¾à¤°": 1313,
      "Ġwater": 1314,
      "Ġà¤ħà¤¬": 1315,
      "Ġà¤¹à¥Īà¤Ĥ,": 1316,
      "Ġfl": 1317,
      "fore": 1318,
      "Ġà¤ħà¤²": 1319,
      "Ġà¤ľà¤¾à¤¤à¤¾": 1320,
      "Ġsupp": 1321,
      "à¤ķà¤¿": 1322,
      "Ġwell": 1323,
      "à¤¾à¤¥": 1324,
      "à¤°à¥įà¤¶": 1325,
      "ble": 1326,
      "Ġà¤¸à¤®à¤¯": 1327,
      "ased": 1328,
      "ick": 1329,
      "arch": 1330,
      "ween": 1331,
      "à¤ļà¥Ģ": 1332,
      "à¤¹à¤°": 1333,
      "Ġrem": 1334,
      "gan": 1335,
      "à¤¥à¤¾": 1336,
      "Ġà¤®à¥ģ": 1337,
      "à¤ļà¥įà¤ļ": 1338,
      "ract": 1339,
      "Ġà¤ħà¤Ń": 1340,
      "à¤Łà¥Ģ": 1341,
      "own": 1342,
      "sel": 1343,
      "Ġà¤ĩà¤¸à¤ķà¥ĩ": 1344,
      "Ġinv": 1345,
      "Ġà¤ķà¥ĭà¤Ī": 1346,
      "Ġsub": 1347,
      "à¥ģà¤·": 1348,
      "Ġco": 1349,
      "ied": 1350,
      "xt": 1351,
      "à¥Ģà¤°": 1352,
      "ise": 1353,
      "Ġà¤ħà¤ªà¤¨à¥Ģ": 1354,
      "Ġà¤¤à¥ĩ": 1355,
      "à¥įà¤Ľ": 1356,
      "Ġà¤ľà¤¾à¤ı": 1357,
      "à¤¿à¤Ĺ": 1358,
      "ism": 1359,
      "Ġà¤¬à¤¤": 1360,
      "à¤ģ": 1361,
      "à¥įà¤¯à¥ĭà¤Ĥ": 1362,
      "Ġà¤ħà¤µ": 1363,
      "Ġà¤¸à¥ģ": 1364,
      "Ġsm": 1365,
      "à¤µà¤¨": 1366,
      "à¤¾à¤µà¤°": 1367,
      "à¤Ĺà¤¾à¥¤": 1368,
      "Ġbetween": 1369,
      "Ġà¤°à¤ĸ": 1370,
      "Ġpres": 1371,
      "ation.": 1372,
      "Ġcould": 1373,
      "Ġà¤²à¥ĭà¤Ĺà¥ĭà¤Ĥ": 1374,
      "Ġhealth": 1375,
      "à¤¯à¥ĩ": 1376,
      "Ġwhere": 1377,
      "à¥ģà¤£": 1378,
      "Ġà¤ķà¤¿à¤¸à¥Ģ": 1379,
      "uc": 1380,
      "à¥ĩà¤®": 1381,
      "à¤ķà¥įà¤·à¤¾": 1382,
      "Ġhigh": 1383,
      "à¤ĩ": 1384,
      "ident": 1385,
      "Ġà¤Ĩà¤¹à¥ĩà¤¤.": 1386,
      "Ġà¤ķà¤¾à¤°à¤£": 1387,
      "uch": 1388,
      "Ġà¤ľà¤¾à¤¨": 1389,
      "Ġà¤¦à¥įà¤µà¤¾à¤°à¤¾": 1390,
      "Ġbu": 1391,
      "ever": 1392,
      "Ġà¤īà¤¦": 1393,
      "Ġà¤ªà¥Ģ": 1394,
      "Ġget": 1395,
      "à¥įà¤¯à¤¾à¤¨": 1396,
      "Ġtrans": 1397,
      "Ġà¤®à¥ģà¤ĸ": 1398,
      "wn": 1399,
      "Ġmake": 1400,
      "à¥ĩà¤ķ": 1401,
      "ĠIf": 1402,
      "Ġlif": 1403,
      "à¤°à¥įà¤¸": 1404,
      "Ġà¤µà¤¿à¤Ń": 1405,
      "à¤ªà¤°": 1406,
      "à¤ļà¥įà¤Ľ": 1407,
      "à¤®à¤§à¥įà¤¯à¥ĩ": 1408,
      "Ġà¤Ĺà¤ı": 1409,
      "enc": 1410,
      "à¥ĩà¤³": 1411,
      "à¥Ģà¤ľ": 1412,
      "Ġher": 1413,
      "Ġà¤¸à¥įà¤Ł": 1414,
      "ation,": 1415,
      "Ġpers": 1416,
      "ĠWe": 1417,
      "Ġpol": 1418,
      "chn": 1419,
      "Ġà¤¨à¤¾à¤®": 1420,
      "Ġà¤ķà¥Ī": 1421,
      "à¤¡à¥ĩ": 1422,
      "ork": 1423,
      "Ġà¤µà¤¾à¤²à¥ĩ": 1424,
      "Ġimport": 1425,
      "ural": 1426,
      "à¤Ĥà¤ķ": 1427,
      "Ġà¤¹à¥ģà¤Ĩ": 1428,
      "form": 1429,
      "ict": 1430,
      "Ġ.": 1431,
      "ience": 1432,
      "Ġà¤ħà¤¸à¥ĩ": 1433,
      "chool": 1434,
      "Ġà¤ĩà¤¤": 1435,
      "Ġear": 1436,
      "Ġà¤®à¥Ģ": 1437,
      "à¤¿à¤£": 1438,
      "Ġrese": 1439,
      "ft": 1440,
      "Ġà¤ĺà¤°": 1441,
      "Ġ:": 1442,
      "Ġinter": 1443,
      "ade": 1444,
      "à¤¤à¥ĭ": 1445,
      "à¤£à¥Ģ": 1446,
      "ĠRe": 1447,
      "ly,": 1448,
      "ĠAl": 1449,
      "à¤¾à¤ļà¤¾": 1450,
      "à¤¾à¤Ĥà¤¸": 1451,
      "à¤¿à¤¹": 1452,
      "meric": 1453,
      "à¥ĩà¤¦": 1454,
      "à¤¿à¤²à¤¾": 1455,
      "ont": 1456,
      "Ġà¤²à¥ĭà¤ķ": 1457,
      "à¤¿à¤ķà¥įà¤·": 1458,
      "à¥įà¤¯à¤¾à¤ª": 1459,
      "Ġdisc": 1460,
      "Ġinst": 1461,
      "Ġnum": 1462,
      "à¤¿à¤ķà¤¾": 1463,
      "à¤¾à¤Ĥà¤ļà¥Ģ": 1464,
      "ĠAn": 1465,
      "ivers": 1466,
      "Ġà¤¬à¤¾à¤°": 1467,
      "Ġà¤®à¥Į": 1468,
      "Ġà¤²à¤¾à¤Ĺ": 1469,
      "land": 1470,
      "Ġway": 1471,
      "Ġmod": 1472,
      "Ġà¤¯à¤¾à¤Ĥà¤¨à¥Ģ": 1473,
      "Ġà¤ªà¥ģà¤²": 1474,
      "Ġexam": 1475,
      "ĠFor": 1476,
      "à¤¾à¤ļà¥Ģ": 1477,
      "er,": 1478,
      "ited": 1479,
      "âĢĻt": 1480,
      "à¥ĩà¤¤à¥įà¤°": 1481,
      "à¤¾à¤¸à¥įà¤¤": 1482,
      "à¥Ĥà¤®": 1483,
      "Ġà¤Ĩà¤®": 1484,
      "Ġfound": 1485,
      "Ġà¤®à¤¿à¤": 1486,
      "à¤¡à¤¼à¤¾": 1487,
      "ĠHow": 1488,
      "Ġà¤¤à¥ģà¤®": 1489,
      "Ġlear": 1490,
      "Ġbecause": 1491,
      "Ġà¤ľà¥Ī": 1492,
      "à¥įà¤¯à¤¾à¤®": 1493,
      "Ġmed": 1494,
      "à¤¯à¥ĭà¤Ĺ": 1495,
      "à¤¸à¥įà¤Ł": 1496,
      "Ġà¤ħà¤®": 1497,
      "Ġà¤īà¤¨à¤ķà¥ĩ": 1498,
      "ics": 1499,
      "Ġà¤µà¤¿à¤¦": 1500,
      "Ġafter": 1501,
      "Ġà¤µà¥įà¤¯à¤ķà¥įà¤¤": 1502,
      "Ġdifferent": 1503,
      "Ġthen": 1504,
      "Ġlar": 1505,
      "Ġà¤¤à¤°à¤¹": 1506,
      "Ġsim": 1507,
      "ollow": 1508,
      "urn": 1509,
      "à¥įà¤¯à¤¾à¤ļà¥Ģ": 1510,
      "à¤¡à¤¼à¥ĩ": 1511,
      "à¤¡à¥Ģ": 1512,
      "Ġworld": 1513,
      "Ġeven": 1514,
      "Ġjust": 1515,
      "à¥ĩà¤¶à¤¨": 1516,
      "Ġlong": 1517,
      "à¥ĩà¤¬": 1518,
      "Ġinform": 1519,
      "Ġvery": 1520,
      "Ġà¤ķà¥ĩà¤²à¥ĩ": 1521,
      "Ġà¤ªà¥įà¤°à¤¶": 1522,
      "à¥©": 1523,
      "Ġcar": 1524,
      "Ġcent": 1525,
      "Ġexper": 1526,
      "Ġà¤ªà¥įà¤°à¤ķ": 1527,
      "anc": 1528,
      "Ġeffect": 1529,
      "arm": 1530,
      "Ġdet": 1531,
      "Ġhum": 1532,
      "oy": 1533,
      "Ġincre": 1534,
      "cept": 1535,
      "Ġà¤ķà¤°à¤¨à¤¾": 1536,
      "erg": 1537,
      "ĠAmeric": 1538,
      "a.": 1539,
      "Ġà¤ķà¤²": 1540,
      "à¤Ĺà¥Ģ": 1541,
      "ĠPro": 1542,
      "ting": 1543,
      "Ġtyp": 1544,
      "à¤¿à¤µà¤¾à¤°": 1545,
      "other": 1546,
      "Ġà¤ıà¤µ": 1547,
      "Ġà¤Ĩà¤¦": 1548,
      "à¤¾à¤ļà¥ĩ": 1549,
      "Ġcount": 1550,
      "Ġà¤¥à¥Ģ": 1551,
      "Ġà¤ķà¤Ī": 1552,
      "eral": 1553,
      "à¤°à¥įà¤ļ": 1554,
      "ines": 1555,
      "ily": 1556,
      "Ġà¤°à¤¾à¤ľà¥įà¤¯": 1557,
      "Ġà¤°à¥ģà¤ª": 1558,
      "Ġref": 1559,
      "à¤¿à¤¯à¥ĩ": 1560,
      "Ġà¤¸à¤¿à¤Ĥ": 1561,
      "get": 1562,
      "vent": 1563,
      "Ġresp": 1564,
      "à¥«": 1565,
      "Ġà¤¹à¥ģà¤Ī": 1566,
      "Ġà¤¸à¤ķà¤¤à¤¾": 1567,
      "à¤¾à¤¢": 1568,
      "à¥įà¤¯à¤¾à¤¸à¤¾à¤łà¥Ģ": 1569,
      "hes": 1570,
      "Ġthose": 1571,
      "à¤ķà¤¾à¤°à¥Ģ": 1572,
      "Ġke": 1573,
      "à¤Ŀ": 1574,
      "ually": 1575,
      "Ġà¤ķà¥įà¤·à¥ĩà¤¤à¥įà¤°": 1576,
      "à¥įà¤¬": 1577,
      "ock": 1578,
      "Ġà¤ªà¥ģà¤²à¤¿à¤¸": 1579,
      "à¤¦à¤¾": 1580,
      "à¤®à¤¾à¤¨": 1581,
      "Ġsign": 1582,
      "à¥īà¤²": 1583,
      "aking": 1584,
      "à¤¬à¤°": 1585,
      "Ġed": 1586,
      "Ġà¤¬à¤¢à¤¼": 1587,
      "Ġà¤Ĺà¥ĭ": 1588,
      "ĠCom": 1589,
      "Ġà¤«à¤¿à¤°": 1590,
      "Ġà¤ªà¥ĭ": 1591,
      "Ġvar": 1592,
      "à¤ľà¥Ģ": 1593,
      "à¤¾à¤µà¤¾": 1594,
      "à¤¾à¤¤à¥Ģà¤²": 1595,
      "à¤¡à¤¼à¥Ģ": 1596,
      "iew": 1597,
      "Ġà¤ļà¤²": 1598,
      "Ġà¤¸à¥Ĥ": 1599,
      "Ġsee": 1600,
      "Ġevery": 1601,
      "Ġprog": 1602,
      "ĠNew": 1603,
      "Ġcall": 1604,
      "Ġà¤¤à¤¥à¤¾": 1605,
      "à¥įà¤¯à¤¾à¤ļà¥ĩ": 1606,
      "Ġsaid": 1607,
      "Ġà¤¸à¤¾à¤²": 1608,
      "ef": 1609,
      "Ġpub": 1610,
      "Ġà¤ķà¤°à¥ĩà¤Ĥ": 1611,
      "its": 1612,
      "Ġchildren": 1613,
      "Ġdat": 1614,
      "Ġpat": 1615,
      "Ġà¤Ĩà¤§": 1616,
      "Ġà¤¬à¤¹à¥ģà¤¤": 1617,
      "Ġext": 1618,
      "Ġà¤«à¤¿à¤²": 1619,
      "à¤£à¤¾à¤°": 1620,
      "Ġfollow": 1621,
      "ros": 1622,
      "à¤¿à¤¤à¥Ģ": 1623,
      "Ġsec": 1624,
      "Ġà¤®à¤¾à¤®": 1625,
      "Ġà¤¸à¤Ńà¥Ģ": 1626,
      "à¤¬à¤Ĥà¤§": 1627,
      "Ġà¤ķà¥įà¤°": 1628,
      "Ġresult": 1629,
      "à¤Ĺà¥ĩ": 1630,
      "ĠThey": 1631,
      "Ġfact": 1632,
      "à¤ķà¥įà¤Ł": 1633,
      "à¥įà¤°à¥Ģà¤¯": 1634,
      "Ġeach": 1635,
      "Ġbeing": 1636,
      "Ġpartic": 1637,
      "io": 1638,
      "roup": 1639,
      "à¥ģà¤¦à¥įà¤§": 1640,
      "à¤¿à¤¤à¥įà¤°": 1641,
      "Ġà¤ªà¥įà¤°à¤ķà¤¾à¤°": 1642,
      "als": 1643,
      "Ġà¤ªà¥Ī": 1644,
      "Ġà¤¨à¤¿à¤¯": 1645,
      "à¥ĭà¤¨": 1646,
      "Ġart": 1647,
      "Ġà¤ªà¥ģà¤°": 1648,
      "Ġà¤¹à¤°": 1649,
      "tle": 1650,
      "Ġsoc": 1651,
      "ĠThere": 1652,
      "Ġset": 1653,
      "vern": 1654,
      "iron": 1655,
      "Ġca": 1656,
      "ection": 1657,
      "Ġà¤¨à¤µ": 1658,
      "à¤Ĥà¤¸": 1659,
      "à¤¦à¥įà¤§": 1660,
      "Ġimportant": 1661,
      "Ġtechn": 1662,
      "à¤¤à¤¾à¤¤": 1663,
      "Ġà¤¨à¤¿à¤ķ": 1664,
      "à¤¾à¤·à¥įà¤Łà¥įà¤°": 1665,
      "Ġmy": 1666,
      "Ġmuch": 1667,
      "Ġà¤µà¥Ī": 1668,
      "Ġà¤®à¤¿à¤³": 1669,
      "à¤°à¥įà¤¦": 1670,
      "à¤ķà¥ĭà¤Ĥ": 1671,
      "Ġrequ": 1672,
      "à¥įà¤¯à¤ķà¥įà¤·": 1673,
      "Ġcommun": 1674,
      "Ġdist": 1675,
      "à¤Ĺà¥įà¤°": 1676,
      "ruct": 1677,
      "Ġà¤¶à¤ķ": 1678,
      "Ġà¤ħà¤¨à¥įà¤¯": 1679,
      "à¤¤à¥Ģà¤¯": 1680,
      "Ġfam": 1681,
      "Ġà¤²à¥ĩà¤ķà¤°": 1682,
      "à¥ª": 1683,
      "Ġcre": 1684,
      "cent": 1685,
      "ather": 1686,
      "Ġà¤¸à¥įà¤ª": 1687,
      "Ġent": 1688,
      "rain": 1689,
      "Ġshe": 1690,
      "Ġà¤°à¤¾à¤¹": 1691,
      "Ġloc": 1692,
      "Ġdep": 1693,
      "à¥įà¤Ĺ": 1694,
      "Ġà¤¬à¥įà¤°": 1695,
      "Ġend": 1696,
      "Ġà¤¹à¥Īà¤Ĥ.": 1697,
      "Ġà¤®à¥Īà¤Ĥ": 1698,
      "ĠInd": 1699,
      "Ġmon": 1700,
      "led": 1701,
      "Ġdef": 1702,
      "ward": 1703,
      "à¥įà¤ľ": 1704,
      "ants": 1705,
      "Ġà¤Łà¥įà¤°": 1706,
      "Ġà¤ķà¥ĩà¤²à¥Ģ": 1707,
      "Ġà¤¸à¤ķà¤¤à¥ĩ": 1708,
      "Ġread": 1709,
      "Ġright": 1710,
      "blem": 1711,
      "Ġà¤¨à¤¿à¤µ": 1712,
      "Ġown": 1713,
      "ists": 1714,
      "ĠAr": 1715,
      "Ġà¤īà¤¨à¥įà¤¹à¥ĩà¤Ĥ": 1716,
      "Ġduring": 1717,
      "à¥ģà¤¸à¤¾à¤°": 1718,
      "à¤Ńà¤¾à¤µ": 1719,
      "ically": 1720,
      "à¤Ľ": 1721,
      "Ġà¤ķà¤°à¤¤à¤¾": 1722,
      "à¥įà¤¯à¤¾à¤¦": 1723,
      "à¤¶à¥įà¤¯": 1724,
      "à¥įà¤¯à¤¾à¤¯": 1725,
      "Ġlevel": 1726,
      "à¥ĩà¤Ĥà¤¦": 1727,
      "gg": 1728,
      "à¥įà¤ł": 1729,
      "Ġfood": 1730,
      "er.": 1731,
      "Ġà¤¶à¥ģà¤°": 1732,
      "ts": 1733,
      "à¤¾à¤ªà¥įà¤¤": 1734,
      "Ġlead": 1735,
      "Ġà¤¹à¤¾": 1736,
      "à¥ģà¤ķà¥įà¤¤": 1737,
      "Ġday": 1738,
      "hip": 1739,
      "Ġà¤ħà¤¤": 1740,
      "Ġsk": 1741,
      "Ġadd": 1742,
      "Ġperson": 1743,
      "Ġmin": 1744,
      "Ġà¤Ńà¤¾à¤Ĺ": 1745,
      "Ġà¤¶à¥įà¤°à¥Ģ": 1746,
      "ĠSp": 1747,
      "Ġbod": 1748,
      "ĠBut": 1749,
      "Ġà¤ľà¤¿à¤²": 1750,
      "Ġaut": 1751,
      "Ġà¤ķà¥įà¤¯à¤¾": 1752,
      "Ġà¤¦à¥Ĥà¤¸": 1753,
      "à¤¾à¤¦à¥Ģ": 1754,
      "Ġà¤¯à¥ĩà¤": 1755,
      "ever,": 1756,
      "à¥įà¤Łà¥Ģ": 1757,
      "Ġà¤Ĩà¤°": 1758,
      "à¥ģà¤µ": 1759,
      "Ġyears": 1760,
      "ĠYou": 1761,
      "à¥ģà¤Ń": 1762,
      "Ġà¤¸à¤¿à¤Ĥà¤¹": 1763,
      "à¤®à¥Ģ": 1764,
      "Ġfind": 1765,
      "Ġà¤¦à¤¿à¤µ": 1766,
      "à¥įà¤¯à¤¾à¤ļà¤¾": 1767,
      "Ġà¤ĺà¤Ł": 1768,
      "Ġins": 1769,
      "à¤ªà¥Ĥ": 1770,
      "à¤ıà¤¸": 1771,
      "Ġback": 1772,
      "Ġstr": 1773,
      "à¤²à¥įà¤²": 1774,
      "Ġgrow": 1775,
      "Ġà¤ªà¥įà¤°à¤®": 1776,
      "Ġcur": 1777,
      "à¤¿à¤¡": 1778,
      "Ġproblem": 1779,
      "à¤Ĥà¤¦à¥įà¤°": 1780,
      "ology": 1781,
      "und": 1782,
      "Ġà¤ıà¤µà¤Ĥ": 1783,
      "The": 1784,
      "Ġdoes": 1785,
      "Ġsame": 1786,
      "à¤¾à¤Ń": 1787,
      "à¥Īà¤¨": 1788,
      "Ġgood": 1789,
      "à¤ķà¥įà¤¸": 1790,
      "Ġà¤ķà¤¾à¤¹à¥Ģ": 1791,
      "ern": 1792,
      "Ġà¤īà¤¤à¥įà¤¤": 1793,
      "Ġav": 1794,
      "Ġche": 1795,
      "ank": 1796,
      "Ġà¤īà¤¸à¤ķà¥ĩ": 1797,
      "ah": 1798,
      "Ġ)": 1799,
      "à¤ľà¤°": 1800,
      "à¤°à¥įà¤Ĺ": 1801,
      "à¤¿à¤¸à¥įà¤¤": 1802,
      "à¥įà¤ŀà¤¾à¤¨": 1803,
      "à¥¬": 1804,
      "à¤ªà¥ģà¤°": 1805,
      "Ġà¤¤à¥Ģà¤¨": 1806,
      "Ġà¤µà¤¿à¤§": 1807,
      "Ġboth": 1808,
      "à¤ľà¥ĩ": 1809,
      "Ġpop": 1810,
      "Ġmade": 1811,
      "à¤ķà¥įà¤°à¤®": 1812,
      "à¥įà¤£": 1813,
      "onom": 1814,
      "ved": 1815,
      "Ġà¤ªà¤¾à¤¸": 1816,
      "iversity": 1817,
      "à¤¾à¤Ĥà¤ļà¤¾": 1818,
      "Ġà¤«à¤¿à¤²à¥įà¤®": 1819,
      "Ġà¤¬à¤¤à¤¾à¤¯à¤¾": 1820,
      "à¤¿à¤ļ": 1821,
      "ized": 1822,
      "Ġschool": 1823,
      "viron": 1824,
      "à¤¸à¥įà¤ķ": 1825,
      "à¤¾à¤Ĥà¤ļà¥ĩ": 1826,
      "Ġbefore": 1827,
      "up": 1828,
      "Ġexpl": 1829,
      "Ġgra": 1830,
      "à¥ĩ.": 1831,
      "Ġgroup": 1832,
      "Ġsmall": 1833,
      "Ġ|": 1834,
      "inal": 1835,
      "ĠSc": 1836,
      "Ġcomple": 1837,
      "stand": 1838,
      "Ġwrit": 1839,
      "Ġà¤µà¤¿à¤ļ": 1840,
      "à¥ĩà¤Ĥà¤Ł": 1841,
      "Ġshow": 1842,
      "Ġusing": 1843,
      "omen": 1844,
      "Ġagain": 1845,
      "orn": 1846,
      "Ġà¤µà¤¿à¤¶à¥įà¤µ": 1847,
      "Ġhist": 1848,
      "à¤¾à¤ī": 1849,
      "Ġà¤¥à¥Ģà¥¤": 1850,
      "à¤°à¥įà¤¡": 1851,
      "rol": 1852,
      "Ġà¤Ńà¤¾à¤°à¤¤à¥Ģà¤¯": 1853,
      "ince": 1854,
      "Ġprot": 1855,
      "Ġlook": 1856,
      "Ġà¤¸à¤¦": 1857,
      "Ġà¤¹à¥ĭà¤¤à¥ĩ.": 1858,
      "Ġà¤ľà¤¾à¤¨à¥ĩ": 1859,
      "ivid": 1860,
      "ality": 1861,
      "Ġnumber": 1862,
      "read": 1863,
      "Ġà¤ħà¤¸à¤²": 1864,
      "à¤¾à¤ķà¤°": 1865,
      "Ġprocess": 1866,
      "Ġgl": 1867,
      "Ġà¤Ī": 1868,
      "Ġmain": 1869,
      "eld": 1870,
      "Ġtreat": 1871,
      "à¥įà¤¯à¤¾à¤®à¥ģà¤³à¥ĩ": 1872,
      "Ġà¤¡à¥ī": 1873,
      "ness": 1874,
      "ax": 1875,
      "Ġhuman": 1876,
      "à¥įà¤¹à¤¾": 1877,
      "Ġtest": 1878,
      "à¤¨à¥įà¤¦": 1879,
      "Ġà¤¶à¤¾à¤®": 1880,
      "Ġà¤ļà¥ģ": 1881,
      "à¤²à¥ĩ.": 1882,
      "oh": 1883,
      "Ġoften": 1884,
      "à¤¿à¤Ĥà¤¦": 1885,
      "Ġà¤¬à¤¦": 1886,
      "nce": 1887,
      "ives": 1888,
      "à¤²à¤¾.": 1889,
      "à¥ĩà¤¹": 1890,
      "Ġà¤µà¤¿à¤°": 1891,
      "à¤£à¥ĩ": 1892,
      "à¤ķà¥įà¤ķ": 1893,
      "à¥įà¤¯à¤¾à¤¨à¥ĩ": 1894,
      "ĠAnd": 1895,
      "ix": 1896,
      "à¤Ĺà¥Ģà¥¤": 1897,
      "à¤¦à¤¾à¤¨": 1898,
      "Ġstudents": 1899,
      "à¥Ģà¤¸": 1900,
      "Ġval": 1901,
      "Ġà¤¥à¥ĩà¥¤": 1902,
      "Ġris": 1903,
      "Ġà¤¦à¥Įà¤°": 1904,
      "à¤¨à¥ĩà¤ķ": 1905,
      "Ġà¤ľà¤¿à¤¨": 1906,
      "Ġbr": 1907,
      "Ġsol": 1908,
      "Ġposs": 1909,
      "Ġà¤¸à¥įà¤¥à¤¿à¤¤": 1910,
      "Ġwhile": 1911,
      "Ġà¤°à¥ĭ": 1912,
      "vironment": 1913,
      "Ġà¤ħà¤¶": 1914,
      "à¤²à¤Ĥ": 1915,
      "ished": 1916,
      "cl": 1917,
      "Ġà¤¸à¥įà¤ķ": 1918,
      "Ġà¤ľà¤Ĺ": 1919,
      "Ġà¤ªà¤¹à¥ģ": 1920,
      "ential": 1921,
      "Ġà¤¹à¤¾à¤²": 1922,
      "ins": 1923,
      "Ġhim": 1924,
      "Ġorgan": 1925,
      "Ġà¤µà¤¿à¤µ": 1926,
      "ted": 1927,
      "à¤ľà¤¨": 1928,
      "Ġtake": 1929,
      "à¥ģà¤Ł": 1930,
      "à¥įà¤¹à¥Ģ": 1931,
      "ize": 1932,
      "ues": 1933,
      "Ġà¤¨à¤¾à¤¹à¥Ģ.": 1934,
      "Ġstate": 1935,
      "Ġà¤µà¤¿à¤Ńà¤¾à¤Ĺ": 1936,
      "imate": 1937,
      "Ġà¤ªà¥Ĥà¤°à¥įà¤µ": 1938,
      "ral": 1939,
      "à¥¥": 1940,
      "Ġà¤ľà¤°": 1941,
      "Ġlit": 1942,
      "Ġà¤Ĩà¤°à¥ĭ": 1943,
      "Ġà¤Ĩà¤¤": 1944,
      "Ġà¤®à¤¾à¤¹": 1945,
      "Ġà¤¦à¤°": 1946,
      "Ġà¤Łà¥Ģà¤®": 1947,
      "on,": 1948,
      "Ġnow": 1949,
      "Ġserv": 1950,
      "Ġpower": 1951,
      "Ġdise": 1952,
      "ash": 1953,
      "Ġà¤µà¥įà¤¯à¤µ": 1954,
      "à¥įà¤²à¥Ģ": 1955,
      "Ġocc": 1956,
      "à¥¯": 1957,
      "Ġinformation": 1958,
      "aj": 1959,
      "Ġà¤ªà¥įà¤°à¤¦à¥ĩà¤¶": 1960,
      "ures": 1961,
      "Ġprogram": 1962,
      "Ġless": 1963,
      "Ġà¤¨à¤¿à¤°à¥įà¤®": 1964,
      "ĠWhat": 1965,
      "Ġà¤®à¥ģà¤": 1966,
      "Ġà¤µà¤¿à¤¶à¥ĩà¤·": 1967,
      "ion.": 1968,
      "Ġdi": 1969,
      "Ġmem": 1970,
      "à¤ıà¤®": 1971,
      ".,": 1972,
      "à¤¿à¤¤à¤¾": 1973,
      "Ġà¤ªà¤¹à¥ģà¤Ĥà¤ļ": 1974,
      "vers": 1975,
      "à¤ļà¤¾à¤°": 1976,
      "à¥įà¤¯à¤¾à¤ļà¥įà¤¯à¤¾": 1977,
      "Ġà¤Ĩà¤Ī": 1978,
      "Ġà¤²à¤¿à¤¯à¤¾": 1979,
      "à¤ľà¤¾à¤°": 1980,
      "Ġvis": 1981,
      "Ġà¤ķà¤°à¤£à¥įà¤¯à¤¾à¤¤": 1982,
      "à¤¬à¥Ģ": 1983,
      "com": 1984,
      "à¥ĭà¤¡à¤¼": 1985,
      "||": 1986,
      "à¤¾à¤°à¥įà¤¥": 1987,
      "à¥ģà¤Ĺ": 1988,
      "Ġactiv": 1989,
      "ital": 1990,
      "à¤¾à¤±": 1991,
      "air": 1992,
      "Ġà¤ªà¥įà¤°à¤µ": 1993,
      "Ġprovid": 1994,
      "Ġcell": 1995,
      "Ġfun": 1996,
      "ies,": 1997,
      "any": 1998,
      "irect": 1999,
      "Ġà¤®à¤¦": 2000,
      "ered": 2001,
      "Ġsupport": 2002,
      "Ġà¤µà¤¿à¤ļà¤¾à¤°": 2003,
      "à¤¾à¤¸à¤¨": 2004,
      "Ġà¤¶à¤¿à¤ķà¥įà¤·": 2005,
      "à¤¾à¤¡à¤¼": 2006,
      "iqu": 2007,
      "Ġchar": 2008,
      "Ġà¤¹à¥ĭà¤¤": 2009,
      "Ġresearch": 2010,
      "ĠWhen": 2011,
      "tt": 2012,
      "Ġbel": 2013,
      "à¤µà¤¾à¤¨": 2014,
      "Ġà¤¸à¤¬à¤¸à¥ĩ": 2015,
      "à¤§à¥Ģ": 2016,
      "Ġà¤ļà¤¾à¤¹à¤¿à¤ı": 2017,
      "Ġdesign": 2018,
      "à¥®": 2019,
      "Ġà¤ĸà¤¿à¤²": 2020,
      "Ġà¤ķà¥įà¤¯à¥ĭà¤Ĥ": 2021,
      "ex": 2022,
      "Ġec": 2023,
      "Ġà¤¬à¥Ģà¤ļ": 2024,
      "Ġà¤īà¤¸à¥ĩ": 2025,
      "Ġà¤¦à¥ĭà¤¨à¥ĭà¤Ĥ": 2026,
      "Ġà¤ªà¤¦": 2027,
      "Ġaround": 2028,
      "Ġdown": 2029,
      "Ġmust": 2030,
      "der": 2031,
      "ale": 2032,
      "ĠThese": 2033,
      "ages": 2034,
      "Ġà¤ļà¤¾à¤°": 2035,
      "uss": 2036,
      "Ġplan": 2037,
      "ven": 2038,
      "Ġà¤ķà¤ª": 2039,
      "ĠIs": 2040,
      "Ġhand": 2041,
      "Ġà¤¶à¥įà¤°": 2042,
      "Ġà¤®à¤¤": 2043,
      "Ġstudy": 2044,
      "Ġest": 2045,
      "à¤ķà¤°à¤£": 2046,
      "Ġdata": 2047,
      "ion,": 2048,
      "day": 2049,
      "ies.": 2050,
      "Ġà¤ªà¥įà¤°à¤¾à¤ªà¥įà¤¤": 2051,
      "Ġà¤ħà¤¨à¥ĩà¤ķ": 2052,
      "Ġgovern": 2053,
      "Ġredu": 2054,
      "Ġconf": 2055,
      "à¤°à¥įà¤ķ": 2056,
      "Ġstart": 2057,
      "Ġthree": 2058,
      "Ġà¤ļà¥Į": 2059,
      "Ġà¤ķà¤Ĥà¤ª": 2060,
      "à¤¾à¤¤à¤¾": 2061,
      "Ġà¤¬à¥Īà¤ł": 2062,
      "Ġà¤¯à¥ĭà¤Ĺ": 2063,
      "ield": 2064,
      "à¤§à¤¾à¤¨": 2065,
      "Ġà¤¦à¥Įà¤°à¤¾à¤¨": 2066,
      "Ġgreat": 2067,
      "Ġpoint": 2068,
      "Ġà¤ĺà¥ĩà¤¤": 2069,
      "ium": 2070,
      "Ġà¤Ńà¤°": 2071,
      "Ġdid": 2072,
      "way": 2073,
      "akes": 2074,
      "à¤°à¥įà¤·": 2075,
      "Ġà¤¸à¤Ĥà¤¬à¤Ĥà¤§": 2076,
      "Ġà¤ľà¤®": 2077,
      "Ġcommon": 2078,
      "à¥Ń": 2079,
      "à¤¤à¥Ģà¤²": 2080,
      "Ġà¤īà¤®": 2081,
      "Ġà¤ľà¤²": 2082,
      "rent": 2083,
      "ave": 2084,
      "ute": 2085,
      "eg": 2086,
      "Ġcle": 2087,
      "Ġà¤¶à¤¿à¤µ": 2088,
      "à¤¸à¥įà¤µ": 2089,
      "à¥įà¤¯à¤¾à¤µà¤°": 2090,
      "self": 2091,
      "Ġà¤®à¤¾à¤¤à¥įà¤°": 2092,
      "ouse": 2093,
      "Ġword": 2094,
      "à¤ī": 2095,
      "Ġland": 2096,
      "Ġser": 2097,
      "Ġà¤¸à¤¾à¤Ĥà¤Ĺ": 2098,
      "Ġelect": 2099,
      "ĠTo": 2100,
      "à¤¾à¤ĩà¤¨": 2101,
      "-b": 2102,
      "à¤¤à¥įà¤¨": 2103,
      "Ġcontin": 2104,
      "à¤ªà¤¾à¤¸": 2105,
      "à¤¤à¥ĩ.": 2106,
      "Ġà¤¸à¥įà¤¤": 2107,
      "the": 2108,
      "Ġlarge": 2109,
      "ional": 2110,
      "à¥ģà¤®à¤¾à¤°": 2111,
      "ars": 2112,
      "iving": 2113,
      "Ġexample": 2114,
      "Ġà¤ħà¤°à¥įà¤¥": 2115,
      "Ġà¤īà¤¨à¤ķà¥Ģ": 2116,
      "Ġà¤Ĺà¤¾à¤Ĥ": 2117,
      "ron": 2118,
      "à¤¾à¤Ĭ": 2119,
      "ĠSe": 2120,
      "Ġà¤ļà¥ģà¤¨": 2121,
      "Ġcor": 2122,
      "à¤¯à¤°": 2123,
      "Ġcare": 2124,
      "Ġà¤Ŀà¤¾à¤²": 2125,
      "à¤¾à¤ľà¤ª": 2126,
      "à¤¤à¥įà¤µ": 2127,
      "Ġà¤Ĳà¤¸à¥ĩ": 2128,
      "Ġà¤īà¤¤à¥įà¤ª": 2129,
      "Ġreport": 2130,
      "ined": 2131,
      "ier": 2132,
      "-s": 2133,
      "ared": 2134,
      "à¤¾à¤£à¥Ģ": 2135,
      "ases": 2136,
      "Ġà¤Ĺà¤¯à¤¾à¥¤": 2137,
      "Ġthough": 2138,
      "Ġconst": 2139,
      "à¤²à¥ĩà¤²à¥įà¤¯à¤¾": 2140,
      "ving": 2141,
      "ull": 2142,
      "âĢĶ": 2143,
      "Ġop": 2144,
      "Ġà¤ķà¤¾à¤¯": 2145,
      "Ġincluding": 2146,
      "acter": 2147,
      "à¤¾à¤¸à¥įà¤¥": 2148,
      "à¥ĭà¤ľà¤¨": 2149,
      "Ġcour": 2150,
      "ices": 2151,
      "Ġallow": 2152,
      "Ġà¤²à¤ķà¥įà¤·": 2153,
      "Ġret": 2154,
      "à¤¶à¥įà¤¯à¤ķ": 2155,
      "Ġunderstand": 2156,
      "ulation": 2157,
      "o,": 2158,
      "à¤¨à¥įà¤¤": 2159,
      "Ġeduc": 2160,
      "ĠSh": 2161,
      "Ġrisk": 2162,
      "Ġthink": 2163,
      "à¤¾à¤ľà¥Ģ": 2164,
      "ross": 2165,
      "à¤¾à¤¯à¤ķ": 2166,
      "Ġà¥¥": 2167,
      "ĠDe": 2168,
      "ergy": 2169,
      "Ġà¤ķà¥ĩà¤µ": 2170,
      "Ġmet": 2171,
      "eng": 2172,
      "à¥ĥà¤·": 2173,
      "Ġsom": 2174,
      "à¤¿à¤¸à¥įà¤Ł": 2175,
      "à¥ĭà¤ª": 2176,
      "Ġà¤²à¤¾à¤ĸ": 2177,
      "Ġgener": 2178,
      "Ġclass": 2179,
      "ek": 2180,
      "à¥Ģà¤¯": 2181,
      "Ġà¤ªà¤£": 2182,
      "Ġà¤¶à¥ģà¤°à¥Ĥ": 2183,
      "Ġbuild": 2184,
      "à¤°à¥įà¤¨": 2185,
      "à¤²à¤¬": 2186,
      "à¤Ńà¤¾": 2187,
      "à¥ģà¤§": 2188,
      "à¤¾à¤¤à¥ĩ": 2189,
      "Ġequ": 2190,
      "ĠAd": 2191,
      "Ġadv": 2192,
      "Ġà¤¬à¥ĭ": 2193,
      "Ġlife": 2194,
      "à¤¿à¤¦à¥įà¤§": 2195,
      "Ġstill": 2196,
      "iven": 2197,
      "à¤£à¥įà¤¯à¤¾à¤¤": 2198,
      "Ġà¤¬à¤ļà¥įà¤ļ": 2199,
      "à¥Ĥà¤ķ": 2200,
      "Ġà¤ªà¥įà¤°à¤¸": 2201,
      "à¤¾à¤®à¥Ģ": 2202,
      "à¤Łà¤°": 2203,
      "Ġsit": 2204,
      "Ġcalled": 2205,
      "à¤¿à¤«": 2206,
      "Ġà¤«à¥Ī": 2207,
      "Ġà¤¶à¤¾à¤®à¤¿à¤²": 2208,
      "Ġpublic": 2209,
      "Ġpract": 2210,
      "ĠâĢĺ": 2211,
      "alk": 2212,
      "outh": 2213,
      "Ġbeh": 2214,
      "Ġsay": 2215,
      "esp": 2216,
      "inc": 2217,
      "Ġà¤¸à¥ģà¤¨": 2218,
      "reen": 2219,
      "Ġà¤¹à¤ľà¤¾à¤°": 2220,
      "ividual": 2221,
      "Ġlearn": 2222,
      "Ġdon": 2223,
      "Ġ[": 2224,
      "ĠCon": 2225,
      "à¤¯à¤¾à¤°": 2226,
      "Ġà¤ªà¤¾à¤¹": 2227,
      "ior": 2228,
      "Ġknown": 2229,
      "Ġ?": 2230,
      "aterial": 2231,
      "Ġà¤µà¤¿à¤ķà¤¾à¤¸": 2232,
      "Ġenvironment": 2233,
      "oci": 2234,
      "à¤¾à¤Ĺà¤°": 2235,
      "Ġquest": 2236,
      "Ġdr": 2237,
      "à¥Ĥà¤Ĥ": 2238,
      "à¥Ģà¤ķ": 2239,
      "Ġeas": 2240,
      "erest": 2241,
      "Ġide": 2242,
      "ired": 2243,
      "Ġ&": 2244,
      "Ġà¤Ĩà¤¤à¤¾": 2245,
      "Ġplace": 2246,
      "Ġà¤ªà¥įà¤°à¤¯": 2247,
      "ially": 2248,
      "à¤¨à¥įà¤¨": 2249,
      "ik": 2250,
      "Ġgu": 2251,
      "Ġà¤ħà¤Ĺ": 2252,
      "Ġappro": 2253,
      "Ġmat": 2254,
      "Ġfew": 2255,
      "Ġà¤ķà¤°à¥įà¤®": 2256,
      "à¤¿à¤¯à¥ĭ": 2257,
      "itive": 2258,
      "à¥įà¤¶": 2259,
      "iod": 2260,
      "lish": 2261,
      "Ġà¤µà¤¿à¤ľ": 2262,
      "à¤¸à¤°": 2263,
      "ĠPh": 2264,
      "Ġà¤¦à¤¿à¤ĸ": 2265,
      "ĠAmerican": 2266,
      "ird": 2267,
      "à¤°à¥įà¤¶à¤¨": 2268,
      "Ġà¤¶à¤¹à¤°": 2269,
      "Ġà¤Ĩà¤ªà¤ķà¥ĭ": 2270,
      "Ġà¤¬à¤¾à¤¹": 2271,
      "Ġà¤Ĩà¤µà¤¶à¥įà¤¯à¤ķ": 2272,
      "à¤¸à¥įà¤¥à¤¾": 2273,
      "à¥ĭà¤¡": 2274,
      "Ġà¤¦à¥ĭà¤¨": 2275,
      "à¥ĥà¤·à¥įà¤Ł": 2276,
      "ĠEng": 2277,
      "ator": 2278,
      "ense": 2279,
      "oun": 2280,
      "Ġmight": 2281,
      "Ġà¤¥à¥ĩ": 2282,
      "Ġstand": 2283,
      "ĠEx": 2284,
      "Ġà¤µà¤¿à¤·": 2285,
      "à¥įà¤°à¥ĩà¤¸": 2286,
      "Ġà¤ľà¤¹": 2287,
      "hers": 2288,
      "Ġdem": 2289,
      "Ġà¤Ŀà¤¾à¤²à¥ĩ": 2290,
      "ĠUniversity": 2291,
      "Ġà¤¦à¤¿à¤²à¥įà¤²à¥Ģ": 2292,
      "à¥ĭà¤¤": 2293,
      "Ġà¤ľà¥Ģà¤µà¤¨": 2294,
      "à¤µà¤¾à¤²": 2295,
      "Ġwant": 2296,
      "Ġbo": 2297,
      "à¤ļà¤¨à¤¾": 2298,
      "à¤Ĥà¤¬à¤Ī": 2299,
      "à¤¾à¤·à¥įà¤Ł": 2300,
      "Ġbook": 2301,
      "ertain": 2302,
      "Ġà¤¬à¤¾à¤°à¥ĩ": 2303,
      "à¤¤à¤°": 2304,
      "raph": 2305,
      "Ġpresent": 2306,
      "Ġà¤īà¤¤à¥įà¤¤à¤°": 2307,
      "Ġwithout": 2308,
      "Ġchang": 2309,
      "à¥ĩà¤¸à¥įà¤Ł": 2310,
      "Ġcaus": 2311,
      "ains": 2312,
      "Ġsym": 2313,
      "Ġà¤¯à¥ĩà¤¥": 2314,
      "ty": 2315,
      "à¤¿à¤¬": 2316,
      "str": 2317,
      "Ġà¤ķà¤¿à¤Ĥ": 2318,
      "Ġwithin": 2319,
      "ffic": 2320,
      "amp": 2321,
      "Ġindividual": 2322,
      "Ġà¤µà¤¾à¤²à¥Ģ": 2323,
      "Ġà¤ªà¤°à¤¿à¤µà¤¾à¤°": 2324,
      "ason": 2325,
      "Ġà¤¤à¤°à¥Ģ": 2326,
      "Ġiss": 2327,
      "Ġplay": 2328,
      "Ġà¤Ńà¤¾à¤ľà¤ª": 2329,
      "Ġbre": 2330,
      "à¤ĸà¥įà¤¯à¤¾": 2331,
      "ethod": 2332,
      "Ġà¤ĵà¤°": 2333,
      "Ġà¤®à¤Ĥà¤¤à¥įà¤°à¥Ģ": 2334,
      "Ġtem": 2335,
      "Ġà¤°à¤¾à¤®": 2336,
      "Ġà¤ħà¤ļà¥įà¤Ľ": 2337,
      "à¤¾à¤«à¥Ģ": 2338,
      "Ġà¤¬à¤¸": 2339,
      "man": 2340,
      "à¥ĭà¤·": 2341,
      "Ġphys": 2342,
      "Ġchange": 2343,
      "Ġà¤¸à¤Ĥà¤ĺ": 2344,
      "line": 2345,
      "Ġà¤¦à¥ĩà¤¨à¥ĩ": 2346,
      "Ġpur": 2347,
      "Ġà¤Ĭ": 2348,
      "ording": 2349,
      "Ġbas": 2350,
      "à¥įà¤¯à¤Ĥà¤¤": 2351,
      "Ġpos": 2352,
      "Ġdevelopment": 2353,
      "Ġà¤®à¤§": 2354,
      "ger": 2355,
      "Ġà¤ħà¤§à¥įà¤¯à¤ķà¥įà¤·": 2356,
      "Ġà¤Ĺà¥ģ": 2357,
      "Ġident": 2358,
      "Ġà¤¸à¥įà¤¥à¤¾à¤¨": 2359,
      "Ġmark": 2360,
      "Ġterm": 2361,
      "ĠRes": 2362,
      "ug": 2363,
      "Ġproduct": 2364,
      "Ġà¤¯à¤¹à¤¾à¤Ĥ": 2365,
      "à¤¾à¤¸à¥įà¤¥à¥įà¤¯": 2366,
      "Ġimm": 2367,
      "ĠAt": 2368,
      "Ġà¤Ńà¤¾à¤µ": 2369,
      "à¤µà¤¾à¤Ī": 2370,
      "az": 2371,
      "à¤¾à¤¯à¤°": 2372,
      "à¤¿à¤¯à¤¾à¤Ĥ": 2373,
      "Ġà¤¤à¥Ģ": 2374,
      "atic": 2375,
      "Ġmaterial": 2376,
      "ĠHowever,": 2377,
      "Ġcap": 2378,
      ".âĢĿ": 2379,
      "Ġà¤²à¤¿à¤ĸ": 2380,
      "à¥Ĥà¤Ł": 2381,
      "ves": 2382,
      "Ġlaw": 2383,
      "Ġà¤Ĳà¤¸à¤¾": 2384,
      "Ġà¤ķà¥ĭà¤°à¥ĭ": 2385,
      "ris": 2386,
      "agn": 2387,
      "erc": 2388,
      "Ġsocial": 2389,
      "angu": 2390,
      "ĠOn": 2391,
      "Ġimpro": 2392,
      "à¥ĩà¤Ĥà¤¦à¥įà¤°": 2393,
      "orth": 2394,
      "Ġà¤µà¤¾à¤ª": 2395,
      "Ġben": 2396,
      "Ġà¤ľà¤¾à¤°à¥Ģ": 2397,
      "à¤¾à¤¤à¥įà¤®": 2398,
      "à¤¡à¥Ĥà¤¨": 2399,
      "Ġwomen": 2400,
      "Ġspe": 2401,
      "à¤¾à¤Ĥà¤ķ": 2402,
      "Ġair": 2403,
      "Ġà¤®à¤¾à¤²": 2404,
      "Ġà¤ªà¥ģ": 2405,
      "Ġpot": 2406,
      "âĢĵ": 2407,
      "Ġconc": 2408,
      "Ġanother": 2409,
      "arent": 2410,
      "à¤¾à¤·à¥įà¤Łà¥įà¤°à¥Ģà¤¯": 2411,
      "ers,": 2412,
      "Ġà¤®à¤¹à¤¾à¤°": 2413,
      "oid": 2414,
      "me": 2415,
      "Ġprof": 2416,
      "Ġà¤¸à¥įà¤µà¤¾à¤¸à¥įà¤¥à¥įà¤¯": 2417,
      "Ġproject": 2418,
      "Ġpass": 2419,
      "Ġve": 2420,
      "à¤Ĥà¤¬à¤°": 2421,
      "iety": 2422,
      "Ġà¤ķà¤¿à¤¯à¤¾à¥¤": 2423,
      "Ġà¤ĳà¤«": 2424,
      "-c": 2425,
      "Ġà¤¤à¤¬": 2426,
      "à¤¤à¤¾à¤¤.": 2427,
      "Ġà¤°à¥ģà¤ªà¤¯à¥ĩ": 2428,
      "osed": 2429,
      "Ġdirect": 2430,
      "Ġà¤¸à¤¾à¤§": 2431,
      "ological": 2432,
      "Ġsl": 2433,
      "à¤¾à¤ıà¤Ĥ": 2434,
      "Ġant": 2435,
      "Ġà¤ķà¤°à¥Ĥà¤¨": 2436,
      "Ġbelie": 2437,
      "'t": 2438,
      "Ġbody": 2439,
      "à¥īà¤¨": 2440,
      "à¥Ĥà¤¤": 2441,
      "Ġlight": 2442,
      "Ġhome": 2443,
      "-à¤¸": 2444,
      "ability": 2445,
      "ency": 2446,
      "Ġà¤¬à¥ĭà¤²": 2447,
      "Ġà¤®à¤¾à¤®à¤²à¥ĩ": 2448,
      "à¥įà¤¯à¤¾à¤¦à¤¾": 2449,
      "pect": 2450,
      "à¤¹à¤¾à¤°": 2451,
      "Ġmus": 2452,
      "à¤°à¥įà¤§": 2453,
      "Ġà¤§à¤°à¥įà¤®": 2454,
      "Ġà¤¦à¤¿à¤¸": 2455,
      "ĠCl": 2456,
      "Ġà¤µà¤¾à¤¢": 2457,
      "Ġmill": 2458,
      "ider": 2459,
      "à¤Ĩà¤Ī": 2460,
      "à¤°à¥įà¤Ń": 2461,
      "Ġinterest": 2462,
      "à¥įà¤¯à¤®à¤Ĥà¤¤à¥įà¤°à¥Ģ": 2463,
      "à¤¹à¤®": 2464,
      "Ġet": 2465,
      "ived": 2466,
      "bs": 2467,
      "Ġà¤Łà¥Ģ": 2468,
      "ajor": 2469,
      "ia,": 2470,
      "Ġcult": 2471,
      "Ġà¤ľà¤¾à¤¤à¥Ģ": 2472,
      "à¤¾.": 2473,
      "Ġgovernment": 2474,
      "ental": 2475,
      "Ġà¤¤à¥įà¤¯à¤¾": 2476,
      "gin": 2477,
      "à¤¾à¤§à¤¿à¤ķ": 2478,
      "Ġà¤ħà¤¨à¥ģà¤¸à¤¾à¤°": 2479,
      "Ġbest": 2480,
      "Ġà¤ķà¤°à¤¤": 2481,
      "Ġdesc": 2482,
      "ĠPl": 2483,
      "Ġrest": 2484,
      "Ġinclude": 2485,
      "S.": 2486,
      "Ġà¤¬à¤²": 2487,
      "Ġtre": 2488,
      "ters": 2489,
      "Ġmeas": 2490,
      "Ġà¤¤à¥įà¤¯à¤¾à¤®à¥ģà¤³à¥ĩ": 2491,
      "Ġà¤ħà¤ªà¤¨à¤¾": 2492,
      "\\n": 2493,
      "à¥Ģà¤¡": 2494,
      "Ġcontrol": 2495,
      "Ġà¤ıà¤¸": 2496,
      "à¤ķà¥įà¤·à¤£": 2497,
      "à¥ģà¤¶": 2498,
      "Ġà¤ľà¥Īà¤¸à¥ĩ": 2499,
      "Ġà¤ħà¤Ĺà¤°": 2500,
      "arc": 2501,
      "Ġplant": 2502,
      "Ġpain": 2503,
      "Ġà¤ªà¤¤à¥įà¤°": 2504,
      "rap": 2505,
      "Ġblood": 2506,
      "Ġà¤¸à¤®à¤Ŀ": 2507,
      "Ġà¤ķà¤¿à¤ı": 2508,
      "à¥ĭà¤°à¥įà¤Ł": 2509,
      "rist": 2510,
      "Ġà¤¦à¥ĩà¤µ": 2511,
      "Ġele": 2512,
      "Ġanim": 2513,
      "atural": 2514,
      "Ġbecome": 2515,
      "Ġà¤ªà¤¡à¤¼": 2516,
      "Ġeng": 2517,
      "work": 2518,
      "Ġopp": 2519,
      "Ġà¤¤à¥Ī": 2520,
      "à¤²à¥Ģ.": 2521,
      "Ġà¤¬à¤Ĥà¤¦": 2522,
      "hor": 2523,
      "à¤Ĭ": 2524,
      "Ġà¤Ĺà¤¿à¤°": 2525,
      "ĠQ": 2526,
      "à¤¾à¤Ĥà¤¡": 2527,
      "Ġmil": 2528,
      "Ġold": 2529,
      "-f": 2530,
      "Ġà¤®à¥įà¤¹à¤£à¥Ĥà¤¨": 2531,
      "Ġmethod": 2532,
      "Ġagainst": 2533,
      "Ġanal": 2534,
      "à¤¸à¥įà¤¯": 2535,
      "Ġsever": 2536,
      "Ġà¤®à¥ģà¤ĸà¥įà¤¯": 2537,
      "Ġà¤ªà¤ķà¥įà¤·": 2538,
      "rodu": 2539,
      "ption": 2540,
      "Ġwar": 2541,
      "Ġà¤īà¤ł": 2542,
      "à¤Ĺà¥ĩà¥¤": 2543,
      "Ġà¤ķà¥ĩà¤Ĥà¤¦à¥įà¤°": 2544,
      "Ġleg": 2545,
      "ĠZ": 2546,
      "de": 2547,
      "lished": 2548,
      "Ġà¤¦à¤¿à¤µà¤¸": 2549,
      "Ġlow": 2550,
      "Ġà¤ĩà¤¸à¥Ģ": 2551,
      "Ġà¤®à¤°": 2552,
      "ify": 2553,
      "Ġhere": 2554,
      "ource": 2555,
      "Ġproper": 2556,
      "Ġmove": 2557,
      "nâĢĻt": 2558,
      "à¤¦à¤¿": 2559,
      "à¤±": 2560,
      "ĠCol": 2561,
      "Ġbetter": 2562,
      "ers.": 2563,
      "Ġà¤®à¥ĭà¤ł": 2564,
      "Ġà¤¹à¥ĭà¤¤à¥Ģ.": 2565,
      "Ġà¤ħà¤¸à¥Ĥà¤¨": 2566,
      "Ġà¤¦à¥ĩà¤Ĥ": 2567,
      "Ġeconom": 2568,
      "Ġmean": 2569,
      "ly.": 2570,
      "-t": 2571,
      "à¥Ĥà¤¦": 2572,
      "Ġà¤Ńà¥Ĥà¤®": 2573,
      "ĠBe": 2574,
      "ination": 2575,
      "Ġà¤ķà¤¾à¤«à¥Ģ": 2576,
      "s:": 2577,
      "...": 2578,
      "Ġà¤¨à¤¿à¤°à¥įà¤®à¤¾à¤£": 2579,
      "ĠâĢĶ": 2580,
      "ization": 2581,
      "Ġà¤®à¤ľ": 2582,
      "Ġà¤µà¤¹à¥Ģà¤Ĥ": 2583,
      "here": 2584,
      "Ġà¤ªà¥įà¤²": 2585,
      "Ġà¤ļà¥ģà¤¨à¤¾à¤µ": 2586,
      "Ġfeel": 2587,
      "à¤µà¥ĩ": 2588,
      "Ġreal": 2589,
      "Ġkeep": 2590,
      "Ġsecond": 2591,
      "à¤¾à¤¸à¤¾à¤łà¥Ģ": 2592,
      "à¤¹à¤¤": 2593,
      "Ġfore": 2594,
      "Ġlast": 2595,
      "Ġà¤ľà¤¿à¤¸à¤®à¥ĩà¤Ĥ": 2596,
      "Ġoper": 2597,
      "Ġprovide": 2598,
      "rim": 2599,
      "Ġtop": 2600,
      "Ġà¤ĩà¤¸à¥ĩ": 2601,
      "à¤¿à¤¯à¤¨": 2602,
      "ret": 2603,
      "Ġà¤¬à¤¦à¤²": 2604,
      "icle": 2605,
      "ead": 2606,
      "Ġà¤ľà¤¾à¤¨à¤ķà¤¾à¤°à¥Ģ": 2607,
      "Ġ!": 2608,
      "Ġà¤¸à¤®à¤¾à¤ľ": 2609,
      "Ġcause": 2610,
      "ĠEn": 2611,
      "Ġearly": 2612,
      "use": 2613,
      "ĠComm": 2614,
      "Ġà¤µà¥ĭ": 2615,
      "à¤¤à¥ĭ.": 2616,
      "à¤£à¤¾": 2617,
      "ision": 2618,
      "ĠUnited": 2619,
      "Ġà¤Ĩà¤°à¥ĭà¤ª": 2620,
      "Ġà¤Ńà¤¾à¤·": 2621,
      "Ġà¤¬à¥Ģ": 2622,
      "Ġparticular": 2623,
      "à¥ĩà¤²à¥įà¤¯à¤¾": 2624,
      "ww": 2625,
      "Ġmajor": 2626,
      "Ġunt": 2627,
      "ity.": 2628,
      "bers": 2629,
      "Ġà¤µà¥įà¤¹": 2630,
      "ware": 2631,
      "à¤°à¤µ": 2632,
      "Ġoccur": 2633,
      "à¤®à¤¤": 2634,
      "Ġ,": 2635,
      "ified": 2636,
      "à¤ªà¥Ĥà¤°à¥įà¤£": 2637,
      "Ġdev": 2638,
      "Ġavail": 2639,
      "Ġpossible": 2640,
      "Ġfre": 2641,
      "à¤¿à¤¨à¥įà¤¨": 2642,
      "Ŀà¥ĩ": 2643,
      "Ġà¤¤à¥įà¤¯à¤¾à¤Ĥà¤¨à¥Ģ": 2644,
      "ĠAll": 2645,
      "Ġenergy": 2646,
      "Ġà¤ħà¤Ĥà¤¤": 2647,
      "lu": 2648,
      "Ġfin": 2649,
      "ccess": 2650,
      "Ġpar": 2651,
      "ity,": 2652,
      "à¤¾à¤ĩà¤Ł": 2653,
      "Ġhapp": 2654,
      "à¤²à¥ĭà¤Ĥ": 2655,
      "à¤ķà¥įà¤Łà¤°": 2656,
      "Ġà¤¸à¤¾à¤®à¤¨à¥ĩ": 2657,
      "à¥ĩà¤³à¥Ģ": 2658,
      "Ġcurrent": 2659,
      "Ġà¤°à¤¾à¤·à¥įà¤Łà¥įà¤°": 2660,
      "ury": 2661,
      "à¤¿à¤Łà¥Ģ": 2662,
      "Ġà¤¨à¥įà¤¯à¤¾à¤¯": 2663,
      "Ġà¤Ĩà¤¶": 2664,
      "ained": 2665,
      "Ġà¤¬à¤¾à¤ľ": 2666,
      "à¤µà¤¾à¤¦": 2667,
      "Ġà¤¸à¤¾à¤¹": 2668,
      "Ġpercent": 2669,
      "Ġseveral": 2670,
      "ected": 2671,
      "Ġaddition": 2672,
      "Ġ/": 2673,
      "ĠTe": 2674,
      "view": 2675,
      "Ġà¤ĩà¤Ĥà¤¡": 2676,
      "Ġà¤ªà¤¾à¤°à¥įà¤Łà¥Ģ": 2677,
      "Ġsaf": 2678,
      "Ġindu": 2679,
      "Ġà¤Ĩà¤ªà¤²à¥įà¤¯à¤¾": 2680,
      "Ġnear": 2681,
      "ograph": 2682,
      "ration": 2683,
      "Ġtreatment": 2684,
      "ways": 2685,
      "Ġinvol": 2686,
      "Ġà¤®à¥ģà¤²": 2687,
      "Ġable": 2688,
      "Ġà¤Ĩà¤²à¥ĩ": 2689,
      "Ġà¤ĩà¤¸à¤²": 2690,
      "ission": 2691,
      "Ġà¤ħà¤§à¤¿à¤ķà¤¾à¤°": 2692,
      "Ġbus": 2693,
      "Ġperform": 2694,
      "Ġà¤Ĩà¤§à¤¾à¤°": 2695,
      "Ġà¤®à¤¾à¤Ĺ": 2696,
      "Ġorig": 2697,
      "Ġà¤ķà¤¾à¤Ĥà¤Ĺ": 2698,
      "Ġà¤¥à¤¾,": 2699,
      "Ġorder": 2700,
      "Ġà¤Ŀà¤¾à¤²à¥Ģ": 2701,
      "Ġà¤¸à¤ķà¤¤à¥Ģ": 2702,
      "à¥ĭà¤ľà¤¨à¤¾": 2703,
      "Ġperiod": 2704,
      "Ġbenef": 2705,
      "itions": 2706,
      "ogn": 2707,
      "Ġà¤¯à¥ĩà¤¤": 2708,
      "Ġhig": 2709,
      "Ġà¤ªà¥įà¤°à¤Ńà¤¾à¤µ": 2710,
      "par": 2711,
      "Ġà¤ķà¥įà¤²": 2712,
      "Ġmeans": 2713,
      "ĠGod": 2714,
      "Ġà¤ķà¥ģà¤®à¤¾à¤°": 2715,
      "less": 2716,
      "Ġà¤¸à¤¤": 2717,
      "sy": 2718,
      "Ġà¤ħà¤§à¤¿à¤ķà¤¾à¤°à¥Ģ": 2719,
      "Ġà¤ľà¥įà¤¯à¤¾à¤¦à¤¾": 2720,
      "idence": 2721,
      "Ġlim": 2722,
      "Ġà¤ªà¤¿à¤": 2723,
      "Ġà¤¹à¥ĭà¤¤à¤¾.": 2724,
      "ateg": 2725,
      "ering": 2726,
      "Ġsince": 2727,
      "Ġà¤ķà¥įà¤¯à¥ĭà¤Ĥà¤ķà¤¿": 2728,
      "Ġà¤ªà¤¡": 2729,
      "Ġprom": 2730,
      "Ġà¤®à¤¾à¤§": 2731,
      "irc": 2732,
      "Ġnon": 2733,
      "Ġopen": 2734,
      "Ġà¤®à¥Ģà¤¡": 2735,
      "Ġlangu": 2736,
      "Ġcal": 2737,
      "à¥ĭà¤¬": 2738,
      "Ġmen": 2739,
      "Ġel": 2740,
      "Ġà¤ķà¥ĭà¤£": 2741,
      "Ġà¤īà¤ªà¤¯à¥ĭà¤Ĺ": 2742,
      "Ġtoo": 2743,
      "Ġà¤¸à¤Ĥà¤ª": 2744,
      "ole": 2745,
      "Ġà¤¯à¤¾à¤¦": 2746,
      "à¤Ĥ.": 2747,
      "Ġà¤ķà¤¾à¤²": 2748,
      "Ġà¤¸à¤Ĥà¤Ĺ": 2749,
      "Ġà¤²à¤¡à¤¼": 2750,
      "oms": 2751,
      "els": 2752,
      "à¤®à¤¾": 2753,
      "Ġà¤ļà¤¾à¤²": 2754,
      "iness": 2755,
      "Ġà¤µà¤¾à¤¹": 2756,
      "à¥Ģà¤ļà¥ĩ": 2757,
      "Ġà¤¸à¥ģà¤°à¥Ĥ": 2758,
      "Ġà¤®à¤Ĥà¤¤à¥įà¤°": 2759,
      "à¥įà¤µà¤°": 2760,
      "Ġà¤ķà¥ĩà¤²à¤¾": 2761,
      "Ġà¤ľà¤¾à¤¯": 2762,
      "Ġareas": 2763,
      "Ġà¤ħà¤ľ": 2764,
      "Ġaffect": 2765,
      "Ġà¤ķà¤®à¥Ģ": 2766,
      "Ġà¤ļà¤°à¥įà¤ļ": 2767,
      "à¤¶à¤²": 2768,
      "Ġamong": 2769,
      "osp": 2770,
      "-p": 2771,
      "though": 2772,
      "ĠOne": 2773,
      "à¤µà¥įà¤¯": 2774,
      "ote": 2775,
      "à¤¤à¤ĥ": 2776,
      "Ġà¤²à¤¿à¤¯à¥ĩ": 2777,
      "à¤¶à¤¨": 2778,
      "à¤¯à¥Ģ": 2779,
      "Ġà¤µà¤°": 2780,
      "Ġscient": 2781,
      "à¤°à¥įà¤«": 2782,
      "Ġà¤ĩà¤¸à¤¸à¥ĩ": 2783,
      "Ġà¤ķà¤Ĥà¤ªà¤¨à¥Ģ": 2784,
      "Ġsignific": 2785,
      "à¤¿à¤¯à¤®": 2786,
      "Ġà¤Ŀà¤¾à¤²à¤¾": 2787,
      "ilar": 2788,
      "ĠOr": 2789,
      "à¤ľà¤¾": 2790,
      "Ġà¤®à¥ĭà¤¦à¥Ģ": 2791,
      "Ġcost": 2792,
      "à¥įà¤«": 2793,
      "à¤¾à¤¤à¥Ģ": 2794,
      "à¤£à¥įà¤¯à¤¾à¤¸à¤¾à¤łà¥Ģ": 2795,
      "Ġà¤Ĩà¤¸": 2796,
      "ining": 2797,
      "Ġà¤¦à¥ģ": 2798,
      "à¥ģà¤¢": 2799,
      "à¤¸à¤Ĥ": 2800,
      "ources": 2801,
      "elf": 2802,
      "Ġà¤ĸà¤¿à¤²à¤¾à¤«": 2803,
      "Ġhead": 2804,
      "à¤ľà¤¼": 2805,
      "aper": 2806,
      "Ġà¤ļà¤¿à¤¤à¥įà¤°": 2807,
      "Ġcountry": 2808,
      "urop": 2809,
      "Ġà¤ķà¤¾à¤Ĥà¤Ĺà¥įà¤°à¥ĩà¤¸": 2810,
      "à¥ĥà¤¤à¥įà¤¤": 2811,
      "Ġavailable": 2812,
      "port": 2813,
      "Ġà¤ªà¤°à¤¿à¤¸": 2814,
      "ner": 2815,
      "Ġlearning": 2816,
      "Ġcertain": 2817,
      "Ġà¤Ĩà¤¦à¤¿": 2818,
      "Ġfollowing": 2819,
      "à¥įà¤®à¥Ģ": 2820,
      "Ġà¤ķà¥ĩà¤µà¤²": 2821,
      "ention": 2822,
      "Ġfac": 2823,
      "à¤ķà¤²": 2824,
      "Ġbased": 2825,
      "Ġfour": 2826,
      "Ġà¤®à¥ģà¤Ĥà¤¬à¤Ī": 2827,
      "Ġobject": 2828,
      "à¤¾à¤¨à¥ĭà¤Ĥ": 2829,
      "ĠCent": 2830,
      "Ġà¤ªà¤¾à¤²": 2831,
      "Ġlocal": 2832,
      "Ġà¤®à¤¹à¤¿à¤²à¤¾": 2833,
      "à¤¬à¥įà¤¦": 2834,
      "Ġprevent": 2835,
      "Ġà¤ħà¤¨à¥ģà¤Ń": 2836,
      "Ġgr": 2837,
      "à¤²,": 2838,
      "ton": 2839,
      "ploy": 2840,
      "Ġà¤®à¥ģà¤ĸà¥įà¤¯à¤®à¤Ĥà¤¤à¥įà¤°à¥Ģ": 2841,
      "ĠU.": 2842,
      "Ġà¤īà¤¸à¤ķà¥Ģ": 2843,
      "à¤¸à¤Ńà¤¾": 2844,
      "Ġà¤¯à¤¦à¤¿": 2845,
      "Ġà¤Ĺà¥ģà¤°": 2846,
      "Ġdel": 2847,
      "ĠNational": 2848,
      "Ġà¤¨à¥Ģ": 2849,
      "Ġà¤ķà¤¿à¤Ĥà¤µà¤¾": 2850,
      "Ġà¤¹à¥ĭà¤Ĺà¤¾": 2851,
      "Ġconn": 2852,
      "Ġpost": 2853,
      "ians": 2854,
      "à¤°à¥Ģà¤°": 2855,
      "à¤¿à¤¤à¥įà¤¯": 2856,
      "à¤ĵ": 2857,
      "Ġrun": 2858,
      "Ġà¤¢": 2859,
      "ĠSome": 2860,
      "ĠWith": 2861,
      "Ġà¤¦à¤°à¥įà¤ľ": 2862,
      "stit": 2863,
      "Ġà¤µà¤¿à¤°à¥ĭà¤§": 2864,
      "Ġlist": 2865,
      "urther": 2866,
      "Ġà¤ªà¥įà¤°à¤¦": 2867,
      "ĠChrist": 2868,
      "Ġà¤ªà¥Ĥà¤°à¥Ģ": 2869,
      "Ġà¤ªà¥Ĥà¤°à¥įà¤£": 2870,
      "Ġà¤ªà¤°à¥Ģ": 2871,
      "Ġà¤µà¤¿à¤¦à¥įà¤¯": 2872,
      "Ġà¤¹à¥ĭà¤Ĥ": 2873,
      "Ġview": 2874,
      "Ġage": 2875,
      "__": 2876,
      "Ġà¤¨à¤¿à¤¯à¤®": 2877,
      "Ġstruct": 2878,
      "Ġweek": 2879,
      "Ġà¤īà¤¨à¤ķà¤¾": 2880,
      "gen": 2881,
      "Ġà¤ªà¥ģà¤¨": 2882,
      "à¤¸à¥įà¤¥à¤¿à¤¤": 2883,
      "Ġit.": 2884,
      "Ġà¤ªà¥ĭà¤²": 2885,
      "à¥ĩà¤Ĭ": 2886,
      "Ġà¤¸à¤«": 2887,
      "Ġà¤ķà¤¾à¤°à¥įà¤¯à¤ķà¥įà¤°à¤®": 2888,
      "ĠCan": 2889,
      "Ġà¤ľà¥ģ": 2890,
      "à¤¾à¤¯à¤¤": 2891,
      "-d": 2892,
      "Ġfunction": 2893,
      "Ġà¤°à¥ĭà¤ľ": 2894,
      "Ġbi": 2895,
      "Ġbro": 2896,
      "Ġà¤ķà¥ģ": 2897,
      "Ġhard": 2898,
      "r.": 2899,
      "Ġpolit": 2900,
      "Ġà¤Ĩà¤¤à¥įà¤®": 2901,
      "Ġà¤¦à¤¾à¤ĸ": 2902,
      "à¤¿à¤¸à¥įà¤¤à¤¾à¤¨": 2903,
      "Ġmar": 2904,
      "Ġlab": 2905,
      "Ġmonth": 2906,
      "Ġà¤¨à¤¿à¤°": 2907,
      "oint": 2908,
      "Ġvol": 2909,
      "Ġput": 2910,
      "ean": 2911,
      "Ġintern": 2912,
      "resent": 2913,
      "olution": 2914,
      "Ġaccess": 2915,
      "à¤¨,": 2916,
      "ien": 2917,
      "Ġà¤¨à¤Ĺà¤°": 2918,
      "Ġrece": 2919,
      "Ġà¤µà¤¾à¤Ł": 2920,
      "Ġcreat": 2921,
      "ocus": 2922,
      "Ġhistory": 2923,
      "à¤¾à¤¸à¥Ģ": 2924,
      "ently": 2925,
      "Ġà¤ľà¤¾à¤¤à¥ĩ": 2926,
      "à¤ĩà¤¸": 2927,
      "br": 2928,
      "Ġ(S": 2929,
      "Ġà¤®à¥ĥà¤¤": 2930,
      "Ġà¤¤à¤¸à¥ĩ": 2931,
      "Ġlittle": 2932,
      "Ġnatural": 2933,
      "icult": 2934,
      "Ġà¤ĺà¥ĩ": 2935,
      "une": 2936,
      "Ġyoung": 2937,
      "por": 2938,
      "Ġà¤ªà¤¶": 2939,
      "à¤¿à¤Ń": 2940,
      "Ġà¤ĩà¤¸à¤²à¤¿à¤ı": 2941,
      "Ġ$": 2942,
      "Ġà¤ľà¤¾à¤£": 2943,
      "Ġà¤¶à¤¬à¥įà¤¦": 2944,
      "orld": 2945,
      "ggest": 2946,
      "hem": 2947,
      "Ġà¤ħà¤¶à¥Ģ": 2948,
      "à¥įà¤¯à¤¾à¤Ĥ": 2949,
      "Ġà¤¸à¤ª": 2950,
      "ym": 2951,
      "ids": 2952,
      "Ġà¤ħà¤Ńà¥Ģ": 2953,
      "Ġassoci": 2954,
      "à¤¿à¤¤à¥įà¤¤": 2955,
      "à¤¦à¥įà¤¦": 2956,
      "Ġpress": 2957,
      "à¤¡à¤£": 2958,
      "ended": 2959,
      "Ġlet": 2960,
      "ĠMed": 2961,
      "ĠMar": 2962,
      "Ġlater": 2963,
      "Ġuntil": 2964,
      "i,": 2965,
      "à¤¾à¤°à¤£": 2966,
      "à¤¾à¤¤à¥Ĥà¤¨": 2967,
      "Ġà¤Ńà¤Ĺ": 2968,
      "à¤¤à¤¿à¤ķ": 2969,
      "à¤¿à¤¯à¤°": 2970,
      "etic": 2971,
      "Ġarea": 2972,
      "Ġà¤¨à¥ĩà¤¤": 2973,
      "ĠLe": 2974,
      "Ġà¤µà¥įà¤¯à¤ķà¥įà¤¤à¤¿": 2975,
      "over": 2976,
      "Ġamount": 2977,
      "ples": 2978,
      "Ġbrain": 2979,
      "à¤®à¤§": 2980,
      "Ġheart": 2981,
      "ĠAf": 2982,
      "ĠSo": 2983,
      "Ġà¤ĩà¤¸à¤ķà¤¾": 2984,
      "Ġà¤µà¤¿à¤·à¤¯": 2985,
      "ĠFr": 2986,
      "Ġgiven": 2987,
      "ets": 2988,
      "not": 2989,
      "Ġcome": 2990,
      "Ġà¤Ĩà¤²": 2991,
      "Ġà¤¦à¤¿à¤¯à¤¾à¥¤": 2992,
      "Ġà¤ķà¥ĭà¤°à¥ĭà¤¨à¤¾": 2993,
      "ats": 2994,
      "Ġcanc": 2995,
      "Ġà¤Ĩà¤¹à¥ĩ,": 2996,
      "Ġà¤ªà¥įà¤°à¤ķà¤¾à¤¶": 2997,
      "ledge": 2998,
      "nes": 2999,
      "à¤Ĩà¤°": 3000,
      "ortun": 3001,
      "Ġà¤ªà¤¿à¤Ľ": 3002,
      "Ġflow": 3003,
      "Ġà¤¹à¤¾à¤¥": 3004,
      "Ġà¤®à¥Īà¤ļ": 3005,
      "à¤¾à¤±à¥įà¤¯à¤¾": 3006,
      "uture": 3007,
      "à¤¾à¤ĩà¤²": 3008,
      "ling": 3009,
      "Ġess": 3010,
      "ither": 3011,
      "à¥įà¤°à¤¿à¤¯à¤¾": 3012,
      "Ġà¤µà¤¨": 3013,
      "Ġà¤Ĩà¤¨à¥ĩ": 3014,
      "Ġà¤µà¤¾à¤°": 3015,
      "ĠBy": 3016,
      "Ġcho": 3017,
      "Ġseem": 3018,
      "Ġà¤ĩà¤¸à¤®à¥ĩà¤Ĥ": 3019,
      "agement": 3020,
      "ĠGo": 3021,
      "Ġà¤¨à¥įà¤¯à¥Ĥ": 3022,
      "Ġmult": 3023,
      "Ġà¤Ĺà¥ĩ": 3024,
      "Ġà¤ªà¥įà¤°à¤®à¤¾à¤£": 3025,
      "Ġà¤Ĩà¤ªà¤£": 3026,
      "yd": 3027,
      "Ġturn": 3028,
      "Ġsw": 3029,
      "Ġsuggest": 3030,
      "Ġà¤®à¤¾à¤§à¥įà¤¯à¤®": 3031,
      "Ġcomput": 3032,
      "Ġfree": 3033,
      "Ġà¤Ĩà¤ı": 3034,
      "Ġà¤®à¤¾à¤°à¥įà¤Ĺ": 3035,
      "Ġimpact": 3036,
      "Ġfamily": 3037,
      "-m": 3038,
      "Ġobs": 3039,
      "Ġdeterm": 3040,
      "ients": 3041,
      "à¥įà¤¯à¤¾à¤¤à¥Ģà¤²": 3042,
      "ably": 3043,
      "à¥įà¤¯à¥ĩà¤ķ": 3044,
      "ured": 3045,
      "Ġshort": 3046,
      "à¤°à¥Ĥà¤ª": 3047,
      "ĠEurop": 3048,
      "Ġà¤¦à¥Ĥà¤¸à¤°à¥ĩ": 3049,
      "Ġà¤ıà¤ķà¤¾": 3050,
      "Ġsignificant": 3051,
      "à¥įà¤¶à¤¨": 3052,
      "à¤°à¤¾à¤ľ": 3053,
      "ĠUS": 3054,
      "i.": 3055,
      "Ġfield": 3056,
      "Ġsometh": 3057,
      "Ġbehav": 3058,
      "Ġà¤Ĩà¤Ĺ": 3059,
      "Ġà¤ķà¤°à¤¤à¥Ģ": 3060,
      "omm": 3061,
      "Ġtype": 3062,
      "Ġà¤¶à¤°à¥Ģà¤°": 3063,
      "aster": 3064,
      "Ġà¤µà¥įà¤¯à¤¾à¤ª": 3065,
      "Ġà¤¨à¤¿à¤°à¥įà¤£": 3066,
      "aken": 3067,
      "Ġà¤¦à¥Ĥà¤°": 3068,
      "à¤ªà¤Ł": 3069,
      "Ġà¤¨à¤¿à¤¶": 3070,
      "Ġà¤Ĩà¤Ĺà¥ĩ": 3071,
      "Ġcondition": 3072,
      "Ġà¤¬à¤°": 3073,
      "ries": 3074,
      "Ġà¤ĩà¤²": 3075,
      "Ġthings": 3076,
      "Ġà¤®à¥ĩà¤Ĥ,": 3077,
      "Ġà¤¹à¥ĭà¤Ĺà¤¾à¥¤": 3078,
      "ĠBl": 3079,
      "Ġà¤ªà¥įà¤°à¤§à¤¾à¤¨": 3080,
      "ised": 3081,
      "Ġmaking": 3082,
      "ask": 3083,
      "Ġà¤²à¥ĩà¤ĸ": 3084,
      "à¤®à¥ĩà¤Ĥà¤Ł": 3085,
      "Ġdue": 3086,
      "mit": 3087,
      "Ġ(C": 3088,
      "Ġà¤¬à¥ī": 3089,
      "Ġcourse": 3090,
      "Ġalong": 3091,
      "Ġexample,": 3092,
      "Ġà¤ķà¤¾à¤³": 3093,
      "Ġà¤ķà¤°à¤ķà¥ĩ": 3094,
      "Ġinvest": 3095,
      "oad": 3096,
      "à¥įà¤¯à¤¾à¤ķ": 3097,
      "Ġfar": 3098,
      "ĠEar": 3099,
      "Ġcomb": 3100,
      "Ġà¤¶à¤¿à¤ķ": 3101,
      "Ġà¤®à¤¾à¤¹à¤¿à¤¤à¥Ģ": 3102,
      "à¤ªà¤¾à¤²": 3103,
      "à¤ķà¥įà¤¤à¤¿": 3104,
      "à¤¨à¤²": 3105,
      "Ġà¤¸à¤Ĥà¤ĸà¥įà¤¯à¤¾": 3106,
      "Ġask": 3107,
      "Ġstudent": 3108,
      "Ġà¤¤à¥ĩà¤ľ": 3109,
      "Ġfil": 3110,
      "Ġà¤°à¤¾à¤¤": 3111,
      "Ġà¤®à¤¹à¤¿à¤²": 3112,
      "Ġà¤®à¤¾à¤": 3113,
      "Ġvir": 3114,
      "à¤¸à¤®": 3115,
      "ends": 3116,
      "Ġexist": 3117,
      "Ġà¤łà¥ĩà¤µ": 3118,
      "oph": 3119,
      "Ġpotential": 3120,
      "à¥Ģ.": 3121,
      "à¤²à¤¬à¥įà¤§": 3122,
      "Ġà¤ħà¤²à¤Ĺ": 3123,
      "Ġfocus": 3124,
      "Ġname": 3125,
      "à¤¾à¤¨à¥įà¤¯": 3126,
      "Ġà¤µà¤¿à¤¨": 3127,
      "Ġteac": 3128,
      "Ġenc": 3129,
      "isc": 3130,
      "Ġdeath": 3131,
      "Ġclear": 3132,
      "Ġà¤ħà¤®à¥ĩà¤°": 3133,
      "istic": 3134,
      "Ġrad": 3135,
      "Ġà¤īà¤¤à¥įà¤ªà¤¾à¤¦": 3136,
      "Ġ(A": 3137,
      "Ġsing": 3138,
      "cle": 3139,
      "Ġappear": 3140,
      "Ġlikely": 3141,
      "Ġà¤®à¥ģà¤Ŀà¥ĩ": 3142,
      "ia.": 3143,
      "à¤¿à¤·à¥įà¤ł": 3144,
      "ruction": 3145,
      "Ġà¤¨à¤¸": 3146,
      "Ġà¤¯à¤¾à¤Ĥà¤ļà¥įà¤¯à¤¾": 3147,
      "oot": 3148,
      "Ġcirc": 3149,
      "ohn": 3150,
      "ann": 3151,
      "Ġà¤Ĩà¤ķ": 3152,
      "Ġà¤¸à¤²": 3153,
      "Ġauthor": 3154,
      "atch": 3155,
      "Ġà¤µà¤¿à¤§à¤¾à¤¨": 3156,
      "Ġpast": 3157,
      "ication": 3158,
      "Ġà¤®à¥Ģà¤¡à¤¿à¤¯à¤¾": 3159,
      "Ġà¤®à¥Ĥà¤²": 3160,
      "Ġà¤Ľà¥ĭà¤Ł": 3161,
      "Ġline": 3162,
      "let": 3163,
      "Ġskill": 3164,
      "Ġà¤ªà¤¾à¤ķ": 3165,
      "us,": 3166,
      "à¤¯à¤¨": 3167,
      "ĠU.S.": 3168,
      "Ġà¤ķà¥ĥà¤·": 3169,
      "Ġà¤īà¤ªà¤²à¤¬à¥įà¤§": 3170,
      "Ġsuccess": 3171,
      "Ġstat": 3172,
      "Ġà¤¸à¥Į": 3173,
      "Ġà¤ķà¥Į": 3174,
      "Ġconsider": 3175,
      "Ġà¤¬à¥ĩà¤¹": 3176,
      "Ġà¤¨à¤¿à¤°à¥įà¤£à¤¯": 3177,
      "ĠThat": 3178,
      "Ġgive": 3179,
      "Ġà¤ªà¥įà¤°à¤¶à¥įà¤¨": 3180,
      "Ġalways": 3181,
      "ox": 3182,
      "vious": 3183,
      "ember": 3184,
      "Ġà¤¬à¤¡à¤¼à¥Ģ": 3185,
      "Ġdifficult": 3186,
      "Ġà¤¬à¤ļ": 3187,
      "face": 3188,
      "Ġusually": 3189,
      "Ġà¤ĸà¤¾à¤¨": 3190,
      "Ġcreate": 3191,
      "Ġabove": 3192,
      "Ġtoday": 3193,
      "à¤Ĺà¤³": 3194,
      "ames": 3195,
      "Ġà¤¤à¤¸à¥ĩà¤ļ": 3196,
      "Ġà¤¯à¥ĭà¤ľà¤¨à¤¾": 3197,
      "o.": 3198,
      "ope": 3199,
      "atory": 3200,
      "Ġà¤ıà¤®": 3201,
      "Ġà¤ķà¤°à¥ĭà¤¡à¤¼": 3202,
      "Ġà¤¬à¤¾à¤²": 3203,
      "Ġrele": 3204,
      "Ġà¤ķà¤Ńà¥Ģ": 3205,
      "Ġà¤¤à¥įà¤¯à¤¾à¤Ĥà¤¨à¤¾": 3206,
      "Ġà¤ľà¤¹à¤¾à¤Ĥ": 3207,
      "à¤¿à¤ķà¥ĩà¤Ł": 3208,
      "ecially": 3209,
      "Ġexperience": 3210,
      "ĠIm": 3211,
      "Ġlanguage": 3212,
      "Ġspecific": 3213,
      "Ġà¤ħà¤¨à¥ģà¤Ńà¤µ": 3214,
      "Ġà¤°à¤¿à¤ª": 3215,
      "Ġà¤ķà¥Ģà¥¤": 3216,
      "Ġfamil": 3217,
      "Ġconsum": 3218,
      "Ġdescrib": 3219,
      "Ġà¤¨à¤¿à¤°à¥įà¤¦": 3220,
      "Ġà¤®à¥įà¤¹à¤£à¤ľà¥ĩ": 3221,
      "Ġspace": 3222,
      "put": 3223,
      "ument": 3224,
      "Ġsimilar": 3225,
      "Ġà¤Ĺà¥ģà¤£": 3226,
      "à¤¿à¤·à¥įà¤Ł": 3227,
      "Ġspecies": 3228,
      "app": 3229,
      "Ġbegin": 3230,
      "Ġsomething": 3231,
      "Ġlot": 3232,
      "à¤¸à¥įà¤¥à¤¾à¤¨": 3233,
      "idd": 3234,
      "Ġà¤ªà¤¾à¤ł": 3235,
      "à¤¾à¤µà¥ĩ": 3236,
      "Ġey": 3237,
      "Ġà¤ªà¤Ł": 3238,
      "à¤Ĥà¤¦à¤°": 3239,
      "à¤¾à¤Ĥà¤ķà¤¿": 3240,
      "etim": 3241,
      "af": 3242,
      "à¤µà¤¿à¤§": 3243,
      "Ġrecord": 3244,
      "ribut": 3245,
      "Ġà¤§à¥įà¤¯à¤¾à¤¨": 3246,
      "Ġà¤ĸà¤¾à¤¸": 3247,
      "Ġdra": 3248,
      "à¥įà¤Ń": 3249,
      ".\"": 3250,
      "Ġill": 3251,
      "Ġspecial": 3252,
      "Ġà¤¸à¤ļ": 3253,
      "ored": 3254,
      "itor": 3255,
      "Ġà¤°à¤Ĥà¤Ĺ": 3256,
      "Ġà¤ķà¥Ģ,": 3257,
      "Ġà¤ľà¤µ": 3258,
      "à¤®à¥ĩ": 3259,
      "Ġfuture": 3260,
      "ending": 3261,
      "Ġà¤¤à¥ģà¤®à¥įà¤¹": 3262,
      "à¤Ńà¤¾à¤°": 3263,
      "obal": 3264,
      "Ġà¤¬à¤¨à¤¾": 3265,
      "à¥įà¤Łà¤°": 3266,
      "Ġeffective": 3267,
      "Ġtext": 3268,
      "ĠAm": 3269,
      "ring": 3270,
      "Ġà¤²à¥Ģ": 3271,
      "Ġnext": 3272,
      "Ġdiscuss": 3273,
      "Ġà¤ħà¤¸à¤¾": 3274,
      "à¤².": 3275,
      "aim": 3276,
      "of": 3277,
      "Ġmov": 3278,
      "ged": 3279,
      "Ġparent": 3280,
      "ĠitâĢĻs": 3281,
      "Ġprim": 3282,
      "Ġà¤ľà¤¾à¤Ĥà¤ļ": 3283,
      "Ġà¤ħà¤¶à¤¾": 3284,
      "Ġtemper": 3285,
      "ĠBrit": 3286,
      "nal": 3287,
      "Ġer": 3288,
      "Ġà¤ķà¥ģà¤²": 3289,
      "tain": 3290,
      "Ġsympt": 3291,
      "Ġestab": 3292,
      "Ġnecess": 3293,
      "Ġincrease": 3294,
      "Ġhistor": 3295,
      "ried": 3296,
      "Ġà¤¸à¤¾à¤Ĥà¤Ĺà¤¿à¤¤": 3297,
      "à¥įà¤¯à¤¾à¤£": 3298,
      "Ġprop": 3299,
      "Ġesp": 3300,
      "Ġstandard": 3301,
      "Ġà¤ĺà¤Łà¤¨à¤¾": 3302,
      "ina": 3303,
      "à¤¿à¤·à¤¦": 3304,
      "Ġcrit": 3305,
      "oman": 3306,
      "Ġà¤¬à¤¨à¤¾à¤¨à¥ĩ": 3307,
      "Ġà¤Ĺà¤Īà¥¤": 3308,
      "ĠGen": 3309,
      "Ġà¤¹à¤¿à¤¸": 3310,
      "Ġà¤¸à¤¿à¤¦à¥įà¤§": 3311,
      "ane": 3312,
      "Ġà¤ĺà¥ĭà¤·": 3313,
      "à¤¿à¤¨à¤¾": 3314,
      "ĠWorld": 3315,
      "Ġvarious": 3316,
      "à¤®à¤¨": 3317,
      "ott": 3318,
      "Ġà¤ıà¤¨": 3319,
      "Ġgre": 3320,
      "Ġapplic": 3321,
      "Ġcharacter": 3322,
      "Ġstrong": 3323,
      "à¤ľà¥įà¤ŀ": 3324,
      "Ġdam": 3325,
      "min": 3326,
      "Ġà¤²à¤¾à¤Ń": 3327,
      "Ġà¤¸à¤®à¤¸": 3328,
      "Ġhigher": 3329,
      "Ġtry": 3330,
      "rug": 3331,
      "Ġside": 3332,
      "Ġrespons": 3333,
      "Ġnever": 3334,
      "asing": 3335,
      "Ġkind": 3336,
      "iate": 3337,
      "Ġà¤®à¤¹à¤¤à¥įà¤µ": 3338,
      "Ġà¤ľà¤¾à¤Ĺ": 3339,
      "à¤µà¤£": 3340,
      "most": 3341,
      ",âĢĿ": 3342,
      "ĠAb": 3343,
      "Ġà¤§à¤¨": 3344,
      "à¥Īà¤Ĥà¤¡": 3345,
      "Ġtoget": 3346,
      "Ġtogether": 3347,
      "Ġà¤ªà¤¾à¤¨à¥Ģ": 3348,
      "à¥ģà¤Ĩ": 3349,
      "Ġà¤ķà¥ī": 3350,
      "aps": 3351,
      "Ġà¤ķà¤¾à¤¨": 3352,
      "Ġleast": 3353,
      "ĠAfric": 3354,
      "à¥ĩà¤ª": 3355,
      "ode": 3356,
      "à¤¤à¥įà¤¤à¥įà¤µ": 3357,
      "Ġwhy": 3358,
      "à¤Ĥà¤¦à¤¿à¤°": 3359,
      "Ġevent": 3360,
      "à¥ĩà¤Ĥà¤¸": 3361,
      "ĠWhile": 3362,
      "Ġà¤ªà¥įà¤°à¤¤à¥įà¤¯à¥ĩà¤ķ": 3363,
      "Ġà¤¤à¥Īà¤¯à¤¾à¤°": 3364,
      "Ġoffic": 3365,
      "lement": 3366,
      "Ġà¤¤à¥įà¤¯à¤¾à¤Ĥà¤ļà¥įà¤¯à¤¾": 3367,
      "ilities": 3368,
      "Ġleft": 3369,
      "Ġlive": 3370,
      "-l": 3371,
      "Ġaway": 3372,
      "Ġcolle": 3373,
      "à¤¿à¤¨à¥įà¤¦": 3374,
      "Ġà¤®à¥ģà¤¦": 3375,
      "à¥ĩà¤Ĥà¤¡": 3376,
      "Ġmillion": 3377,
      "Ġà¤¸à¤¾à¤°": 3378,
      "in,": 3379,
      "ĠJohn": 3380,
      "Ġà¤ªà¥ĭà¤²à¤¿à¤¸": 3381,
      "Ġacross": 3382,
      "à¤«à¥įà¤¤": 3383,
      "Ġprofess": 3384,
      "Ġdisease": 3385,
      "ĠWar": 3386,
      "Ġà¤¡à¥ī.": 3387,
      "Ġtru": 3388,
      "à¤¸à¥įà¤ª": 3389,
      "à¥Ģà¤¬": 3390,
      "Ġ=": 3391,
      "ilt": 3392,
      "sc": 3393,
      "Ġrequire": 3394,
      "ĠGerm": 3395,
      "à¤¤à¤¾à¤²": 3396,
      "sp": 3397,
      "à¥Ĥà¤ģ": 3398,
      "Ġà¤ħà¤²à¤¾à¤µà¤¾": 3399,
      "Ġnet": 3400,
      "à¤¦à¥įà¤¯": 3401,
      "Ġà¤¸à¥įà¤®": 3402,
      "Ġà¤®à¤¾à¤Ĥà¤Ĺ": 3403,
      "Ġà¤Ĳà¤¸à¥Ģ": 3404,
      "Ġà¤µà¤¸à¥įà¤¤": 3405,
      "Ġà¤ªà¥įà¤°à¤®à¥ģà¤ĸ": 3406,
      "à¤¹à¤¨": 3407,
      "Ġresearc": 3408,
      "Ġà¤īà¤¸à¤ķà¤¾": 3409,
      "Ġlink": 3410,
      "Ġà¤ľà¤¨à¤¤à¤¾": 3411,
      "sw": 3412,
      "Ġenough": 3413,
      "Ġgeneral": 3414,
      "à¤¿à¤¥": 3415,
      "yl": 3416,
      "-à¤ª": 3417,
      "ush": 3418,
      "duct": 3419,
      "Ġhour": 3420,
      "Ġà¤ªà¥ģà¤¢": 3421,
      "ĠAfter": 3422,
      "Ġà¤¬à¤¾à¤¹à¤°": 3423,
      "Ġmic": 3424,
      "à¤¿à¤°à¥Ģ": 3425,
      "Ġimprove": 3426,
      "Ġtool": 3427,
      "ĠNe": 3428,
      "-à¤ķ": 3429,
      "Ġà¤¨à¤¾à¤Ĺà¤°": 3430,
      "Ġà¤ħà¤¸à¤¤": 3431,
      "NA": 3432,
      "Ġà¤īà¤¸à¤¨à¥ĩ": 3433,
      "à¤µà¥įà¤¹": 3434,
      "ung": 3435,
      "à¤¾à¤¨à¤Ĥà¤¤à¤°": 3436,
      "Ġchem": 3437,
      "à¤®à¤Ĥà¤¤à¥įà¤°à¥Ģ": 3438,
      "Ġà¤ĸà¥ĩà¤²": 3439,
      "Ġmot": 3440,
      "alf": 3441,
      "âĢĻre": 3442,
      "à¥ĩà¤ļ": 3443,
      "Ġà¤°à¤µ": 3444,
      "Ġà¤¸à¤¦à¤¸à¥įà¤¯": 3445,
      "Ġà¤°à¤¾à¤·à¥įà¤Łà¥įà¤°à¥Ģà¤¯": 3446,
      "Ġà¤ªà¥įà¤°à¥ĩà¤®": 3447,
      "sh": 3448,
      "ories": 3449,
      "Ġà¤ľà¤¿à¤¸à¤ķà¥ĩ": 3450,
      "Ġà¤²à¤Ĺà¤¾": 3451,
      "Ġespecially": 3452,
      "Ġà¤¸à¥ĭà¤¶à¤²": 3453,
      "Ġà¤¨à¤ľà¤°": 3454,
      "à¤ľà¥Ĥà¤¦": 3455,
      "à¤ķà¤°à¥įà¤¤": 3456,
      "amm": 3457,
      "Ġplac": 3458,
      "à¤¸à¤¾à¤¯": 3459,
      "is,": 3460,
      "Ġà¤¸à¥įà¤¥à¤¿à¤¤à¤¿": 3461,
      "Ġhaving": 3462,
      "yn": 3463,
      "à¤µà¤¾à¤°à¥Ģ": 3464,
      "ttp": 3465,
      "à¤Ĥà¤Ĺà¤²": 3466,
      "Ġà¤¥à¤¾.": 3467,
      "à¥Ĥà¤°à¥Ģ": 3468,
      "à¥ĭà¤¦": 3469,
      "à¤¿à¤ķà¤²": 3470,
      "à¤ķà¥Ģà¤¯": 3471,
      "Ġà¤®à¥ģà¤ķ": 3472,
      "Ġà¤®à¤¹à¤¾à¤°à¤¾à¤·à¥įà¤Łà¥įà¤°": 3473,
      "Ġà¤¬à¤¡à¤¼à¥ĩ": 3474,
      "Ġà¤ķà¤°à¥ĩ": 3475,
      "Ġreason": 3476,
      "à¤¤à¥įà¤¤à¤¾": 3477,
      "Ġà¤¬à¤¾à¤¬": 3478,
      "Ġà¤ªà¤¢à¤¼": 3479,
      "à¥īà¤ķ": 3480,
      "à¥įà¤¸à¤¾": 3481,
      "à¤¾à¤¨à¥įà¤¤": 3482,
      "Ġà¤ľà¥įà¤ŀà¤¾à¤¨": 3483,
      "ĠStud": 3484,
      "ray": 3485,
      "Ġmodel": 3486,
      "ĠEnglish": 3487,
      "ance,": 3488,
      "à¤¾à¤¤à¥įà¤®à¤ķ": 3489,
      "Ġà¤ľà¤¨à¥įà¤®": 3490,
      "à¥ĭà¤¸": 3491,
      "Ġà¤¸à¤¾à¤¤": 3492,
      "à¤¾à¤¬à¤¾à¤¦": 3493,
      "Ġà¤µà¤¾à¤²à¤¾": 3494,
      "Ġà¤ªà¤¤à¤¾": 3495,
      "Ġpolic": 3496,
      "Ġtimes": 3497,
      "Ġ(P": 3498,
      "Ġà¤¸à¤Ĥà¤¸": 3499,
      "Ġà¤ªà¤°à¤®": 3500,
      "Ġà¤ħà¤¦": 3501,
      "Ġà¤ªà¤°à¤¿à¤£": 3502,
      "ipp": 3503,
      "Ġsens": 3504,
      "Ġà¤¹à¤¾à¤²à¤¾à¤Ĥà¤ķà¤¿": 3505,
      "Ġprotect": 3506,
      "ĠCar": 3507,
      "//": 3508,
      "Ġà¤ªà¥įà¤°à¤¸à¥įà¤¤": 3509,
      "Ġworking": 3510,
      "Ġsubject": 3511,
      "Ġà¤®à¤¦à¤¦": 3512,
      "Ġfull": 3513,
      "Ġknowledge": 3514,
      "Ġtemperature": 3515,
      "Ġz": 3516,
      "Ġà¤īà¤ļà¥įà¤ļ": 3517,
      "Ġphysical": 3518,
      "aut": 3519,
      "ĠPol": 3520,
      "Ġcomplete": 3521,
      "Ġà¤ļà¤°à¥įà¤ļà¤¾": 3522,
      "ĠIntern": 3523,
      "Ġteam": 3524,
      "ĠHealth": 3525,
      "Ġrepresent": 3526,
      "ĠShe": 3527,
      "Ġà¤¶à¥ĩà¤¤": 3528,
      "Ġà¤®à¤§à¥įà¤¯à¥ĩ": 3529,
      "Ġà¤ľà¤¾à¤¨à¤¾": 3530,
      "Ġà¤ķà¤²à¥įà¤¯à¤¾à¤£": 3531,
      "à¤°,": 3532,
      "Ġaccount": 3533,
      "à¥įà¤¯à¤¾à¤Ĥà¤¨à¤¾": 3534,
      "à¤¾à¤®à¥ģà¤³à¥ĩ": 3535,
      "Ġwhether": 3536,
      "à¥ģà¤¡": 3537,
      "sych": 3538,
      "Ġhouse": 3539,
      "Ġà¤¦à¤¿à¤¨à¥ĭà¤Ĥ": 3540,
      "Ġà¤¸à¥įà¤ªà¤·à¥įà¤Ł": 3541,
      "Ġbecame": 3542,
      "pr": 3543,
      "à¤ľà¤¹": 3544,
      "Ġà¤Ĩà¤²à¥Ģ": 3545,
      "ĠPres": 3546,
      "Ġmind": 3547,
      "Ġà¤¸à¥įà¤¥à¤¾à¤ª": 3548,
      "Ġpopulation": 3549,
      "Ġà¤¹à¤®à¤¾à¤°à¥ĩ": 3550,
      "Ġcase": 3551,
      "Ġà¤µà¥Ģà¤¡": 3552,
      "ĠTr": 3553,
      "Ġstep": 3554,
      "Ġnorm": 3555,
      "Ġà¤¦à¥ĥà¤·à¥įà¤Ł": 3556,
      "Ġà¤®à¥Ĥ": 3557,
      "Ġkey": 3558,
      "à¤¿à¤¹à¤¾à¤¸": 3559,
      "Ġà¤¨à¤¾à¤Ĺà¤°à¤¿à¤ķ": 3560,
      "Ġà¤Ĩà¤ł": 3561,
      "apt": 3562,
      "Ġsum": 3563,
      "Ġà¤Ĺà¤¾à¤Ĥà¤µ": 3564,
      "à¥ĥà¤¤à¤¿": 3565,
      "Ġà¤ªà¤¿à¤Ľà¤²à¥ĩ": 3566,
      "à¤¨à¥įà¤§": 3567,
      "Ġself": 3568,
      "Ġsal": 3569,
      "à¤Ńà¤°": 3570,
      "à¥įà¤¯à¤¤à¤¾": 3571,
      "ances": 3572,
      "Ġfund": 3573,
      "Ġground": 3574,
      "Ġquestion": 3575,
      "ĠAg": 3576,
      "Ġà¤īà¤ªà¤¸à¥įà¤¥à¤¿à¤¤": 3577,
      "side": 3578,
      "Ġmakes": 3579,
      "Ġà¤ħà¤Ńà¤¿à¤¨": 3580,
      "Ġà¤¨à¤°": 3581,
      "Ġà¤ķà¥ĩà¤²": 3582,
      "Ġà¤ľà¥Ģà¤µ": 3583,
      "à¤ļà¤¾à¤²": 3584,
      "à¥Ģà¤Ĥ": 3585,
      "ment.": 3586,
      "ĠdonâĢĻt": 3587,
      "Ġprob": 3588,
      "ression": 3589,
      "Ġà¤µà¥ĩà¤³": 3590,
      "ment,": 3591,
      "Ġlower": 3592,
      "erence": 3593,
      "Ġà¤ªà¥įà¤°à¤¤à¤¿": 3594,
      "ife": 3595,
      "Ġinflu": 3596,
      "amin": 3597,
      "Ġlevels": 3598,
      "chie": 3599,
      "an,": 3600,
      "Ġfurther": 3601,
      "ream": 3602,
      "Ġparticip": 3603,
      "à¤¤à¥įà¤¯à¤¾": 3604,
      "Ġà¤¦à¥ĩà¤¤à¥ĩ": 3605,
      "Ġà¤°à¤¹à¤¨à¥ĩ": 3606,
      "cing": 3607,
      "Ġbig": 3608,
      "à¤¨à¥įà¤¦à¥įà¤°": 3609,
      "acc": 3610,
      "Ġà¤ķà¥įà¤°à¤¿à¤ķà¥ĩà¤Ł": 3611,
      "Ġrole": 3612,
      "à¥ĩà¤¯à¤°": 3613,
      "à¤ķà¥įà¤·à¤¿à¤¤": 3614,
      "ĠGe": 3615,
      "Ġnut": 3616,
      "Ġchall": 3617,
      "Ġrelations": 3618,
      "Ġgoing": 3619,
      "unt": 3620,
      "Ġà¤Łà¥įà¤µ": 3621,
      "ump": 3622,
      "Ġà¤ľà¤Ĺà¤¹": 3623,
      "à¤¿à¤²à¥ĩ": 3624,
      "ler": 3625,
      "ique": 3626,
      "à¤°à¥ĭà¤Ĥ": 3627,
      "à¤ķà¥įà¤°": 3628,
      "Ġscience": 3629,
      "Ġtradition": 3630,
      "ure,": 3631,
      "Ġà¤ıà¤ķà¥įà¤¸": 3632,
      "Ġà¤Ńà¤¾à¤ľà¤ªà¤¾": 3633,
      "à¤Ĥà¤¤à¥ģ": 3634,
      "Ġsure": 3635,
      "aching": 3636,
      "Ġà¤°à¤¿à¤ªà¥ĭà¤°à¥įà¤Ł": 3637,
      "Ġactivities": 3638,
      "Ġdig": 3639,
      "Ġà¤ķà¤¿à¤¤": 3640,
      "à¤°à¥įà¤¥à¤¿à¤ķ": 3641,
      "iation": 3642,
      "à¤¾à¤ļà¤¾à¤°": 3643,
      "Ġà¤ľà¤¼": 3644,
      "iol": 3645,
      "Ġà¤¬à¥ĩà¤Ł": 3646,
      "Ġà¤µà¥Ģà¤¡à¤¿à¤¯à¥ĭ": 3647,
      "à¤ıà¤²": 3648,
      "ĠCal": 3649,
      "mber": 3650,
      "Ġà¤¯à¥ģà¤µ": 3651,
      "Ġà¤ļà¤¾à¤¹à¤¿à¤ıà¥¤": 3652,
      "ĠDo": 3653,
      "Ġeff": 3654,
      "Th": 3655,
      "à¥Īà¤°": 3656,
      "Ġindic": 3657,
      "Ġà¤¸à¥ĩà¤µà¤¾": 3658,
      "augh": 3659,
      "Ġcontain": 3660,
      "Ġcontinu": 3661,
      "à¤Ńà¤Ĺ": 3662,
      "Ġà¤ªà¤°à¤¿à¤·à¤¦": 3663,
      "Ġcond": 3664,
      "Ġà¤ķà¤¾à¤¢": 3665,
      "ER": 3666,
      "Ġbelow": 3667,
      "Ġpred": 3668,
      "Ġthem.": 3669,
      "Ġà¤Ĩà¤¦à¥ĩà¤¶": 3670,
      "Ġà¤ªà¥Ĥà¤°à¤¾": 3671,
      "Ġà¤Ĩà¤¯à¤¾": 3672,
      "à¥Īà¤²": 3673,
      "Ġtoward": 3674,
      "Ġsays": 3675,
      "ready": 3676,
      "à¥ģà¤Ĺà¥įà¤£": 3677,
      "Ġà¤¤à¥įà¤°": 3678,
      "Ġà¤ľà¤¾à¤ıà¤Ĺà¤¾à¥¤": 3679,
      "ibility": 3680,
      "Ġemploy": 3681,
      "à¤¤à¤®": 3682,
      "Ġà¤®à¤¹à¥Ģ": 3683,
      "ĠResear": 3684,
      "Ġopt": 3685,
      "Ġens": 3686,
      "Ġclose": 3687,
      "Ġarm": 3688,
      "Ġà¤Ĩà¤ªà¤ķà¥ĩ": 3689,
      "à¥ĩà¤Ĭà¤¨": 3690,
      "Ġà¤ķà¥īà¤²": 3691,
      "Ġseen": 3692,
      "rel": 3693,
      "bon": 3694,
      "à¥įà¤¯à¤¾à¤¨à¤Ĥà¤¤à¤°": 3695,
      "Ġà¤¸à¤Ĥà¤¸à¥įà¤ķ": 3696,
      "or,": 3697,
      "rict": 3698,
      "à¥ĩà¤Ĥà¥¤": 3699,
      "ĠX": 3700,
      "Ġà¤ľà¤¬à¤ķà¤¿": 3701,
      "à¤®à¤¾à¤°": 3702,
      "Ġà¤¦à¥ģà¤¨": 3703,
      "Ġà¤¦à¥ģà¤¸": 3704,
      "Ġà¤Ĩà¤¨": 3705,
      "Ġà¤ĩà¤Ĥà¤Ł": 3706,
      "Ġrather": 3707,
      "à¤¾à¤¯à¤²à¤¾": 3708,
      "cul": 3709,
      "Ġrange": 3710,
      "urch": 3711,
      "Ġà¤¤à¤¹à¤¤": 3712,
      "Ġà¤ħà¤Ĥà¤¤à¤°": 3713,
      "ides": 3714,
      "Ġgrowth": 3715,
      "à¤¯à¥ģà¤ķà¥įà¤¤": 3716,
      "à¥įà¤¯à¤¾à¤Ĥà¤¨à¥Ģ": 3717,
      "Ġneg": 3718,
      "Ġà¤¨à¤¾à¤µ": 3719,
      "Ġà¤µà¥ĥ": 3720,
      "oura": 3721,
      "Ġpaper": 3722,
      "-à¤¬": 3723,
      "à¤¾à¤£à¥ĩ": 3724,
      "Ġchanges": 3725,
      "à¤£à¥įà¤¯à¤¾à¤ļà¥Ģ": 3726,
      "Ġà¤¤à¤¾à¤²": 3727,
      "Ġà¤Ĩà¤°à¥įà¤¥à¤¿à¤ķ": 3728,
      "Ġtypes": 3729,
      "Ġà¤°à¥ģà¤Ĺà¥įà¤£": 3730,
      "à¤Ĺà¤¾à¤°": 3731,
      "Ġbat": 3732,
      "Ġà¤¸à¥įà¤ķà¥Ĥà¤²": 3733,
      "Ġcells": 3734,
      "Ġcy": 3735,
      "ĠMay": 3736,
      "Ġreally": 3737,
      "à¤¾à¤¡à¤¼à¥Ģ": 3738,
      "ĠSoc": 3739,
      "ĠRep": 3740,
      "Ġà¤®à¤¾à¤Ŀ": 3741,
      "--": 3742,
      "Ġà¤¸à¥ģà¤ª": 3743,
      "Ġà¤Ľà¥ĭà¤¡à¤¼": 3744,
      "thing": 3745,
      "à¤£à¥įà¤¡": 3746,
      "Ġthought": 3747,
      "à¤ļà¤¿à¤¤": 3748,
      "Ġdeg": 3749,
      "Ġà¤ĩà¤¸à¤ķà¥Ģ": 3750,
      "Ġà¤¬à¤¾à¤ľà¤¾à¤°": 3751,
      "Ġsitu": 3752,
      "Ġà¤®à¤Ĥà¤¦à¤¿à¤°": 3753,
      "Ġà¤ľà¥Ģà¤¤": 3754,
      "Ġresults": 3755,
      "Ġà¤ħà¤¸à¤Ĥ": 3756,
      "Ġrecogn": 3757,
      "Ġà¤ķà¤¿à¤¨": 3758,
      "Ġà¤¬à¤¡à¤¼à¤¾": 3759,
      "Ġflu": 3760,
      "aring": 3761,
      "ublic": 3762,
      "ĠAss": 3763,
      "Ġfr": 3764,
      "Ġur": 3765,
      "ones": 3766,
      "Ġà¤ªà¤°à¤Ĥà¤¤à¥ģ": 3767,
      "Ġà¤ķà¥ĩà¤²à¥Ģ.": 3768,
      "Ġeither": 3769,
      "verage": 3770,
      "irm": 3771,
      "Ġà¤¬à¤¿à¤²": 3772,
      "ĠMan": 3773,
      "à¤ªà¤¾à¤¸à¥Ĥà¤¨": 3774,
      "Ġà¤¨à¥Į": 3775,
      "val": 3776,
      "à¥įà¤¯à¤¾à¤²à¤¾": 3777,
      "Ġquality": 3778,
      "Ġà¤¬à¤¾à¤Ĥ": 3779,
      "Ġproduction": 3780,
      "ĠAcc": 3781,
      "ĠStates": 3782,
      "à¤¯à¤Ĥ": 3783,
      "Ġsingle": 3784,
      "Ġà¤°à¤¾à¤¶": 3785,
      "ival": 3786,
      "Ġà¤ľà¥ĩ": 3787,
      "Ġà¤ľà¤¿à¤²à¥įà¤¹": 3788,
      "Ġbusiness": 3789,
      "Ġà¤¬à¥Īà¤łà¤ķ": 3790,
      "Ġalready": 3791,
      "ysis": 3792,
      "Ġwind": 3793,
      "ape": 3794,
      "Ġà¤¦à¤¿à¤ı": 3795,
      "à¤³à¥Ģ": 3796,
      "overed": 3797,
      "Ġà¤ľà¤°à¥Ĥà¤°": 3798,
      "Ġà¤µà¤¿à¤Ńà¤¿à¤¨à¥įà¤¨": 3799,
      "à¤µà¤¾à¤¦à¥Ģ": 3800,
      "Ġdiet": 3801,
      "ure.": 3802,
      "Ġneeds": 3803,
      "Ġeffort": 3804,
      "Ġà¤ĸà¥ģà¤¦": 3805,
      "):": 3806,
      "Ġ(M": 3807,
      "Ġevidence": 3808,
      "Ġphot": 3809,
      "ĠNorth": 3810,
      "Ġà¤ħà¤°": 3811,
      "ĠÂ": 3812,
      "iple": 3813,
      "Ġà¤¶à¤°à¥įà¤®": 3814,
      "Ġà¤°à¤¨": 3815,
      "Ġà¤Ńà¥ĩà¤ľ": 3816,
      "ournal": 3817,
      "Ġà¤¸à¤®à¥įà¤®": 3818,
      "Ġoil": 3819,
      "ĠCont": 3820,
      "Ġà¤¹à¥ĭà¤¨à¤¾": 3821,
      "Ġarticle": 3822,
      "Ġà¤°à¥ĩà¤²": 3823,
      "rad": 3824,
      "iting": 3825,
      "iam": 3826,
      "Ġcas": 3827,
      "Ġfall": 3828,
      "à¤Łà¤ķ": 3829,
      "à¥ĩà¤¦à¤¨": 3830,
      "Ġfive": 3831,
      "Ġà¤®à¤Ĥà¤¤à¥įà¤°à¤¾à¤²à¤¯": 3832,
      "Ġreturn": 3833,
      "Ġà¤ħà¤Ĥà¤Ĺ": 3834,
      "Ġothers": 3835,
      "org": 3836,
      "Ġdom": 3837,
      "ule": 3838,
      "Ġmarket": 3839,
      "Ġà¤®à¤§à¥įà¤¯": 3840,
      "wh": 3841,
      "ee": 3842,
      "esc": 3843,
      "Ġaccording": 3844,
      "Ġà¤¸à¥ģà¤°à¤ķà¥įà¤·à¤¾": 3845,
      "à¥įà¤®à¥Ģà¤¦": 3846,
      "Ġmeet": 3847,
      "Ġonce": 3848,
      "Ġnature": 3849,
      "Ġachie": 3850,
      "Ġnational": 3851,
      "à¥ĩà¤ķà¥įà¤·à¤¾": 3852,
      "Ġmedical": 3853,
      "idered": 3854,
      "ations.": 3855,
      "à¥ĭà¤¹": 3856,
      "for": 3857,
      "eb": 3858,
      "Ġcommunity": 3859,
      "omes": 3860,
      "Ġabs": 3861,
      "ĠSouth": 3862,
      "à¥Ĥà¤¬": 3863,
      "à¤ķà¤°à¥Ģ": 3864,
      "Ġwhole": 3865,
      "Ġblack": 3866,
      "ivil": 3867,
      "Ġcollect": 3868,
      "Ġsun": 3869,
      "Ġfrequ": 3870,
      "ai": 3871,
      "Ġà¤¨à¤¿à¤°à¥įà¤¦à¥ĩà¤¶": 3872,
      "Ġtaken": 3873,
      "ĠAct": 3874,
      "Ġà¤¸à¥ģà¤§": 3875,
      "Ġreduce": 3876,
      "Ġà¤ħà¤«": 3877,
      "Ġà¤µà¤ľà¤¹": 3878,
      "Ġà¤ªà¤¶à¥įà¤ļ": 3879,
      "à¤°à¥Ģà¤ľ": 3880,
      "Ġà¤¯à¤¾à¤Ĥà¤ļ": 3881,
      "Ġinit": 3882,
      "Ġtechnology": 3883,
      "Ġtime.": 3884,
      "Ġrate": 3885,
      "à¤°à¤®": 3886,
      "à¤ķà¥įà¤·à¤ķ": 3887,
      "Ġà¤¶à¤¿à¤ķà¥įà¤·à¤¾": 3888,
      "à¥įà¤¹à¥ĭà¤Ĥà¤¨à¥ĩ": 3889,
      "à¥ĥà¤¹": 3890,
      "Ġà¤Ľà¤¾à¤¤à¥įà¤°": 3891,
      "enn": 3892,
      "Ġtime,": 3893,
      "Ġeducation": 3894,
      "Ġà¤ªà¥įà¤°à¤¯à¤¤à¥įà¤¨": 3895,
      "Ġsam": 3896,
      "-à¤ħ": 3897,
      "Ġà¤¤à¤¿à¤ļ": 3898,
      "Ġsource": 3899,
      "à¤¨à¤¾à¤¥": 3900,
      "Ġà¤¯à¥ĩà¤¥à¥ĩ": 3901,
      "Ġà¤ªà¥įà¤°à¤¶à¤¾à¤¸à¤¨": 3902,
      "Ġbuilding": 3903,
      "Ġsurface": 3904,
      "ĠAust": 3905,
      "Ġdetail": 3906,
      "Ġrelig": 3907,
      "à¤¿à¤ķà¥ĩ": 3908,
      "ĠDep": 3909,
      "fact": 3910,
      "ibr": 3911,
      "à¤¿à¤ķà¥Ģ": 3912,
      "Ġred": 3913,
      "Ġà¤¦à¤ķà¥įà¤·": 3914,
      "Ġà¤¶à¥ģà¤ķ": 3915,
      "Ġà¤¯à¤¾à¤¤à¥įà¤°": 3916,
      "Ġcut": 3917,
      "Ġstory": 3918,
      "Ġà¤µà¤¾à¤ªà¤°": 3919,
      "Ġà¤Ĺà¤£": 3920,
      "Ġconcept": 3921,
      "Ġdoct": 3922,
      "à¤¾à¤Ĥà¤®à¤§à¥įà¤¯à¥ĩ": 3923,
      "Ġclimate": 3924,
      "Ġupon": 3925,
      "Ġsent": 3926,
      "Ġanimal": 3927,
      "à¥įà¤ļà¤¿à¤¤": 3928,
      "Ġattack": 3929,
      "Ġà¤ªà¤¾à¤Ĥà¤ļ": 3930,
      "Ġà¤īà¤®à¥įà¤®à¥Ģà¤¦": 3931,
      "à¤®à¥įà¤¬": 3932,
      "Ġà¤«à¥įà¤°": 3933,
      "rect": 3934,
      "Ġà¤ķà¤°à¥ĩà¤Ĥà¥¤": 3935,
      "Ġà¤¸à¥Ĥà¤°": 3936,
      "Ġdrug": 3937,
      "Ġhold": 3938,
      "Ġann": 3939,
      "Ġà¤¨à¤¹à¥Ģ": 3940,
      "ĠYork": 3941,
      "ime": 3942,
      "leep": 3943,
      "Ġpolitical": 3944,
      "Ġthemsel": 3945,
      "Ġà¤®à¤¿à¤²à¥ĩ": 3946,
      "Ġconsidered": 3947,
      "Ġfri": 3948,
      "Ġdest": 3949,
      "Ġtot": 3950,
      "Ġà¤ªà¤Ĥà¤ļ": 3951,
      "Ġà¤ªà¥Ĥà¤Ľ": 3952,
      "à¤²à¥Ģà¤¸": 3953,
      "à¥ĭà¤°à¥Ģ": 3954,
      "Ġà¤¸à¥Ĥà¤ļà¤¨à¤¾": 3955,
      "Ġà¤ªà¤°à¤¿à¤£à¤¾à¤®": 3956,
      "Ġà¤ķà¤¹à¤¤à¥ĩ": 3957,
      "Ġfat": 3958,
      "à¥įà¤°à¤¾à¤®": 3959,
      "Ġcannot": 3960,
      "Ġà¤®à¥ĩà¤°à¥ĩ": 3961,
      "Ġcreated": 3962,
      "Ġhappen": 3963,
      "Ġà¤¬à¤¤à¤¾": 3964,
      "Ġà¤ªà¤ķ": 3965,
      "Ġà¤¯à¤¾à¤µ": 3966,
      "Ġwide": 3967,
      "Ġobserv": 3968,
      "Ġà¤ªà¤¾à¤Ł": 3969,
      "Ġproblems": 3970,
      "Ġdiseas": 3971,
      "Ġà¤ķà¤¹à¤¾,": 3972,
      "fficient": 3973,
      "roll": 3974,
      "Ġà¤¹à¥Ĥà¤Ĥ": 3975,
      "acy": 3976,
      "Ġrecomm": 3977,
      "Ġsoil": 3978,
      "oney": 3979,
      "etimes": 3980,
      "fer": 3981,
      "Ġfeature": 3982,
      "Ġrelated": 3983,
      "Ġ(I": 3984,
      "Ġà¤ķà¤°à¥Ģà¤¬": 3985,
      "Ġà¤«à¤¼": 3986,
      "Ġà¤Ĺà¤Ĥ": 3987,
      "Ġà¤¬à¥Īà¤Ĥà¤ķ": 3988,
      "Ġassociated": 3989,
      "Ġhttp": 3990,
      "Ġfail": 3991,
      "Ġaction": 3992,
      "à¤¾à¤Ĥà¤¬": 3993,
      "Ġà¤²à¥ĩà¤¨à¥ĩ": 3994,
      "Ġà¤ªà¤¾à¤ķà¤¿à¤¸à¥įà¤¤à¤¾à¤¨": 3995,
      "Ġtell": 3996,
      "Ġver": 3997,
      "Ġintrodu": 3998,
      "Ġà¤ħà¤¸à¥įà¤ª": 3999,
      "Ġnetwork": 4000,
      "Ġà¤ľà¤¿à¤¸à¤¸à¥ĩ": 4001,
      "ae": 4002,
      "Ġà¤ķà¤µ": 4003,
      "Ġà¤¬à¤ľ": 4004,
      "Ġhowever,": 4005,
      "Ġcame": 4006,
      "Ġà¤¬à¥įà¤²": 4007,
      "Ġmass": 4008,
      "ĠHist": 4009,
      "Ġlay": 4010,
      "Ġà¤¸à¥Īà¤¨": 4011,
      "c.": 4012,
      "ensive": 4013,
      "reme": 4014,
      "Ġà¤®à¤¾à¤¸": 4015,
      "Ġà¤¨à¥ĩà¤¤à¤¾": 4016,
      "à¤Ńà¤¾à¤Ĺ": 4017,
      "à¤°à¥įà¤¤à¥Ģ": 4018,
      "ires": 4019,
      "ĠSu": 4020,
      "ister": 4021,
      "Ġà¤¦à¥ģà¤¨à¤¿à¤¯à¤¾": 4022,
      "Ġport": 4023,
      "ators": 4024,
      "ĠGu": 4025,
      "Ġeconomic": 4026,
      "Ġpay": 4027,
      "à¤¾à¤Ĥà¤µà¤°": 4028,
      "Ġà¤¤à¤°à¤«": 4029,
      "Ġarg": 4030,
      "Ġà¤®à¥ģà¤¸": 4031,
      "Ġweight": 4032,
      "Ġà¤ķà¤¹à¤¨à¤¾": 4033,
      "Ġadult": 4034,
      "Ġcat": 4035,
      "ĠEarth": 4036,
      "Ġà¤µà¤¹à¤¾à¤Ĥ": 4037,
      "Ġà¤²à¤Ĺà¤Ńà¤Ĺ": 4038,
      "Ġnews": 4039,
      "Ġà¤ĩà¤¸à¥įà¤¤": 4040,
      "Ġà¤¸à¤Ĥà¤¸à¥įà¤¥": 4041,
      "Ġà¤Ĩà¤²à¤¾": 4042,
      "rown": 4043,
      "Ġways": 4044,
      "Ġsound": 4045,
      "Ġsimple": 4046,
      "Ġà¤®à¥ģà¤¤": 4047,
      "Ġà¤ķà¤°à¤£à¥įà¤¯à¤¾à¤¸à¤¾à¤łà¥Ģ": 4048,
      "Ġdeveloped": 4049,
      "à¤µà¤°à¥Ģ": 4050,
      "epend": 4051,
      "\".": 4052,
      "à¤¸à¤¾à¤łà¥Ģ": 4053,
      "eter": 4054,
      "reg": 4055,
      "ĠMany": 4056,
      "Ġà¤¯à¤¹à¥Ģ": 4057,
      "ĠPe": 4058,
      "à¥įà¤°à¤¿à¤¯": 4059,
      "Ġà¤¸à¤®à¤¾à¤¨": 4060,
      "Ġitself": 4061,
      "Ġà¤¤à¥ĩà¤µ": 4062,
      "ally,": 4063,
      "Ġthing": 4064,
      "Ġà¤®à¥Įà¤¤": 4065,
      "abit": 4066,
      "ober": 4067,
      "Ġrequired": 4068,
      "Ġeffects": 4069,
      "Ġconcern": 4070,
      "SA": 4071,
      "Ġpatients": 4072,
      "Ġopportun": 4073,
      "Ġactually": 4074,
      "ĠEm": 4075,
      "Ġrepl": 4076,
      "à¤¬à¤¹": 4077,
      "à¤¾à¤¬à¤¤": 4078,
      "Ġà¤µà¤¿à¤¦à¥įà¤¯à¤¾à¤°à¥įà¤¥": 4079,
      "ĠHis": 4080,
      "ification": 4081,
      "Ġstudies": 4082,
      "Ġà¤¹à¥ĭà¤Ĭ": 4083,
      "Ġdays": 4084,
      "Ġà¤ļà¤¾à¤Ĥà¤Ĺ": 4085,
      "à¤¿à¤ķà¥įà¤¤": 4086,
      "Ġrelationship": 4087,
      "sequ": 4088,
      "Ġentire": 4089,
      "aves": 4090,
      "Ġpublished": 4091,
      "Ġaddress": 4092,
      "Ġà¤¯à¥Ĥ": 4093,
      "à¤µà¤¿à¤¦": 4094,
      "Ġcomplex": 4095,
      "Ġà¤ªà¥ģà¤°à¥ģà¤·": 4096,
      "à¥ģà¤°à¥Ģ": 4097,
      "à¤¾à¤®à¤§à¥įà¤¯à¥ĩ": 4098,
      "Ġability": 4099,
      "Ġà¤ªà¥ĩà¤¶": 4100,
      "Ġà¤ħà¤¸à¤²à¥ĩà¤²à¥įà¤¯à¤¾": 4101,
      "Ġà¤ľà¤¿à¤²à¥ĩ": 4102,
      "Ġtalk": 4103,
      "Ġà¤ķà¥ĩà¤²à¥ĩ.": 4104,
      "Ġà¤¨à¤ı": 4105,
      "Ġà¤µà¤°à¥įà¤Ĺ": 4106,
      "Ġà¤ķà¥ĭà¤°à¥įà¤Ł": 4107,
      "à¤ļà¤¨": 4108,
      "itud": 4109,
      "Ġavoid": 4110,
      "ison": 4111,
      "Ġà¤Ĺà¤¾à¤Ĥà¤§à¥Ģ": 4112,
      "à¤¾à¤ĩà¤¡": 4113,
      "Ġà¤®à¤Ĥà¤¡": 4114,
      "Ġà¤¨à¥ģà¤ķ": 4115,
      "Ġà¤ħà¤ĸ": 4116,
      "Ġstrateg": 4117,
      "à¤ļà¤¾à¤¨": 4118,
      "Ġglobal": 4119,
      "âĢ¦": 4120,
      "Ġalmost": 4121,
      "Ġrecent": 4122,
      "Ġquick": 4123,
      "ystem": 4124,
      "Ġregard": 4125,
      "ĠState": 4126,
      "Ġà¤¨à¤¾à¤°": 4127,
      "or.": 4128,
      "Ġà¤ķà¥ĭà¤¶": 4129,
      "Ġmanagement": 4130,
      "o-": 4131,
      "Ġà¤ªà¤¹à¤²à¥Ģ": 4132,
      "Ġà¤µà¥įà¤¯à¤µà¤¸à¥įà¤¥à¤¾": 4133,
      "Ġà¤¯à¥Ĥà¤¨": 4134,
      "Ġexerc": 4135,
      "Ġà¤Ńà¤Ĺà¤µà¤¾à¤¨": 4136,
      "à¤¡à¤¾": 4137,
      "à¤µà¤¿à¤·": 4138,
      "erve": 4139,
      "Ġà¤®à¤¿à¤¶": 4140,
      "Ġwebs": 4141,
      "Ġà¤łà¤¾à¤ķ": 4142,
      "à¤Łà¤¾": 4143,
      "Ġà¤®à¥ģà¤¤à¤¾à¤¬": 4144,
      "Ġà¤¬à¤ļà¥įà¤ļà¥ĭà¤Ĥ": 4145,
      "ance.": 4146,
      "Ġliving": 4147,
      "Ġà¤ĸà¤°à¥Ģ": 4148,
      "Ġfarm": 4149,
      "Ġà¤¬à¥ĭà¤°à¥įà¤¡": 4150,
      "hib": 4151,
      "en,": 4152,
      "Ġà¤ªà¥įà¤°à¤¦à¤¾à¤¨": 4153,
      "Ġfish": 4154,
      "Ġgas": 4155,
      "à¥ĩà¤¯": 4156,
      "uel": 4157,
      "Ġresearchers": 4158,
      "Ġà¤®à¥ģà¤¤à¤¾à¤¬à¤¿à¤ķ": 4159,
      "à¥Ĥà¤¹": 4160,
      "Ġcentur": 4161,
      "Ġà¤¸à¤¨": 4162,
      "à¤¾à¤ľà¤¿à¤ķ": 4163,
      "Ġkill": 4164,
      "Ġdoc": 4165,
      "Ġà¤¤à¤¾à¤ķ": 4166,
      "Ġà¤¦à¤²": 4167,
      "yle": 4168,
      "Ġà¤¸à¤¾à¤ĩ": 4169,
      "à¤²à¥įà¤ª": 4170,
      "Ġà¤¦à¥ĩà¤ĸà¥Ģà¤²": 4171,
      "Ġfire": 4172,
      "Ġpurp": 4173,
      "ĠâĢľI": 4174,
      "Ġà¤¬à¤¿à¤¨à¤¾": 4175,
      "itary": 4176,
      "Ġjob": 4177,
      "t,": 4178,
      "Ġtook": 4179,
      "Ġcomes": 4180,
      "Ġà¤°à¥ĭà¤ķ": 4181,
      "Ġprovides": 4182,
      "Ġà¤¸à¤¾à¤Ĥà¤¸": 4183,
      "à¤Ĥà¤Ń": 4184,
      "Ġvalue": 4185,
      "Ġà¤ħà¤¥": 4186,
      "à¥Ģà¤ª": 4187,
      "Ġhalf": 4188,
      "al,": 4189,
      "Ġengine": 4190,
      "Ġansw": 4191,
      "Ġsuper": 4192,
      "Ġter": 4193,
      "stry": 4194,
      "ands": 4195,
      "Ġà¤¸à¤ķà¥ĩ": 4196,
      "Ġà¤²à¤¾à¤µ": 4197,
      "Ġpriv": 4198,
      "Ġprote": 4199,
      "Ġà¤ľà¤¿à¤²à¤¾": 4200,
      "Ġà¤Ĺà¤¾à¤µ": 4201,
      "Ġvers": 4202,
      "à¥įà¤¯à¤¾à¤²à¤¯": 4203,
      "Ġbar": 4204,
      "Ġcity": 4205,
      "son": 4206,
      "Ġmodern": 4207,
      "Ġnecessary": 4208,
      "Ġbehavior": 4209,
      "Ġmeasure": 4210,
      "à¤ľà¥įà¤ŀà¤¾à¤¨": 4211,
      "à¤°à¤¨": 4212,
      "Ġà¤ªà¥ĭà¤¸à¥įà¤Ł": 4213,
      "gest": 4214,
      "Ġclaim": 4215,
      "Ġà¤Ĺà¥įà¤°à¤¾à¤®": 4216,
      "Ġsystems": 4217,
      "à¤µà¤¿à¤£": 4218,
      "Ġà¤µà¤¾à¤¸à¥įà¤¤": 4219,
      "à¤¿à¤¨à¥Ģ": 4220,
      "Ġà¤¸à¥įà¤¤à¤°": 4221,
      "à¤®à¥ģ": 4222,
      "ĠMore": 4223,
      "Ġà¤¦à¤ķà¥įà¤·à¤¿à¤£": 4224,
      "by": 4225,
      "à¤Łà¤¨": 4226,
      "Ġincreased": 4227,
      "Ġà¤¶à¥ĭ": 4228,
      "Ġà¤ħà¤¸à¥įà¤ªà¤¤à¤¾à¤²": 4229,
      "Ġà¤¯à¤¾à¤ļ": 4230,
      "Ġà¤¸à¤®à¤°à¥įà¤¥": 4231,
      "chan": 4232,
      "à¤ıà¤¨": 4233,
      "Ġà¤ķà¤¿à¤²": 4234,
      "à¥īà¤ª": 4235,
      "à¤°à¤¾à¤¬": 4236,
      "ript": 4237,
      "à¤Ńà¥Ģà¤°": 4238,
      "gar": 4239,
      "à¥īà¤Ł": 4240,
      "vere": 4241,
      "Ġmor": 4242,
      "Ġà¤¯à¤¾à¤¦à¤µ": 4243,
      "Ġà¤¤à¥įà¤¯à¤¾à¤ļ": 4244,
      "Ġgreen": 4245,
      "Ġà¤ķà¤¬": 4246,
      "à¤¿à¤¤à¥įà¤µ": 4247,
      "à¤¾à¤¤à¥į": 4248,
      "à¤ªà¤°à¥įà¤¯à¤Ĥà¤¤": 4249,
      "à¤µà¤¤": 4250,
      "light": 4251,
      "Ġà¤¦à¥Ĥà¤¸à¤°à¥Ģ": 4252,
      "Ġbill": 4253,
      ",\"": 4254,
      "Ġcheck": 4255,
      "ĠâĢ¢": 4256,
      "Ġà¤¸à¥ģà¤ĸ": 4257,
      "artment": 4258,
      "Ġcancer": 4259,
      "ĠMost": 4260,
      "Ġà¤§à¥ĭ": 4261,
      "à¤¯à¤¾à¤¨": 4262,
      "Ġà¤ķà¥Īà¤¸à¥ĩ": 4263,
      "à¤¥à¤®": 4264,
      "Ġà¤²à¤¾à¤²": 4265,
      "Ġcoll": 4266,
      "ĠInstit": 4267,
      "oon": 4268,
      "Ġsuff": 4269,
      "Ġdone": 4270,
      "Ġà¤¹à¤¾à¤°": 4271,
      "Ġà¤¹à¤®à¥ĩà¤Ĥ": 4272,
      "Ġever": 4273,
      "à¥ĭà¤Ĥ,": 4274,
      "à¤¾à¤¯à¤²": 4275,
      "Ġà¤łà¤¿à¤ķ": 4276,
      "Ġbegan": 4277,
      "Ġ--": 4278,
      "Ġpatient": 4279,
      "Ġà¤ļà¤¿à¤ķ": 4280,
      "à¤¿à¤¹à¤¾à¤°": 4281,
      "Ġà¤¤à¥įà¤¯à¤¾à¤²à¤¾": 4282,
      "à¤Ĥà¥¤": 4283,
      "Ġcompan": 4284,
      "urity": 4285,
      "Ġessential": 4286,
      "Ġwhite": 4287,
      "Ġarch": 4288,
      "à¤¾à¤¸à¥įà¤¤à¥įà¤°": 4289,
      "Ġà¤¦à¥ĩà¤ĸà¤¾": 4290,
      "Ġà¤ĸà¥ĩà¤³": 4291,
      "inter": 4292,
      "Ġà¤¸à¤Ĥà¤¬à¤Ĥà¤§à¤¿à¤¤": 4293,
      "osis": 4294,
      "Ġunderstanding": 4295,
      "oll": 4296,
      "Ġmatter": 4297,
      "Ġpath": 4298,
      "Ġà¤«à¥ĭà¤Ł": 4299,
      "Ġà¤Ĩà¤°à¥ĭà¤ªà¥Ģ": 4300,
      "Ġà¤ªà¥ĭà¤²à¥Ģà¤¸": 4301,
      "Ġreact": 4302,
      "Ġcop": 4303,
      "Ġarr": 4304,
      "Ġapproach": 4305,
      "Ġà¤ľà¤²à¥įà¤¦": 4306,
      "Ġconduct": 4307,
      "Ġassess": 4308,
      "Ġà¤¸à¤®à¤¿à¤¤": 4309,
      "à¤¾à¤°à¤ĸ": 4310,
      "ĠII": 4311,
      "Ġpattern": 4312,
      "umb": 4313,
      "age.": 4314,
      "Ġposition": 4315,
      "i-": 4316,
      "à¤°à¤²": 4317,
      "Ġà¤¸à¤¾à¤®à¤¾à¤¨à¥įà¤¯": 4318,
      "ĠJew": 4319,
      "ĠApp": 4320,
      "Ġà¤ªà¥įà¤°à¥ĭ": 4321,
      "Ġà¤¸à¤Ĥà¤ļà¤¾à¤²": 4322,
      "Ġà¤¬à¥Ģà¤ľ": 4323,
      "Ġà¤ªà¤Ĥà¤ľ": 4324,
      "Ġnam": 4325,
      "Ġà¤®à¤²à¤¾": 4326,
      "ĠAlthough": 4327,
      "Ġà¤ªà¥įà¤°à¤¦à¤°à¥įà¤¶à¤¨": 4328,
      "ots": 4329,
      "à¤£à¤¾à¤±à¥įà¤¯à¤¾": 4330,
      "Ġloss": 4331,
      "Ġproduce": 4332,
      "PA": 4333,
      "Ġà¤¹à¥ĭà¤Ĺà¥Ģà¥¤": 4334,
      "Ġà¤īà¤²à¥įà¤²": 4335,
      "Ġà¤ķà¤¾à¤°à¥įà¤¯à¤¾à¤²à¤¯": 4336,
      "n't": 4337,
      "Ġlat": 4338,
      "Ġmembers": 4339,
      "Ġtherap": 4340,
      "Ġà¤¹à¤¿à¤¨à¥įà¤¦": 4341,
      "Ġà¤ªà¤¤à¥įà¤¨": 4342,
      "à¥ĭà¤ľà¤¿à¤¤": 4343,
      "Ġà¤¹à¤¿à¤Ĥà¤¦": 4344,
      "Ġà¤°à¤¾à¤ľà¤¨à¥Ģ": 4345,
      "ĠResearch": 4346,
      "Ġyet": 4347,
      "Ġà¤īà¤¸à¥Ģ": 4348,
      "à¥Ģà¤ļà¤¾": 4349,
      "Ġanc": 4350,
      "Ġwords": 4351,
      "ĠHere": 4352,
      "Ġà¤ĭ": 4353,
      "Ġà¤µà¤¾à¤¯à¤°": 4354,
      "Ġà¤Łà¤ķà¥įà¤ķ": 4355,
      "ID": 4356,
      "à¤¾à¤³à¥Ģ": 4357,
      "Ġà¤¹à¥ĭà¤ķà¤°": 4358,
      "Ġà¤ķà¤°à¥Ĥ": 4359,
      "be": 4360,
      "Ġà¤¨à¤Ī": 4361,
      "Ġà¤µà¤¿à¤¶à¥įà¤µà¤¾à¤¸": 4362,
      "Ġsense": 4363,
      "Ġà¤°à¥ĭà¤Ĺ": 4364,
      "à¤ľà¥įà¤ľ": 4365,
      "Ġà¤¸à¥ĭà¤®": 4366,
      "ĠCo": 4367,
      "empt": 4368,
      "Ġprinc": 4369,
      "ery": 4370,
      "ply": 4371,
      "à¤¿à¤¨à¤¿à¤§": 4372,
      "Ġà¤ĩà¤¤à¤°": 4373,
      "Ġchemical": 4374,
      "Ġsymptoms": 4375,
      "Ġstop": 4376,
      "Ġge": 4377,
      "Ġà¤«à¥ĭà¤¨": 4378,
      "Ġthroughout": 4379,
      "Ġplants": 4380,
      "Ġcontent": 4381,
      "Ġpopular": 4382,
      "ĠPr": 4383,
      "iment": 4384,
      "ĠBritish": 4385,
      "ĠSec": 4386,
      "Ġcamp": 4387,
      "à¥ģà¤·à¥įà¤¯": 4388,
      "Ġà¤§à¤¾à¤°": 4389,
      "à¤°à¥įà¤Ĺà¤¤": 4390,
      "Ġrul": 4391,
      "Ġà¤¯à¥ĩà¤¥à¥Ģà¤²": 4392,
      "Ġà¤¸à¤Ĥà¤Ń": 4393,
      "ĠMin": 4394,
      "Ġmedic": 4395,
      "Ġà¤µà¤¿à¤§à¤¾à¤¨à¤¸à¤Ńà¤¾": 4396,
      "cy": 4397,
      "duc": 4398,
      "Ġsepar": 4399,
      "Ġà¤¹à¤¿à¤Ĥ": 4400,
      "Ġworks": 4401,
      "Ġliter": 4402,
      "lying": 4403,
      "Ġdog": 4404,
      "Ġà¤łà¥Ģà¤ķ": 4405,
      "Ġà¤¸à¤Ĥà¤°": 4406,
      "Ġà¤ªà¥įà¤°à¤§à¤¾à¤¨à¤®à¤Ĥà¤¤à¥įà¤°à¥Ģ": 4407,
      "Ġà¤«à¤¾à¤¯": 4408,
      "à¤ķà¤¾à¤²": 4409,
      "Ġà¤¨à¤¿à¤µà¤¡à¤£": 4410,
      "Ġà¤ĸà¤¤": 4411,
      "Ġà¤¶à¤¾à¤¸à¤¨": 4412,
      "ĠSchool": 4413,
      "Ġà¤¯à¤¾à¤Ĥà¤¨à¤¾": 4414,
      "Ġà¤ªà¥įà¤°à¤µà¥ĩà¤¶": 4415,
      "Ġà¤¸à¤¾à¤®à¤¾à¤ľà¤¿à¤ķ": 4416,
      "Ġà¤ªà¥Ĥà¤°à¥ĩ": 4417,
      "het": 4418,
      "Ġà¤Ĺà¤¯à¥ĩ": 4419,
      "Ġskin": 4420,
      "ine,": 4421,
      "hold": 4422,
      "Ġsoft": 4423,
      "Ġtar": 4424,
      "Ġut": 4425,
      "Ġà¤ªà¤°à¥Ģà¤ķà¥įà¤·à¤¾": 4426,
      "Ġà¤µà¤¿à¤®": 4427,
      "ĠCanad": 4428,
      "Ġà¤ħà¤ļà¥įà¤Ľà¤¾": 4429,
      "Ġà¤¦à¥ĩà¤ĸà¤¨à¥ĩ": 4430,
      "à¥Ģà¤Ł": 4431,
      "ks": 4432,
      "Ġemer": 4433,
      "Ġconditions": 4434,
      "Ġà¤ªà¤°à¤¿à¤µ": 4435,
      "Ġà¤«à¥Īà¤¸": 4436,
      "Ġà¤Ĺà¤ıà¥¤": 4437,
      "à¤¾à¤¸à¥Ĥà¤¨": 4438,
      "Ġà¥¤à¥¤": 4439,
      "Ġà¤µà¤¿à¤µà¤¿à¤§": 4440,
      "à¤²à¥ĩà¤²à¥ĩ": 4441,
      "Ġà¤ĸà¤¬à¤°": 4442,
      "à¥ĭà¤µ": 4443,
      "igure": 4444,
      "Ġonline": 4445,
      "à¤¨à¥Ģà¤¯": 4446,
      "emic": 4447,
      "Ġfeed": 4448,
      "iddle": 4449,
      "Ġà¤ħà¤¡": 4450,
      "ĠJap": 4451,
      "à¥ģà¤ĵà¤Ĥ": 4452,
      "Ġà¤¯à¥ĭà¤Ĺà¥įà¤¯": 4453,
      "urs": 4454,
      "ĠPre": 4455,
      "ronic": 4456,
      "Ġà¤¸à¤¿": 4457,
      "Ġà¤¥à¥ĩ,": 4458,
      "Ġprevious": 4459,
      "à¤Ĥ,": 4460,
      "ations,": 4461,
      "à¥Īà¤ķ": 4462,
      "Ġtaking": 4463,
      "ederal": 4464,
      "to": 4465,
      "à¤ªà¥Ĥà¤°à¥įà¤µ": 4466,
      "ney": 4467,
      "Ġpersonal": 4468,
      "t.": 4469,
      "ĠDr.": 4470,
      "Ġà¤¡à¥Ģ": 4471,
      "Ġà¤¸à¥ģà¤µà¤¿à¤§": 4472,
      "Ġremain": 4473,
      "Ġcountries": 4474,
      "à¤¸à¤¾à¤¨": 4475,
      "Ġà¤¸à¤®à¥ģà¤¦": 4476,
      "Ġà¤¤à¥ĩà¤²": 4477,
      "Ġheat": 4478,
      "Ġà¤Ĺà¤°": 4479,
      "Ġà¤ľà¤¯": 4480,
      "estern": 4481,
      "à¤°à¥įà¤ª": 4482,
      "Ġà¤¡à¥īà¤ķà¥įà¤Łà¤°": 4483,
      "Ġp.": 4484,
      "Ġà¤ļà¥ģà¤ķà¥Ģ": 4485,
      "Ġà¤¡à¤¾à¤²": 4486,
      "ges": 4487,
      "onse": 4488,
      "Ġà¤ħà¤¨à¥ģà¤®": 4489,
      "Ġà¤¸à¤«à¤²": 4490,
      "Ġà¤¶à¤¾à¤¦à¥Ģ": 4491,
      "pid": 4492,
      "Ġsix": 4493,
      "ĠOther": 4494,
      "à¤łà¤¨": 4495,
      "Ġà¤¨à¤µà¥įà¤¹": 4496,
      "ricult": 4497,
      "aged": 4498,
      "Ġla": 4499,
      "à¤¹à¤¾à¤¨": 4500,
      "Ġà¤²à¤¾à¤ĩ": 4501,
      "Ġà¤ħà¤¨à¥įà¤¤": 4502,
      "abor": 4503,
      "à¤ķà¤Ł": 4504,
      "Ġà¤Ĺà¥ģà¤°à¥ģ": 4505,
      "Ġà¤®à¤¾à¤Ĥ": 4506,
      "Ġà¤Ĺà¤Ĥà¤Ńà¥Ģà¤°": 4507,
      "Ġà¤ªà¥ĩà¤Ł": 4508,
      "minist": 4509,
      "Ġà¤ªà¥įà¤°à¤¯à¥ĭà¤Ĺ": 4510,
      "ES": 4511,
      "ĠInt": 4512,
      "Ġdisord": 4513,
      "Ġincreasing": 4514,
      "Ã©": 4515,
      "Ġà¤¤à¤¯à¤¾à¤°": 4516,
      "à¤¾à¤ķà¤¾à¤°": 4517,
      "ĠPer": 4518,
      "Ġindustry": 4519,
      "Ġà¤¹à¥ĭà¤£à¤¾à¤°": 4520,
      "à¤¾à¤¤à¤¾à¤°": 4521,
      "astic": 4522,
      "go": 4523,
      "ards": 4524,
      "AT": 4525,
      "Ġà¤¦à¥Į": 4526,
      "Ġà¤¸à¤¿à¤°à¥įà¤«": 4527,
      "Ġinteract": 4528,
      "ley": 4529,
      "Ġà¤¸à¤°à¤ķà¤¾à¤°à¥Ģ": 4530,
      "ĠYour": 4531,
      "à¥ĭà¤®": 4532,
      "izing": 4533,
      "Ġà¤ĸà¤°à¥įà¤ļ": 4534,
      "Ġidea": 4535,
      "ran": 4536,
      "Ġà¤¹à¤²": 4537,
      "abet": 4538,
      "Ġà¤ªà¥ģà¤£": 4539,
      "mb": 4540,
      "Ġà¤ħà¤ķ": 4541,
      "ĠFl": 4542,
      "Ġà¤ĩà¤ļà¥įà¤Ľ": 4543,
      "à¤Ĺà¤¾à¤µ": 4544,
      "Ġbuilt": 4545,
      "Ġà¤µà¤°à¥įà¤¤": 4546,
      "Ġbur": 4547,
      "Ġimag": 4548,
      "Ġà¤ļà¥ģà¤ķà¥ĩ": 4549,
      "Ġà¤ĸà¥ĩ": 4550,
      "Ġà¤Ĺà¥ĩà¤Ĥà¤¦": 4551,
      "Ġvide": 4552,
      "Ġà¤¨à¥įà¤¯à¤¾à¤¯à¤¾à¤²à¤¯": 4553,
      "Ġà¤ªà¥Ģà¤Ľ": 4554,
      "ety": 4555,
      "Ġbreak": 4556,
      "Ġà¤¥à¥Ģ,": 4557,
      "à¥įà¤®à¤¿à¤ķ": 4558,
      "Ġà¤ķà¥ĩà¤Ĥà¤¦": 4559,
      "Ġheav": 4560,
      "Ġà¤Łà¥ĩà¤¸à¥įà¤Ł": 4561,
      "Ġà¤ħà¤¸à¤²à¥įà¤¯à¤¾à¤ļà¥ĩ": 4562,
      "oor": 4563,
      "Ġà¤µà¥ĩà¤¬": 4564,
      "Ġbring": 4565,
      "Ġ(N": 4566,
      "Ġinj": 4567,
      "ĠGerman": 4568,
      "ĠQu": 4569,
      "aff": 4570,
      "à¤ķ,": 4571,
      "inary": 4572,
      "Ġà¤®à¤¾à¤¨à¤¾": 4573,
      "Ġdeb": 4574,
      "Ġà¤¨à¤¿à¤®": 4575,
      "ĠâĢľThe": 4576,
      "Ġà¤ªà¥įà¤°à¤ķà¥įà¤°à¤¿à¤¯à¤¾": 4577,
      "ging": 4578,
      "ables": 4579,
      "à¤¹à¤¿à¤¤": 4580,
      "lt": 4581,
      "Ġhealthy": 4582,
      "raft": 4583,
      "Ġà¤®à¤¹à¥Ģà¤¨à¥ĩ": 4584,
      "ĠAccording": 4585,
      "Ġà¤¬à¤¿à¤ľ": 4586,
      "Ġà¤¡à¥įà¤°": 4587,
      "Ġexc": 4588,
      "reng": 4589,
      "Ġà¤«à¤²": 4590,
      "Ġcontact": 4591,
      "Ġsex": 4592,
      "s)": 4593,
      "Ġsurv": 4594,
      "Ġsleep": 4595,
      "Ġà¤¤à¥įà¤¯à¤¾à¤¤": 4596,
      "Ġà¤¸à¤¹à¤¿à¤¤": 4597,
      "irth": 4598,
      "Ġà¤ķà¤¦": 4599,
      "Ġà¤¸à¥įà¤µà¤¤à¤ĥ": 4600,
      "à¤¾à¤¡à¥Ģ": 4601,
      "Ġsite": 4602,
      "Ġà¤¤à¥įà¤¯à¤¾à¤ļà¥įà¤¯à¤¾": 4603,
      "Ġenvironmental": 4604,
      "plic": 4605,
      "Ġà¤ªà¤¦à¤¾à¤°": 4606,
      "Ġaccept": 4607,
      "Ġce": 4608,
      "Ġtotal": 4609,
      "Ġà¤Ńà¥Ĥà¤®à¤¿à¤ķà¤¾": 4610,
      "ropri": 4611,
      "-based": 4612,
      "Ġà¤ĺà¤¡": 4613,
      "à¤Ĺà¥įà¤°à¥ĩà¤¸": 4614,
      "Ġà¤®à¤²": 4615,
      "Ġà¤¶à¤¾à¤¹": 4616,
      "ites": 4617,
      "Ġà¤ľà¤¿à¤¸à¥ĩ": 4618,
      "Ġà¤®à¤¾à¤°à¥įà¤ļ": 4619,
      "Ġeat": 4620,
      "Ġà¤ªà¥įà¤°à¤Ń": 4621,
      "Ġà¤°à¤¾à¤¹à¥ģà¤²": 4622,
      "Ġà¤¸à¤µà¤¾à¤²": 4623,
      "à¤®à¤°": 4624,
      "Ġviol": 4625,
      "Ġà¤Ĺà¥ĭà¤·à¥įà¤Ł": 4626,
      "Ġcaused": 4627,
      "Ġà¤ķà¤¾à¤ģ": 4628,
      "Ġquestions": 4629,
      "Ġà¤¬à¤ľà¥ĩ": 4630,
      "Ġbird": 4631,
      "Ġblock": 4632,
      "Ġlove": 4633,
      "hing": 4634,
      "Ġrev": 4635,
      "ĠComp": 4636,
      "irit": 4637,
      "osition": 4638,
      "Ġà¤ħà¤Ńà¤¿à¤¯": 4639,
      "Ġà¤¹à¥Ĥà¤ģ": 4640,
      "Ġà¤¯à¥ģà¤¦à¥įà¤§": 4641,
      "Ġà¤ľà¥Ĥà¤¨": 4642,
      "ĠRec": 4643,
      "ume": 4644,
      "Ġà¤µà¤¿à¤ľà¤¯": 4645,
      "Ġà¤ĩà¤Ĥà¤Ĺ": 4646,
      "Ġà¤¦à¥ĩà¤¤à¤¾": 4647,
      "Ġactivity": 4648,
      "Ġpric": 4649,
      "Ġà¤°à¤ĸà¤¾": 4650,
      "ĠPart": 4651,
      "uck": 4652,
      "Ġà¤¤à¤²": 4653,
      "ĠEd": 4654,
      "Ġshown": 4655,
      "ĠStat": 4656,
      "à¤ªà¥Ĥà¤°": 4657,
      "Ġà¤¬à¤¾à¤Ĥà¤§": 4658,
      "Ġà¤ķà¥ĩà¤²à¤¾.": 4659,
      "ched": 4660,
      "Ġà¤²à¤Ĺà¤¾à¤¤à¤¾à¤°": 4661,
      "Ġstress": 4662,
      "mon": 4663,
      "Ġà¤īà¤¦à¥įà¤¦": 4664,
      "Ġà¤¨à¤¾": 4665,
      "à¤ªà¥įà¤ª": 4666,
      "Ġà¤¥à¥ĭ": 4667,
      "Ġà¤ĩà¤¤à¤¿à¤¹à¤¾à¤¸": 4668,
      "anced": 4669,
      "w.": 4670,
      "Ġtravel": 4671,
      "Ġgroups": 4672,
      "Ġmusic": 4673,
      "à¤¤à¤Ĥà¤¤à¥įà¤°": 4674,
      "Ġà¤¸à¤®à¤¸à¥įà¤¯à¤¾": 4675,
      "Ġpositive": 4676,
      "Ġà¤¬à¤¨à¤¾à¤¯à¤¾": 4677,
      "Ġdiagn": 4678,
      "Ġincludes": 4679,
      "Ġsaid.": 4680,
      "Ġsat": 4681,
      "Ġà¤«à¤¾à¤°": 4682,
      "Ġà¤ķà¥ĩà¤Ĥà¤¦à¥įà¤°à¥Ģà¤¯": 4683,
      "à¤¾à¤ķà¥ĩ": 4684,
      "Ġà¤ķà¤°à¥įà¤®à¤ļ": 4685,
      "Ġà¤µà¤¿à¤ª": 4686,
      "Ġà¤¡à¤¿à¤ľ": 4687,
      "à¤¾à¤Ĥà¤¸à¤¾à¤łà¥Ģ": 4688,
      "Ġshows": 4689,
      "Ġresources": 4690,
      "à¤µà¥Ĥà¤¨": 4691,
      "Ġà¤¹à¥ĭà¤Ī": 4692,
      "ĠWill": 4693,
      "Ġvari": 4694,
      "Ġbelieve": 4695,
      "ruit": 4696,
      "Ġà¤ªà¤¸": 4697,
      "ediate": 4698,
      "Ġà¤ªà¤¤à¥įà¤¨à¥Ģ": 4699,
      "Ġlack": 4700,
      "ate,": 4701,
      "AR": 4702,
      "Ġà¤ªà¥ĥ": 4703,
      "à¥Ģà¤ļà¥Ģ": 4704,
      "hood": 4705,
      "Ġoriginal": 4706,
      "erous": 4707,
      "ips": 4708,
      "à¥ĭà¤²à¤¨": 4709,
      "Ġà¤ķà¤Ł": 4710,
      "ĠCons": 4711,
      "Ġà¤¸à¥Ģà¤Ł": 4712,
      "Ġrelative": 4713,
      "Ġdesigned": 4714,
      "à¥ĭ,": 4715,
      "à¤¾à¤°à¥įà¤Ł": 4716,
      "ĠNot": 4717,
      "Ġà¤ļà¥Ģà¤¨": 4718,
      "ucle": 4719,
      "à¤®à¤¤à¤¾": 4720,
      "à¤¾à¤¯à¥Ģ": 4721,
      "Ġà¤ıà¤²": 4722,
      "Ġthreat": 4723,
      "ban": 4724,
      "room": 4725,
      "Ġearth": 4726,
      "à¤Ĥà¤¶": 4727,
      "Ġà¤īà¤¦à¥įà¤¯": 4728,
      "Ġple": 4729,
      "Ġà¤ªà¤¾à¤µ": 4730,
      "Ġregular": 4731,
      "aving": 4732,
      "à¤¿à¤°à¤¿à¤ķà¥įà¤¤": 4733,
      "Ġà¤®à¥ģà¤¦à¥įà¤¦": 4734,
      "Ġmach": 4735,
      "Ġpressure": 4736,
      "Ġ(B": 4737,
      "ĠFrom": 4738,
      "Ġste": 4739,
      "Ġfem": 4740,
      "Ġà¤®à¥Įà¤ľà¥Ĥà¤¦": 4741,
      "Ġtechnolog": 4742,
      "ħà¤°": 4743,
      "Ġà¤Ńà¤¾à¤·à¤¾": 4744,
      "Ġpoll": 4745,
      "Ġprovided": 4746,
      "Ġspread": 4747,
      "Ġled": 4748,
      "Ġclean": 4749,
      "Ġprec": 4750,
      "Ġà¤®à¤¹à¤¿à¤¨": 4751,
      "Ġgreater": 4752,
      "ĠScience": 4753,
      "Ġparts": 4754,
      "rior": 4755,
      "à¤ªà¤¤à¤¿": 4756,
      "Ġà¤®à¤¿à¤¨": 4757,
      "Ġà¤°à¤¸": 4758,
      "Ġcolor": 4759,
      "ĠAustral": 4760,
      "Ġrights": 4761,
      "Ġsubst": 4762,
      "à¤¸à¥įà¤Łà¥įà¤°": 4763,
      "ĠEduc": 4764,
      "://": 4765,
      "Ġslow": 4766,
      "ĠOf": 4767,
      "Ġà¤¤à¥Įà¤°": 4768,
      "Ġà¤Ĭà¤ªà¤°": 4769,
      "à¥įà¤ķà¤¿": 4770,
      "Ġrespect": 4771,
      "Ġbacter": 4772,
      "Ġmicro": 4773,
      "Ġà¤Ĺà¤¿à¤°à¤«à¥įà¤¤": 4774,
      "new": 4775,
      "Ġà¤¸à¤¿à¤¨": 4776,
      "à¤²à¥Ģà¤µ": 4777,
      "à¤¡à¤¼à¤ķ": 4778,
      "Ġactive": 4779,
      "Ġanalysis": 4780,
      "ĠCO": 4781,
      "Ġà¤ļà¤¾à¤¹à¤¤à¥ĩ": 4782,
      "Ġà¤ħà¤°à¥įà¤ľ": 4783,
      "-w": 4784,
      "Ġaverage": 4785,
      "Ġmeaning": 4786,
      "ay,": 4787,
      "Ġtarget": 4788,
      "à¤¤à¤ķ": 4789,
      "Ġà¤¨à¤µà¥Ģà¤¨": 4790,
      "ief": 4791,
      "à¤¹à¥įà¤®": 4792,
      "Ġà¤¤à¥ģà¤²": 4793,
      "rast": 4794,
      "iction": 4795,
      "ĠJapan": 4796,
      "ma": 4797,
      "à¥īà¤¡": 4798,
      "Ġsize": 4799,
      "à¥ĩà¤¶à¥įà¤µà¤°": 4800,
      "Ġà¤ĺà¤Ĥà¤Ł": 4801,
      "alu": 4802,
      "Ġà¤ıà¤¡": 4803,
      "rought": 4804,
      "Ġà¤¸à¤¾à¤¹à¤¿à¤¤à¥įà¤¯": 4805,
      "ufact": 4806,
      "Ġdeep": 4807,
      "ising": 4808,
      "onstr": 4809,
      "Ġsimply": 4810,
      "olic": 4811,
      "rench": 4812,
      "Ġcit": 4813,
      "Ġà¤®à¤¹à¤¤à¥įà¤¤à¥įà¤µ": 4814,
      "Ġà¤ķà¥ĭà¤¶à¤¿à¤¶": 4815,
      "Ġà¤Ĩà¤¨à¤Ĥà¤¦": 4816,
      "lex": 4817,
      "Ġà¤¯à¤¹à¤¾à¤ģ": 4818,
      "Ġwild": 4819,
      "Ġà¤ĩà¤Ĥà¤¡à¤¿à¤¯à¤¾": 4820,
      "Ġà¤¥à¥Ģ.": 4821,
      "age,": 4822,
      "Ġnight": 4823,
      "Ġà¤Ĩà¤®à¥įà¤¹à¥Ģ": 4824,
      "Ġà¤īà¤¤à¥įà¤¸": 4825,
      "à¤¾à¤ķà¥Ģ": 4826,
      "Ġcomputer": 4827,
      "Ġà¤¨à¤¿à¤Ĺ": 4828,
      "à¥ĩà¤®à¤¾à¤²": 4829,
      "Ġà¤¦à¥ĩà¤¤": 4830,
      "Ġwritten": 4831,
      "Ġit,": 4832,
      "Ġvariety": 4833,
      "Ġà¤¨à¤®": 4834,
      "Ġà¤µà¤¾à¤²": 4835,
      "à¤µà¤¿à¤ķ": 4836,
      "ese": 4837,
      "ĠJan": 4838,
      "Ġshare": 4839,
      "Ġmechan": 4840,
      "Ġà¤®à¤ľà¤¬": 4841,
      "Ġà¤ħà¤¥à¤µà¤¾": 4842,
      "Ġà¤Ĩà¤ĸ": 4843,
      "Ġface": 4844,
      "uge": 4845,
      "Ġà¤²à¤Ĥà¤¬": 4846,
      "as,": 4847,
      "Ġproducts": 4848,
      "IN": 4849,
      "ĠPar": 4850,
      "Ġà¤®à¤¹à¤¾à¤ª": 4851,
      "Ġà¤ªà¤¶à¥įà¤ļà¤¿à¤®": 4852,
      "Ġpsych": 4853,
      "Ġà¤Ĺà¥ģà¤ľà¤°": 4854,
      "Ġstructure": 4855,
      "Ġbasic": 4856,
      "à¥ģà¤ķà¥Ģ": 4857,
      "Ġneeded": 4858,
      "Ġinteg": 4859,
      "Ġlonger": 4860,
      "à¤ıà¤ķ": 4861,
      "Ġencoura": 4862,
      "ĠUs": 4863,
      "ĠIndia": 4864,
      "eds": 4865,
      "ĠItâĢĻs": 4866,
      "à¥Ĥà¤·": 4867,
      "rand": 4868,
      "Ġissues": 4869,
      "Ġexpress": 4870,
      "Ġsometimes": 4871,
      "vey": 4872,
      "Ġà¤ĺà¥ĩà¤Ĭà¤¨": 4873,
      "à¤¿à¤¶à¤¤": 4874,
      "Ġà¤¯à¥ģ": 4875,
      "ĠHar": 4876,
      "-à¤¦": 4877,
      "-à¤®": 4878,
      "Ġ*": 4879,
      "Ġà¤µà¤ķà¥įà¤¤": 4880,
      "Ġà¤¶à¥Ģ": 4881,
      "Ġpict": 4882,
      "ster": 4883,
      "ĠAug": 4884,
      "à¤ªà¤£à¥ĩ": 4885,
      "Ġemb": 4886,
      "Ġà¤¸à¥ģà¤¬à¤¹": 4887,
      "ĠAc": 4888,
      "asc": 4889,
      "Ġdrink": 4890,
      "Ġà¤¨à¤Ĥà¤¬à¤°": 4891,
      "Ġà¤ħà¤ªà¥įà¤°": 4892,
      "idge": 4893,
      "Ġharm": 4894,
      "Ġinfection": 4895,
      "à¥ĭ.": 4896,
      "Ġà¤¬à¤²à¥įà¤ķà¤¿": 4897,
      "Ġà¤ªà¤¦à¤¾à¤°à¥įà¤¥": 4898,
      "Ġà¤®à¥Īà¤Ĥà¤¨à¥ĩ": 4899,
      "Ġimplement": 4900,
      "Ġrefer": 4901,
      "Ġyears.": 4902,
      "Ġorigin": 4903,
      "à¤¾à¤°à¤¿à¤¤": 4904,
      "Ġà¤¶à¥ģà¤Ń": 4905,
      "hel": 4906,
      "Ġstreng": 4907,
      "Ġà¤Ĩà¤¯à¥ĭà¤ľà¤¿à¤¤": 4908,
      "à¥ĩà¤Ĥà¤Ĺà¥ĩà¥¤": 4909,
      "Ġà¤®à¤¿à¤²à¤¾": 4910,
      "Ġreading": 4911,
      "Ġà¤¹à¥Ī?": 4912,
      "ĠNow": 4913,
      "Ġà¤µà¤°à¥įà¤·à¥ĭà¤Ĥ": 4914,
      "Ġà¤¨à¥ĭà¤Ł": 4915,
      "Ġà¤Ĩà¤µà¤¶à¥įà¤¯à¤ķà¤¤à¤¾": 4916,
      "à¥įà¤¯à¤¾à¤¶": 4917,
      "ales": 4918,
      "Ġà¤ħà¤ªà¤°": 4919,
      "Ġappl": 4920,
      "ĠIndian": 4921,
      "Ġà¤ķà¥įà¤°à¤®": 4922,
      "Ġà¤¯à¤¾à¤¤": 4923,
      "Ġoutside": 4924,
      "Ġà¤ħà¤ļà¥įà¤Ľà¥Ģ": 4925,
      "Ġidentify": 4926,
      "Ġcarbon": 4927,
      "à¤Ĥà¤Ĺà¤¾": 4928,
      "nces": 4929,
      "Ġà¤²à¤¾à¤Ĺà¥Ĥ": 4930,
      "Ġà¤ķà¤ł": 4931,
      "ze": 4932,
      "à¤¾à¤µà¥Ģ": 4933,
      "Ġtax": 4934,
      "ength": 4935,
      "Ġà¤²à¤¿à¤ĸà¤¾": 4936,
      "Ġà¤²à¤Ĺà¥ĩ": 4937,
      "Ġà¤¨à¥Ģà¤¤à¤¿": 4938,
      "à¥įà¤¯à¤¾à¤¹": 4939,
      "Ġà¤ªà¤°à¤¿à¤¸à¥įà¤¥": 4940,
      "Ġsqu": 4941,
      "Ġhelps": 4942,
      "Ġà¤ªà¥įà¤°à¤¥à¤®": 4943,
      "Ġà¤¶à¤¨": 4944,
      "Ġà¤ľà¥ģà¤²": 4945,
      "Ġà¤¨à¥įà¤¯à¥Ĥà¤ľ": 4946,
      "Ġlog": 4947,
      "Ġvisit": 4948,
      "Ġpractice": 4949,
      "Ġà¤µà¤¿à¤¸à¥įà¤¤": 4950,
      "à¥ĥà¤¤à¥įà¤µ": 4951,
      "utions": 4952,
      "This": 4953,
      "Ġcompet": 4954,
      "Ġà¤ļà¤¿à¤¤à¥įà¤°à¤ªà¤Ł": 4955,
      "Ġà¤¦à¤¿à¤¶": 4956,
      "à¤¿à¤ķà¥įà¤¸": 4957,
      "Ġà¤°à¤¹à¤¤à¥ĩ": 4958,
      "Ġstates": 4959,
      "ribution": 4960,
      "ĠKing": 4961,
      "Ġresponse": 4962,
      "à¥īà¤°à¥įà¤®": 4963,
      "Ġ(R": 4964,
      "Ġà¤ľà¤¾à¤¸à¥įà¤¤": 4965,
      "à¤ıà¤«": 4966,
      "Ġbal": 4967,
      "Ġà¤¸à¤®à¥įà¤¬": 4968,
      "Ġensure": 4969,
      "à¤Ĥà¤¥": 4970,
      "Ġà¤¶à¥ģà¤°à¥ģà¤Ĩ": 4971,
      "Ġcases": 4972,
      "Ġreview": 4973,
      "à¥Ģà¤ķà¤¾à¤°": 4974,
      "ata": 4975,
      "Ġforce": 4976,
      "aily": 4977,
      "ellow": 4978,
      "Ġà¤Ĺà¥ĭà¤²": 4979,
      "ĠFirst": 4980,
      "Ġlate": 4981,
      "Ġà¤¦à¤¾à¤ĸà¤²": 4982,
      "Ġattempt": 4983,
      "Ġà¤°à¤ĸà¤¨à¥ĩ": 4984,
      "Ġcauses": 4985,
      "Ġparticularly": 4986,
      "Ġà¤®à¥įà¤¹à¤£à¤¾à¤²à¥ĩ": 4987,
      "à¥įà¤°à¤¾": 4988,
      "Ġà¤łà¤°": 4989,
      "Ġà¤ĩà¤¸à¥įà¤¤à¥ĩà¤®à¤¾à¤²": 4990,
      "ached": 4991,
      "usion": 4992,
      "à¥ĩà¤Ĥà¤Ĺà¥ĩ": 4993,
      "à¥įà¤¹à¥ĩà¤Ĥ": 4994,
      "Ġresist": 4995,
      "Ġ(D": 4996,
      "Ġà¤¶à¥ģà¤ķà¥įà¤°": 4997,
      "Ġissu": 4998,
      "Ġà¤ªà¥įà¤°à¤¯à¤¾à¤¸": 4999,
      "Ġà¤Ĩà¤ªà¤²": 5000,
      "rated": 5001,
      "à¤®à¤§à¥Ģà¤²": 5002,
      "ĠSm": 5003,
      "à¥įà¤ķà¤¾à¤°": 5004,
      "ĠMy": 5005,
      "Ġà¤ļà¥Ģà¤ľ": 5006,
      "Ġà¤µà¤°à¥įà¤£": 5007,
      "Ġà¤ķà¤¾à¤ģà¤Ĺà¥įà¤°à¥ĩà¤¸": 5008,
      "Ġthemselves": 5009,
      "Ġà¤¦à¤¿à¤²à¥ĩ": 5010,
      "à¤¤à¥Ģà¤¤": 5011,
      "Ġà¤°à¥ģà¤ªà¤ı": 5012,
      "ĠA.": 5013,
      "Ġsuccessful": 5014,
      "Ġà¤ķà¤¾à¤°à¥įà¤¯à¤ķà¤°à¥įà¤¤": 5015,
      "à¤ľà¤¯": 5016,
      "Ġà¤¶à¤°à¥įà¤®à¤¾": 5017,
      "ĠKe": 5018,
      "Ġeasy": 5019,
      "uth": 5020,
      "à¥ĩà¤¥": 5021,
      "à¤¾à¤¯à¥ĩ": 5022,
      "Ġap": 5023,
      "à¤Ĥà¤ĸ": 5024,
      "Ġregion": 5025,
      "Ġà¤ļà¤¿à¤Ĥ": 5026,
      "ĠGl": 5027,
      "Ġà¤ªà¥įà¤°à¤¤à¤¿à¤¶à¤¤": 5028,
      "Ġsust": 5029,
      "Ġà¤¸à¥ĩà¤²": 5030,
      "Ġtask": 5031,
      "Ġdefin": 5032,
      "Ġdeal": 5033,
      "ĠJu": 5034,
      "Ġdemonstr": 5035,
      "fect": 5036,
      "Ġremov": 5037,
      "à¤Łà¤²": 5038,
      "ha": 5039,
      "Ġà¤ªà¤°à¤¿à¤¸à¤°": 5040,
      "ĠReg": 5041,
      "Ġà¤°à¤¿à¤²": 5042,
      "Ġcompon": 5043,
      "ĠBec": 5044,
      "Ġà¤¸à¤§": 5045,
      "ustom": 5046,
      "rip": 5047,
      "Ġtend": 5048,
      "Ġà¤ªà¥įà¤°à¤¶à¤¿à¤ķà¥įà¤·": 5049,
      "Ġconnect": 5050,
      "à¤¤à¤¾,": 5051,
      "Ġaff": 5052,
      "Ġà¤¨à¤¿à¤ķà¤¾à¤²": 5053,
      "Ġà¤Ĩà¤²à¥ĩ.": 5054,
      "à¥ĩà¤¶à¤¨à¤²": 5055,
      "ĠEl": 5056,
      "Ġà¤°à¤¾à¤ľà¤¾": 5057,
      "Ġspeak": 5058,
      "Ġà¤®à¤¹à¤¤à¥įà¤µà¤ªà¥Ĥà¤°à¥įà¤£": 5059,
      "Ġcoun": 5060,
      "Ġà¤ªà¥Ģà¤Ľà¥ĩ": 5061,
      "ĠCount": 5062,
      "ivity": 5063,
      "Ġà¤īà¤¤à¥įà¤ªà¤¨à¥įà¤¨": 5064,
      "ership": 5065,
      "Ġuses": 5066,
      "à¤²à¤Ĺ": 5067,
      "ĠOur": 5068,
      "Ġdeveloping": 5069,
      "Ġà¤µà¤¿à¤ķà¥ĩà¤Ł": 5070,
      "oud": 5071,
      "Ġparents": 5072,
      "Ġsou": 5073,
      "dom": 5074,
      "ĠNo": 5075,
      "Ġà¤µà¤¿à¤¦à¥ĩà¤¶": 5076,
      "',": 5077,
      "Ġwood": 5078,
      "Ġà¤¦à¥ĩà¤£à¥įà¤¯à¤¾à¤¤": 5079,
      "ĠJes": 5080,
      "ĠNews": 5081,
      "Ġà¤¯à¤¶": 5082,
      "Ġà¤Ńà¤¾à¤Ī": 5083,
      "à¤¿à¤¯à¤²": 5084,
      "Ġà¤¬à¤ļà¥įà¤ļà¥ĩ": 5085,
      "Ġà¤¦à¥Ģà¥¤": 5086,
      "Ġà¤µà¤¾à¤¦": 5087,
      "Ġchalleng": 5088,
      "Ġà¤¤à¥ģà¤®à¥įà¤¹à¥Ģ": 5089,
      "Ġskills": 5090,
      "ores": 5091,
      "Ġmaintain": 5092,
      "Ġà¤¨à¥ģà¤ķà¤¸à¤¾à¤¨": 5093,
      "Ġemot": 5094,
      "Ġà¤¹à¤¾à¤¸": 5095,
      "Ġord": 5096,
      "ĠTw": 5097,
      "imately": 5098,
      "imum": 5099,
      "Ġindepend": 5100,
      "Ġnon-": 5101,
      "ĠArt": 5102,
      "Ġ(F": 5103,
      "Ġconsist": 5104,
      "Ġà¤ªà¤¾à¤£à¥Ģ": 5105,
      "Ġà¤ªà¥įà¤°à¤¤à¤¿à¤¨à¤¿à¤§": 5106,
      "Ġà¤¨à¤¿à¤¯à¤Ĥà¤¤à¥įà¤°": 5107,
      "Ġà¤¸à¤Ĥà¤¤": 5108,
      "Ġnormal": 5109,
      "Ġcentury": 5110,
      "ĠDuring": 5111,
      "Ġà¤²à¥ĭ": 5112,
      "on.": 5113,
      "Ġà¤®à¤¹à¤¾à¤¨": 5114,
      "Ġfactors": 5115,
      "Ġbit": 5116,
      "Ġreported": 5117,
      "Ġà¤ªà¥įà¤°à¤¸à¥įà¤¤à¤¾à¤µ": 5118,
      "ropriate": 5119,
      "ice.": 5120,
      "Ġvalu": 5121,
      "Ġà¤ĺà¥ĭà¤·à¤£à¤¾": 5122,
      "Ġà¤ļà¤¿à¤ķà¤¿à¤¤": 5123,
      "à¥įà¤¤à¤¾": 5124,
      "Ġà¤¤à¤¯": 5125,
      "Ġmoney": 5126,
      "ĠJ.": 5127,
      "arily": 5128,
      "Ġmess": 5129,
      "Ġfeet": 5130,
      "Ġà¤¯à¤¾à¤¤à¥įà¤°à¤¾": 5131,
      "Ġà¤ļà¤²à¤¾": 5132,
      "Ġà¤ıà¤ľ": 5133,
      "à¥įà¤¯à¤¾à¤°": 5134,
      "à¥įà¤¯à¤¾à¤Ĥà¤ļà¥įà¤¯à¤¾": 5135,
      "Ġdraw": 5136,
      "Ġprep": 5137,
      "Ġà¤°à¤¹à¤¤à¤¾": 5138,
      "Ġà¤«à¥įà¤²": 5139,
      "Ġà¤ªà¥įà¤°à¤¸à¤¿à¤¦à¥įà¤§": 5140,
      "Ġà¤®à¤¿à¤²à¥Ģ": 5141,
      "Ġà¤°à¤¾à¤¶à¤¿": 5142,
      "à¥Ĥà¤°à¥įà¤µ": 5143,
      "oard": 5144,
      "à¤¿à¤²à¥Ģ": 5145,
      "Ġveget": 5146,
      "iat": 5147,
      "Ġà¤ªà¤¿à¤¤à¤¾": 5148,
      "Ġà¤ħà¤§à¤¿à¤ķà¤¾à¤°à¤¿à¤¯à¥ĭà¤Ĥ": 5149,
      "Ġir": 5150,
      "Ġcorrect": 5151,
      "Ġdocument": 5152,
      "Ġaware": 5153,
      "right": 5154,
      "uary": 5155,
      "Ġcommit": 5156,
      "à¤ļà¤²": 5157,
      "Ġextreme": 5158,
      "Ġwriting": 5159,
      "Ġfa": 5160,
      "Ġassist": 5161,
      "Ġà¤¨à¤¾à¤¹à¥Ģ,": 5162,
      "Ġmother": 5163,
      "Ġgenerally": 5164,
      "à¤¸à¥įà¤µà¥Ģà¤°": 5165,
      "à¥Ĥà¤¡": 5166,
      "Ġinternational": 5167,
      "Ġà¤¨à¤¿à¤ķà¤²": 5168,
      "ine.": 5169,
      "à¤Ĺà¥įà¤°à¤¹": 5170,
      "Ġà¤ªà¥ģà¤¸à¥įà¤¤": 5171,
      "Ġà¤¬à¥Ģà¤®": 5172,
      "ST": 5173,
      "Ġforest": 5174,
      "Ġteacher": 5175,
      "Ġà¤¸à¤Ń": 5176,
      "Ġà¤Ĺà¥ģà¤¨": 5177,
      "Ġà¤®à¤¨à¥ģà¤·à¥įà¤¯": 5178,
      "Ġpopul": 5179,
      "Ġà¤ķà¥ĭà¤²": 5180,
      "Ġà¤®à¥ĩà¤¡": 5181,
      "ĠChild": 5182,
      "Ġcover": 5183,
      "Ġyears,": 5184,
      "Ġà¤¤à¥Ģà¤¸": 5185,
      "Ġà¤ľà¥ĭà¤°": 5186,
      "Ġox": 5187,
      "Ġà¤Ĩà¤Ĥà¤¦": 5188,
      "Ġanimals": 5189,
      "Ġà¤ķà¤¾à¤°à¥įà¤°": 5190,
      "à¤¦à¤¯": 5191,
      "Ġselect": 5192,
      "Ġà¤¤à¥įà¤¯à¤¾à¤Ĥà¤ļ": 5193,
      "Ġserious": 5194,
      "à¤¾à¤ĵ": 5195,
      "Ġhabit": 5196,
      "Ġelectric": 5197,
      "Ġà¤¬à¤¨à¤¾à¤ı": 5198,
      "Ġà¤®à¥Įà¤ķà¥ĩ": 5199,
      "Ġà¤¶à¤¿à¤µà¤¸à¥ĩ": 5200,
      "Ġfinanc": 5201,
      "Ġà¤¶à¥ĩà¤¯à¤°": 5202,
      "Ġacid": 5203,
      "Ġà¤¦à¥ĩà¤¨à¤¾": 5204,
      "Ġà¤¶à¥ĭà¤§": 5205,
      "Ġà¤¬à¥ģà¤§": 5206,
      "à¤¿à¤¯à¤¾à¤ģ": 5207,
      "Ġà¤¹à¤¾à¤¤": 5208,
      "Ġtherefore": 5209,
      "att": 5210,
      "Ġmagn": 5211,
      "iot": 5212,
      "Ġà¤¦à¤¶": 5213,
      "Ġà¤īà¤¦à¥įà¤¯à¥ĭà¤Ĺ": 5214,
      "Ġà¤¬à¤¨à¥ĩ": 5215,
      "Ġdispl": 5216,
      "Ġprobably": 5217,
      "Ġà¤¤à¥įà¤¯à¤¾à¤¨à¤Ĥà¤¤à¤°": 5218,
      "Ġgetting": 5219,
      "à¤ļà¤Ĥ": 5220,
      "Ġà¤¸à¥ĩà¤¨à¤¾": 5221,
      "Ġbenefit": 5222,
      "Ġà¤¦à¥ģà¤ķ": 5223,
      "ienc": 5224,
      "www.": 5225,
      "Ġcontinue": 5226,
      "Ġà¤ķà¤¾à¤Ĥ": 5227,
      "Ġlo": 5228,
      "à¤¾à¤£à¤¾": 5229,
      "Ġdiv": 5230,
      "oly": 5231,
      "Ġà¤²à¤Ĺà¤¾à¤¯à¤¾": 5232,
      "Wh": 5233,
      "Ġà¤ªà¤¾à¤Łà¥Ģà¤²": 5234,
      "Ġà¤īà¤¦à¥įà¤¦à¥ĩà¤¶": 5235,
      "Ġà¤īà¤¤à¥įà¤ªà¤¾à¤¦à¤¨": 5236,
      "Ġrock": 5237,
      "aging": 5238,
      "Ġthird": 5239,
      "Ġdoing": 5240,
      "Ġà¤ļà¥Ģ": 5241,
      "Ġà¤®à¤¹à¤¾à¤®": 5242,
      "Ġmanufact": 5243,
      "Ġà¤ªà¤µà¤¾à¤°": 5244,
      "à¤¾à¤¶à¥Ģ": 5245,
      "Ġà¤Łà¤¾à¤ķ": 5246,
      "ene": 5247,
      "Ġà¤¸à¥ĩà¤µ": 5248,
      "Ġà¤¸à¤¿à¤°": 5249,
      "à¤¿à¤ķà¤¾à¤°": 5250,
      "Ġà¤¸à¥ģà¤§à¤¾à¤°": 5251,
      "Ġtakes": 5252,
      "lection": 5253,
      "Ġdou": 5254,
      "Ġà¤ªà¤¾à¤ļ": 5255,
      "Ġlife.": 5256,
      "Ġindividuals": 5257,
      "OR": 5258,
      "Ġà¤ľà¤¾à¤Ĭ": 5259,
      "à¤¾à¤®à¥Ģà¤£": 5260,
      "à¤¾à¤Łà¤ķ": 5261,
      "à¤¦à¥ĩà¤µ": 5262,
      "à¥ĭà¤¬à¤¤": 5263,
      "overy": 5264,
      "Ġcompany": 5265,
      "Ġà¤µà¤¸": 5266,
      "ĠTra": 5267,
      "Ġgoal": 5268,
      "Ġà¤ķà¤¾à¤°à¥įà¤°à¤µà¤¾à¤Ī": 5269,
      "Ġà¤ľà¤¿à¤¤": 5270,
      "Ġinstead": 5271,
      "Ġhyd": 5272,
      "Ġwalk": 5273,
      "Ġà¤¸à¤¾à¤µ": 5274,
      "Ġà¤Ĺà¤¯à¥Ģ": 5275,
      "à¤¦à¥įà¤¦à¤²": 5276,
      "Ġà¤¸à¤¾à¤®à¤¨à¤¾": 5277,
      "ground": 5278,
      "à¤¦à¤°": 5279,
      "Ġwall": 5280,
      "ences": 5281,
      "Ġà¤¤à¤¸à¥įà¤µà¥Ģà¤°": 5282,
      "Ġproduced": 5283,
      "Ġà¤²à¥Į": 5284,
      "Ġeth": 5285,
      "Ġconcent": 5286,
      "Ġà¤¸à¥ĭà¤¨": 5287,
      "utes": 5288,
      "à¥ĩà¤Ĥ,": 5289,
      "Ġcross": 5290,
      "Ġà¤Ĩà¤¹": 5291,
      "ĠCalif": 5292,
      "à¤£à¥įà¤¯à¤¾à¤ļà¤¾": 5293,
      "Ġà¤ĸà¥ģà¤¶": 5294,
      "oles": 5295,
      "à¤¾à¤ªà¤¨": 5296,
      "arden": 5297,
      "Ġfront": 5298,
      "Ġà¤¤à¤¤": 5299,
      "Ġregul": 5300,
      "Ġà¤ķà¤¥": 5301,
      "Ġtraining": 5302,
      "Ġprint": 5303,
      "osing": 5304,
      "Ġà¤¸à¤¹à¥Ģ": 5305,
      "Ġterms": 5306,
      "Ġmaterials": 5307,
      "à¥ĩà¤ªà¥Ģ": 5308,
      "à¤¤à¥Ģà¤¨à¥ĩ": 5309,
      "Ġà¤¸à¤Ĥà¤¶": 5310,
      "Ġservice": 5311,
      "à¤Ĺà¤¢à¤¼": 5312,
      "Ġcommunities": 5313,
      "Ġgrowing": 5314,
      "bor": 5315,
      "ice,": 5316,
      "ĠCor": 5317,
      "Ġearl": 5318,
      "Ġful": 5319,
      "Ġà¤¦à¤°à¥įà¤¶": 5320,
      "Ġtrue": 5321,
      "Ġà¤¬à¤¿à¤¹à¤¾à¤°": 5322,
      "Ġdang": 5323,
      "à¤°à¥įà¤¯": 5324,
      "Ġà¤ľà¥įà¤¯": 5325,
      "Ġlooking": 5326,
      "Ġà¤ªà¤¤": 5327,
      "Ġà¤ĩà¤¤à¤¨à¤¾": 5328,
      "rie": 5329,
      "cil": 5330,
      "Ġà¤ħà¤¹": 5331,
      "Ġestablished": 5332,
      "Ġsafe": 5333,
      "Ġà¤ªà¤Ĥà¤ľà¤¾à¤¬": 5334,
      "ashing": 5335,
      "Ġinstit": 5336,
      "ate.": 5337,
      "Ġà¤ªà¤¦à¥įà¤§": 5338,
      "Ġà¤¬à¤²à¥įà¤²": 5339,
      "Ġà¤¨à¤¿à¤·": 5340,
      "Ġestim": 5341,
      "\",": 5342,
      "à¤¸à¤¨": 5343,
      "Ġvit": 5344,
      "Ġà¤¸à¥įà¤µà¤¯à¤Ĥ": 5345,
      "Ġscientists": 5346,
      "Ġà¤¨à¤¿à¤§": 5347,
      "à¤¿à¤Ĥà¤ķ": 5348,
      "Ġworld.": 5349,
      "AN": 5350,
      "Ġà¤ļà¥ģà¤ķà¤¾": 5351,
      "cell": 5352,
      "ĠChar": 5353,
      "à¤¹à¤¾à¤²": 5354,
      "Ġinvestig": 5355,
      "Ġquite": 5356,
      "à¥įà¤¯à¤¾.": 5357,
      "Ġwarm": 5358,
      "à¤¸à¥įà¤ķà¤¾à¤°": 5359,
      "Ġà¤°à¤¾à¤¯": 5360,
      "Ġà¤¹à¥ĭ,": 5361,
      "Ġcr": 5362,
      "à¤®à¥įà¤ª": 5363,
      "ĠEuropean": 5364,
      "Ġcard": 5365,
      "Ġdetermine": 5366,
      "ided": 5367,
      "à¤ĸà¥Ģ": 5368,
      "Ġà¤īà¤ªà¤¾à¤¯": 5369,
      "Ġà¤ľà¤°à¥Ĥà¤°à¤¤": 5370,
      "Ġcompared": 5371,
      "is.": 5372,
      "Ġheld": 5373,
      "Ġà¤ĸà¥ĭ": 5374,
      "Ġdifference": 5375,
      "Ġà¤²à¤Ĺà¤¤à¤¾": 5376,
      "Ġà¤¸à¥įà¤µà¥Ģà¤ķà¤¾à¤°": 5377,
      "us.": 5378,
      "Ġtown": 5379,
      "useum": 5380,
      "Ġà¤®à¤°à¤¾à¤łà¥Ģ": 5381,
      "ĠRuss": 5382,
      "ĠEven": 5383,
      "ror": 5384,
      "Ġsomeone": 5385,
      "Ġà¤¦à¥ĩà¤¶à¥ĭà¤Ĥ": 5386,
      "Ġà¤īà¤ªà¤ļà¤¾à¤°": 5387,
      "Ġà¤ħà¤¹à¤®": 5388,
      "Ġmilitary": 5389,
      "ext": 5390,
      "Ġà¤°à¤£": 5391,
      "ĠFrench": 5392,
      "à¤¾à¤§à¥įà¤¯à¤ķà¥įà¤·": 5393,
      "set": 5394,
      "Ġtraditional": 5395,
      "Ġà¤°à¥Ĥ": 5396,
      "ĠBar": 5397,
      "Ġà¤¸à¤¾à¤°à¥įà¤µ": 5398,
      "Ġbab": 5399,
      "oses": 5400,
      "Ġà¤ľà¤¾à¤ıà¤Ĺà¤¾": 5401,
      "We": 5402,
      "Ġà¤¨à¤¾à¤Ĺ": 5403,
      "Ġà¤ķà¥ĥ": 5404,
      "Ġthous": 5405,
      "Ġhours": 5406,
      "Ġexpect": 5407,
      "Ġà¤µà¥ĥà¤¦à¥įà¤§": 5408,
      "à¤°à¥įà¤¤à¤¨": 5409,
      "Ġvacc": 5410,
      "Ġà¤¦à¤¬": 5411,
      "Ġà¤®à¤¾à¤®à¤²à¤¾": 5412,
      "Ġreve": 5413,
      "ĠInternational": 5414,
      "ĠRead": 5415,
      "Ġprimary": 5416,
      "à¥īà¤°à¥įà¤¡": 5417,
      "Ġà¤¸à¤Ĥà¤¦": 5418,
      "ervation": 5419,
      "à¤¾à¤¹à¤°à¤£": 5420,
      "Ġà¤¦à¤¿à¤²à¥Ģ": 5421,
      "Ġcapt": 5422,
      "book": 5423,
      "Ġà¤°à¤¸à¥įà¤¤": 5424,
      "Ġetc.": 5425,
      "Ġà¤Ĺà¤²": 5426,
      "à¤¦à¥Ģà¤ª": 5427,
      "Ġallows": 5428,
      "che": 5429,
      "à¤¸à¤²": 5430,
      "Ġà¤«à¥ĭà¤Łà¥ĭ": 5431,
      "Ġinside": 5432,
      "Ġà¤¤à¤®": 5433,
      "Ġà¤Ĺà¥įà¤°à¤¾à¤®à¥Ģà¤£": 5434,
      "à¤µà¤¿à¤¡": 5435,
      "Ġpoor": 5436,
      "à¤°à¤¿à¤ķ": 5437,
      "ĠChristian": 5438,
      "rew": 5439,
      "Ġà¤®à¥ĭà¤¬": 5440,
      "Ġexperien": 5441,
      "Ġà¤¬à¥įà¤°à¤¹à¥įà¤®": 5442,
      "uk": 5443,
      "Ġà¤¥à¥ĩ.": 5444,
      "Ġreflect": 5445,
      "Ġà¤µà¤¾à¤¹à¤¨": 5446,
      "Ġà¤²à¤¿à¤¹": 5447,
      "à¤¿à¤Łà¤²": 5448,
      "Ġinvolved": 5449,
      "Ġà¤µà¤¿à¤²": 5450,
      "Ġfav": 5451,
      "ĠSince": 5452,
      "Ġmovement": 5453,
      "Ġbenefits": 5454,
      "Ġsolar": 5455,
      "ĠCaliforn": 5456,
      "à¤Ĥà¤¦à¤¾à¤ľ": 5457,
      "Ġà¤ĸà¥ģà¤²": 5458,
      "à¥ĩà¤¡à¤¼": 5459,
      "Ġimmediate": 5460,
      "Ġcivil": 5461,
      "ĠMe": 5462,
      "Ġtur": 5463,
      "Ġdecre": 5464,
      "Ġà¤ħà¤Ĥà¤ķ": 5465,
      "Ġà¤ħà¤¤à¤¿à¤°à¤¿à¤ķà¥įà¤¤": 5466,
      "Ġà¤®à¤¹à¤¿à¤²à¤¾à¤ĵà¤Ĥ": 5467,
      "Ġà¤®à¤¿à¤²à¤¨à¥ĩ": 5468,
      "ille": 5469,
      "à¤°à¥įà¤¤à¤¿": 5470,
      "Ġà¤µà¥ĩà¤¬à¤¸": 5471,
      "where": 5472,
      "ĠHer": 5473,
      "Ġsold": 5474,
      "irl": 5475,
      "à¥ħà¤¨": 5476,
      "ĠOct": 5477,
      "Ġmental": 5478,
      "elling": 5479,
      "Ġà¤µà¤¹à¥Ģ": 5480,
      "Ġevalu": 5481,
      "Ġà¤¦à¥ĩà¤ĸà¤¤à¥ĩ": 5482,
      "Ġà¤®à¤¶": 5483,
      "Ġà¤¨à¤¾à¤¹à¥Ģà¤¤": 5484,
      "elt": 5485,
      "Ġmultiple": 5486,
      "Ġaltern": 5487,
      "Ġhy": 5488,
      "ches": 5489,
      "Ġscientific": 5490,
      "Ġideas": 5491,
      "Ġâ": 5492,
      "Ġà¤ªà¥ģà¤·": 5493,
      "ĠMon": 5494,
      "à¤µà¤²": 5495,
      "Ġachieve": 5496,
      "Ġà¤®à¥įà¤¹à¤Ł": 5497,
      "Ġà¤²à¤¿à¤ı,": 5498,
      "Ġincluded": 5499,
      "Ġà¤ĩà¤Ĥ": 5500,
      "Ġà¤ķà¥īà¤²à¥ĩà¤ľ": 5501,
      "ift": 5502,
      "undred": 5503,
      "à¥įà¤¤à¥ģ": 5504,
      "haps": 5505,
      "à¤®à¥ģà¤ĸ": 5506,
      "Ġà¤¨à¤°à¥ĩà¤Ĥà¤¦à¥įà¤°": 5507,
      "Ġà¤¦à¥Ģà¤ª": 5508,
      "à¤¾à¤ĥ": 5509,
      "Ġà¤¹à¤¸à¥įà¤¤": 5510,
      "Ġsection": 5511,
      "Ġmember": 5512,
      "Ġsil": 5513,
      "Ġà¤ĸà¥Ĥà¤ª": 5514,
      "ĠMarch": 5515,
      "omp": 5516,
      "Ġmedia": 5517,
      "Ø§": 5518,
      "ON": 5519,
      "Ġtiss": 5520,
      "Ġà¤ķà¥Ģà¤®à¤¤": 5521,
      "Ġà¤Łà¥įà¤°à¥ĩà¤¨": 5522,
      "Ġfoot": 5523,
      "Ġà¤ĸà¤¼": 5524,
      "ĠAmerica": 5525,
      "Ġnegative": 5526,
      "à¤²à¥Ģà¤µà¥ģà¤¡": 5527,
      "Ġà¤ªà¤¾à¤£": 5528,
      "hern": 5529,
      "Ġroad": 5530,
      "Ġaspect": 5531,
      "à¥ģà¤Ŀ": 5532,
      "Ġà¤ķà¤¨": 5533,
      "____": 5534,
      "Ġà¤¸à¤¾à¤«": 5535,
      "Ġà¤¸à¤Ĥà¤Ńà¤¾à¤µ": 5536,
      "à¥ĩà¤Ĥ.": 5537,
      "Ġhost": 5538,
      "à¤¾à¤ĺ": 5539,
      "à¤¿à¤ĺ": 5540,
      "Ġà¤µà¤¾à¤ļ": 5541,
      "Ġà¤ªà¥Īà¤¸à¥ĩ": 5542,
      "ned": 5543,
      "Ġwent": 5544,
      "Ġx": 5545,
      "Ġservices": 5546,
      "Ġrout": 5547,
      "Ġà¤®à¤¾à¤¨à¤µ": 5548,
      "Ġà¤ªà¥ģà¤¤à¥įà¤°": 5549,
      "Ġà¤ľà¤¿à¤¸à¤ķà¤¾": 5550,
      "uman": 5551,
      "Ġhttp://": 5552,
      "Ġmiss": 5553,
      "Ġbehind": 5554,
      "Ġadditional": 5555,
      "Ġbirth": 5556,
      "Ġà¤®à¥ĩà¤°à¥Ģ": 5557,
      "icles": 5558,
      "à¤¾à¤§à¤¿à¤ķà¤¾à¤°à¥Ģ": 5559,
      "Ġà¤ªà¥ģà¤¨à¥įà¤¹à¤¾": 5560,
      "Ġcolon": 5561,
      "-h": 5562,
      "Ġ\"The": 5563,
      "ilos": 5564,
      "Ġà¤®à¥ĭà¤łà¥įà¤¯à¤¾": 5565,
      "Ġhor": 5566,
      "Ġhighly": 5567,
      "IC": 5568,
      "Ġà¤¹à¤¤à¥įà¤¯à¤¾": 5569,
      "à¥įà¤°à¥ĭà¤²": 5570,
      "Ġthus": 5571,
      "à¤Ĩà¤¯": 5572,
      "à¤§à¤¾à¤¨à¥Ģ": 5573,
      "Ġhot": 5574,
      "pril": 5575,
      "Ġà¤®à¤¹à¤¾à¤µ": 5576,
      "ĠAnt": 5577,
      "Ġà¤¸à¥įà¤¨": 5578,
      "ĠWest": 5579,
      "Ġà¤ªà¥įà¤°à¤£": 5580,
      "à¤²à¥ĩà¤²à¥Ģ": 5581,
      "thern": 5582,
      "Ġsolution": 5583,
      "Ġà¤ļà¤²à¤¤à¥ĩ": 5584,
      "à¤¨à¥įà¤¤à¥ģ": 5585,
      "Ġà¤¹à¤Ł": 5586,
      "Ġà¤¶à¥Ī": 5587,
      "Ġà¤Ńà¤µà¤¿à¤·": 5588,
      "à¤²à¥ĩà¤ķ": 5589,
      "Ġofficial": 5590,
      "Ġalthough": 5591,
      "ĠDepartment": 5592,
      "ana": 5593,
      "Ġà¤¸à¤Ĥà¤ķà¥įà¤°à¤®": 5594,
      "-in": 5595,
      "Ġà¤¨à¥ĩà¤¤à¥ĥà¤¤à¥įà¤µ": 5596,
      "ĠAugust": 5597,
      "Ġà¤Ńà¥ĩà¤Ł": 5598,
      "Ġaud": 5599,
      "Ġexplain": 5600,
      "Ġà¤Ŀà¤¾à¤²à¥ĩà¤²à¥įà¤¯à¤¾": 5601,
      "les,": 5602,
      "ying": 5603,
      "Ġà¤®à¤Ĥà¤ľ": 5604,
      "nov": 5605,
      "à¥įà¤¯à¥ģ": 5606,
      "Ġà¤¶à¤¿à¤ķà¥įà¤·à¤£": 5607,
      "Ġproced": 5608,
      "Ġà¤ķà¥ģà¤Ł": 5609,
      "Ġsevere": 5610,
      "Ġà¤ķà¤¹à¥Ģà¤Ĥ": 5611,
      "à¥ĩà¤ļà¥įà¤¯à¤¾": 5612,
      "rition": 5613,
      "ics,": 5614,
      "Ġang": 5615,
      "erson": 5616,
      "Ġà¤ªà¤°à¥ĩà¤¶": 5617,
      "ĠDav": 5618,
      "Ġà¤®à¤Ĺ": 5619,
      "Ġfill": 5620,
      "Ġdry": 5621,
      "Ġà¤¨à¥Ģà¤ļà¥ĩ": 5622,
      "like": 5623,
      "à¤¾à¤®à¤¾": 5624,
      "à¤Ĺà¥Ģ.": 5625,
      "Ġcritical": 5626,
      "à¥ģà¤Ĥà¤¬": 5627,
      "Ġstor": 5628,
      "Ġà¤ħà¤µà¤¸à¤°": 5629,
      "à¤µà¤¿à¤¦à¥įà¤¯à¤¾à¤²à¤¯": 5630,
      "iar": 5631,
      "à¥ĩà¤ħà¤°": 5632,
      "à¥ĩà¤².": 5633,
      "Ġextra": 5634,
      "osure": 5635,
      "ĠLear": 5636,
      "à¤¦à¤¾à¤°à¥Ģ": 5637,
      "ĠGovern": 5638,
      "Ġà¤®à¤Ĥà¤Ĺà¤²": 5639,
      "Ġà¤ĸà¥ģ": 5640,
      "Ġprotein": 5641,
      "p.": 5642,
      "Ġforms": 5643,
      "Ġà¤°à¥ĭà¤ľà¥Ģ": 5644,
      "Ġimage": 5645,
      "Ġà¤¸à¥ĩà¤Ĥà¤Ł": 5646,
      "à¥įà¤®à¤£": 5647,
      "Ġà¤¸à¤®à¤ľ": 5648,
      "Ġà¤¸à¤¹à¤¾à¤¯": 5649,
      "Ġfight": 5650,
      "à¤²à¥ĩà¤²à¤¾": 5651,
      "Ġà¤īà¤¸à¤¸à¥ĩ": 5652,
      "ĠServ": 5653,
      "Ġspirit": 5654,
      "Ġà¤¨à¤¿à¤°à¥įà¤§": 5655,
      "Ġsect": 5656,
      "Ġà¤¯à¥ĩà¤£à¤¾à¤°": 5657,
      "Ġà¤°à¤¾à¤ľà¥įà¤¯à¥ĭà¤Ĥ": 5658,
      "à¤§à¤¾à¤°": 5659,
      "ĠM.": 5660,
      "Ġà¤¦à¤°à¥įà¤¶à¤¨": 5661,
      "Ġenj": 5662,
      "Ġfram": 5663,
      "Ġà¤¦à¥įà¤°": 5664,
      "eration": 5665,
      "Ġà¤¨à¤¦à¥Ģ": 5666,
      "Ġtransport": 5667,
      "Ġnucle": 5668,
      "term": 5669,
      "Ġà¤ķà¤Ĥà¤ªà¤¨": 5670,
      "Ġà¤ªà¥įà¤°à¤ķà¤°à¤£": 5671,
      "yond": 5672,
      "ceed": 5673,
      "ĠMus": 5674,
      "à¥įà¤°à¥Ģà¤®": 5675,
      "Ġjo": 5676,
      "istics": 5677,
      "âĢĻve": 5678,
      "cean": 5679,
      "Ġtechniqu": 5680,
      "Ġdecision": 5681,
      "sect": 5682,
      "Ġà¤ķà¥ĭà¤Łà¥Ģ": 5683,
      "ipl": 5684,
      "Ġà¤®à¤¹à¤¾à¤°à¤¾à¤ľ": 5685,
      "amb": 5686,
      "à¤¬à¥įà¤²": 5687,
      "à¤ķà¤¡à¥ĩ": 5688,
      "Ġcentral": 5689,
      "Ġà¤Ĩà¤ªà¤ķà¥Ģ": 5690,
      "Ġunique": 5691,
      "Ġthat,": 5692,
      "Ġà¤®à¤¿à¤¤à¥įà¤°": 5693,
      "Ġfactor": 5694,
      "Ġuseful": 5695,
      "ĠSept": 5696,
      "Ġseries": 5697,
      "Ġinterp": 5698,
      "Ġà¤Ĩà¤Ĥà¤¦à¥ĭà¤²à¤¨": 5699,
      "-à¤µ": 5700,
      "gram": 5701,
      "Ġ+": 5702,
      "Ġmethods": 5703,
      "Ġseems": 5704,
      "coh": 5705,
      "omet": 5706,
      "à¤¿,": 5707,
      "Ġà¤¸à¤Ĥà¤¯à¥ģà¤ķà¥įà¤¤": 5708,
      "ino": 5709,
      "Ġà¤¹à¤®à¤¾à¤°à¥Ģ": 5710,
      "Ġbroad": 5711,
      "Ġà¤®à¤¾à¤Ĺà¤£à¥Ģ": 5712,
      "ĠAfrican": 5713,
      "Ġcustom": 5714,
      "Ġà¤ķà¥ĩà¤¸": 5715,
      "Ġà¤ªà¤¾à¤¹à¤¿à¤ľ": 5716,
      "eal": 5717,
      "Ġà¤¸à¤¹à¤¯à¥ĭà¤Ĺ": 5718,
      "Ġà¤ªà¥ĥà¤¥": 5719,
      "à¤°à¥ĭà¤¬à¤°": 5720,
      "Ġà¤ľà¤¿à¤®": 5721,
      "à¤ªà¤¤à¥įà¤°": 5722,
      "Ġà¤ªà¤¸à¤Ĥà¤¦": 5723,
      "ĠBecause": 5724,
      "ĠSw": 5725,
      "à¤°à¥įà¤²": 5726,
      "Ġà¤¬à¥ģà¤²": 5727,
      "Ġà¤ĳà¤¨à¤²": 5728,
      "na": 5729,
      "Ġà¤¸à¤¾à¤ķ": 5730,
      "Ġà¤¡à¤¿à¤¸": 5731,
      "Ġà¤Ĺà¤¿à¤°à¤«à¥įà¤¤à¤¾à¤°": 5732,
      "orthern": 5733,
      "Ġà¤ķà¤¾à¤°à¥įà¤¡": 5734,
      "Ġà¤®à¤¾à¤¨à¤¸": 5735,
      "Ġsustain": 5736,
      "Ġlarger": 5737,
      "Ġà¤¬à¥Ģà¤ľà¥ĩà¤ªà¥Ģ": 5738,
      "Ġà¤¸à¥Ĥà¤¤à¥įà¤°": 5739,
      "Ġà¤µà¤¿à¤¶à¥įà¤µà¤µà¤¿à¤¦à¥įà¤¯à¤¾à¤²à¤¯": 5740,
      "inct": 5741,
      "ĠWork": 5742,
      "à¤µà¥Ģà¤Ĥ": 5743,
      "Ġà¤¬à¥ģà¤¦à¥įà¤§": 5744,
      "ĠRet": 5745,
      "Ġà¤¡à¤¿à¤Ĺ": 5746,
      "à¤®à¤¿à¤ķ": 5747,
      "Ġà¤ıà¤Ĥà¤¡": 5748,
      "Ġeasily": 5749,
      "Ġwhose": 5750,
      "Ġcontribut": 5751,
      "vention": 5752,
      "Ġà¤ķà¤¾à¤¨à¥Ĥà¤¨": 5753,
      "Ġà¤ªà¤¡à¤¼à¤¾": 5754,
      "Ġoffer": 5755,
      "Ġanaly": 5756,
      "Ġbad": 5757,
      "Ġà¤ķà¤¿à¤¯à¥ĩ": 5758,
      "Ġà¤°à¥ģà¤ªà¤¯": 5759,
      "Ġtowards": 5760,
      "Ġà¤ªà¤°à¤¤": 5761,
      "Ġdaily": 5762,
      "à¤°à¥Ģà¤²": 5763,
      "Ġbeginning": 5764,
      "Ġà¤¶à¥ģà¤°à¥ģà¤Ĩà¤¤": 5765,
      "Ġprior": 5766,
      "Ġà¤ĺà¤Łà¤¨": 5767,
      "âĢĻll": 5768,
      "Ġà¤ĩà¤Ĥà¤ľ": 5769,
      "à¥ĩà¤¶à¤¾": 5770,
      "vant": 5771,
      "Ġà¤¤à¤¾à¤ª": 5772,
      "Ġancient": 5773,
      "Ġculture": 5774,
      "Ġà¤ħà¤¸à¤¤à¥ĩ.": 5775,
      "à¤Ĩà¤ª": 5776,
      "Ġà¤īà¤¦à¤¾à¤¹à¤°à¤£": 5777,
      "Ġà¤¸à¥įà¤µà¤°à¥Ĥà¤ª": 5778,
      "Ġà¤ķà¤¿à¤¸à¤¾à¤¨à¥ĭà¤Ĥ": 5779,
      "Ġhar": 5780,
      "Ġnorth": 5781,
      "Ġcommunic": 5782,
      "Ġlimit": 5783,
      "Ġà¤łà¤¿à¤ķà¤¾à¤£à¥Ģ": 5784,
      "à¤¬à¤²": 5785,
      "à¤ħà¤ª": 5786,
      "istry": 5787,
      "Ġà¤ħà¤Ĥà¤¤à¤¿à¤®": 5788,
      "olar": 5789,
      "Ġà¤¦à¤¿à¤ĸà¤¾à¤Ī": 5790,
      "Ġà¤Ĺà¥įà¤°à¤¹": 5791,
      "ming": 5792,
      "Ġ'à¤®": 5793,
      "à¤°à¤¿à¤¤": 5794,
      "Ġdirectly": 5795,
      "Ġprotection": 5796,
      "Ġà¤ªà¤°à¤¨à¥įà¤¤à¥ģ": 5797,
      "Ġpack": 5798,
      "Ġà¤µà¤¿à¤¸": 5799,
      "Ġà¤ħà¤¸à¤²à¥įà¤¯à¤¾à¤¨à¥ĩ": 5800,
      "Ġà¤Ĩà¤¯à¥ĭà¤ľà¤¨": 5801,
      "Ġ#": 5802,
      "rogen": 5803,
      "Ġlost": 5804,
      "Ġbank": 5805,
      "Ġà¤¨à¤¿à¤ľ": 5806,
      "Ġà¤ªà¥įà¤°à¤¾à¤°": 5807,
      "ĠSch": 5808,
      "eed": 5809,
      "Ġappropriate": 5810,
      "Ġà¤µà¥įà¤¯à¤µà¤¹à¤¾à¤°": 5811,
      "Ġleading": 5812,
      "Ġà¤®à¤¾à¤²à¤¿à¤ķ": 5813,
      "arian": 5814,
      "Ġà¤¤à¥ģ": 5815,
      "ĠMod": 5816,
      "à¤ªà¤¦": 5817,
      "Ġ(E": 5818,
      "Ġaim": 5819,
      "à¥ħà¤Ł": 5820,
      "Ġstarted": 5821,
      "Ġà¤¸à¤ļà¤¿à¤µ": 5822,
      "vert": 5823,
      "able.": 5824,
      "Ġstay": 5825,
      "Ġwebsite": 5826,
      "Ġà¤ķà¤°à¥Ģà¤¤": 5827,
      "Ġà¤¤à¤¥": 5828,
      "à¤¾à¤¤.": 5829,
      "In": 5830,
      "Ġà¤ªà¤°à¥įà¤¯": 5831,
      "ension": 5832,
      "Ġpage": 5833,
      "udd": 5834,
      "iverse": 5835,
      "Ġ(s": 5836,
      "Ġpurpose": 5837,
      "aches": 5838,
      "Ġà¤¶à¤¿à¤ķà¤¾à¤¯à¤¤": 5839,
      "Ġprivate": 5840,
      "Ġit's": 5841,
      "ĠAlso": 5842,
      "Ġelse": 5843,
      "Ġà¤ľà¤µà¤¾à¤¬": 5844,
      "à¤¤à¥ģ": 5845,
      "Ġclin": 5846,
      "à¤£à¥įà¤¯à¤¾à¤¸": 5847,
      "Ġdecl": 5848,
      "Ġà¤¹à¤¾à¤¸à¤¿à¤²": 5849,
      "Ġà¤¤à¥ĩà¤µà¥įà¤¹à¤¾": 5850,
      "ius": 5851,
      "Ġà¤ħà¤Ńà¥įà¤¯à¤¾à¤¸": 5852,
      "Ġà¤ªà¥ģà¤¢à¥ĩ": 5853,
      "Ġà¤¸à¥Ģà¤®à¤¾": 5854,
      "Ġà¤ķà¥Įà¤¨": 5855,
      "ĠThen": 5856,
      ".)": 5857,
      "Ġissue": 5858,
      "Ġà¤ķà¤¿à¤¨à¥įà¤¤à¥ģ": 5859,
      "à¤¾à¤ķà¥įà¤·": 5860,
      "Ġindustr": 5861,
      "à¤ķà¤±": 5862,
      "à¥ĭà¤³": 5863,
      "Ġmom": 5864,
      "Ġà¤Łà¥įà¤µà¤¿à¤Ł": 5865,
      "à¥ĩà¤«": 5866,
      "Ġaccur": 5867,
      "Ġproces": 5868,
      "pro": 5869,
      "ĠWhy": 5870,
      "Ġà¤ķà¤¿à¤²à¥ĭ": 5871,
      "Ġà¤¦à¤¾à¤µà¤¾": 5872,
      "ows": 5873,
      "ises": 5874,
      "Ġpropert": 5875,
      "Ġis,": 5876,
      "Ġmount": 5877,
      "ĠSim": 5878,
      "Ġà¤īà¤²à¥įà¤²à¥ĩà¤ĸ": 5879,
      "Ġà¤¬à¤¯à¤¾à¤¨": 5880,
      "à¤ľà¤¨à¤¿à¤ķ": 5881,
      "Ġà¤µà¤°à¥įà¤¤à¤®à¤¾à¤¨": 5882,
      "Ġdark": 5883,
      "Ġcapital": 5884,
      "nam": 5885,
      "Ġorganiz": 5886,
      "à¤¤à¥įà¤¤à¤¿": 5887,
      "ĠCong": 5888,
      "ĠAssoci": 5889,
      "ĠPark": 5890,
      "Ġdemand": 5891,
      "Ġfast": 5892,
      "à¥Ĥà¤£": 5893,
      "Ġmonths": 5894,
      "Ġ(H": 5895,
      "Ġsymb": 5896,
      "à¤µà¤¾à¤¹": 5897,
      "Ġà¤µà¤¿à¤¤à¥įà¤¤": 5898,
      "ĠGree": 5899,
      "Ġvideo": 5900,
      "Ġà¤ħà¤¸à¥ĩà¤²": 5901,
      "Ġattention": 5902,
      "dd": 5903,
      "Ġhundred": 5904,
      "à¥ĩà¤¤à¤¾": 5905,
      "à¥Īà¤¸": 5906,
      "à¥įà¤¯à¤¾à¤¬": 5907,
      "à¥ĩà¤·à¥įà¤ł": 5908,
      "Ġà¤¥à¤¾à¤¨à¤¾": 5909,
      "Ġsea": 5910,
      "Ġà¤Ĺà¤¤": 5911,
      "Ġà¤µà¥ĩà¤¬à¤¸à¤¾à¤ĩà¤Ł": 5912,
      "Ġà¤µà¥įà¤¯à¤¾à¤ªà¤¾à¤°": 5913,
      "ism,": 5914,
      "Ġsafety": 5915,
      "Ġadminist": 5916,
      "bit": 5917,
      "Ġ(G": 5918,
      "Ġlargest": 5919,
      ".com": 5920,
      "Ġà¤ļà¥Įà¤ķ": 5921,
      "Ġshall": 5922,
      "Ġà¤¬à¥ĩà¤¹à¤¤à¤°": 5923,
      "ening": 5924,
      "Ġà¤²à¤µ": 5925,
      "Ġà¤¯à¤¾à¤µà¥ĩà¤³à¥Ģ": 5926,
      "Ġà¤ĺà¤¾à¤²": 5927,
      "gn": 5928,
      "à¤¿à¤µà¤°à¥įà¤¸": 5929,
      "ĠApril": 5930,
      "fort": 5931,
      "aid": 5932,
      "Ġà¤Ĩà¤¯à¥ĭà¤Ĺ": 5933,
      "Ġà¤ªà¤¤à¥įà¤°à¤ķà¤¾à¤°": 5934,
      "a)": 5935,
      "Ġà¤¸à¤§à¥įà¤¯à¤¾": 5936,
      "à¤¨à¤Ĺà¤°": 5937,
      "Ġà¤ªà¥Ĥà¤ľà¤¾": 5938,
      "Ġbrought": 5939,
      "Ġà¤¡à¤¿à¤Ĺà¥įà¤°à¥Ģ": 5940,
      "Ġkids": 5941,
      "Ġà¤¬à¤ģ": 5942,
      "Ġà¤ķà¤²à¥įà¤ª": 5943,
      "à¤¨à¥ĩà¤¸": 5944,
      "Ġà¤¹à¤¿à¤®": 5945,
      "à¥ĭà¤Ĥà¤¦": 5946,
      "à¤°à¤¦": 5947,
      "Ġfinancial": 5948,
      "rag": 5949,
      "à¥ĭà¤ļ": 5950,
      "Ġrat": 5951,
      "Ġà¤ħà¤ķà¥įà¤·": 5952,
      "Ġquant": 5953,
      "Ġà¤¹à¤¿à¤¸à¥įà¤¸à¤¾": 5954,
      "Ġsearch": 5955,
      "ĠMc": 5956,
      "come": 5957,
      "Ġà¤«à¥Ģà¤¸": 5958,
      "Ġà¤§à¤°": 5959,
      "Ġà¤ķà¥Īà¤²": 5960,
      "et,": 5961,
      "Ġà¤¶à¤ķà¥įà¤¤à¤¿": 5962,
      "Ġà¤ļà¤Ĥà¤¦à¥įà¤°": 5963,
      "Ġ(L": 5964,
      "Ġagricult": 5965,
      "à¤®à¥ģà¤³à¥ĩ": 5966,
      "Ġà¤Ĺà¥įà¤°à¤¾à¤¹": 5967,
      "Ġgot": 5968,
      "à¤¾à¤Ĥà¤¶": 5969,
      "Ġinfluence": 5970,
      "Ġà¤Ńà¤¾à¤°à¥Ģ": 5971,
      "Ġcred": 5972,
      "à¥ģà¤ĥ": 5973,
      "Ġcontains": 5974,
      "ham": 5975,
      "Ġà¤¸à¤®à¥įà¤¬à¤¨à¥įà¤§": 5976,
      "ĠArm": 5977,
      "à¥ģà¤°à¥ģ": 5978,
      "Ġà¤ªà¥įà¤°à¤¤à¤¿à¤ķ": 5979,
      "Ġà¤¸à¥ĭà¤ļ": 5980,
      "ĠInstitute": 5981,
      "-g": 5982,
      "Ġfriend": 5983,
      "alt": 5984,
      "Ġsugar": 5985,
      "Ġà¤µà¥įà¤¯à¤µà¤¸à¤¾à¤¯": 5986,
      "Ġand,": 5987,
      "ics.": 5988,
      "Ġà¤²à¤¿à¤¯à¤¾à¥¤": 5989,
      "ĠTrans": 5990,
      "à¤°à¥įà¤ľà¥Ģ": 5991,
      "Ġexact": 5992,
      "Ġjud": 5993,
      "Ġà¤¬à¤Ĥà¤Ĺ": 5994,
      "ĠHistory": 5995,
      "ED": 5996,
      "Ġcrim": 5997,
      "Ġsoftware": 5998,
      "ened": 5999,
      "Ġsystem.": 6000,
      "itch": 6001,
      "à¤¡à¤¼à¥ĭà¤Ĥ": 6002,
      "Ġà¤Ľà¥ĭà¤Łà¥ĩ": 6003,
      "ĠFin": 6004,
      "Ġà¤ķà¤°à¤£à¥ĩ": 6005,
      "Ġitem": 6006,
      "à¥īà¤¯": 6007,
      "Ġà¤ļà¤°à¤£": 6008,
      "ĠRiver": 6009,
      "Ġprograms": 6010,
      "Ġcapac": 6011,
      "hest": 6012,
      "Ġà¤ľà¤¾à¤ıà¤Ĥà¤Ĺ": 6013,
      "Ġà¤µà¤¿à¤§à¤¾à¤¯à¤ķ": 6014,
      "Ġà¤ķà¥įà¤µ": 6015,
      "ops": 6016,
      "ira": 6017,
      "oming": 6018,
      "ĠJune": 6019,
      "Ġdoctor": 6020,
      "ĠDis": 6021,
      "à¤¸à¥įà¤Łà¥įà¤°à¥ĩà¤²": 6022,
      "Ġà¤¸à¤Ĥà¤ľà¤¯": 6023,
      "Ġreach": 6024,
      "back": 6025,
      "Ġà¤°à¤¹à¤¤à¥Ģ": 6026,
      "Ġà¤Ĩà¤°à¥ĭà¤Ĺ": 6027,
      "Ġlength": 6028,
      "Ġà¤¸à¤¾à¤°à¥įà¤µà¤ľà¤¨à¤¿à¤ķ": 6029,
      "à¤µà¥ĩà¤Ĥ": 6030,
      "Ġwa": 6031,
      "Ġcarry": 6032,
      "à¤¯à¥Ĥ": 6033,
      "ights": 6034,
      "arr": 6035,
      "Ġà¤¦à¤°à¤®": 6036,
      "ĠInst": 6037,
      "imal": 6038,
      "Ġtransl": 6039,
      "Ġadop": 6040,
      "âĢĿ.": 6041,
      "Ġcommand": 6042,
      "à¤Ĺà¤²": 6043,
      "à¤Ĥà¤ķà¤¾": 6044,
      "Ġbeaut": 6045,
      "à¤¦à¥ĩ": 6046,
      "Ġestablish": 6047,
      "ĠPresident": 6048,
      "Ġà¤Īà¤¶": 6049,
      "Ġà¤¤à¤¾à¤ķà¤¿": 6050,
      "ĠEc": 6051,
      "Ġsoon": 6052,
      "Ġà¤°à¤ľ": 6053,
      "Ġà¤¸à¤®à¥įà¤®à¤¾à¤¨": 6054,
      "Ġdamage": 6055,
      "Ġlocated": 6056,
      "Ġà¤¬à¤²à¥įà¤²à¥ĩà¤¬": 6057,
      "à¤¾à¤īà¤Ĥà¤Ł": 6058,
      "Ġvirus": 6059,
      "Ġà¤ªà¤¾à¤¯à¤¾": 6060,
      "ibrary": 6061,
      "à¤°à¥įà¤¬": 6062,
      "ĠyouâĢĻre": 6063,
      "Ġegg": 6064,
      "Ġ(T": 6065,
      "à¤¤à¤¾à¤¨à¤¾": 6066,
      "Ġà¤¨à¤¿à¤¶à¥įà¤ļà¤¿à¤¤": 6067,
      "à¤ªà¤¾": 6068,
      "à¥ĭà¤¤à¥įà¤¸": 6069,
      "Ġà¤łà¤¾à¤ķà¤°à¥ĩ": 6070,
      "à¤µà¤³": 6071,
      "ĠHigh": 6072,
      "Ġexcept": 6073,
      "Ġà¤ľà¤®à¥Ģà¤¨": 6074,
      "Ġà¤ħà¤®à¥ĩà¤°à¤¿à¤ķà¤¾": 6075,
      "Ġrequires": 6076,
      "Ġtrack": 6077,
      "....": 6078,
      "à¥ĩà¤Ĺ": 6079,
      "à¤¦à¥įà¤µ": 6080,
      "ĠCenter": 6081,
      "Ġteachers": 6082,
      "gy": 6083,
      "Ġep": 6084,
      "Ġsouth": 6085,
      "ĠTechn": 6086,
      "IV": 6087,
      "Ġà¤¹à¤µ": 6088,
      "Ġà¤Ŀà¤¾à¤²à¤¾.": 6089,
      "à¤®à¥įà¤Ń": 6090,
      "Ġtold": 6091,
      "Ġà¤ħà¤¨à¥ģ": 6092,
      "Ġà¤®à¥ģà¤ķà¤¾à¤¬": 6093,
      "cial": 6094,
      "Ġyear.": 6095,
      "Ġnearly": 6096,
      "Ġprogress": 6097,
      "Ġà¤¸à¥Ī": 6098,
      "Ġcool": 6099,
      "ody": 6100,
      "Ġà¤ķà¤¿à¤®": 6101,
      "Ġdisp": 6102,
      "Ġtheory": 6103,
      "i)": 6104,
      "à¤¾à¤Ĺà¤¤": 6105,
      "Ġà¤¨à¤¿à¤¦": 6106,
      "Ġà¤Łà¥Ī": 6107,
      "à¤¤à¤¾à¤ĵà¤Ĥ": 6108,
      "Ġà¤¸à¥Ĥà¤°à¥įà¤¯": 6109,
      "ĠChines": 6110,
      "à¤¾à¤¨à¥ģà¤¸à¤¾à¤°": 6111,
      "Ġà¤§à¤®": 6112,
      "aul": 6113,
      "Ġà¤ĸà¥Ĥà¤¬": 6114,
      "Ġà¤¤à¥įà¤¯à¤¾à¤ļà¤¾": 6115,
      "ĠPeople": 6116,
      "Ġà¤ĸà¤¾à¤¦": 6117,
      "Ġà¤ħà¤¸à¤¤à¤¾à¤¨à¤¾": 6118,
      "Ġà¤¸à¤°à¥įà¤µà¤¾à¤¤": 6119,
      "Ġteaching": 6120,
      "ss": 6121,
      "Ġà¤Ĩà¤®à¤¦à¤¾à¤°": 6122,
      "Ġà¤®à¤¾à¤®à¤²à¥ĭà¤Ĥ": 6123,
      "à¤¤à¤¾.": 6124,
      "à¤¾à¤¨à¤¦à¤¾à¤°": 6125,
      "cohol": 6126,
      "Ġisland": 6127,
      "ĠPat": 6128,
      "vest": 6129,
      "Ġ(the": 6130,
      "Ġà¤®à¤¾à¤°à¥įà¤ķ": 6131,
      "Ġà¤®à¤¸": 6132,
      "uit": 6133,
      "Ġfit": 6134,
      "Ġà¤ļà¥įà¤¯à¤¾": 6135,
      "Ġà¤Łà¤¿à¤ķ": 6136,
      "à¤¾à¤ĩà¤ķ": 6137,
      "Ġveh": 6138,
      "Ġà¤«à¥Īà¤¸à¤²à¤¾": 6139,
      "load": 6140,
      "Ġà¤¸à¤²à¤¾à¤¹": 6141,
      "head": 6142,
      "Ġbecomes": 6143,
      "ĠBi": 6144,
      "Ġschools": 6145,
      "ĠJust": 6146,
      "Ġà¤µà¤¾à¤¤": 6147,
      "à¤¯à¤¹": 6148,
      "Ġsurround": 6149,
      "Ġfather": 6150,
      "Ġfruit": 6151,
      "Ġà¤¸à¤®à¥įà¤ª": 6152,
      "Ġà¤¨à¤¹à¥Ģà¤Ĥ,": 6153,
      "estic": 6154,
      "ĠEngland": 6155,
      "Ġà¤µà¤¾à¤ªà¤¸": 6156,
      "-y": 6157,
      "Ġult": 6158,
      "à¥įà¤®à¥Ģà¤°": 6159,
      "Ġhimself": 6160,
      "Ġà¤¯à¥ģà¤µà¤ķ": 6161,
      "Ġsn": 6162,
      "Ġagree": 6163,
      "à¥įà¤¯à¤¾à¤¹à¥Ģ": 6164,
      "equ": 6165,
      "Ġdead": 6166,
      "Ġrare": 6167,
      "mar": 6168,
      "Ġenjoy": 6169,
      "Ġà¤¤à¥įà¤¯à¤¾à¤¨à¥ĩ": 6170,
      "ender": 6171,
      "Ġdescribed": 6172,
      "Ġà¤ķà¥ĥà¤·à¥įà¤£": 6173,
      "Ġcitiz": 6174,
      "Ġunc": 6175,
      "rig": 6176,
      "ĠDevelop": 6177,
      "à¤µà¤¡": 6178,
      "atur": 6179,
      "ĠRed": 6180,
      "à¤¾à¤ªà¤°": 6181,
      "oke": 6182,
      "Ġvict": 6183,
      "Ġà¤¸à¤®à¥Ĥà¤¹": 6184,
      "Ġunit": 6185,
      "Ġà¤¸à¥ģà¤°à¤ķà¥įà¤·à¤¿à¤¤": 6186,
      "Ġà¤Ĺà¥ĩà¤²à¥įà¤¯à¤¾": 6187,
      "Ġmole": 6188,
      "Ġà¤¸à¤Ĺà¤³": 6189,
      "Ġà¤ķà¥ĩà¤µà¤³": 6190,
      "Ġà¤¸à¤¤à¥įà¤¯": 6191,
      "isions": 6192,
      "à¤±à¥įà¤¯à¤¾": 6193,
      "EN": 6194,
      "Ġast": 6195,
      "Ġà¤¶à¤¾à¤³": 6196,
      "Ġstru": 6197,
      "Ġfuel": 6198,
      "Ġpolicy": 6199,
      "Ġrespond": 6200,
      "Ġlabor": 6201,
      "Ġà¤®à¤¦à¤¤": 6202,
      "Ġà¤ľà¤¾à¤ıà¤Ĺà¥Ģà¥¤": 6203,
      "à¥įà¤°à¥ĭ": 6204,
      "IS": 6205,
      "Ġadded": 6206,
      "Ġà¤°à¤¿à¤ķ": 6207,
      "ent,": 6208,
      ");": 6209,
      "ogen": 6210,
      "Ġroom": 6211,
      "ĠDay": 6212,
      "Ġevents": 6213,
      "Ġà¤®à¥ĭà¤¹": 6214,
      "ĠWilliam": 6215,
      "Ġà¤ķà¤¸": 6216,
      "ĠWashing": 6217,
      "itation": 6218,
      "Ġcontext": 6219,
      "Ġreceived": 6220,
      "rael": 6221,
      "Ġfoods": 6222,
      "à¤¾à¤¯à¤£": 6223,
      "IT": 6224,
      "Ġtypically": 6225,
      "resh": 6226,
      "Ġsummer": 6227,
      "Ġborn": 6228,
      "Ġmention": 6229,
      "ĠAre": 6230,
      "igr": 6231,
      "Ġhous": 6232,
      "à¤²à¥Ģ,": 6233,
      "Ġà¤ķà¥ĭà¤°à¥ĭà¤¨": 6234,
      "à¤¾à¤¸à¤¾": 6235,
      "ospital": 6236,
      "à¤Łà¥įà¤Ł": 6237,
      "Ġà¤¤à¤¿à¤¥": 6238,
      "itude": 6239,
      "'re": 6240,
      "ĠOver": 6241,
      "ĠFeb": 6242,
      "Ġà¤ķà¤¿à¤¸à¤¾à¤¨": 6243,
      "Ġpan": 6244,
      "Ġà¤ķà¤°à¤¾à¤µ": 6245,
      "Ġsaw": 6246,
      "itect": 6247,
      "Ġrapid": 6248,
      "Ġdiabet": 6249,
      "Ġdigital": 6250,
      "iter": 6251,
      "Ġprofessional": 6252,
      "Ġteach": 6253,
      "Ġà¤ªà¤¤à¤¿": 6254,
      "ĠLet": 6255,
      "Ġà¤¤à¤ªà¤¾à¤¸": 6256,
      "al.": 6257,
      "Ġà¤ļà¥Ī": 6258,
      "Ġà¤¯à¥Ĥà¤¨à¤¿à¤µà¤°à¥įà¤¸": 6259,
      "à¤°à¤¾à¤µ": 6260,
      "Ġà¤¹à¥ĥ": 6261,
      "Ġnumbers": 6262,
      "iece": 6263,
      "Ġà¤ĸà¤°à¥ĩ": 6264,
      "cember": 6265,
      "ology,": 6266,
      "Ġà¤¹à¥ģà¤Ĩà¥¤": 6267,
      "Ġrecommend": 6268,
      "à¤«à¤¼": 6269,
      "raw": 6270,
      "Ġà¤¨à¤¿à¤¯à¤Ĥà¤¤à¥įà¤°à¤£": 6271,
      "ĠJanuary": 6272,
      "Ġsources": 6273,
      "Ġà¤¸à¤®à¤¾à¤µ": 6274,
      "Ġfederal": 6275,
      "rick": 6276,
      "Ġà¤¸à¥įà¤µà¤¤à¤Ĥà¤¤à¥įà¤°": 6277,
      "Ġà¤Ĩà¤µà¤¾à¤ľ": 6278,
      "Ġcoast": 6279,
      "Ġà¤¡à¤¾à¤¯": 6280,
      "Ġdon't": 6281,
      "rong": 6282,
      "Ġà¤ķà¥ĭà¤£à¤¤": 6283,
      "aur": 6284,
      "Ġpoints": 6285,
      "Ġconstruction": 6286,
      "Ġreligious": 6287,
      "ovember": 6288,
      "ic,": 6289,
      "Ġà¤¹à¤®à¥ĩà¤¶à¤¾": 6290,
      "Ġà¤¦à¥Ĥ": 6291,
      "Ġà¤Ńà¥Ĥà¤®à¤¿": 6292,
      "Ġlimited": 6293,
      "Ġà¤ªà¥ģà¤¸à¥įà¤¤à¤ķ": 6294,
      "à¥Ģà¤ļà¥įà¤¯à¤¾": 6295,
      "Ġà¤ªà¥įà¤°à¤¶à¤¿à¤ķà¥įà¤·à¤£": 6296,
      "apter": 6297,
      "à¤¤à¥įà¤¤à¤°": 6298,
      "ĠBlack": 6299,
      "Ġà¤ªà¤¹à¤¿à¤²": 6300,
      "ĠVir": 6301,
      "Ġà¤Ĺà¥ĥà¤¹": 6302,
      "Ġà¤¸à¤¿à¤¤": 6303,
      "à¥įà¤¯à¤¾à¤ķà¤¡à¥ĩ": 6304,
      "rab": 6305,
      "Ġà¤¸à¤®à¤°à¥įà¤¥à¤¨": 6306,
      "ĠRoman": 6307,
      "Ġcold": 6308,
      "Ġà¤¦à¥ĩà¤°": 6309,
      "à¤°à¤¤": 6310,
      "pper": 6311,
      "Ġà¤Ĩà¤¢": 6312,
      "ĠJournal": 6313,
      "Ġmonitor": 6314,
      "orts": 6315,
      "Ġà¤¹à¥ĩà¤¤": 6316,
      "ence,": 6317,
      "Ġà¤ĸà¤°à¥Ģà¤¦": 6318,
      "ĠAnother": 6319,
      "Ġdepend": 6320,
      "ĠUse": 6321,
      "Ġà¤ħà¤Ńà¤¿à¤¯à¤¾à¤¨": 6322,
      "ĠGreat": 6323,
      "ĠJuly": 6324,
      "Ġupd": 6325,
      "Ġà¤¨à¤¿à¤µà¤¾à¤¸à¥Ģ": 6326,
      "Ġcultural": 6327,
      "à¤¸à¤¿à¤¤": 6328,
      "unch": 6329,
      "Ġsecurity": 6330,
      "Ġà¤¤à¤¾à¤ľ": 6331,
      "à¤²à¥ĩ,": 6332,
      "Ġà¤ķà¥ĭà¤µà¤¿à¤¡": 6333,
      "Ġà¤ľà¥ĩà¤²": 6334,
      "Ġinfl": 6335,
      "Ġfib": 6336,
      "ĠEach": 6337,
      "Ġà¤µà¤¹à¤¾à¤ģ": 6338,
      "Ġder": 6339,
      "à¥įà¤¯à¤¾à¤Ĺ": 6340,
      "Ġà¤ķà¤¶": 6341,
      "Ġpet": 6342,
      "Ġpredict": 6343,
      "à¤¿à¤ĵ": 6344,
      "Ġà¤¸à¤¡à¤¼à¤ķ": 6345,
      "ades": 6346,
      "Ġcou": 6347,
      "Ġà¤¦à¤¿à¤²à¤¾": 6348,
      "Ġguid": 6349,
      "Ġà¤¦à¥ĭà¤·": 6350,
      "Ġstar": 6351,
      "hens": 6352,
      "Ġremains": 6353,
      "ĠSur": 6354,
      "ĠSeptember": 6355,
      "Ġà¤¨à¤¿à¤ķà¤¾à¤¯": 6356,
      "Ġresponsible": 6357,
      "Ġà¤ĩà¤Ĥà¤Ĺà¥įà¤²": 6358,
      "Ġinstall": 6359,
      "Ġanswer": 6360,
      "Ġà¤ľà¥ĩà¤µ": 6361,
      "ĠCour": 6362,
      "Ġadapt": 6363,
      "Ġà¤µà¤¾à¤²à¥ĭà¤Ĥ": 6364,
      "ĠCoun": 6365,
      "Ġà¤ħà¤§à¥įà¤¯": 6366,
      "à¤¾à¤¨à¥ĩà¤Ĥ": 6367,
      "Ġadj": 6368,
      "Ġbul": 6369,
      "Ġgives": 6370,
      "lim": 6371,
      "Ġà¤īà¤²": 6372,
      "à¤¤à¥ĩ,": 6373,
      "Ġcompanies": 6374,
      "ford": 6375,
      "Ġà¤¦à¤°à¤®à¥įà¤¯à¤¾à¤¨": 6376,
      "ĠCommun": 6377,
      "Ġà¤¯à¤¾à¤Ĥà¤ļà¥Ģ": 6378,
      "irection": 6379,
      "ourc": 6380,
      "Ġà¤¸à¤®à¤¾à¤§": 6381,
      "Ġcreating": 6382,
      "à¥ĩà¤ķà¥įà¤Ł": 6383,
      "à¤Ĺà¥įà¤°à¥Ģ": 6384,
      "Ġà¤¨à¤¯à¥ĩ": 6385,
      "Ġà¤Ńà¥Ĥ": 6386,
      "ps": 6387,
      "à¤Ĥà¤ķà¤°": 6388,
      "ĠWater": 6389,
      "formation": 6390,
      "Ġà¤ľà¤µà¤³": 6391,
      "ription": 6392,
      "à¤¾à¤Łà¤¾": 6393,
      "Ġà¤¸à¥ĭà¤®à¤µà¤¾à¤°": 6394,
      "Ġfinal": 6395,
      "à¥ģà¤ģ": 6396,
      "Ġscreen": 6397,
      "Ġà¤°à¥ĭà¤¡": 6398,
      "à¤¾à¤ªà¤¾à¤¸à¥Ĥà¤¨": 6399,
      "ĠOnce": 6400,
      "omb": 6401,
      "Ġà¤¯à¤¾à¤¨à¥Ģ": 6402,
      "Ġà¤ĺà¤Ĥà¤Łà¥ĩ": 6403,
      "Ġà¤ªà¥įà¤°à¤¤à¤¿à¤¬": 6404,
      "à¤īà¤¨": 6405,
      "ĠLaw": 6406,
      "Ġà¤¸à¤¾à¤Ĥà¤¸à¤¦": 6407,
      "à¥ĩà¤Ĥà¤¬à¤°": 6408,
      "Ġbeyond": 6409,
      "Ġfilm": 6410,
      "Ġwrite": 6411,
      "à¥įà¤°à¤®à¤¾à¤£à¥ĩ": 6412,
      "Ġcele": 6413,
      "ated.": 6414,
      "Ġelement": 6415,
      "ĠIS": 6416,
      "Ġmix": 6417,
      "ĠChinese": 6418,
      "Ġà¤ķà¤°à¥įà¤®à¤ļà¤¾à¤°à¥Ģ": 6419,
      "Ġà¤Ĺà¥Į": 6420,
      "à¤ªà¤¨": 6421,
      "à¤¬à¤Ĥà¤§à¤¨": 6422,
      "Ġà¤īà¤¸à¤®à¥ĩà¤Ĥ": 6423,
      "Ġadvant": 6424,
      "Ġà¤Ĩà¤²à¥Ģ.": 6425,
      "Ġlives": 6426,
      "Ġequip": 6427,
      "Ġà¤ªà¤¾à¤ı": 6428,
      "Ġseason": 6429,
      "Ġà¤ħà¤¨à¥ģà¤°": 6430,
      "à¤¾à¤¨à¥Ģà¤¯": 6431,
      "rote": 6432,
      "Ġà¤ħà¤°à¥įà¤¥à¤¾à¤¤à¥į": 6433,
      "Ġtit": 6434,
      "Ġà¤«à¤°": 6435,
      "Ġseek": 6436,
      "Ġà¤¨à¤¸à¤²": 6437,
      "Ġà¤¤à¤¾à¤²à¥ģà¤ķ": 6438,
      "Ġcrop": 6439,
      "Ġà¤ķà¤¦à¤®": 6440,
      "ĠJesus": 6441,
      "ĠSan": 6442,
      "Ġà¤¤à¥ģà¤®à¥įà¤¹à¤¾à¤²à¤¾": 6443,
      "anish": 6444,
      "à¤²à¤¾,": 6445,
      "Ġà¤¹à¤¾à¤Ī": 6446,
      "enge": 6447,
      "Ġà¤®à¤¾à¤£": 6448,
      "Ġà¤ķà¤°à¤£à¥įà¤¯à¤¾à¤ļà¥Ģ": 6449,
      "Ġthem,": 6450,
      "Ġà¤µà¥ĩà¤Ĺ": 6451,
      "Ġweb": 6452,
      "Ġliv": 6453,
      "Ġi": 6454,
      "à¤Łà¤¨à¥ĩ": 6455,
      "Ġconstit": 6456,
      "à¤¦à¥įà¤°": 6457,
      "à¤§à¤¿": 6458,
      "à¤°à¤¾à¤·à¥įà¤Łà¥įà¤°à¥Ģà¤¯": 6459,
      "à¤¾à¤µà¤Ł": 6460,
      "Ġà¤°à¥ģ": 6461,
      "Ġ'à¤¸": 6462,
      "ÙĦ": 6463,
      "ĠOctober": 6464,
      "à¥įà¤¯à¤¾à¤Ĥà¤ļà¥Ģ": 6465,
      "Ġbott": 6466,
      "Ġ(c": 6467,
      "à¤¾à¤ķà¤¡à¥ĩ": 6468,
      "Ġà¤ľà¤¿à¤²à¥įà¤¹à¤¾": 6469,
      "Ġtree": 6470,
      "-term": 6471,
      "Ġeye": 6472,
      "Ġnation": 6473,
      "Ġchoose": 6474,
      "Ġà¤µà¤¾à¤ľ": 6475,
      "Ġà¤«à¤ķà¥įà¤¤": 6476,
      "ĠSystem": 6477,
      "Ġhom": 6478,
      "Ġà¤µà¤¾à¤¯": 6479,
      "à¥ĥà¤¤à¤¿à¤ķ": 6480,
      "Ġà¤°à¤¾à¤ľà¤¸à¥įà¤¥à¤¾à¤¨": 6481,
      "Ġà¤Ŀà¤¾à¤²à¥Ģ.": 6482,
      "Ġcities": 6483,
      "Ġcru": 6484,
      "ocol": 6485,
      "Ġgenetic": 6486,
      "aries": 6487,
      "Ġbase": 6488,
      "Ġà¤Ńà¤µà¤¿à¤·à¥įà¤¯": 6489,
      "Ġmiddle": 6490,
      "sec": 6491,
      "Ġà¤ķà¥įà¤·à¥ĩà¤¤à¥įà¤°à¥ĭà¤Ĥ": 6492,
      "Ġà¤ªà¤Ĥà¤ļà¤¾à¤¯à¤¤": 6493,
      "Ġà¤Łà¤ķà¥įà¤ķà¥ĩ": 6494,
      "en.": 6495,
      "Ġà¤ħà¤¨à¥ģà¤ª": 6496,
      "-st": 6497,
      "à¤Ńà¥Ĥà¤®": 6498,
      "Ġgradu": 6499,
      "Ġautom": 6500,
      "Ġà¤¹à¥ī": 6501,
      "Ġà¤ªà¥įà¤°à¤ķà¤¾à¤¶à¤¿à¤¤": 6502,
      "Ġà¤īà¤®à¥įà¤®à¥Ģà¤¦à¤µà¤¾à¤°": 6503,
      "ĠIsrael": 6504,
      "ĠArch": 6505,
      "Ġbreat": 6506,
      "Ġcollection": 6507,
      "à¤¤à¤¨": 6508,
      "Ġconsequ": 6509,
      "à¥ĭà¤§à¤¨": 6510,
      "Ġà¤®à¥ĩà¤°à¤¾": 6511,
      "Ġà¤µà¤¿à¤®à¤¾à¤¨": 6512,
      "à¤¾à¤¬à¤¾à¤¬à¤¤": 6513,
      "Ġà¤¸à¥įà¤¥à¤¾à¤ªà¤¿à¤¤": 6514,
      "Ġriver": 6515,
      "Ġà¤¯à¥ĩà¤Ī": 6516,
      "à¤²à¤Ĥ.": 6517,
      "à¤®à¥ģà¤Ĥà¤¬à¤Ī": 6518,
      "ĠChina": 6519,
      "et.": 6520,
      "ĠChurch": 6521,
      "Ġlegal": 6522,
      "à¥ĩà¤Ĥà¤¸à¥Ģ": 6523,
      "Ġfact,": 6524,
      "Ġà¤¸à¥ģà¤°à¥ģà¤µ": 6525,
      "mosp": 6526,
      "Ġà¤Ĺà¥ģà¤ª": 6527,
      "Ġà¤¦à¤¿à¤²à¥Ģ.": 6528,
      "know": 6529,
      "ĠC.": 6530,
      "Ġmid": 6531,
      "Ġeating": 6532,
      "à¤¨à¤¾,": 6533,
      "Ġsociety": 6534,
      "ev": 6535,
      "-A": 6536,
      "ĠProf": 6537,
      "Ġtrial": 6538,
      "Ġhyp": 6539,
      "Ġinsp": 6540,
      "Ġà¤µà¤¿à¤ľà¥įà¤ŀà¤¾à¤¨": 6541,
      "à¥įà¤¯à¤¾,": 6542,
      "Ġà¤¸à¤¿à¤²": 6543,
      "isl": 6544,
      "imin": 6545,
      "Ġgain": 6546,
      "Ġsociet": 6547,
      "Ġà¤®à¥Īà¤¦à¤¾à¤¨": 6548,
      "Ġà¤ĳà¤¸à¥įà¤Łà¥įà¤°à¥ĩà¤²": 6549,
      "Ġà¤ļà¥ĩà¤¹": 6550,
      "Ġcontroll": 6551,
      "à¥īà¤¸": 6552,
      "à¥įà¤ĸ": 6553,
      "à¥Ģà¤ķà¤°à¤£": 6554,
      "à¥Ĥà¤°à¥įà¤£": 6555,
      "à¤¾à¤ĩà¤®": 6556,
      "Ġproviding": 6557,
      "ĠGeneral": 6558,
      "Ġfear": 6559,
      "see": 6560,
      "Ġà¤īà¤¦à¥įà¤¦à¥ĩà¤¶à¥įà¤¯": 6561,
      "ellig": 6562,
      "Ġà¤ķà¥ĩà¤²à¥ĩà¤²à¥įà¤¯à¤¾": 6563,
      "edom": 6564,
      "Ġà¤ªà¤²": 6565,
      "ĠTod": 6566,
      "Ġhon": 6567,
      "ately": 6568,
      "à¥Īà¤ķà¥Ģ": 6569,
      "ĠDon": 6570,
      "Ġà¤ªà¥įà¤°à¤Ńà¤¾à¤µà¤¿à¤¤": 6571,
      "Ġteeth": 6572,
      "C.": 6573,
      "Ġ(b": 6574,
      "Ġcook": 6575,
      "ĠEducation": 6576,
      "Ġal.": 6577,
      "à¤¾à¤Ĥà¤µ": 6578,
      "ĠCur": 6579,
      "Ġsupply": 6580,
      "à¤¨à¥įà¤¸": 6581,
      "Ġà¤ªà¥ģà¤°à¤¸à¥įà¤ķà¤¾à¤°": 6582,
      "Ġreas": 6583,
      "Ġà¤¦à¥ĭà¤ĺ": 6584,
      "Ġà¤ªà¤¾à¤²à¤¨": 6585,
      "à¤¿à¤µà¤¾à¤°à¥Ģ": 6586,
      "Ġsequ": 6587,
      "Ġà¤¶à¥ĩà¤¤à¤ķà¤±": 6588,
      "à¥ĩà¤°à¥Ģ": 6589,
      "à¥įà¤¤à¤¾à¤¨": 6590,
      "Ġà¤ķà¥ģà¤Łà¥ģà¤Ĥà¤¬": 6591,
      "Ġà¤¬à¤¨à¥Ģ": 6592,
      "à¥Ĥà¤ªà¥Ģ": 6593,
      "ive,": 6594,
      "Ġfile": 6595,
      "Ġà¤ªà¤¹à¤ļà¤¾à¤¨": 6596,
      "Ġund": 6597,
      "Ġà¤ķà¤¿à¤°": 6598,
      "Ġà¤¨à¤¿à¤¯à¥ģà¤ķà¥įà¤¤": 6599,
      "Ġà¤®à¤¾à¤¤à¤¾": 6600,
      "Ġà¤¤à¥Ĥ": 6601,
      "Ġà¤®à¥Ĥà¤²à¥įà¤¯": 6602,
      "Ġà¤¤à¥įà¤¯à¤¾à¤Ĥà¤ļà¥Ģ": 6603,
      "Ġà¤°à¤ķà¥įà¤¤": 6604,
      "Ġtools": 6605,
      "ĠProt": 6606,
      "Ġwinter": 6607,
      "Ġà¤ķà¤ªà¥Ĥà¤°": 6608,
      "à¤¿à¤°à¥ĭà¤§": 6609,
      "Ġquickly": 6610,
      "à¤¶à¥Ģà¤²": 6611,
      "ĠD.": 6612,
      "Ġà¤ªà¤¡à¤¼à¤¤à¤¾": 6613,
      "à¤¾à¤°à¥ĭà¤Ĥ": 6614,
      "ĠDecember": 6615,
      "exic": 6616,
      "Ġà¤ļà¤®": 6617,
      "Ġyourself": 6618,
      "à¤°à¤¾à¤®": 6619,
      "Ġsett": 6620,
      "à¤¾à¤¸à¥įà¤Ł": 6621,
      "Ġà¤¬à¤¾à¤¹à¥ĩà¤°": 6622,
      "Ġconflic": 6623,
      "Ġdestro": 6624,
      "Ġà¤¶à¤¾à¤¸": 6625,
      "Ġà¤¸à¤Ĥà¤ªà¤°à¥įà¤ķ": 6626,
      "Ġà¤®à¤¾à¤¤": 6627,
      "Ġten": 6628,
      "Ġà¤¬à¤¾à¤°à¤¿à¤¶": 6629,
      "Ġà¤¸à¥ģà¤®": 6630,
      "Ġà¤ķà¤°à¤¾à¤¯à¤¾": 6631,
      "Ġà¤¬à¤¾à¤µ": 6632,
      "Ġimportance": 6633,
      "Ġà¤Ŀà¤¾à¤²à¥ĩ.": 6634,
      "able,": 6635,
      "Ġvia": 6636,
      "ĠNovember": 6637,
      "à¤¸à¥įà¤¤à¥Ģ": 6638,
      "Ġyear,": 6639,
      "Ġwoman": 6640,
      "Ġà¤µà¤¿à¤µà¤¾à¤¹": 6641,
      "Ġformer": 6642,
      "le,": 6643,
      "à¤ķà¤¾à¤®": 6644,
      "à¤µà¥įà¤¯à¤µ": 6645,
      "ech": 6646,
      "Ġinstru": 6647,
      "Ġà¤®à¤ľà¤¬à¥Ĥà¤¤": 6648,
      "Ġà¤¸à¥ģà¤°à¥ģ": 6649,
      "Ġspeed": 6650,
      "Ġà¤ªà¥ī": 6651,
      "Ġ(or": 6652,
      "Ġkid": 6653,
      "Ġreceive": 6654,
      "Ġà¤ªà¥įà¤°à¤¾à¤£": 6655,
      "ĠEast": 6656,
      "Ġà¤Ĺà¤°à¥įà¤®": 6657,
      "Ġday.": 6658,
      "Ġelements": 6659,
      "à¤ªà¥įà¤°à¤§à¤¾à¤¨": 6660,
      "Ġà¤ĸà¤¾à¤¤": 6661,
      "Ġrain": 6662,
      "à¤Ĥà¤ļà¥Ģ": 6663,
      "ĠIsland": 6664,
      "Ġà¤¦à¥Ĥà¤¸à¤°à¤¾": 6665,
      "à¤°à¥Ģà¤¬": 6666,
      "pe": 6667,
      "Ġà¤®à¥īà¤¡": 6668,
      "atives": 6669,
      "Ġà¤¸à¤¿à¤¨à¥ĩà¤®": 6670,
      "ĠNA": 6671,
      "à¤§à¥ĩ": 6672,
      "Ġà¤¹à¥ĭà¥¤": 6673,
      "à¤¾à¤īà¤Ĥà¤¡": 6674,
      "Ġà¤ħà¤¨à¥ģà¤¸à¤¾à¤°,": 6675,
      "ĠAut": 6676,
      "Ġapprox": 6677,
      "Ġà¤¨à¤¯à¤¾": 6678,
      "Ġpurch": 6679,
      "ils": 6680,
      "Ġshap": 6681,
      "à¥įà¤¯à¤¾à¤ļà¤Ĥ": 6682,
      "à¤¾à¤ıà¤ģ": 6683,
      "ĠVal": 6684,
      "Ġà¤¤à¤°à¥Ģà¤ķà¥ĩ": 6685,
      "Ġà¤µà¤¿à¤µà¤¾à¤¦": 6686,
      "aught": 6687,
      "Ġà¤ĩà¤²à¤¾à¤ľ": 6688,
      "mission": 6689,
      "used": 6690,
      "ocr": 6691,
      "Ġneigh": 6692,
      "Ġà¤¯à¤¾à¤ª": 6693,
      "ively": 6694,
      "Ġoccup": 6695,
      "Ġcurrently": 6696,
      "Ġà¤®à¤Ī": 6697,
      "ingu": 6698,
      "Ġà¤¹à¥ĥà¤¦à¤¯": 6699,
      "Ġconstant": 6700,
      "ĠLond": 6701,
      "Ġà¤²à¤¾à¤Ĺà¤¤": 6702,
      "Ġ\"I": 6703,
      "Ġà¤°à¥Ī": 6704,
      "à¥ĭà¤²à¥ī": 6705,
      "Ġà¤Ĩà¤µà¥ĩà¤¦à¤¨": 6706,
      "à¤¾à¤µà¤°à¤£": 6707,
      "Ġtrying": 6708,
      "Ġà¤ªà¥ĩ": 6709,
      "Ġà¤²à¤Ĺà¤¾à¤¨à¥ĩ": 6710,
      "Ġà¤ķà¥ĩà¤¨à¥įà¤¦à¥įà¤°": 6711,
      "ype": 6712,
      "Ġroot": 6713,
      "Ġcalcul": 6714,
      "à¤¾à¤ªà¥Ĥà¤°": 6715,
      "à¤§à¤°": 6716,
      "à¥ģà¤¨à¤¿à¤ķ": 6717,
      "Ġà¤°à¤¿à¤²à¥Ģà¤ľ": 6718,
      "à¤®à¤¯": 6719,
      "à¤£à¤¾à¤°à¥ĩ": 6720,
      "ĠRel": 6721,
      "Ġà¤ľà¤¾à¤¤à¥ĩ.": 6722,
      "Ġà¤ķà¤°à¥ĩà¤Ĥà¤Ĺà¥ĩà¥¤": 6723,
      "les.": 6724,
      "Ġà¤ªà¥ĭà¤¹": 6725,
      "Ġà¤ħà¤®à¤¿à¤¤": 6726,
      "Ġ...": 6727,
      "Ġpoly": 6728,
      "Ġà¤Ĺà¥Īà¤°": 6729,
      "pris": 6730,
      "Ġhope": 6731,
      "Ġà¤¸à¥įà¤¥à¤¾à¤¨à¥Ģà¤¯": 6732,
      "Ġà¤¤à¥įà¤¯à¤¾à¤ļà¥Ģ": 6733,
      "Ġà¤ķà¥ĥà¤·à¤¿": 6734,
      "Ġà¤ıà¤ķà¤¤à¥įà¤°": 6735,
      "Ġà¤¸à¥ĭà¤¡": 6736,
      "à¤¸à¤¿à¤Ĥ": 6737,
      "aly": 6738,
      "Ġà¤Ĩà¤¦à¤®à¥Ģ": 6739,
      "à¥Ģà¤µ": 6740,
      "Ġleave": 6741,
      "ism.": 6742,
      "à¤ķà¤®": 6743,
      "Ġasked": 6744,
      "Ġswe": 6745,
      "à¤ıà¤ļ": 6746,
      "Ġvisual": 6747,
      "Ġà¤ķà¤Ĥà¤Ł": 6748,
      "Ġà¤®à¥ģà¤¶": 6749,
      "ought": 6750,
      "Ġà¤ľà¤¨à¤µà¤°à¥Ģ": 6751,
      "à¤ķà¤°,": 6752,
      "Ġà¤²à¤ķà¥įà¤·à¥įà¤¯": 6753,
      "Ġà¤ħà¤Ĥà¤¦à¤°": 6754,
      "Ġà¤°à¤¾à¤ľà¤¨à¥Ģà¤¤à¤¿à¤ķ": 6755,
      "ĠProgram": 6756,
      "Ġpregn": 6757,
      "rical": 6758,
      "ĠChe": 6759,
      "Ġmiles": 6760,
      "Ġnothing": 6761,
      "Ġorganization": 6762,
      "Ġà¤¤à¥įà¤¯à¤¾à¤Ĥà¤ļà¥ĩ": 6763,
      "Ġà¤ľà¥Īà¤¸à¥Ģ": 6764,
      "Ġà¤ªà¤¹à¤²à¤¾": 6765,
      "Ġà¤²à¤Ĺà¥Ģ": 6766,
      "Ġà¤°à¤¾à¤·à¥įà¤Łà¥įà¤°à¤ªà¤¤à¤¿": 6767,
      "urg": 6768,
      "à¤¨à¤¿": 6769,
      "Ġà¤Ńà¤°à¥įà¤¤à¥Ģ": 6770,
      "-S": 6771,
      "Ġmemory": 6772,
      "Ġà¤¸à¥įà¤¤à¥įà¤°à¥Ģ": 6773,
      "Ġà¤¸à¤¾à¤Ĥ": 6774,
      "à¤¿à¤¨à¥ĩ": 6775,
      "ĠBu": 6776,
      "Ġstrength": 6777,
      "Ġà¤ķà¥ħ": 6778,
      "Ġgarden": 6779,
      "à¤µà¤¾à¤¸": 6780,
      "ĠLat": 6781,
      "ness,": 6782,
      "Ġà¤¤à¤¨": 6783,
      "à¤¡à¥įà¤¡": 6784,
      "ĠS.": 6785,
      "ĠB.": 6786,
      "Ġoverall": 6787,
      "Ġà¤Ĺà¥ģà¤ľà¤°à¤¾à¤¤": 6788,
      "Ġdirection": 6789,
      "Ġà¤Ĩà¤ķà¤¾à¤°": 6790,
      "ctions": 6791,
      "Ġà¤¶à¤¿à¤Ĥà¤¦": 6792,
      "ĠHouse": 6793,
      "Ġà¤Ķà¤·": 6794,
      "Ġcateg": 6795,
      "Ġgold": 6796,
      "Ġpowerful": 6797,
      "Ġà¤ķà¥ģà¤ł": 6798,
      "Ġà¤ļà¤²à¥ĩ": 6799,
      "Ġà¤ľà¤®à¤¾": 6800,
      "Ġà¤ķà¤¾à¤°à¤µà¤¾à¤Ī": 6801,
      "ent.": 6802,
      "Ġfollowed": 6803,
      "à¤ľà¤¾à¤¤": 6804,
      "Ġà¤¬à¥įà¤°à¤¿à¤Ł": 6805,
      "Ġà¤µà¤°à¤¿à¤·à¥įà¤ł": 6806,
      "Ġà¤¯à¥Ĥà¤¨à¤¿à¤µà¤°à¥įà¤¸à¤¿à¤Łà¥Ģ": 6807,
      "Ġà¤¨à¤¿à¤°à¥įà¤§à¤¾à¤°à¤¿à¤¤": 6808,
      "à¤ĸà¤¨": 6809,
      "Ġà¤¸à¥įà¤Łà¥ĩà¤¶à¤¨": 6810,
      "Ġperformance": 6811,
      "Ġperfect": 6812,
      "ilosoph": 6813,
      "oe": 6814,
      "water": 6815,
      "Ġmal": 6816,
      "à¤¾à¤īà¤¨": 6817,
      "Ġmax": 6818,
      "verse": 6819,
      "Ġexercise": 6820,
      "Ġà¤ľà¤£": 6821,
      "-year": 6822,
      "rate": 6823,
      "Ġà¤ķà¥ĭà¤¹": 6824,
      "ĠUnder": 6825,
      "Ġeight": 6826,
      "Ġfair": 6827,
      "Ġà¤¸à¤¾à¤Ĥà¤Ĺà¤¿à¤¤à¤²à¥ĩ.": 6828,
      "ĠBr": 6829,
      "umn": 6830,
      "Ġtrain": 6831,
      "Ġdiscovered": 6832,
      "ography": 6833,
      "Ġà¤®à¤¾à¤¤à¥įà¤°,": 6834,
      "Ġà¤¡à¥ĩà¤Ł": 6835,
      "Ġwon": 6836,
      "Ġà¤°à¤¾à¤µ": 6837,
      "Ġà¤Ĺà¤¹": 6838,
      "Ġà¤°à¤ķà¥įà¤·à¤¾": 6839,
      "Ġà¤¨à¥ĭ": 6840,
      "Ġwond": 6841,
      "Ġà¤ķà¥įà¤·à¤®à¤¤à¤¾": 6842,
      "à¤ªà¤£": 6843,
      "Ġden": 6844,
      "Ġreveal": 6845,
      "-C": 6846,
      "Ġfeatures": 6847,
      "Ġà¤°à¤¾à¤ľà¤§à¤¾à¤¨à¥Ģ": 6848,
      "rupt": 6849,
      "AC": 6850,
      "Ġsch": 6851,
      "à¥įà¤¯à¤¾à¤ľ": 6852,
      "Ġà¤¸à¥ģà¤µà¤¿à¤§à¤¾": 6853,
      "ruary": 6854,
      "Ġà¤¨à¥ĭà¤Ĥà¤¦": 6855,
      "Ġà¤°à¤¾à¤¸à¥įà¤¤": 6856,
      "Ġvirt": 6857,
      "oring": 6858,
      "Ġcommonly": 6859,
      "Ġà¤īà¤®à¥įà¤°": 6860,
      "Ġhistorical": 6861,
      "Ġà¤ıà¤«": 6862,
      "Ġà¤ªà¤°à¤¿à¤ļ": 6863,
      "ĠMexic": 6864,
      "Ġbooks": 6865,
      "Ġmis": 6866,
      "Ġrule": 6867,
      "Ġà¤¤à¤¹": 6868,
      "Ġà¤¸à¤¾à¤°à¥ĩ": 6869,
      "Ġà¤ĩà¤¨à¤ķà¥ĩ": 6870,
      "à¤¾à¤Ĥà¤¤à¤¿": 6871,
      "Ġvill": 6872,
      "at,": 6873,
      "Ġà¤ĳà¤¨à¤²à¤¾à¤ĩà¤¨": 6874,
      "ribute": 6875,
      "ĠSee": 6876,
      "lin": 6877,
      "Ġà¤¶à¥ģà¤ķà¥įà¤°à¤µà¤¾à¤°": 6878,
      "Ġmap": 6879,
      "Ġthinking": 6880,
      "Ġà¤īà¤¨à¤¸à¥ĩ": 6881,
      "Ġà¤ªà¤°à¤¿à¤¸à¥įà¤¥à¤¿à¤¤": 6882,
      "ounds": 6883,
      "one,": 6884,
      "Ġeverything": 6885,
      "Ġà¤Ĺà¥Įà¤°": 6886,
      "obile": 6887,
      "Ġà¤Ĩà¤¤à¥ĩ": 6888,
      "Ġchurch": 6889,
      "Ġjoint": 6890,
      "à¤¤à¤¾à¤¨": 6891,
      "Ġgirl": 6892,
      "Ġà¤°à¤µà¤¿à¤µà¤¾à¤°": 6893,
      "Ġnamed": 6894,
      "off": 6895,
      "AL": 6896,
      "ĠGet": 6897,
      "à¤¾à¤ķà¤¾": 6898,
      "ĠTheir": 6899,
      "ĠBook": 6900,
      "Ġà¤ħà¤ªà¤°à¤¾à¤§": 6901,
      "Ġgoes": 6902,
      "ĠInc": 6903,
      "Ġrich": 6904,
      "Ġà¤ªà¥ĭà¤²à¤¿à¤¸à¤¾à¤Ĥà¤¨à¥Ģ": 6905,
      "Ġà¤ªà¤¾à¤¯": 6906,
      "Ġà¤ħà¤Ĺà¤²à¥ĩ": 6907,
      "ĠPublic": 6908,
      "orge": 6909,
      "à¤¿à¤Ĺà¤¤": 6910,
      "Ġexec": 6911,
      "à¤¾à¤¤à¥įà¤®à¤¾": 6912,
      "AS": 6913,
      "Ġà¤ķà¤§à¥Ģ": 6914,
      "iest": 6915,
      "Ġweather": 6916,
      "Ġà¤®à¤°à¥Ģà¤ľ": 6917,
      "Ġà¤ľà¤°à¥Ĥà¤°à¥Ģ": 6918,
      "ĠSocial": 6919,
      "Ġà¤īà¤¦à¥įà¤§": 6920,
      "Ġà¤®à¥ģà¤ķà¥įà¤¤": 6921,
      "one.": 6922,
      "Ġà¤ªà¥įà¤°à¤¿à¤¯": 6923,
      "ĠInter": 6924,
      "Ġimages": 6925,
      "Ġà¤ħà¤Ĺà¥įà¤°": 6926,
      "Ġà¤µà¤¿à¤ķà¤¸à¤¿à¤¤": 6927,
      "Ġwell.": 6928,
      "Ġgave": 6929,
      "Ġsymbol": 6930,
      "ancy": 6931,
      "rs": 6932,
      "iers": 6933,
      "Ġcommerc": 6934,
      "Ġà¤ķà¤¾à¤Ł": 6935,
      "Ġà¤¸à¤®à¤¾à¤ªà¥įà¤¤": 6936,
      "ive.": 6937,
      "à¥ĥà¤¤à¥Ģ": 6938,
      "Ġplaced": 6939,
      "Ġà¤µà¤¿à¤¶à¤¿à¤·à¥įà¤Ł": 6940,
      "Ġà¤Ĺà¤¯à¤¾.": 6941,
      "Ġwaste": 6942,
      "Ġà¤Łà¥ĩà¤ķ": 6943,
      "Ġà¤ªà¤¹à¥ģà¤ģ": 6944,
      "Ġà¤¶à¥įà¤°à¤¦à¥įà¤§": 6945,
      "ĠMedic": 6946,
      "Ġà¤ķà¥ĭà¤ļ": 6947,
      "à¤¬à¥įà¤°": 6948,
      "Ġà¤ķà¤°à¤£à¤¾à¤°": 6949,
      "-à¤ľ": 6950,
      "izes": 6951,
      "Ġking": 6952,
      "Ġà¤¸à¤Ĥà¤ªà¥Ĥà¤°à¥įà¤£": 6953,
      "à¥įà¤¦à¥įà¤°": 6954,
      "à¤ªà¥įà¤°à¤¿à¤¯": 6955,
      "ĠSpec": 6956,
      "Ġopportunity": 6957,
      "Ġà¤ªà¤¡à¤¼à¥ĩ": 6958,
      "Ġà¤¦à¥ĩà¤µà¥Ģ": 6959,
      "à¥ĩà¤¤à¤¨": 6960,
      "Ġenter": 6961,
      "fl": 6962,
      "Ġà¤Ĩà¤²à¤¾.": 6963,
      "ĠDNA": 6964,
      "Ġenh": 6965,
      "ĠEnvironment": 6966,
      "ĠâĢľA": 6967,
      "à¤µà¤¾à¤²à¥ĩ": 6968,
      "Ġà¤¶à¤¿à¤ķà¥įà¤·à¤ķ": 6969,
      "Ġà¤¬à¥ĩà¤¹à¤¦": 6970,
      "Ġnutri": 6971,
      "Ġcommunication": 6972,
      "Ġbeg": 6973,
      "Ġà¤ķà¤¿à¤¯à¤¾,": 6974,
      "Ġà¤¸à¤¦à¤¸": 6975,
      "ET": 6976,
      "ologist": 6977,
      "Ġacqu": 6978,
      "aces": 6979,
      "iful": 6980,
      "Ġà¤Ĩà¤ªà¤ķà¤¾": 6981,
      "Ġà¤ªà¤Ĥà¤¤": 6982,
      "Ġtox": 6983,
      "Ġà¤ħà¤²à¥Ģ": 6984,
      "Ġemerg": 6985,
      "Ġletter": 6986,
      "Ġà¤¸à¤¹à¤¾à¤¯à¤¤à¤¾": 6987,
      "phas": 6988,
      "Ġapplication": 6989,
      "Ġà¤¦à¥ĭà¤¨à¥įà¤¹à¥Ģ": 6990,
      "Ġjournal": 6991,
      "ore,": 6992,
      "Ġfamilies": 6993,
      "Ġà¤¸à¥Ģà¤ıà¤®": 6994,
      "Ġà¤¸à¥įà¤ªà¤°à¥įà¤§": 6995,
      "Ġà¤ªà¥Īà¤¦à¤¾": 6996,
      "Ġdisplay": 6997,
      "Ġassign": 6998,
      "Ġà¤ĸà¤°à¤¾à¤¬": 6999,
      "Ġanything": 7000,
      "mitted": 7001,
      "Ġà¤ªà¥įà¤°à¤¾à¤¥": 7002,
      "Ġrob": 7003,
      "à¤°à¥įà¤ĺ": 7004,
      "Ġà¤ľà¥Īà¤¸à¤¾": 7005,
      "Ġbelief": 7006,
      "Ġà¤ĩà¤Ĥà¤Łà¤°à¤¨": 7007,
      "à¤ªà¤Ĥà¤ļ": 7008,
      "ĠConf": 7009,
      "Ġà¤ªà¥Ģà¤ıà¤®": 7010,
      "Ġsmaller": 7011,
      "Ġà¤ªà¥įà¤°à¤ļà¤¾à¤°": 7012,
      "Ġcorn": 7013,
      "Ġà¤®à¤¿à¤²à¤¤à¤¾": 7014,
      "Ġtou": 7015,
      "Ġà¤¸à¤¾à¤¥,": 7016,
      "à¤ªà¥Ģà¤ıà¤²": 7017,
      "amer": 7018,
      "Ġà¤°à¤¾à¤ľà¤ķà¥Ģà¤¯": 7019,
      "Ġshowed": 7020,
      "Ġà¤¦à¤¿à¤¶à¤¾": 7021,
      "Ġà¤ıà¤Ĥà¤Ł": 7022,
      "Ġà¤µà¥ĥà¤¦à¥įà¤§à¤¿": 7023,
      "Ġcontinued": 7024,
      "Ġà¤¸à¤®à¥ĭà¤°": 7025,
      "Ġà¤¹à¤¿à¤°": 7026,
      "Ġà¤¯à¤¾à¤¸à¤¾à¤łà¥Ģ": 7027,
      "à¤Łà¥ĩ": 7028,
      "Ġcompletely": 7029,
      "Ġvalues": 7030,
      "iency": 7031,
      "à¥ģà¤ľ": 7032,
      "Ġà¤Ĺà¤¯à¤¾,": 7033,
      "Ġpeople.": 7034,
      "Ġremember": 7035,
      "Ġrelatively": 7036,
      "ato": 7037,
      "Ġallowed": 7038,
      "Ġà¤°à¤¹à¥ĩà¥¤": 7039,
      "ĠUN": 7040,
      "Ġà¤¶à¤ķà¥įà¤¤": 7041,
      "rec": 7042,
      "Ġson": 7043,
      "Ġtrad": 7044,
      "Ġà¤¸à¤Ĥà¤Ĺà¤łà¤¨": 7045,
      "Ġcry": 7046,
      "lam": 7047,
      "Ġà¤¸à¤¾à¤¬": 7048,
      "Ġuser": 7049,
      "Ġpeace": 7050,
      "Ġload": 7051,
      "ĠLord": 7052,
      "Ġà¤¨à¤¾à¤¶": 7053,
      "ated,": 7054,
      "fully": 7055,
      "Ġatmosp": 7056,
      "Ġà¤¹à¥ĩà¤²": 7057,
      "Ġà¤ĸà¤¾à¤¦à¥įà¤¯": 7058,
      "Ġà¤Ĺà¤Ł": 7059,
      "Ġdetect": 7060,
      "known": 7061,
      "rieved": 7062,
      "à¤¯à¥ĭà¤Ĥ": 7063,
      "Ġà¤ľà¤¾à¤¨à¤¤à¥ĩ": 7064,
      "m.": 7065,
      "ĠDes": 7066,
      "hy": 7067,
      "Ġà¤ķà¤°à¤¾à¤¨à¥ĩ": 7068,
      "ĠChildren": 7069,
      "Ġalcohol": 7070,
      "Ġclassroom": 7071,
      "Ġpromot": 7072,
      "Ġmouth": 7073,
      "à¥ĩà¤¦à¤¾à¤°à¥Ģ": 7074,
      "Ġà¤Ńà¥ĭà¤ľà¤¨": 7075,
      "ĠTH": 7076,
      "ĠAmericans": 7077,
      "à¤°à¤¿à¤¯à¤¾": 7078,
      "Ġself-": 7079,
      "Ġà¤ľà¥įà¤¯à¤¾": 7080,
      "semb": 7081,
      "Ġà¤µà¤¾": 7082,
      "Ġemp": 7083,
      "Ġà¤ľà¤¿à¤¨à¤®à¥ĩà¤Ĥ": 7084,
      "ĠdoesnâĢĻt": 7085,
      "Ġà¤ľà¤¿à¤®à¥įà¤®": 7086,
      "à¤ķà¥ĩà¤¤": 7087,
      "Ġà¤µà¤¿à¤¸à¥įà¤¤à¤¾à¤°": 7088,
      "Ġwatch": 7089,
      "à¤¾à¤Ĥà¤¨": 7090,
      "Ġà¤¶à¤¹": 7091,
      "Ġtrees": 7092,
      "Ġgame": 7093,
      "ulate": 7094,
      "Ġà¤¯à¥ĭà¤ľà¤¨": 7095,
      "gypt": 7096,
      "ynam": 7097,
      "el,": 7098,
      "Ġà¤¸à¤Ĥà¤¬": 7099,
      "Ġà¤¹à¥ģà¤Īà¥¤": 7100,
      "Ġcompl": 7101,
      "Ġtele": 7102,
      "Ġexpected": 7103,
      "Ġefforts": 7104,
      "Ġà¤ľà¥Īà¤¨": 7105,
      "à¤¿à¤®à¤¾": 7106,
      "ste": 7107,
      "Ġà¤ĵà¤³": 7108,
      "ĠGreen": 7109,
      "à¤Ĥà¤¡à¥Ģ": 7110,
      "ĠAng": 7111,
      "Ġà¤¦à¥ĩà¤ĸà¤ķà¤°": 7112,
      "ĠJewish": 7113,
      "Ġà¤²à¥ĩà¤¤à¥ĩ": 7114,
      "Ġà¤¶à¤¨à¤¿à¤µà¤¾à¤°": 7115,
      "Ġà¤ªà¥įà¤¯à¤¾à¤°": 7116,
      "Ġà¤ªà¥įà¤°à¥ĩ": 7117,
      "Ġhands": 7118,
      "Ġà¤µà¥ĩà¤¦": 7119,
      "Ġpresence": 7120,
      "Ġà¤¬à¥ģà¤§à¤µà¤¾à¤°": 7121,
      "EC": 7122,
      "Ġà¤ªà¤¹à¤²": 7123,
      "Ġillust": 7124,
      "Ġlatest": 7125,
      "aign": 7126,
      "Ġà¤¸à¤ªà¥įà¤¤": 7127,
      "DA": 7128,
      "Ġlaws": 7129,
      "Ġice": 7130,
      "à¤¼à¥Ģ": 7131,
      "Ġcenter": 7132,
      "Ġreduced": 7133,
      "ĠEth": 7134,
      "Ġà¤Ĺà¤¾à¤¯": 7135,
      "Ġà¤¸à¥ģà¤ªà¤°": 7136,
      "Ġà¤ħà¥ħ": 7137,
      "à¤®à¥ĭ": 7138,
      "Ġà¤¯à¥ģà¤µà¤¾": 7139,
      "Ġà¤¦à¥ĥà¤·à¥įà¤Łà¤¿": 7140,
      "Ġà¤¨à¤Ĥà¤¤à¤°": 7141,
      "à¤ľà¥įà¤ŀà¤¾à¤¨à¤¿à¤ķ": 7142,
      "Ġà¤®à¤¿à¤¸": 7143,
      "ĠHuman": 7144,
      "Ġaffected": 7145,
      "Ġà¤¯à¤¾à¤Ĥà¤ļà¤¾": 7146,
      "ĠMic": 7147,
      "ari": 7148,
      "Ġà¤ĩà¤ļà¥įà¤Ľà¤¾": 7149,
      "Ġworth": 7150,
      "II": 7151,
      "Ġà¤µà¥ĥà¤¤à¥įà¤¤": 7152,
      "à¤®à¥į": 7153,
      "ĠTest": 7154,
      "Ġball": 7155,
      "Ġà¤°à¤¿à¤¶": 7156,
      "Ġrates": 7157,
      "Ġconstruct": 7158,
      "à¤³à¤¾": 7159,
      "ĠPhil": 7160,
      "Ġà¤¨à¤¿à¤°à¥Ģ": 7161,
      "Ġcoming": 7162,
      "Ġevolution": 7163,
      "Ġà¤¤à¥ĩà¤ľà¥Ģ": 7164,
      "Ġpiece": 7165,
      "Ġmut": 7166,
      "g.": 7167,
      "ĠCouncil": 7168,
      "ĠTim": 7169,
      "Ġfully": 7170,
      "Ġinsect": 7171,
      "à¥Ĥ,": 7172,
      "ogle": 7173,
      "Ġà¤ªà¥įà¤°à¥ĭà¤«": 7174,
      "Ġanx": 7175,
      "Ġà¤®à¥ĭà¤¬à¤¾à¤ĩà¤²": 7176,
      "Ġà¤ķà¤¾à¤³à¤¾à¤¤": 7177,
      "ĠMark": 7178,
      "ibly": 7179,
      "Ġantib": 7180,
      "Ġcourt": 7181,
      "Ġà¤¤à¤¾à¤°à¥Ģ": 7182,
      "ĠColle": 7183,
      "Ġbehavi": 7184,
      "Ġcompar": 7185,
      "ĠMat": 7186,
      "Ġà¤®à¤¤à¤¦à¤¾à¤¨": 7187,
      "Ġdegre": 7188,
      "craft": 7189,
      "Ġmajority": 7190,
      "ions,": 7191,
      "à¤¿à¤µà¤¾à¤¯": 7192,
      "Ġforward": 7193,
      "Ġexpand": 7194,
      "ĠVol": 7195,
      "Ġdied": 7196,
      "Ġ(U": 7197,
      "Ġà¤ħà¤§à¥įà¤¯à¤¯à¤¨": 7198,
      "Ġwid": 7199,
      "à¤²à¥ĩà¤ķà¥įà¤Łà¥įà¤°": 7200,
      "Ġà¤ªà¥Į": 7201,
      "Ġà¤¯à¤¾à¤®à¥ģà¤³à¥ĩ": 7202,
      "Ġà¤¹à¤®à¤¨à¥ĩ": 7203,
      "Ġà¤Ĩà¤§à¥Ģ": 7204,
      "enty": 7205,
      "Ġstrugg": 7206,
      "à¤¾à¤µà¤¾,": 7207,
      "Ġ'à¤ħ": 7208,
      "Ġfresh": 7209,
      "Ġà¤¤à¤°à¥ģà¤£": 7210,
      "Ġimmune": 7211,
      "Ġà¤Ĺà¥ģà¤²": 7212,
      "Ġtable": 7213,
      "isms": 7214,
      "Ġeducational": 7215,
      "Ġà¤ķà¤°à¤µ": 7216,
      "Ġà¤¶à¥ĩà¤ħà¤°": 7217,
      "ĠAv": 7218,
      "Ġà¤¨à¥ĩà¤¤à¤¾à¤ĵà¤Ĥ": 7219,
      "rief": 7220,
      "Ġplaces": 7221,
      "Ġà¤¹à¤¾à¤²à¤¾à¤Ĥà¤ķà¤¿,": 7222,
      "ĠSub": 7223,
      "Ġà¤ħà¤¨à¥ģà¤¸": 7224,
      "Ġà¤µà¥ĭà¤Ł": 7225,
      "clus": 7226,
      "à¥įà¤²à¤¿à¤®": 7227,
      "ald": 7228,
      "Ġà¤¦à¥ĩà¤ķà¤°": 7229,
      "âĢĿ,": 7230,
      "ĠFebruary": 7231,
      "Ġà¤ľà¤¾à¤ķà¤°": 7232,
      "Ġà¤Ĩà¤ĩ": 7233,
      "ĠOb": 7234,
      "Ġolder": 7235,
      "Ġmilk": 7236,
      "à¤¿.": 7237,
      "ĠR.": 7238,
      "à¤¾à¤ļà¥Ģà¤¨": 7239,
      "Ġà¤īà¤¨à¤ķà¥ĭ": 7240,
      "Ġà¤¸à¤Ĥà¤°à¤ķà¥įà¤·à¤£": 7241,
      "Ġperhaps": 7242,
      "Ġà¤®à¥Īà¤¨": 7243,
      "Ġà¤¸à¤®à¤¿à¤¤à¤¿": 7244,
      "Ġà¤¦à¤¸": 7245,
      "Ġà¤ķà¤°à¥įà¤ľ": 7246,
      "Ġà¤ħà¤Ĥà¤¤à¤°à¥įà¤Ĺà¤¤": 7247,
      "Ġà¤¤à¥ĩà¤¥": 7248,
      "Ġefficient": 7249,
      "related": 7250,
      "à¤īà¤Ł": 7251,
      "Ġà¤¹à¤¿à¤¤": 7252,
      "Ġà¤Ľà¤¹": 7253,
      "Ġ(p": 7254,
      "Ġà¤§à¤¾à¤µ": 7255,
      "Ġexamples": 7256,
      "ĠEurope": 7257,
      "Ġà¤ķà¤¾à¤°à¥įà¤¯à¤µ": 7258,
      "à¤¡à¤ķ": 7259,
      "ĠEgypt": 7260,
      "à¤Ļ": 7261,
      "à¤°à¤µà¤°à¥Ģ": 7262,
      "Ġincor": 7263,
      "uls": 7264,
      "Ġworkers": 7265,
      "Ġboard": 7266,
      "Ġà¤¸à¤®à¤¾à¤µà¥ĩà¤¶": 7267,
      "ĠFood": 7268,
      "Ġà¤¸à¥Ģà¤°à¥Ģà¤ľ": 7269,
      "Ġship": 7270,
      "Ġà¤ļà¤¾à¤¹à¤¤à¤¾": 7271,
      "Ġà¤ħà¤ªà¥įà¤°à¥Īà¤²": 7272,
      "Ġà¤¦à¤¹": 7273,
      "Ġacad": 7274,
      "àª": 7275,
      "ĠDr": 7276,
      "ĠSt.": 7277,
      "Ġbreast": 7278,
      "ĠDavid": 7279,
      "Ġà¤®à¤ķ": 7280,
      "Ġà¤¤à¥įà¤¯à¤¾à¤ļà¥ĩ": 7281,
      "icip": 7282,
      "Ġdifferences": 7283,
      "Ġà¤¶à¥įà¤°à¥ĩ": 7284,
      "ĠTur": 7285,
      "Ġà¤ªà¤¥": 7286,
      "itable": 7287,
      "à¤¾à¤µà¥įà¤¯": 7288,
      "Ġrecently": 7289,
      "Ġforces": 7290,
      "Ġà¤µà¥ĩà¤³à¥Ģ": 7291,
      "Ġà¤²à¤¢": 7292,
      "Ġpeople,": 7293,
      "iles": 7294,
      "à¤¾à¤¯à¤¦": 7295,
      "Ġà¤¤à¥įà¤µ": 7296,
      "Ġexperiment": 7297,
      "Ġà¤°à¥ĩà¤¡": 7298,
      "Ġmuscle": 7299,
      "Ġinteresting": 7300,
      "ĠDec": 7301,
      "ĠEvery": 7302,
      "à¤¬à¤¾à¤ľ": 7303,
      "Ġpartn": 7304,
      "à¤¦à¥įà¤¯à¥ĭà¤Ĺ": 7305,
      "Ġenerg": 7306,
      "resp": 7307,
      "Ġà¤ľà¥ģà¤²à¤¾à¤Ī": 7308,
      "Ġing": 7309,
      "Ġà¤ķà¤°à¤£à¥įà¤¯à¤¾à¤ļà¤¾": 7310,
      "ĠØ": 7311,
      "Ġbillion": 7312,
      "Ġà¤®à¥ĥà¤¤à¥įà¤¯à¥Ĥ": 7313,
      "Ġà¤Ĩà¤¢à¤³": 7314,
      "Ġà¤ľà¤Ĺà¤¤": 7315,
      "à¤¾à¤Ĥà¤¦": 7316,
      "à¤Ĺà¤¤": 7317,
      "Ġà¤¤à¤¤à¥įà¤ķ": 7318,
      "Ġà¤¯à¤¾à¤ļà¥Ģ": 7319,
      "Ġarchitect": 7320,
      "Ġbound": 7321,
      "ĠMor": 7322,
      "Ġconvers": 7323,
      "force": 7324,
      "Ġà¤®à¤Ĥà¤Ĺà¤²à¤µà¤¾à¤°": 7325,
      "Ġexisting": 7326,
      "Ġà¤¦à¥ĥ": 7327,
      "Ġà¤ķà¤³": 7328,
      "Ġwater.": 7329,
      "Ġà¤ľà¥ĭà¤¡à¤¼": 7330,
      "Ġvitamin": 7331,
      "Ġwrote": 7332,
      "Ġà¤¦à¥ģà¤ĥ": 7333,
      "Ġà¤ķà¤°à¤¾": 7334,
      "à¥ĩà¤²à¤¾": 7335,
      "à¤®à¤¹": 7336,
      "aint": 7337,
      "Ġstaff": 7338,
      "Ġrepe": 7339,
      "Ġà¤¬à¤ĺ": 7340,
      "Ġà¤ĸà¤¾à¤²à¥Ģ": 7341,
      "Ġvot": 7342,
      "Ġà¤¨à¤¿à¤¯à¤®à¥ĭà¤Ĥ": 7343,
      "Ġapplied": 7344,
      "à¥ĩà¤µà¤°": 7345,
      "à¥įà¤°à¤¤": 7346,
      "idents": 7347,
      "Ġà¤µà¥Īà¤¶": 7348,
      "à°": 7349,
      "Ġà¤¸à¤¦à¤¸à¥įà¤¯à¥ĭà¤Ĥ": 7350,
      "s.âĢĿ": 7351,
      "rehens": 7352,
      "Ġà¤¸à¤¤à¥įà¤¤à¤¾": 7353,
      "Ġà¤¯à¤¾à¤Ĥà¤ļà¥ĩ": 7354,
      "Ġà¤ĩà¤ķ": 7355,
      "Ġinnov": 7356,
      "Ġgiving": 7357,
      "Ġà¤ļà¤¿à¤ķà¤¿à¤¤à¥įà¤¸à¤¾": 7358,
      "Ġpick": 7359,
      "uff": 7360,
      "Ġseparate": 7361,
      "iant": 7362,
      "abilities": 7363,
      "Ġopportunities": 7364,
      "Ġplastic": 7365,
      "-à¤¸à¤¾à¤¥": 7366,
      "Ġà¤¶à¤µ": 7367,
      "à¤¾à¤¹à¥ĩà¤¬": 7368,
      "Ġassum": 7369,
      "Ġà¤¸à¤Ĥà¤ķà¤Ł": 7370,
      "ĠPal": 7371,
      "iox": 7372,
      "Ġà¤ķà¤¿à¤¶": 7373,
      "Ġà¤¨à¤¿à¤°à¥įà¤µ": 7374,
      "Ġthis,": 7375,
      "Ġà¤ľà¥ģà¤¡à¤¼à¥ĩ": 7376,
      "Ġà¤¸à¤¤à¥įà¤¤": 7377,
      "à¥Ĥà¤·à¤£": 7378,
      "ĠSam": 7379,
      "Ġà¤®à¤Ĥà¤Ĺ": 7380,
      "Ġà¤Ĩà¤°à¥ĭà¤Ĺà¥įà¤¯": 7381,
      "ously": 7382,
      "iples": 7383,
      "Ġà¤«à¥ĩà¤¸": 7384,
      "Ġà¤Ĩà¤¯à¥ģà¤ķà¥įà¤¤": 7385,
      "à¥įà¤°à¥ĩà¤ľ": 7386,
      "à¤¨à¤Ī": 7387,
      "à¤Ĥà¤¦à¥Ģ": 7388,
      "Ġà¤¬à¤¿à¤ľà¤²à¥Ģ": 7389,
      "Ġwrong": 7390,
      "Ġà¤ĸà¤¤à¥įà¤®": 7391,
      "issions": 7392,
      "cious": 7393,
      "Ġà¤ľà¤¾à¤¯à¥ĩ": 7394,
      "ĠCalifornia": 7395,
      "Ġforeign": 7396,
      "Ġfigure": 7397,
      "Ġvo": 7398,
      "emy": 7399,
      "Ġà¤¸à¥įà¤Łà¤¾à¤°": 7400,
      "Ġà¤¸à¥įà¤®à¤¾à¤°à¥įà¤Ł": 7401,
      "Ġ'à¤ķ": 7402,
      "Ġà¤«à¥Ģà¤¸à¤¦à¥Ģ": 7403,
      "ices.": 7404,
      "Ġappears": 7405,
      "-up": 7406,
      "Ġà¤²à¥īà¤ķ": 7407,
      "Ġà¤ĩà¤¨à¤®à¥ĩà¤Ĥ": 7408,
      "à¤¾à¤¹à¤¨": 7409,
      "Ġà¤¦à¥ģà¤ĸ": 7410,
      "à¥Įà¤²": 7411,
      "Ġpen": 7412,
      "Ġnative": 7413,
      "Ġstim": 7414,
      "à¤¾à¤¦à¤°": 7415,
      "Ġà¤¨à¤¿à¤µà¥ĩà¤¶": 7416,
      "Ġweak": 7417,
      "Ġoffers": 7418,
      "Ġà¤®à¤¿à¤¨à¤Ł": 7419,
      "Ġhumans": 7420,
      "Ġeveryone": 7421,
      "Ġhuge": 7422,
      "Ġà¤ĸà¤Ĥà¤¡": 7423,
      "Ġqual": 7424,
      "Ġà¤ħà¤Ĺà¤¸à¥įà¤¤": 7425,
      "Ġà¤®à¤¹à¤¾à¤¸": 7426,
      "Ġtesting": 7427,
      "Ġà¤Ĩà¤ķà¤°à¥įà¤·": 7428,
      "Ġà¤µà¤¿à¤¶à¥ĩà¤·à¤ľà¥įà¤ŀ": 7429,
      "Ġà¤¦à¤¿à¤Ĺ": 7430,
      "ilit": 7431,
      "Ġleaves": 7432,
      "à¥įà¤¸,": 7433,
      "Ġà¤īà¤®à¥ĩà¤¦": 7434,
      "ions.": 7435,
      "Ġà¤ªà¤¾à¤ª": 7436,
      "Ġà¤¸à¤µ": 7437,
      "Ġà¤Ĺà¤°à¤ľ": 7438,
      "Ġà¤¦à¤¿à¤¸à¤¤": 7439,
      "ĠStudents": 7440,
      "Ġà¤¬à¥īà¤²à¥Ģà¤µà¥ģà¤¡": 7441,
      "Ġexposure": 7442,
      "Ġabsor": 7443,
      "ĠMich": 7444,
      "à¤¶à¤¿à¤ª": 7445,
      "a-": 7446,
      "à¥īà¤°": 7447,
      "Ġà¤ĩà¤Ĥà¤¸à¥įà¤Ł": 7448,
      "Ġinfect": 7449,
      "Ġà¤µà¤°à¥įà¤£à¤¨": 7450,
      "ternal": 7451,
      "ĠRem": 7452,
      "Ġtruth": 7453,
      "Ġà¤¹à¤¿à¤¸à¥įà¤¸": 7454,
      "Ġà¤®à¥Įà¤¸à¤®": 7455,
      "ĠUK": 7456,
      "Ġà¤¬à¤¨à¤¨à¥ĩ": 7457,
      "Ġà¤¸à¤®à¥ĩà¤¤": 7458,
      "à¤ĺà¤¾à¤¤": 7459,
      "i.e.": 7460,
      "Ġà¤§à¤¾à¤°à¥įà¤®à¤¿à¤ķ": 7461,
      "Ġà¤¤à¥ģà¤°": 7462,
      "à¤¾à¤ªà¤°à¥įà¤¯à¤Ĥà¤¤": 7463,
      "Ġaddition,": 7464,
      "Ġà¤Ĺà¤¯": 7465,
      "Ġmo": 7466,
      "Ġà¤¸à¥ģà¤Ĥà¤¦à¤°": 7467,
      "Ġattract": 7468,
      "Ġbox": 7469,
      "Ġà¤ªà¤°à¥įà¤µ": 7470,
      "Ġtests": 7471,
      "à¥ĩà¤§": 7472,
      "Ġdegree": 7473,
      "Ġseven": 7474,
      "spect": 7475,
      "à¤ªà¥įà¤°à¤¤": 7476,
      "ygen": 7477,
      "Ġones": 7478,
      "Ġà¤ªà¤¾à¤¤à¥įà¤°": 7479,
      "in.": 7480,
      "Ġfert": 7481,
      "à¤¤à¥Ģà¤².": 7482,
      "Ġà¤µà¥Ģà¤°": 7483,
      "Ġà¤ıà¤¯à¤°": 7484,
      "Ġdevice": 7485,
      "Ġà¤¬à¥ĩà¤Łà¥Ģ": 7486,
      "ĠBra": 7487,
      "Ġmoving": 7488,
      "à¤¸à¤¿à¤Ĥà¤¹": 7489,
      "à¥ĩà¤Ĥà¤ļ": 7490,
      "Ġà¤Ńà¤¾à¤µà¤¨à¤¾": 7491,
      "Ġlines": 7492,
      "Ġplanet": 7493,
      "tery": 7494,
      "Ġà¤ªà¥įà¤°à¤¤à¥Ģ": 7495,
      "ĠBel": 7496,
      "Ġà¤¶à¤ķà¥įà¤¯à¤¤à¤¾": 7497,
      "PS": 7498,
      "Ġsac": 7499,
      "à¤ķà¥ģà¤®à¤¾à¤°": 7500,
      "Ġà¤¬à¤Ĥà¤§": 7501,
      "Ġoccurs": 7502,
      "Ġà¤¸à¤Ĥà¤Ńà¤µ": 7503,
      "à¤Ĥà¤ļà¤¾": 7504,
      "Ġcelebr": 7505,
      "Ġà¤ĵà¤µà¤°": 7506,
      "Ġà¤¯à¥ĩà¤Ĭ": 7507,
      "Ġfinding": 7508,
      "ĠWestern": 7509,
      "Ġà¤¸à¤¾à¤¥-à¤¸à¤¾à¤¥": 7510,
      "Ġà¤ħà¤ļà¥įà¤Ľà¥ĩ": 7511,
      "Ġconnection": 7512,
      "Ġformed": 7513,
      "Ġidentified": 7514,
      "à¤¯.": 7515,
      "ama": 7516,
      "Ġworked": 7517,
      "Ġdistribution": 7518,
      "à¥įà¤°à¥Ģà¤¨": 7519,
      "an.": 7520,
      "Ġphen": 7521,
      "Ġà¤¹à¥ĩà¤¤à¥ģ": 7522,
      "Ġà¤ħà¤¸à¤¤à¤¾à¤¤.": 7523,
      "Ġà¤¸à¥ĩ,": 7524,
      "Ġincome": 7525,
      "Ġtransfer": 7526,
      "zz": 7527,
      "Ġà¤¦à¤¿à¤²à¥įà¤²": 7528,
      "ĠCity": 7529,
      "Ġà¤ĸà¤¿à¤²à¤¾à¤¡à¤¼à¥Ģ": 7530,
      "Ġà¤¯à¥Ĥà¤°": 7531,
      "Ġsaid,": 7532,
      "rest": 7533,
      "Ġà¤°à¥Ĥà¤¸": 7534,
      "à¤ķà¥įà¤¤à¤¾": 7535,
      "Ġcontract": 7536,
      "à¤¾à¤¯à¤¾à¥¤": 7537,
      "Ġà¤¸à¤¤à¥įà¤°": 7538,
      "Ġcand": 7539,
      "as.": 7540,
      "à¤£à¥įà¤¯à¤¾à¤ļà¥ĩ": 7541,
      "à¤¸à¥Ģà¤¸à¥Ģ": 7542,
      "Ġà¤ħà¤¸à¥Ĥà¤¨,": 7543,
      "Ġà¤¶à¤¾à¤¨à¤¦à¤¾à¤°": 7544,
      "Ġminutes": 7545,
      "Ġà¤¦à¤¾à¤°": 7546,
      "à¥ģà¤°à¤¾": 7547,
      "Ġà¤ªà¥ĥà¤¥à¥įà¤µ": 7548,
      "Ġexhib": 7549,
      "Ġà¤Ĩà¤ªà¤²à¥įà¤¯à¤¾à¤²à¤¾": 7550,
      "Ġà¤ªà¥įà¤°à¤£à¤¾à¤²à¥Ģ": 7551,
      "Ġguide": 7552,
      "uments": 7553,
      "Ġà¤¶à¤¾à¤Ĥà¤¤": 7554,
      "Ġà¤®à¤¹à¤¸": 7555,
      "Ġà¤«à¤¾à¤¯à¤¦à¤¾": 7556,
      "inn": 7557,
      "Ġbacteria": 7558,
      "ara": 7559,
      "ence.": 7560,
      "Ġà¤Ĺà¤°à¥įà¤Ń": 7561,
      "à¤ķà¤²à¥įà¤ª": 7562,
      "wood": 7563,
      "Ġà¤ķà¤°à¤¾.": 7564,
      "-e": 7565,
      "Ġà¤ªà¥įà¤°à¤¸à¤¾à¤¦": 7566,
      "Ġà¤²à¥ĭà¤ķà¤¸à¤Ńà¤¾": 7567,
      "Ġdisease.": 7568,
      "tained": 7569,
      "à¥Ģà¤µà¤°": 7570,
      "Ġà¤Ńà¥Ģà¤¤à¤°": 7571,
      "ĠUp": 7572,
      "Ġfix": 7573,
      "à¥įà¤¹à¥ĩ": 7574,
      "OS": 7575,
      "ments.": 7576,
      "Ġà¤ªà¥įà¤°à¤¤à¥įà¤¯à¤ķà¥įà¤·": 7577,
      "Ġà¤°à¤ĸà¤¤à¥ĩ": 7578,
      "Ġà¤Ńà¥ĩà¤¦": 7579,
      "Ġà¤ĸà¥ĭà¤²": 7580,
      "Ġà¤Ńà¤ķà¥įà¤¤": 7581,
      "à¥ĩà¤Łà¤°": 7582,
      "ĠRetrieved": 7583,
      "Ġeffic": 7584,
      "Ġhighest": 7585,
      "Ġà¤¤à¤¾à¤¤": 7586,
      "Ġà¤ķà¤¾à¤¯à¤®": 7587,
      "Ġproperty": 7588,
      "Ġà¤¦à¥Ĥà¤§": 7589,
      "Ġstyle": 7590,
      "Ġ(f": 7591,
      "Ġà¤¶à¥Ģà¤°à¥įà¤·": 7592,
      "Ġà¤¸à¥įà¤¥à¤¾à¤ªà¤¨à¤¾": 7593,
      "Ġà¤ĵà¤³à¤ĸ": 7594,
      "ĠMary": 7595,
      "Ġthousands": 7596,
      "Ġpark": 7597,
      "Ġà¤¶à¥ģà¤¦à¥įà¤§": 7598,
      "Ġcarried": 7599,
      "Ġà¤ķà¤¿à¤¤à¥Ģ": 7600,
      "Ġà¤µà¤¾à¤¯à¤°à¤²": 7601,
      "à¥Ĥà¤¬à¤°": 7602,
      "Ġtour": 7603,
      "Ġcode": 7604,
      "Ġà¤Łà¥įà¤µà¥Ģà¤Ł": 7605,
      "erate": 7606,
      "Ġsurvey": 7607,
      "Ġà¤ıà¤ĸ": 7608,
      "Ġpow": 7609,
      "Ġdivid": 7610,
      "Ġsignal": 7611,
      "Ġà¤µà¤¾à¤¤à¤¾à¤µà¤°à¤£": 7612,
      "à¤ļà¥Ģà¤¤": 7613,
      "Ġrise": 7614,
      "unction": 7615,
      "aced": 7616,
      "Ġcommercial": 7617,
      "Ġmathem": 7618,
      "à¥įà¤¦à¥Ģ": 7619,
      "Ġdestroy": 7620,
      "Ġsuppl": 7621,
      "Ġà¤ªà¥įà¤°à¤¾à¤ļà¥Ģà¤¨": 7622,
      "à¥ĩà¤Ĥà¤ľ": 7623,
      "Ġà¤ľà¤¾à¤£à¤¾à¤°": 7624,
      "Ġtechniques": 7625,
      "Ġà¤ĺà¤¾à¤¤": 7626,
      "à¥įà¤¯à¤¾à¤¶à¥Ģ": 7627,
      "Ġà¤®à¥ģà¤¨": 7628,
      "à¤¬à¥ģà¤ķ": 7629,
      "orial": 7630,
      "igen": 7631,
      "ache": 7632,
      "Ġà¤¦à¥ĩà¤¤à¥Ģ": 7633,
      "Ġà¤¹à¤¿à¤¨à¥įà¤¦à¥Ģ": 7634,
      "à¤ĸà¤¨à¤Ĭ": 7635,
      "Ġà¤®à¤¾à¤Ŀà¥įà¤¯à¤¾": 7636,
      "Ġplat": 7637,
      "itis": 7638,
      "Ġcosts": 7639,
      "ĠCollege": 7640,
      "à¥ģà¤²à¥įà¤ķ": 7641,
      "Ġà¤ľà¤¹à¤¾à¤ģ": 7642,
      "Ġbasis": 7643,
      "à¤ļà¤¾à¤¨à¤ķ": 7644,
      "Ġà¤«à¥ģà¤Ł": 7645,
      "Ġrunning": 7646,
      "à¥įà¤ķà¤¿à¤²": 7647,
      "à¥įà¤®à¤¦": 7648,
      "Ġà¤¸à¥Īà¤¨à¤¿à¤ķ": 7649,
      "ĠNet": 7650,
      "Ġà¤¸à¤Ĥà¤¦à¤°à¥įà¤Ń": 7651,
      "Ġà¤¤à¤¾à¤ªà¤®à¤¾à¤¨": 7652,
      "Ġà¤²à¥īà¤¨": 7653,
      "Ġà¤¹à¥ĭà¤Ĺà¥Ģ": 7654,
      "ĠFound": 7655,
      "Ġtrade": 7656,
      "D,": 7657,
      "Ġà¤Ĺà¥ĩà¤²": 7658,
      "ter,": 7659,
      "Ġbelieved": 7660,
      "Ġchallenge": 7661,
      "Ġseed": 7662,
      "Ġhear": 7663,
      "à¤¿à¤¶à¥įà¤ļà¤¿à¤¤": 7664,
      "Ġà¤²à¤Ĺà¥įà¤¨": 7665,
      "Ġsituation": 7666,
      "Ġà¤¸à¥Ģà¤®": 7667,
      "ographic": 7668,
      "Ġ(and": 7669,
      "à¥ĩà¤ł": 7670,
      "Ġà¤¯à¤¾à¤ļà¤¾": 7671,
      "raction": 7672,
      "change": 7673,
      "Ġfaith": 7674,
      "Ġneu": 7675,
      "iring": 7676,
      "Ġà¤®à¤¾à¤ľà¥Ģ": 7677,
      "à¤¦à¤°à¥įà¤¶à¤¨": 7678,
      "Ġà¤¸à¥įà¤µà¤ļà¥įà¤Ľ": 7679,
      "Ġà¤¤à¤¿à¤ļà¥įà¤¯à¤¾": 7680,
      "Ġactual": 7681,
      "Ġà¤ķà¤°à¤¤à¤¾à¤¨à¤¾": 7682,
      "Ġà¤¸à¤Ńà¤¾": 7683,
      "Ġà¤ĸà¤¾à¤¨à¥ĩ": 7684,
      "à¤¾à¤ĩà¤ľ": 7685,
      "Ġà¤µà¤¿à¤¤": 7686,
      "ĠMiss": 7687,
      "ĠTherefore": 7688,
      "reet": 7689,
      "à¤¾à¤¯à¤ļà¥ĩ": 7690,
      "Ġà¤¤à¥įà¤¯à¤¾à¤Ĥà¤ļà¤¾": 7691,
      "Ġsave": 7692,
      "à¥ĭà¤Łà¥Ģ": 7693,
      "EM": 7694,
      "rot": 7695,
      "Ġà¤¸à¤°à¤ķà¤¾à¤°à¤¨à¥ĩ": 7696,
      "Ġversion": 7697,
      "Ġnuclear": 7698,
      "bre": 7699,
      "Ġreference": 7700,
      "à¥įà¤¯à¤¾à¤µà¤°à¤£": 7701,
      "Ġà¤ļà¤¿à¤¨": 7702,
      "Ġrules": 7703,
      "à¥ĩà¤¦à¤¾à¤°": 7704,
      "Ġà¤«à¤°à¤µà¤°à¥Ģ": 7705,
      "Ġadults": 7706,
      "Ġcollabor": 7707,
      "Ġà¤ķà¤°à¥įà¤¤": 7708,
      "Ġscen": 7709,
      "Ġà¤µà¥įà¤¯à¤¾à¤ªà¤ķ": 7710,
      "Ġequal": 7711,
      "-à¤ħà¤²à¤Ĺ": 7712,
      "Ġextremely": 7713,
      "Ġpicture": 7714,
      "à¤Ĥà¤ĺ": 7715,
      "Ġà¤¬à¤¿à¤Ĺ": 7716,
      "Ġà¤ªà¥įà¤°à¤¾à¤¥à¤®à¤¿à¤ķ": 7717,
      "Ġà¤®à¤¹à¤¾à¤ªà¤¾à¤²": 7718,
      "Ġà¤¬à¤¾à¤³": 7719,
      "Ġà¤µà¥Īà¤¸à¥ĩ": 7720,
      "Ġsymptom": 7721,
      "Ġnutrition": 7722,
      "roc": 7723,
      "ensity": 7724,
      "Ġà¤¦à¤®": 7725,
      "Ġemphas": 7726,
      "Ġhair": 7727,
      "Ġnote": 7728,
      "Ġà¤ķà¤°à¥įà¤®à¤ļà¤¾à¤°": 7729,
      "Ġà¤īà¤¨à¤®à¥ĩà¤Ĥ": 7730,
      "mark": 7731,
      "edia": 7732,
      "à¤Ĺà¥Ģ,": 7733,
      "à¤³à¥ĩ": 7734,
      "ĠWeb": 7735,
      "Ġà¤µà¥įà¤¹à¤¿à¤¡": 7736,
      "à¤µà¤¾à¤¡": 7737,
      "à¤Ĺà¥ĩ,": 7738,
      "inated": 7739,
      "Ġsystem,": 7740,
      "Ġmeasures": 7741,
      "och": 7742,
      "Ġà¤¨à¤¿à¤Ń": 7743,
      "D.": 7744,
      "Ġlib": 7745,
      "à¤ĳ": 7746,
      "Ġà¤¥à¥Ģà¤Ĥà¥¤": 7747,
      "Ġfeeling": 7748,
      "Ġfriends": 7749,
      "ĠÙ": 7750,
      "Ġà¤¸à¤Ĥà¤ĺà¤°à¥įà¤·": 7751,
      "AM": 7752,
      "Ġà¤Ľà¤¾à¤¤à¥įà¤°à¥ĭà¤Ĥ": 7753,
      "Ġà¤µà¤°à¥įà¤·à¥Ģà¤¯": 7754,
      "Ġà¤°à¤¾à¤¹à¤¤": 7755,
      "Ġapproximately": 7756,
      "Ġà¤ľà¥įà¤ŀ": 7757,
      "Ġà¤®à¤¾à¤¨à¤¸à¤¿à¤ķ": 7758,
      "Ġconfirm": 7759,
      "Ġà¤®à¥ĭà¤łà¤¾": 7760,
      "Ġà¤ªà¤°à¤¿à¤µà¤°à¥įà¤¤à¤¨": 7761,
      "à¤°à¥Ģà¤¤": 7762,
      "Ġfemale": 7763,
      "ory,": 7764,
      "Ġsigns": 7765,
      "Ġà¤¸à¤Ĥà¤Ĺà¥Ģà¤¤": 7766,
      "Ġworld,": 7767,
      "Ġà¤¦à¤¾à¤¨": 7768,
      "Ġstore": 7769,
      "Ġà¤Ĩà¤¹à¥ĩà¤¤,": 7770,
      "Ġyou.": 7771,
      "à¤ĩà¤¨": 7772,
      "Ġà¤ħà¤ļà¤¾à¤¨à¤ķ": 7773,
      "Ġurban": 7774,
      "Ġà¤ķà¤¹à¥Ģ": 7775,
      "ĠOrgan": 7776,
      "à¥įà¤¯à¤¾à¤®à¤§à¥įà¤¯à¥ĩ": 7777,
      "Ġpresident": 7778,
      "Ġliqu": 7779,
      "à¤¬à¤¾à¤°": 7780,
      "lor": 7781,
      "Ġà¤ħà¤²à¤Ĺ-à¤ħà¤²à¤Ĺ": 7782,
      "Ġreality": 7783,
      "Ġday,": 7784,
      "à¥ĩà¤¨à¥ĩ": 7785,
      "Ġà¤¬à¤Ĥà¤Ĺà¤¾à¤²": 7786,
      "Ġà¤Ĺà¥įà¤²": 7787,
      "rack": 7788,
      "Ġà¤°à¤®": 7789,
      "Ġà¤ªà¤¾à¤°à¥įà¤Ł": 7790,
      "Ġeventually": 7791,
      "à¤ķà¥įà¤¸à¤°": 7792,
      "Ġà¤¦à¥ģà¤·": 7793,
      "ĠJapanese": 7794,
      "à¤¿à¤ķà¥ĭ": 7795,
      "Ġslight": 7796,
      "à¤ķà¤¾à¤°à¤¾à¤¤à¥įà¤®à¤ķ": 7797,
      "ĠAir": 7798,
      "à¤¤à¥ĭ,": 7799,
      "Ġà¤®à¤¿à¤¶à¥įà¤°": 7800,
      "Ġsexual": 7801,
      "vis": 7802,
      "Ġà¤¸à¤¾à¤®à¤Ĺà¥įà¤°à¥Ģ": 7803,
      "Ġà¤¤à¤ķà¥įà¤°": 7804,
      "à¤Ńà¤¾à¤°à¤¤": 7805,
      "Ġà¤¦à¤°à¤µ": 7806,
      "ĠGeorge": 7807,
      "ĠST": 7808,
      "Ġà¤®à¤¾à¤¤à¥įà¤°à¤¾": 7809,
      "Ġà¤ķà¤¹à¤¾à¤¨à¥Ģ": 7810,
      "Ġclinical": 7811,
      "Ġà¤¸à¤®à¤¾à¤§à¤¾à¤¨": 7812,
      "à¤¿à¤ľà¤¨": 7813,
      "Ġexcess": 7814,
      "Ġà¤ªà¤¾à¤°à¥Ģ": 7815,
      "à¤łà¤¾": 7816,
      "ship": 7817,
      "à¤¿à¤Ŀ": 7818,
      "Ġwork.": 7819,
      "iable": 7820,
      "ician": 7821,
      "ony": 7822,
      "Ġà¤ıà¤ķà¤®": 7823,
      "Ġspect": 7824,
      "cular": 7825,
      "Ġcod": 7826,
      "Ġà¤ħà¤Ĥà¤¦à¤¾à¤ľ": 7827,
      "Ġclos": 7828,
      "Ġà¤ĩà¤¤à¥įà¤¯à¤¾à¤¦": 7829,
      "Ġà¤ķà¤°à¥ĩà¤Ĥà¤Ĺà¥ĩ": 7830,
      "Ġà¤ħà¤Ńà¤¿à¤¨à¥ĩà¤¤": 7831,
      "ors,": 7832,
      "Ġà¤¬à¤¾à¤µà¤ľà¥Ĥà¤¦": 7833,
      "à¤µà¤¿à¤¶": 7834,
      "Ġcontrast": 7835,
      "à¤¯à¤¾à¤°à¥Ģ": 7836,
      "Ġapply": 7837,
      "Ġà¤¹à¥ĭà¤Ĭà¤¨": 7838,
      "Ġà¤µà¤¾à¤¯à¤°à¤¸": 7839,
      "ĠSk": 7840,
      "Ġhousehold": 7841,
      "Ġiron": 7842,
      "Ġà¤°à¤¿à¤¸": 7843,
      "Ġà¤Ĩà¤ªà¤²à¥ĩ": 7844,
      "Ġbecoming": 7845,
      "Ġdefined": 7846,
      "wise": 7847,
      "Ġopin": 7848,
      "ĠRepublic": 7849,
      "Ġdevices": 7850,
      "wide": 7851,
      "ĠGreek": 7852,
      "à¤°à¥įà¤ľà¤¾": 7853,
      "ĠDi": 7854,
      "Ġà¤¨à¥ĩà¤Ł": 7855,
      "Ġcopy": 7856,
      "Ġtrust": 7857,
      "ĠUsing": 7858,
      "Ġà¤¤à¤¤à¥įà¤µ": 7859,
      "Ġà¤ªà¥įà¤°à¤¸à¥įà¤¤à¥ģà¤¤": 7860,
      "Ġà¤ĩà¤²à¥ĩà¤ķà¥įà¤Łà¥įà¤°": 7861,
      "Ġfirm": 7862,
      "Ġdiseases": 7863,
      "à¤¸à¥įà¤¤à¥įà¤°": 7864,
      "Ġà¤°à¥ĩà¤²à¤µà¥ĩ": 7865,
      "à¥ģà¤¬": 7866,
      "Ġfavor": 7867,
      "Ġexplore": 7868,
      "Ġindependent": 7869,
      "Ġmission": 7870,
      "à¤®à¥Ģà¤Łà¤°": 7871,
      "à¤¾à¤µà¤²à¥Ģ": 7872,
      "Ġsites": 7873,
      "ĠÐ": 7874,
      "Ġhttp://www.": 7875,
      "enth": 7876,
      "Ġà¤ªà¤¾à¤µà¤¸": 7877,
      "à¤¾à¤Īà¤²": 7878,
      "Ġà¤ªà¥įà¤°à¤®à¤¾à¤£à¤¾à¤¤": 7879,
      "Ġ\"A": 7880,
      "Ġperspect": 7881,
      "Ġà¤ªà¤ķà¤¡à¤¼": 7882,
      "Ġà¤Ĩà¤¤à¥Ģ": 7883,
      "à¤¾à¤Ĥà¤ķà¤¨": 7884,
      "ĠDem": 7885,
      "Ġindustrial": 7886,
      "Ġà¤®à¥ģà¤¶à¥įà¤ķà¤¿à¤²": 7887,
      "Ġlegisl": 7888,
      "cast": 7889,
      "anks": 7890,
      "Ġà¤¶à¥ĩà¤µ": 7891,
      "Ġà¤¸à¤Ĥà¤ķà¥įà¤°à¤®à¤£": 7892,
      "house": 7893,
      "Ġà¤²à¥ĩà¤¨à¤¾": 7894,
      "Ġà¤¸à¤Ĥà¤Ńà¤¾à¤µà¤¨à¤¾": 7895,
      "ic.": 7896,
      "à¤¸à¥įà¤µà¥Ģ": 7897,
      "que": 7898,
      "Ġresource": 7899,
      "Ġà¤ªà¤°à¥įà¤¯à¤¾à¤µà¤°à¤£": 7900,
      "Ġalternative": 7901,
      "à¥įà¤¯à¤¾à¤Ĥà¤¤": 7902,
      "à¤¿à¤µà¥įà¤¹": 7903,
      "Ġà¤µà¤¾à¤¸à¥įà¤¤à¤µ": 7904,
      "Ġign": 7905,
      "à¤Ĺà¤¾,": 7906,
      "cles": 7907,
      "Ġstri": 7908,
      "ry,": 7909,
      "ically,": 7910,
      "Ġchance": 7911,
      "Ġobjects": 7912,
      "Ġà¤¬à¤¾à¤¤à¤ļà¥Ģà¤¤": 7913,
      "Ġà¤¤à¤¿à¤²à¤¾": 7914,
      "à¤¾à¤²à¤¤": 7915,
      "Ġlearned": 7916,
      "Ġcast": 7917,
      "à¤¹à¤¿": 7918,
      "Ġstem": 7919,
      "Ġfreedom": 7920,
      "ĠJames": 7921,
      "Ġà¤¹à¤¿à¤Ĥà¤¦à¥Ģ": 7922,
      "Ġvary": 7923,
      "Ġocean": 7924,
      "à¤¾à¤Ĥà¤ªà¤¾à¤¸à¥Ĥà¤¨": 7925,
      "Ġà¤ķà¤¿,": 7926,
      "pped": 7927,
      "à¥Īà¤Ĥ": 7928,
      "ault": 7929,
      "Ġà¤¹à¤µà¤¾": 7930,
      "Ġwater,": 7931,
      "Ġà¤īà¤¤à¥įà¤¤à¤®": 7932,
      "Ġà¤®à¥ģà¤¸à¥įà¤²à¤¿à¤®": 7933,
      "Ġà¤Ńà¥įà¤°": 7934,
      "Ġà¤²à¥ĭà¤ķà¤ªà¥įà¤°à¤¿à¤¯": 7935,
      "ous,": 7936,
      "Ġà¤ªà¥Ģà¤¡à¤¼": 7937,
      "Ġsurger": 7938,
      "à¤¾à¤Ĥà¤ª": 7939,
      "Ġà¤¯à¥Ĥà¤ªà¥Ģ": 7940,
      "Ġà¤ľà¤¿à¤¸à¤ķà¥Ģ": 7941,
      "ĠGovernment": 7942,
      "Ġà¤ªà¥įà¤°à¤ķà¤²à¥įà¤ª": 7943,
      "ulum": 7944,
      "Ġà¤¸à¤Ĥà¤µ": 7945,
      "Ġà¤ĺà¥ĭà¤·à¤¿à¤¤": 7946,
      "Ġà¤¬à¤¾à¤§": 7947,
      "char": 7948,
      "Ġà¤µà¤¿à¤°à¤¾à¤Ł": 7949,
      "ĠProject": 7950,
      "Ġdesp": 7951,
      "Ġà¤ļà¤°": 7952,
      "Ġchronic": 7953,
      "Ġà¤¤à¥ģà¤²à¤¨à¤¾": 7954,
      "Ġà¤ªà¥ĩà¤Łà¥įà¤°à¥ĭà¤²": 7955,
      "ĠEv": 7956,
      "à¤£à¤¾à¤°à¤¾": 7957,
      "Ġà¤¨à¤¿à¤µà¤¡à¤£à¥ģà¤ķà¥Ģ": 7958,
      "Ġà¤¨à¤¹à¥Ģà¤Ĥà¥¤": 7959,
      "roph": 7960,
      "Ġà¤®à¤¿à¤Ł": 7961,
      "ulf": 7962,
      "edic": 7963,
      "à¤¾à¤¨à¤Ĥ": 7964,
      "Ġà¤¸à¤°à¥įà¤µà¥ĭ": 7965,
      "ĠPaul": 7966,
      "Ġusers": 7967,
      "Ġserve": 7968,
      "ani": 7969,
      "Ġdistinct": 7970,
      "iated": 7971,
      "ĠPost": 7972,
      "Ġpractices": 7973,
      "Ġà¤°à¥ģà¤Ĺà¥įà¤£à¤¾à¤²à¤¯": 7974,
      "Ġà¤ĸà¤°à¥ĩà¤¦à¥Ģ": 7975,
      "Ġincreases": 7976,
      "Ġà¤¶à¤¾à¤¸à¥įà¤¤à¥įà¤°": 7977,
      "à¤¸à¤¹": 7978,
      "road": 7979,
      "ĠSpanish": 7980,
      "Ġearlier": 7981,
      "ness.": 7982,
      "CC": 7983,
      "à¤¾à¤¦à¥ĩà¤¶": 7984,
      "Ġà¤īà¤Ń": 7985,
      "Ġà¤¬à¥įà¤°à¤¾à¤¹": 7986,
      "à¥Ģà¤¨à¥ĩ": 7987,
      "ise,": 7988,
      "Ġlife,": 7989,
      "ĠMuseum": 7990,
      "Ġcourse,": 7991,
      "Ġà¤¹à¥ĭà¤Ĥà¤Ĺà¥ĩà¥¤": 7992,
      "ĠE.": 7993,
      "ĠFurther": 7994,
      "Ġmag": 7995,
      "iec": 7996,
      "à¤Ĥà¤Ĺà¥Ģ": 7997,
      "Ġà¤ĺà¤¾à¤¯à¤²": 7998,
      "à¤µà¤¿à¤²": 7999,
      "à¤¾à¤¦à¤¾": 8000,
      "Ġcountr": 8001,
      "Ġutil": 8002,
      "aus": 8003,
      "Ġstream": 8004,
      "Ġsetting": 8005,
      "Ġprocesses": 8006,
      "Ġsteps": 8007,
      "Ġà¤¸à¤¾à¤ķà¥įà¤·": 8008,
      "Ġà¤¸à¤®à¥ģà¤¦à¥įà¤°": 8009,
      "s://": 8010,
      "Ġà¤ĩà¤®à¤¾à¤°": 8011,
      "porary": 8012,
      "can": 8013,
      "anch": 8014,
      "Ġnovel": 8015,
      "Ġà¤ĳà¤«à¤¿à¤¸": 8016,
      "Ġprojects": 8017,
      "Ġà¤Ĩà¤¤à¥įà¤®à¤¾": 8018,
      "Ġestimated": 8019,
      "à¤¾à¤Ĥà¤ķà¤¡à¥Ĥà¤¨": 8020,
      "Ġheavy": 8021,
      "ar,": 8022,
      "omas": 8023,
      "Ġtherapy": 8024,
      "à¤°à¤®à¥įà¤¯à¤¾à¤¨": 8025,
      "Ġà¤µà¤¾à¤ķ": 8026,
      "ognitive": 8027,
      "Ġfamous": 8028,
      "Ġà¤¸à¥įà¤Łà¥įà¤°": 8029,
      "Ġà¤¨à¥Ī": 8030,
      "Ġà¤ħà¤¨à¥ģà¤®à¤¤à¤¿": 8031,
      "Ġà¤ħà¤¨à¥ģà¤¦": 8032,
      "Ġà¤²à¤¹à¤¾à¤¨": 8033,
      "Ġves": 8034,
      "Ġà¤°à¤¾à¤¤à¥įà¤°à¥Ģ": 8035,
      "Ġesc": 8036,
      "Ġ(m": 8037,
      "Ġrot": 8038,
      "/or": 8039,
      "Ġà¤¸à¥ĩà¤µà¤¨": 8040,
      "Ġà¤ħà¤Ĺà¥įà¤¨": 8041,
      "Ġà¤ķà¥ģà¤£": 8042,
      "Ġmoved": 8043,
      "cop": 8044,
      "rm": 8045,
      "Ġà¤¨à¤¾à¤¹à¥Ģà¤¤.": 8046,
      "à¤¸à¥ĩà¤µ": 8047,
      "Ġà¤¸à¤¾à¤ª": 8048,
      "ĠProfess": 8049,
      "à¤¹à¤®à¥įà¤®à¤¦": 8050,
      "Ġà¤Ńà¤¿à¤¨à¥įà¤¨": 8051,
      "Ġ(e.": 8052,
      "ĠLike": 8053,
      "Ġà¤µà¤ľà¤¨": 8054,
      "ĠSo,": 8055,
      "Ġà¤®à¥ĩà¤¡à¤¿à¤ķà¤²": 8056,
      "à¤¾à¤¹à¥Ģà¤°": 8057,
      "Ġà¤¶à¥įà¤°à¤®": 8058,
      "Ġwat": 8059,
      "à¤®à¤§à¥Ĥà¤¨": 8060,
      "ĠSy": 8061,
      "ĠWrit": 8062,
      "ĠRev": 8063,
      "Ġbody.": 8064,
      "Ùİ": 8065,
      "Ġbattle": 8066,
      "Ġà¤ħà¤Ĥà¤Ĺà¥įà¤°à¥ĩà¤ľ": 8067,
      "Ġfig": 8068,
      "Ġsample": 8069,
      "Ġremove": 8070,
      "Ġà¤Īà¤¶à¥įà¤µà¤°": 8071,
      "à¥īà¤«": 8072,
      "Ġbaby": 8073,
      "Ġstage": 8074,
      "Ġà¤ķà¥ĭà¤¹à¤²à¥Ģ": 8075,
      "Ġà¤¶à¤¿à¤Ĥà¤¦à¥ĩ": 8076,
      "à¤¾à¤¦à¤¿": 8077,
      "à¥įà¤¯à¥Ĥà¤¨": 8078,
      "à¤¿à¤¯à¤¾,": 8079,
      "Ġmetal": 8080,
      "Ġbottom": 8081,
      "Ġmineral": 8082,
      "Ġà¤ĩà¤®": 8083,
      "Ġweeks": 8084,
      "ĠMet": 8085,
      "Ġà¤ªà¤°à¥ĩà¤¶à¤¾à¤¨": 8086,
      "Ġà¤īà¤ĺ": 8087,
      "-à¤¨": 8088,
      "RE": 8089,
      "Ġintellig": 8090,
      "à¤¤à¤¾à¤°": 8091,
      "Ġà¤¨à¤¿à¤Ĺà¤®": 8092,
      "à¤¥à¥ĩ": 8093,
      "lick": 8094,
      "ĠSom": 8095,
      "à¤¶à¥įà¤°à¥Ģ": 8096,
      "Ġsand": 8097,
      "Ġà¤µà¤¿à¤°à¥ĭà¤§à¥Ģ": 8098,
      "onic": 8099,
      "ĠGra": 8100,
      "iny": 8101,
      "à¤«à¥ĭà¤¨": 8102,
      "Ġà¤¸à¤®à¤¸à¥įà¤¯à¤¾à¤": 8103,
      "Ġgod": 8104,
      "Ġà¤¸à¥ģà¤°à¥ģà¤µà¤¾à¤¤": 8105,
      "Ġà¤¸à¤¿à¤¸à¥įà¤Ł": 8106,
      "ĠMal": 8107,
      "ĠWashington": 8108,
      "à¤ķà¤°à¤£à¥Ģ": 8109,
      "Ġstarting": 8110,
      "Ġà¤¦à¥ĭà¤¸à¥įà¤¤": 8111,
      "Ġà¤¸à¤¾à¤Ĥà¤Ĺà¤¿à¤¤à¤²à¥ĩ": 8112,
      "Ġannual": 8113,
      "Ġliterature": 8114,
      "ulated": 8115,
      "ain,": 8116,
      "Ġdoub": 8117,
      "Ġoutput": 8118,
      "Ġà¤¬à¤¾à¤¯": 8119,
      "Ġ(W": 8120,
      "Ġcycle": 8121,
      "Ġmale": 8122,
      "Ġoption": 8123,
      "à¤¾à¤¡à¤¼à¤¿à¤¯à¥ĭà¤Ĥ": 8124,
      "à¥īà¤²à¤°": 8125,
      "Ġcausing": 8126,
      "Ġsuggests": 8127,
      "Ġcampaign": 8128,
      "ĠBas": 8129,
      "ĠâĢ¦": 8130,
      "ras": 8131,
      "ĠFore": 8132,
      "Ġà¤¤à¥ĭà¤¡à¤¼": 8133,
      "Ġcombination": 8134,
      "Ġà¤Ĩà¤§à¤¾à¤°à¤¿à¤¤": 8135,
      "Ġà¤¦à¤¿à¤¸à¤Ĥà¤¬à¤°": 8136,
      "à¤²à¥įà¤²à¤¾": 8137,
      "à¤¿à¤ĥ": 8138,
      "Ġà¤ĩà¤¶": 8139,
      "Ġinjur": 8140,
      "à¥ĩà¤ĸà¤¾": 8141,
      "Ġà¤īà¤¤à¤°": 8142,
      "à¥įà¤¦à¤°": 8143,
      "Ġshape": 8144,
      "Ġà¤ªà¤°à¤¿à¤¯": 8145,
      "Ġà¤ķà¤²à¤¾à¤ķà¤¾à¤°": 8146,
      "Ġà¤°à¤¿à¤ľ": 8147,
      "ms": 8148,
      "Ġagg": 8149,
      "Ġà¤¬à¤¦à¤²à¤¾à¤µ": 8150,
      "ĠSal": 8151,
      "Ġà¤¸à¤Ĥà¤ķà¥ĩà¤¤": 8152,
      "Ġinterpret": 8153,
      "Ġà¤«à¥Īà¤²": 8154,
      "Ġturned": 8155,
      "Ġà¤Ĺà¥įà¤°à¤Ĥà¤¥": 8156,
      "ĠPhys": 8157,
      "ĠSun": 8158,
      "Ġà¤®à¥įà¤¹à¤Łà¤²à¥ĩ": 8159,
      "ices,": 8160,
      "eared": 8161,
      "à¤Ĺà¤¡": 8162,
      "le.": 8163,
      "Ġà¤ĸà¤°": 8164,
      "Ġburn": 8165,
      "ĠIts": 8166,
      "icial": 8167,
      "à¤ķà¤¤": 8168,
      "iding": 8169,
      "Ġà¤ĺà¤¾à¤Ł": 8170,
      "at.": 8171,
      "Ġreasons": 8172,
      "Ġisol": 8173,
      "à¥ĩà¤ļà¥ĩ": 8174,
      "à¥ģà¤¦à¥įà¤§à¤¾": 8175,
      "Ġpassed": 8176,
      "Ġinitial": 8177,
      "Ġfundam": 8178,
      "ees": 8179,
      "Ġà¤¹à¥ģ": 8180,
      "Ġà¤ĩà¤Ĥà¤¸": 8181,
      "à¤Ĺà¤¾.": 8182,
      "Ġà¤īà¤¤à¥įà¤ķ": 8183,
      "ills": 8184,
      "Ġresulting": 8185,
      "Ġclick": 8186,
      "Ġgrant": 8187,
      "ula": 8188,
      "ĠCongress": 8189,
      "à¤¿à¤¯à¥ĭà¤Ĺ": 8190,
      "Ġcovered": 8191,
      "Ġà¤¸à¤Ĥà¤µà¤¾à¤¦": 8192,
      "à¤¿à¤¨à¤¿à¤¯à¤®": 8193,
      "Ġchanged": 8194,
      "Ġà¤¸à¤¾à¤ľ": 8195,
      "lease": 8196,
      "life": 8197,
      "Ġà¤¬à¤¾à¤¤à¥ĩà¤Ĥ": 8198,
      "ments,": 8199,
      "Ġconducted": 8200,
      "Ġà¤¤à¤ķà¤¨à¥Ģ": 8201,
      "tered": 8202,
      "Ġà¤¤à¥Īà¤¯à¤¾à¤°à¥Ģ": 8203,
      "Ġoxygen": 8204,
      "Ġdate": 8205,
      "Ġinstruct": 8206,
      "à¥įà¤µà¤¾à¤¸": 8207,
      "ij": 8208,
      "Ġexpert": 8209,
      "Ġ(d": 8210,
      "Ġà¤Ĩà¤ļà¤¾à¤°": 8211,
      "Ġà¤µà¤¸à¥įà¤¤à¥ģ": 8212,
      "Ġà¤¶à¤°à¤¾à¤¬": 8213,
      "à¤¾à¤ļà¤Ĥ": 8214,
      "Â°": 8215,
      "Ġà¤®à¥Ģà¤Łà¤°": 8216,
      "Ġtransform": 8217,
      "à¤ªà¥įà¤¤": 8218,
      "Ġà¤¸à¤®à¤¾à¤°": 8219,
      "Ġmodels": 8220,
      "Ġà¤¨à¤¿à¤®à¥įà¤¨": 8221,
      "Ġà¤Ĺà¤²à¤¤": 8222,
      "Ġhop": 8223,
      "à¤°à¥įà¤Łà¤¿à¤«": 8224,
      "Ġà¤¹à¤¿à¤Ĥà¤¦à¥Ĥ": 8225,
      "Ġà¤²à¤µà¤ķà¤°": 8226,
      "Ġà¤¸à¥įà¤µà¤¾à¤®à¥Ģ": 8227,
      "Ġà¤Ĩà¤¤à¤Ĥà¤ķ": 8228,
      "Ġ(J": 8229,
      "Ġsignificantly": 8230,
      "à¤Łà¥įà¤°": 8231,
      "à¤¾à¤ªà¥ģà¤°": 8232,
      "à¤ķà¥įà¤·à¤®": 8233,
      "Ġà¤µà¥įà¤¯à¤¾à¤µ": 8234,
      "Ġà¤¨à¤¿à¤ľà¥Ģ": 8235,
      "Ġà¤¨à¤¿à¤ĺ": 8236,
      "Ġà¤¬à¤¾à¤Ĺ": 8237,
      "ĠBoth": 8238,
      "Ġpresented": 8239,
      "à¤īà¤¨à¥įà¤¹à¥ĭà¤Ĥà¤¨à¥ĩ": 8240,
      "Ġflood": 8241,
      "Ġunivers": 8242,
      "Ġand/or": 8243,
      "à¤¾à¤ªà¤ķ": 8244,
      "erâĢĻs": 8245,
      "Ġà¤ħà¤¹à¤®à¤¦": 8246,
      "à¥ĩà¤¬à¤²": 8247,
      "à¥ĥà¤·à¥įà¤£": 8248,
      "Ġtrig": 8249,
      "Ġà¤ªà¤µ": 8250,
      "ĠTwo": 8251,
      "Ġprepar": 8252,
      "Ġconnected": 8253,
      "tical": 8254,
      "Ġintroduced": 8255,
      "Ġ(à¤ķ": 8256,
      "Ġwidely": 8257,
      "Ġgets": 8258,
      "Ġà¤¹à¤®à¤¾à¤°à¤¾": 8259,
      "Ġspeech": 8260,
      "isher": 8261,
      "han": 8262,
      "Ġcloud": 8263,
      "à¥Ĥà¤°à¥įà¤µà¥Ģ": 8264,
      "Ġà¤Łà¤¿à¤ª": 8265,
      "Ġà¤ķà¤ªà¥įà¤¤à¤¾à¤¨": 8266,
      "antic": 8267,
      "à¤µà¥Ģà¤¸": 8268,
      "Ġscale": 8269,
      "ĠPlan": 8270,
      "Ġinternal": 8271,
      "Ġà¤Ĺà¤¾à¤°": 8272,
      "Ġà¤¤à¤¤à¥įà¤ķà¤¾à¤²": 8273,
      "Ġà¤²à¤¡à¤¼à¤ķà¥Ģ": 8274,
      "Ġà¤Ĺà¥įà¤°à¤¾à¤¹à¤ķ": 8275,
      "à¤µà¥Ģà¤°": 8276,
      "Ġà¤¶à¤¾à¤¯à¤¦": 8277,
      "Ġà¤°à¥Ģ": 8278,
      "ĠCath": 8279,
      "Ġconv": 8280,
      "Ġà¤¸à¤¿à¤Ĥà¤Ĺ": 8281,
      "ĠTreat": 8282,
      "ĠDist": 8283,
      "word": 8284,
      "Ġspot": 8285,
      "Ġgraph": 8286,
      "What": 8287,
      "Ġà¤¤à¤Ńà¥Ģ": 8288,
      "Ġà¤¤à¤Ĥà¤¤à¥įà¤°": 8289,
      "atically": 8290,
      "Ġreferred": 8291,
      "har": 8292,
      "Ġà¤ļà¥ĭà¤°à¥Ģ": 8293,
      "Ġlocation": 8294,
      "Ġcapacity": 8295,
      "ocal": 8296,
      "Ġbeautiful": 8297,
      "bed": 8298,
      "Ġalg": 8299,
      "à¤¨à¤°": 8300,
      "ĠOff": 8301,
      "Ġà¤®à¤Ĺà¤°": 8302,
      "-à¤¶": 8303,
      "ĠSecond": 8304,
      "Ġprice": 8305,
      "bal": 8306,
      "Ġà¤¶à¤¿à¤²": 8307,
      "Ġnumerous": 8308,
      "encies": 8309,
      "Ġobserved": 8310,
      "Ġsem": 8311,
      "Ġà¤ĩà¤¤à¤¨à¥Ģ": 8312,
      "Ġà¤Łà¥įà¤µà¤¿à¤Łà¤°": 8313,
      "olid": 8314,
      "ĠBudd": 8315,
      "Ġà¤¶à¤¾à¤ĸ": 8316,
      "Ġwhom": 8317,
      "à¤¶à¥įà¤ļ": 8318,
      "Ġeyes": 8319,
      "Ġà¤ıà¤ķà¥įà¤Ł": 8320,
      "Ġà¤¸à¥ģà¤¨à¥Ģ": 8321,
      "à¤¾à¤Ĺà¥įà¤°à¤¾à¤®": 8322,
      "Ġprefer": 8323,
      "Ġà¤®à¥ģà¤²à¥Ģ": 8324,
      "Ġencourage": 8325,
      "Ġà¤¸à¤Ĥà¤¸à¤¾à¤°": 8326,
      "Ġprocess.": 8327,
      "Ġcalc": 8328,
      "à¥ĥà¤·à¥įà¤ł": 8329,
      "Ġtreated": 8330,
      "à¤¤à¥įà¤¯": 8331,
      "stitution": 8332,
      "-à¤Ń": 8333,
      "Ġà¤Ľà¤¾à¤ª": 8334,
      "à¤¾à¤Īà¤¨": 8335,
      "add": 8336,
      "Ġà¤ªà¤¾à¤°à¥įà¤ķ": 8337,
      "ĠRober": 8338,
      "ework": 8339,
      "à¤ķà¥įà¤¯à¤¾": 8340,
      "Ġà¤ķà¥īà¤¨": 8341,
      "à¤£à¤Ĥ": 8342,
      "Ġdistance": 8343,
      "Ġvolunt": 8344,
      "Ġreserv": 8345,
      "Ġrequest": 8346,
      "ĠAbout": 8347,
      "Ġà¤ĸà¥ĭà¤ľ": 8348,
      "Ġorganic": 8349,
      "Ġtrib": 8350,
      "Ġdrop": 8351,
      "Ġà¤Ľà¥ĭà¤Łà¥Ģ": 8352,
      "Ġregarding": 8353,
      "Ġtooth": 8354,
      "oo": 8355,
      "Ġreprodu": 8356,
      "à¤¾à¤ģà¤ļ": 8357,
      "Ġà¤µà¤¹à¥Ģà¤Ĥ,": 8358,
      "ĠIr": 8359,
      "à¤«à¤¾": 8360,
      "Ġyouth": 8361,
      "Ġnor": 8362,
      "Ġà¤µà¥ĩà¤Ĺà¤³": 8363,
      "oration": 8364,
      "Ġà¤®à¤¾à¤¹à¤¿à¤°": 8365,
      "Ġà¤®à¤¾à¤¨à¥įà¤¯": 8366,
      "A,": 8367,
      "ĠBen": 8368,
      "Ġmoment": 8369,
      "à¥ĩà¤ķà¥įà¤·": 8370,
      "Ġvul": 8371,
      "ĠAp": 8372,
      "Ġsquare": 8373,
      "Ġà¤ľà¤¾à¤¹à¥Ģà¤°": 8374,
      "à¤ļà¤°": 8375,
      "ken": 8376,
      "ĠcanâĢĻt": 8377,
      "à¤¤à¤¾à¤¤,": 8378,
      "Ġà¤ĩà¤²à¤¾à¤ķà¥ĩ": 8379,
      "Ġà¤ªà¥įà¤°à¤¤à¤¿à¤ķà¥įà¤°à¤¿à¤¯à¤¾": 8380,
      "ĠDevelopment": 8381,
      "Ġà¤ªà¤¾à¤¤": 8382,
      "à¤£à¤¾à¤°à¥Ģ": 8383,
      "à¤¡à¥ĩà¤Ł": 8384,
      "Ġsolid": 8385,
[...]
