{
  "version": "1.0",
  "truncation": null,
  "padding": null,
  "added_tokens": [
    {
      "id": 0,
      "content": "<pad>",
      "single_word": false,
      "lstrip": false,
      "rstrip": false,
      "normalized": false,
      "special": true
    },
    {
      "id": 1,
      "content": "<eos>",
      "single_word": false,
      "lstrip": false,
      "rstrip": false,
      "normalized": false,
      "special": true
    },
    {
      "id": 2,
      "content": "<bos>",
      "single_word": false,
      "lstrip": false,
      "rstrip": false,
      "normalized": false,
      "special": true
    },
    {
      "id": 3,
      "content": "<unk>",
      "single_word": false,
      "lstrip": false,
      "rstrip": false,
      "normalized": false,
      "special": true
    }
  ],
  "normalizer": {
    "type": "NFC"
  },
  "pre_tokenizer": {
    "type": "Metaspace",
    "replacement": "▁",
    "prepend_scheme": "always",
    "split": true
  },
  "post_processor": null,
  "decoder": {
    "type": "Metaspace",
    "replacement": "▁",
    "prepend_scheme": "always",
    "split": true
  },
  "model": {
    "type": "Unigram",
    "unk_id": 3,
    "vocab": [
      [
        "<pad>",
        0.0
      ],
      [
        "<eos>",
        0.0
      ],
      [
        "<bos>",
        0.0
      ],
      [
        "<unk>",
        0.0
      ],
      [
        "▁",
        -3.3329042549237187
      ],
      [
        ",",
        -3.604335998199172
      ],
      [
        "▁the",
        -3.7722386072888963
      ],
      [
        ".",
        -4.250683638295277
      ],
      [
        "▁of",
        -4.251247241069002
      ],
      [
        "▁and",
        -4.379744439282936
      ],
      [
        "▁to",
        -4.491396115701152
      ],
      [
        "▁के",
        -4.696570578214331
      ],
      [
        "▁a",
        -4.755857047752114
      ],
      [
        "▁in",
        -4.808018183236493
      ],
      [
        "▁में",
        -5.0075695345681215
      ],
      [
        "s",
        -5.087327900151465
      ],
      [
        "▁is",
        -5.207463989817617
      ],
      [
        "▁की",
        -5.2230813042001
      ],
      [
        "▁that",
        -5.460308947442378
      ],
      [
        "▁से",
        -5.518264496243743
      ],
      [
        "▁और",
        -5.5221065491168115
      ],
      [
        "▁को",
        -5.52290627095134
      ],
      [
        "▁for",
        -5.595319206639516
      ],
      [
        "▁का",
        -5.691117197041249
      ],
      [
        "।",
        -5.770248466464361
      ],
      [
        "▁The",
        -5.78949905248407
      ],
      [
        "▁है।",
        -5.802053625266177
      ],
      [
        "▁are",
        -5.839273519183449
      ],
      [
        "▁with",
        -5.8895241560331435
      ],
      [
        "▁-",
        -5.900192610561229
      ],
      [
        "▁as",
        -5.909043618775174
      ],
      [
        ")",
        -5.930140650503006
      ],
      [
        "▁on",
        -5.949003406641594
      ],
      [
        "▁है",
        -5.963200969499907
      ],
      [
        "-",
        -5.963874963447138
      ],
      [
        "▁be",
        -6.024669234655482
      ],
      [
        "▁पर",
        -6.027900305617143
      ],
      [
        "▁ने",
        -6.028946896991632
      ],
      [
        "▁or",
        -6.081668419080367
      ],
      [
        "▁एक",
        -6.095344371182664
      ],
      [
        "ी",
        -6.127455309093669
      ],
      [
        ":",
        -6.138934460889109
      ],
      [
        "▁(",
        -6.145396835017278
      ],
      [
        "▁कि",
        -6.153500006342092
      ],
      [
        "▁it",
        -6.155828713228992
      ],
      [
        "▁by",
        -6.161881407368014
      ],
      [
        "▁from",
        -6.2438492351850545
      ],
      [
        "▁आहे.",
        -6.264548170596836
      ],
      [
        "ों",
        -6.279939934968581
      ],
      [
        "▁was",
        -6.286389672076698
      ],
      [
        "▁भी",
        -6.309817012966434
      ],
      [
        "▁have",
        -6.408548292849872
      ],
      [
        "▁can",
        -6.412646840338942
      ],
      [
        "▁या",
        -6.41662347170964
      ],
      [
        "▁you",
        -6.418864602285499
      ],
      [
        "ing",
        -6.438931839891687
      ],
      [
        "ा",
        -6.473999754790533
      ],
      [
        "▁an",
        -6.482516040092358
      ],
      [
        "▁at",
        -6.486157428902128
      ],
      [
        "▁this",
        -6.503593669771492
      ],
      [
        "▁लिए",
        -6.507123715947811
      ],
      [
        "▁ही",
        -6.513759200031281
      ],
      [
        "▁not",
        -6.525052237270831
      ],
      [
        "▁इस",
        -6.56181494220457
      ],
      [
        "े",
        -6.56191406073655
      ],
      [
        "\n",
        -6.563300523910984
      ],
      [
        "न",
        -6.56885604970806
      ],
      [
        "▁कर",
        -6.607831631346576
      ],
      [
        "▁आणि",
        -6.631774020013625
      ],
      [
        "ed",
        -6.632428715681032
      ],
      [
        "▁नहीं",
        -6.645636286984141
      ],
      [
        "▁their",
        -6.668589681104741
      ],
      [
        "ने",
        -6.683159532114653
      ],
      [
        "▁हैं।",
        -6.69531882106404
      ],
      [
        "त",
        -6.730989443891241
      ],
      [
        "▁हो",
        -6.731456280123881
      ],
      [
        "▁which",
        -6.751274955868665
      ],
      [
        "▁तो",
        -6.757084693748006
      ],
      [
        "’s",
        -6.7654496165626234
      ],
      [
        "?",
        -6.790060188567775
      ],
      [
        "▁your",
        -6.801409238704773
      ],
      [
        "▁they",
        -6.806204480776026
      ],
      [
        "▁will",
        -6.8298029317681905
      ],
      [
        ";",
        -6.844907785635842
      ],
      [
        "▁यह",
        -6.853947690723045
      ],
      [
        "▁more",
        -6.854560646993532
      ],
      [
        "च्या",
        -6.858420892494465
      ],
      [
        "▁has",
        -6.877987163468822
      ],
      [
        "▁In",
        -6.881657031727348
      ],
      [
        "▁किया",
        -6.889284712579242
      ],
      [
        "ला",
        -6.909438977307264
      ],
      [
        "▁A",
        -6.945374892533609
      ],
      [
        "▁\"",
        -6.957443526986848
      ],
      [
        "च",
        -6.973300337762938
      ],
      [
        "'",
        -6.974887008939891
      ],
      [
        "▁व",
        -6.981296735399864
      ],
      [
        "ं",
        -6.985499119990342
      ],
      [
        "▁were",
        -6.988733054555858
      ],
      [
        "▁I",
        -6.992703473555586
      ],
      [
        "▁करने",
        -6.997961816282141
      ],
      [
        "e",
        -7.016329736278102
      ],
      [
        "▁but",
        -7.01988802677206
      ],
      [
        "▁one",
        -7.032530665420852
      ],
      [
        "▁also",
        -7.034693541884179
      ],
      [
        "▁we",
        -7.0347201562791355
      ],
      [
        "▁साथ",
        -7.057204875857657
      ],
      [
        "d",
        -7.059403575707105
      ],
      [
        "▁all",
        -7.066584077643112
      ],
      [
        "a",
        -7.092179117183235
      ],
      [
        "▁This",
        -7.138186026358326
      ],
      [
        "▁हैं",
        -7.139063486548849
      ],
      [
        "▁other",
        -7.145052338877425
      ],
      [
        "'s",
        -7.151803021104209
      ],
      [
        "▁about",
        -7.15345254382151
      ],
      [
        "s,",
        -7.162690572047749
      ],
      [
        "▁है,",
        -7.1986907375388665
      ],
      [
        "▁his",
        -7.199168769567713
      ],
      [
        "▁गया",
        -7.232838997941821
      ],
      [
        "▁जो",
        -7.248945235702182
      ],
      [
        "र",
        -7.270354945609148
      ],
      [
        "\"",
        -7.27821923140168
      ],
      [
        "चे",
        -7.282964979813849
      ],
      [
        "चा",
        -7.283111379927906
      ],
      [
        "▁It",
        -7.289020064621907
      ],
      [
        "▁who",
        -7.29224231985606
      ],
      [
        "ही",
        -7.298746660581065
      ],
      [
        "s.",
        -7.309884519274922
      ],
      [
        "t",
        -7.310500449741349
      ],
      [
        "▁may",
        -7.334166696459823
      ],
      [
        "ची",
        -7.337223476777277
      ],
      [
        "▁than",
        -7.337868829393994
      ],
      [
        "▁he",
        -7.345397096315981
      ],
      [
        "▁been",
        -7.3593689746308595
      ],
      [
        "y",
        -7.359454534438521
      ],
      [
        "ता",
        -7.366137370672483
      ],
      [
        "▁when",
        -7.370925540969981
      ],
      [
        "▁अपने",
        -7.376429357200612
      ],
      [
        "▁into",
        -7.388870885958502
      ],
      [
        "▁'",
        -7.395458152549258
      ],
      [
        "▁बाद",
        -7.395834447553025
      ],
      [
        "कर",
        -7.406399063381432
      ],
      [
        "▁its",
        -7.4071343615040846
      ],
      [
        "क",
        -7.411224340964933
      ],
      [
        "ly",
        -7.413340069683763
      ],
      [
        "▁these",
        -7.41772567071793
      ],
      [
        "▁कहा",
        -7.433203378100242
      ],
      [
        "▁वह",
        -7.454485598371281
      ],
      [
        "▁है.",
        -7.454575493911184
      ],
      [
        "▁हे",
        -7.455778489676309
      ],
      [
        "▁had",
        -7.457903877431029
      ],
      [
        "स",
        -7.459938963053112
      ],
      [
        "▁“",
        -7.47700190146038
      ],
      [
        "▁some",
        -7.484516922035656
      ],
      [
        "▁our",
        -7.49005706755273
      ],
      [
        "▁जा",
        -7.4926447087347405
      ],
      [
        "!",
        -7.500925894996959
      ],
      [
        "▁तक",
        -7.509732805856181
      ],
      [
        "▁there",
        -7.51192270061339
      ],
      [
        "ून",
        -7.520184399033933
      ],
      [
        "▁people",
        -7.520842861344688
      ],
      [
        "▁would",
        -7.524310611419455
      ],
      [
        "▁so",
        -7.524693847013779
      ],
      [
        "वर",
        -7.538097184109956
      ],
      [
        "ना",
        -7.539259826001059
      ],
      [
        "▁out",
        -7.539742567103049
      ],
      [
        "▁most",
        -7.547487560168669
      ],
      [
        "▁such",
        -7.552492600004065
      ],
      [
        "ल",
        -7.557748838524107
      ],
      [
        "▁if",
        -7.56375590756697
      ],
      [
        "▁हुए",
        -7.568025306313912
      ],
      [
        "▁up",
        -7.5690409036050195
      ],
      [
        "i",
        -7.577570433596096
      ],
      [
        "▁use",
        -7.591645371615169
      ],
      [
        "n",
        -7.5944850155574954
      ],
      [
        "मध्ये",
        -7.595526322088718
      ],
      [
        "▁do",
        -7.596188669864112
      ],
      [
        "o",
        -7.6157857577203085
      ],
      [
        "▁what",
        -7.615877886602853
      ],
      [
        "▁only",
        -7.6250890003426814
      ],
      [
        "▁रहे",
        -7.630146505301411
      ],
      [
        "▁how",
        -7.64591017266622
      ],
      [
        "▁them",
        -7.650013119651636
      ],
      [
        "▁used",
        -7.652509613485698
      ],
      [
        "▁तर",
        -7.655043317507781
      ],
      [
        "▁many",
        -7.656431279749716
      ],
      [
        "▁रहा",
        -7.65682671274609
      ],
      [
        "▁काम",
        -7.66660379769227
      ],
      [
        ").",
        -7.678225509833879
      ],
      [
        "▁first",
        -7.679716300289405
      ],
      [
        "▁time",
        -7.6831489456832855
      ],
      [
        "▁आहेत.",
        -7.683556561218264
      ],
      [
        "▁ते",
        -7.686633498484692
      ],
      [
        "▁over",
        -7.728758484516314
      ],
      [
        "”",
        -7.729525312264045
      ],
      [
        "/",
        -7.733827637953192
      ],
      [
        "▁कुछ",
        -7.735099930069751
      ],
      [
        "ते",
        -7.738873297708858
      ],
      [
        "▁दिया",
        -7.739137101967549
      ],
      [
        "▁रही",
        -7.7407375305313515
      ],
      [
        "▁new",
        -7.74246177116826
      ],
      [
        "▁यांनी",
        -7.750950912921294
      ],
      [
        "▁two",
        -7.751760269311797
      ],
      [
        "▁like",
        -7.753965861870526
      ],
      [
        "▁no",
        -7.757009263652586
      ],
      [
        "▁–",
        -7.766295770078575
      ],
      [
        "ो",
        -7.769004708307293
      ],
      [
        "▁करते",
        -7.775432433510723
      ],
      [
        "▁उन्होंने",
        -7.7825787083808855
      ],
      [
        "▁रूप",
        -7.78401546859536
      ],
      [
        "▁था।",
        -7.818193322851004
      ],
      [
        "),",
        -7.8185501034435045
      ],
      [
        "▁any",
        -7.831445434211945
      ],
      [
        "▁हा",
        -7.833269360112233
      ],
      [
        "▁था",
        -7.833394334813924
      ],
      [
        "▁through",
        -7.833948815696944
      ],
      [
        "er",
        -7.846936162848609
      ],
      [
        "▁should",
        -7.852183240318789
      ],
      [
        "▁आ",
        -7.852809003076299
      ],
      [
        "▁ये",
        -7.854075439124907
      ],
      [
        "▁between",
        -7.866961472742423
      ],
      [
        "▁लेकिन",
        -7.870107992367332
      ],
      [
        "▁पहले",
        -7.870645227201965
      ],
      [
        "▁could",
        -7.889151207302975
      ],
      [
        "▁सरकार",
        -7.889772170798276
      ],
      [
        "म",
        -7.8914818182878115
      ],
      [
        "▁होने",
        -7.893824691835951
      ],
      [
        "▁अधिक",
        -7.8971191126051625
      ],
      [
        "के",
        -7.8989496634241725
      ],
      [
        "▁If",
        -7.8994064915331315
      ],
      [
        "▁भारत",
        -7.901490438581709
      ],
      [
        "al",
        -7.9022011909114465
      ],
      [
        "▁make",
        -7.9033605467089085
      ],
      [
        "▁इसके",
        -7.907193865637204
      ],
      [
        "▁आप",
        -7.913421369755042
      ],
      [
        "▁जाता",
        -7.913628139840105
      ],
      [
        "▁होता",
        -7.918231369076901
      ],
      [
        "ात",
        -7.9212991854517085
      ],
      [
        "▁समय",
        -7.933362390413286
      ],
      [
        "▁आज",
        -7.940433242577512
      ],
      [
        "▁where",
        -7.944593901390837
      ],
      [
        "▁कोई",
        -7.956506623918729
      ],
      [
        "्स",
        -7.96087007310101
      ],
      [
        "▁अपनी",
        -7.96344153314625
      ],
      [
        "▁गई",
        -7.968315858628749
      ],
      [
        "▁आहे",
        -7.975183028026265
      ],
      [
        "▁कारण",
        -7.976586399730868
      ],
      [
        "ः",
        -7.9844122598868115
      ],
      [
        "▁लोगों",
        -7.985524106627304
      ],
      [
        "▁हैं,",
        -7.987507621518988
      ],
      [
        "▁किसी",
        -7.990946750191089
      ],
      [
        "▁अब",
        -7.991149994240322
      ],
      [
        "▁because",
        -7.991620036654387
      ],
      [
        "r",
        -7.998606482122112
      ],
      [
        "ाच्या",
        -7.999593778239056
      ],
      [
        "का",
        -8.004669472360312
      ],
      [
        "▁water",
        -8.006946346860872
      ],
      [
        "▁द्वारा",
        -8.007396290087478
      ],
      [
        "▁work",
        -8.00833752830955
      ],
      [
        "▁help",
        -8.008880500154708
      ],
      [
        "▁very",
        -8.013843409552674
      ],
      [
        "▁वे",
        -8.017503168060125
      ],
      [
        "▁1",
        -8.01914022501702
      ],
      [
        "▁For",
        -8.02554132343839
      ],
      [
        "▁अ",
        -8.025604010450685
      ],
      [
        "in",
        -8.027246395946808
      ],
      [
        "▁वाले",
        -8.042373044733063
      ],
      [
        "▁then",
        -8.043323329327674
      ],
      [
        "▁after",
        -8.043484867993614
      ],
      [
        "ली",
        -8.045378639666216
      ],
      [
        "▁even",
        -8.05132746014836
      ],
      [
        "▁काही",
        -8.05416804235413
      ],
      [
        "▁असे",
        -8.055891462506592
      ],
      [
        "▁need",
        -8.060984099278436
      ],
      [
        "▁those",
        -8.06162413997576
      ],
      [
        "▁S",
        -8.064275931809428
      ],
      [
        "▁well",
        -8.065667747609131
      ],
      [
        "▁2",
        -8.08041852784247
      ],
      [
        "▁इन",
        -8.082649185600022
      ],
      [
        "ले",
        -8.090025847338396
      ],
      [
        "▁We",
        -8.090602683967514
      ],
      [
        "▁बात",
        -8.09339568292378
      ],
      [
        "▁way",
        -8.093969183476114
      ],
      [
        "▁होते.",
        -8.098282545208653
      ],
      [
        "▁different",
        -8.100212748095224
      ],
      [
        "▁उनके",
        -8.108627321886381
      ],
      [
        "▁He",
        -8.115309415365047
      ],
      [
        "▁being",
        -8.115972419210301
      ],
      [
        "▁each",
        -8.119190774875719
      ],
      [
        "▁तरह",
        -8.123878897391911
      ],
      [
        "▁दो",
        -8.124328810413514
      ],
      [
        "es",
        -8.134199150210936
      ],
      [
        "ई",
        -8.135944740897605
      ],
      [
        "▁नाही.",
        -8.13675636811066
      ],
      [
        "▁दी",
        -8.138217368177244
      ],
      [
        "▁करना",
        -8.13854406500894
      ],
      [
        "▁her",
        -8.140008837517362
      ],
      [
        "▁देश",
        -8.14010305319651
      ],
      [
        "▁They",
        -8.14234901971904
      ],
      [
        "▁just",
        -8.143565194422541
      ],
      [
        "▁राज्य",
        -8.14365013365739
      ],
      [
        "▁much",
        -8.146183635494411
      ],
      [
        "▁कई",
        -8.149836239048382
      ],
      [
        "▁जब",
        -8.153509923640113
      ],
      [
        "▁करण्यात",
        -8.153592235923867
      ],
      [
        "ाची",
        -8.169519935178878
      ],
      [
        "▁पुलिस",
        -8.172929891020543
      ],
      [
        "ाचा",
        -8.174863383703904
      ],
      [
        "▁सकता",
        -8.178348139597217
      ],
      [
        "▁साल",
        -8.179971910229186
      ],
      [
        "▁during",
        -8.180683213542935
      ],
      [
        "▁years",
        -8.180876629506033
      ],
      [
        "▁As",
        -8.183413848863287
      ],
      [
        "▁तथा",
        -8.189604569026018
      ],
      [
        "▁get",
        -8.18992963977882
      ],
      [
        "▁important",
        -8.19530037158585
      ],
      [
        "▁हम",
        -8.210859874624306
      ],
      [
        "▁करता",
        -8.217968583699005
      ],
      [
        "को",
        -8.21868065547406
      ],
      [
        "ित",
        -8.219354435001268
      ],
      [
        "▁same",
        -8.21963658499754
      ],
      [
        "▁सभी",
        -8.224055858987176
      ],
      [
        "▁त्या",
        -8.225851724654033
      ],
      [
        "▁made",
        -8.226066286828203
      ],
      [
        "▁फिर",
        -8.228691856032405
      ],
      [
        "▁found",
        -8.22928144476703
      ],
      [
        "से",
        -8.22979071126658
      ],
      [
        "▁हुआ",
        -8.231352199029516
      ],
      [
        "▁बहुत",
        -8.234972470716917
      ],
      [
        "नी",
        -8.235066498357739
      ],
      [
        "▁नाम",
        -8.23672568586849
      ],
      [
        "▁part",
        -8.236752189043628
      ],
      [
        "की",
        -8.23859099056875
      ],
      [
        "▁घर",
        -8.243531882556676
      ],
      [
        "▁But",
        -8.24439710339472
      ],
      [
        "▁दिन",
        -8.245776142062198
      ],
      [
        "▁C",
        -8.246972419849266
      ],
      [
        "▁There",
        -8.25306020276068
      ],
      [
        "▁both",
        -8.255929696835523
      ],
      [
        "▁children",
        -8.256295614294126
      ],
      [
        "▁गए",
        -8.257996133804536
      ],
      [
        "▁under",
        -8.268282590238169
      ],
      [
        "▁3",
        -8.269518214647736
      ],
      [
        ".”",
        -8.270916446686728
      ],
      [
        "▁10",
        -8.271714317224351
      ],
      [
        "f",
        -8.277297189736007
      ],
      [
        "▁students",
        -8.280030580461222
      ],
      [
        "▁सर्व",
        -8.280721015328862
      ],
      [
        "▁लेकर",
        -8.281581715535484
      ],
      [
        "ू",
        -8.281968592550282
      ],
      [
        "▁using",
        -8.284751000860595
      ],
      [
        "▁see",
        -8.285324590763118
      ],
      [
        "▁भारतीय",
        -8.288958073959316
      ],
      [
        "’",
        -8.291809886635328
      ],
      [
        "▁सकते",
        -8.292532283549198
      ],
      [
        "▁अन्य",
        -8.293573430871852
      ],
      [
        "▁उन्हें",
        -8.29687031768926
      ],
      [
        "व",
        -8.298025234803372
      ],
      [
        "▁5",
        -8.30694740475194
      ],
      [
        "▁before",
        -8.307992463788231
      ],
      [
        "▁हुई",
        -8.309618475468014
      ],
      [
        "▁मे",
        -8.309919380466658
      ],
      [
        "▁often",
        -8.312280247874009
      ],
      [
        "▁data",
        -8.31370766066911
      ],
      [
        "▁स",
        -8.313880685445039
      ],
      [
        "▁information",
        -8.315261963540243
      ],
      [
        "ती",
        -8.315343532093888
      ],
      [
        "▁पण",
        -8.319474210182046
      ],
      [
        "ाला",
        -8.319571394216023
      ],
      [
        "▁क्या",
        -8.319755418919499
      ],
      [
        "▁What",
        -8.321162877574006
      ],
      [
        "▁high",
        -8.326651787362447
      ],
      [
        "▁take",
        -8.332447753343889
      ],
      [
        "▁while",
        -8.333933295338015
      ],
      [
        "or",
        -8.334227291305764
      ],
      [
        "ाचे",
        -8.3351973761281
      ],
      [
        "▁You",
        -8.336992842706122
      ],
      [
        "▁अनेक",
        -8.337764026632266
      ],
      [
        "▁हैं.",
        -8.340842555817062
      ],
      [
        "▁प्रकार",
        -8.341925473222489
      ],
      [
        "ाने",
        -8.343764820107623
      ],
      [
        "▁बार",
        -8.347812798440074
      ],
      [
        "▁number",
        -8.348624305604067
      ],
      [
        "▁उस",
        -8.34939189268801
      ],
      [
        "▁आता",
        -8.357275329626525
      ],
      [
        "▁एवं",
        -8.358467757835664
      ],
      [
        "▁तीन",
        -8.3649064737572
      ],
      [
        "य",
        -8.366366706593135
      ],
      [
        "▁उसके",
        -8.366690977831636
      ],
      [
        "▁To",
        -8.367439446622948
      ],
      [
        "is",
        -8.368220884219687
      ],
      [
        "या",
        -8.370294510244342
      ],
      [
        "▁केली",
        -8.371105553040097
      ],
      [
        "▁good",
        -8.371604391994367
      ],
      [
        "▁होती",
        -8.372349550022175
      ],
      [
        "▁बताया",
        -8.372628175406277
      ],
      [
        "ज",
        -8.376192771128263
      ],
      [
        "▁us",
        -8.38184925448654
      ],
      [
        "▁own",
        -8.382398436508185
      ],
      [
        "▁When",
        -8.386681188377487
      ],
      [
        "▁health",
        -8.395109877085732
      ],
      [
        "▁system",
        -8.399865944058853
      ],
      [
        "m",
        -8.403249401090076
      ],
      [
        "▁These",
        -8.404241424439943
      ],
      [
        "▁around",
        -8.406764677792024
      ],
      [
        "▁लोग",
        -8.407755939157582
      ],
      [
        "▁my",
        -8.408256904863684
      ],
      [
        "▁कम",
        -8.411072295431342
      ],
      [
        "▁थी।",
        -8.413478840162467
      ],
      [
        "▁क्षेत्र",
        -8.41540388105131
      ],
      [
        "▁must",
        -8.417038225892881
      ],
      [
        "▁सिंह",
        -8.417386317970434
      ],
      [
        "ियों",
        -8.41808545759138
      ],
      [
        "द",
        -8.418134426757177
      ],
      [
        "ें",
        -8.419511675089169
      ],
      [
        "▁three",
        -8.420122249690335
      ],
      [
        "▁टीम",
        -8.420989622131431
      ],
      [
        "▁world",
        -8.421882832023204
      ],
      [
        "c",
        -8.425307058486446
      ],
      [
        "▁फिल्म",
        -8.427199791699234
      ],
      [
        "▁4",
        -8.42809064278087
      ],
      [
        "▁now",
        -8.43122094395533
      ],
      [
        "an",
        -8.431708354492192
      ],
      [
        "साठी",
        -8.43745393004542
      ],
      [
        "▁New",
        -8.438981624544047
      ],
      [
        "▁know",
        -8.43965176100228
      ],
      [
        "▁थे।",
        -8.443348494196488
      ],
      [
        "▁करून",
        -8.444196879451399
      ],
      [
        "▁त्यामुळे",
        -8.444351276643149
      ],
      [
        "l",
        -8.44788389243378
      ],
      [
        "▁होते",
        -8.452852810791224
      ],
      [
        "on",
        -8.455385804121445
      ],
      [
        "▁D",
        -8.456703647455662
      ],
      [
        "▁आपल्या",
        -8.457286036472965
      ],
      [
        "▁does",
        -8.464610640012182
      ],
      [
        "▁study",
        -8.466359475819074
      ],
      [
        "▁human",
        -8.475097048352387
      ],
      [
        "▁P",
        -8.475823303100078
      ],
      [
        "▁life",
        -8.478290022243938
      ],
      [
        "▁said",
        -8.478625970824483
      ],
      [
        "ट",
        -8.495262576712891
      ],
      [
        "▁जाने",
        -8.495941319284016
      ],
      [
        "▁research",
        -8.500223329309783
      ],
      [
        "सबसे",
        -8.500459488332123
      ],
      [
        "▁And",
        -8.501285875741997
      ],
      [
        "▁back",
        -8.504175229174518
      ],
      [
        "▁long",
        -8.511176012177822
      ],
      [
        "▁called",
        -8.511899653122247
      ],
      [
        "▁दोनों",
        -8.511919301671806
      ],
      [
        "▁B",
        -8.51307553365273
      ],
      [
        "▁कार्य",
        -8.513182891920488
      ],
      [
        "▁केले",
        -8.514371596396547
      ],
      [
        "▁including",
        -8.515860804416986
      ],
      [
        "h",
        -8.516329101585201
      ],
      [
        "ि",
        -8.516853885318234
      ],
      [
        "▁बीच",
        -8.517727665101466
      ],
      [
        "▁पास",
        -8.518356652798085
      ],
      [
        "▁उसे",
        -8.522282169635243
      ],
      [
        "▁small",
        -8.522841274616292
      ],
      [
        "▁still",
        -8.523249409511068
      ],
      [
        "▁मैं",
        -8.532076287086841
      ],
      [
        "▁body",
        -8.532323114017542
      ],
      [
        "▁food",
        -8.53524902590019
      ],
      [
        "▁होती.",
        -8.535762326168099
      ],
      [
        "▁she",
        -8.538580865714488
      ],
      [
        "▁known",
        -8.542005095057615
      ],
      [
        "▁दौरान",
        -8.549484545512609
      ],
      [
        "▁त्यांनी",
        -8.553300602351493
      ],
      [
        "▁प्रदेश",
        -8.559235373570859
      ],
      [
        "▁&",
        -8.560043445769356
      ],
      [
        "▁|",
        -8.560680821586459
      ],
      [
        "▁विचार",
        -8.56444612117546
      ],
      [
        "▁ऐसे",
        -8.566019682245043
      ],
      [
        "▁हजार",
        -8.567896630647956
      ],
      [
        "▁म्हणून",
        -8.569743157893962
      ],
      [
        "▁दिल्ली",
        -8.574426754384103
      ],
      [
        "िंग",
        -8.574894003769348
      ],
      [
        "▁might",
        -8.575794260390012
      ],
      [
        "▁प्राप्त",
        -8.57698487346723
      ],
      [
        "▁उनकी",
        -8.577517337849896
      ],
      [
        "▁वर्ष",
        -8.586018085451716
      ],
      [
        "▁day",
        -8.586251687927863
      ],
      [
        "]",
        -8.59251739849749
      ],
      [
        "▁सब",
        -8.593208687856405
      ],
      [
        "▁without",
        -8.5961923187635
      ],
      [
        "▁विकास",
        -8.597465991986311
      ],
      [
        "▁दे",
        -8.598149175917476
      ],
      [
        "▁हर",
        -8.602072611500056
      ],
      [
        "ड",
        -8.604011094088083
      ],
      [
        "▁find",
        -8.60504817347736
      ],
      [
        "▁within",
        -8.606909340613507
      ],
      [
        "▁लाख",
        -8.607074877246248
      ],
      [
        "▁American",
        -8.608008418464797
      ],
      [
        "▁[",
        -8.608022267318649
      ],
      [
        "प",
        -8.608959454201733
      ],
      [
        "▁आले",
        -8.609822068817289
      ],
      [
        "री",
        -8.613918612531302
      ],
      [
        "▁गया।",
        -8.613959721771995
      ],
      [
        "▁मी",
        -8.614085032965185
      ],
      [
        "▁down",
        -8.621036710434813
      ],
      [
        "▁every",
        -8.621643323736269
      ],
      [
        "▁large",
        -8.6240182306831
      ],
      [
        ",”",
        -8.625208148823072
      ],
      [
        "▁E",
        -8.626567174799227
      ],
      [
        "▁॥",
        -8.628464362941104
      ],
      [
        "▁होता.",
        -8.62917567173916
      ],
      [
        "▁शुरू",
        -8.631608133940869
      ],
      [
        "▁power",
        -8.635663189188323
      ],
      [
        "▁However,",
        -8.636898815846468
      ],
      [
        "▁20",
        -8.638382793342934
      ],
      [
        "▁रुपये",
        -8.638496693149285
      ],
      [
        "▁शामिल",
        -8.64024253551595
      ],
      [
        "▁आपको",
        -8.642919630357198
      ],
      [
        "▁15",
        -8.645717062282028
      ],
      [
        "▁did",
        -8.648956480236825
      ],
      [
        "▁केला",
        -8.650440724556953
      ],
      [
        "▁मंत्री",
        -8.654342218556415
      ],
      [
        "▁right",
        -8.655932977186179
      ],
      [
        "▁un",
        -8.656682894174747
      ],
      [
        "▁less",
        -8.657202110875595
      ],
      [
        "▁state",
        -8.657682003478826
      ],
      [
        "▁विभाग",
        -8.66019678424142
      ],
      [
        "▁एका",
        -8.66026336750559
      ],
      [
        "▁common",
        -8.660722153337405
      ],
      [
        "जी",
        -8.661747027311712
      ],
      [
        "ांना",
        -8.664266837941943
      ],
      [
        "▁few",
        -8.666410520060325
      ],
      [
        "▁यांच्या",
        -8.669704199856882
      ],
      [
        "▁सुरू",
        -8.67127053910388
      ],
      [
        "▁अध्यक्ष",
        -8.671511718151176
      ],
      [
        "▁थे",
        -8.674931812400777
      ],
      [
        "▁अशी",
        -8.675134658713855
      ],
      [
        "▁किंवा",
        -8.680818251250408
      ],
      [
        "▁ले",
        -8.686404891719484
      ],
      [
        "▁social",
        -8.688979188979266
      ],
      [
        "▁school",
        -8.68927016841203
      ],
      [
        "▁energy",
        -8.692754583646474
      ],
      [
        "▁So",
        -8.693230314057967
      ],
      [
        "▁6",
        -8.694427127774336
      ],
      [
        "▁University",
        -8.694733858712256
      ],
      [
        "▁थी",
        -8.69507200464158
      ],
      [
        "▁अपना",
        -8.695903741787623
      ],
      [
        "ब",
        -8.696026246305877
      ],
      [
        "▁great",
        -8.698092906546925
      ],
      [
        "▁T",
        -8.698938336438598
      ],
      [
        "▁मात्र",
        -8.700907860891617
      ],
      [
        "ण",
        -8.70235442327174
      ],
      [
        "b",
        -8.704075896448499
      ],
      [
        "▁become",
        -8.70439685350348
      ],
      [
        "▁दोन",
        -8.705271705026568
      ],
      [
        "▁बारे",
        -8.706876163540946
      ],
      [
        "▁जीवन",
        -8.707007937379661
      ],
      [
        "▁‘",
        -8.70720540585917
      ],
      [
        "▁भाग",
        -8.707498048187269
      ],
      [
        "▁him",
        -8.708504901262943
      ],
      [
        "▁परिवार",
        -8.7105195496668
      ],
      [
        "▁change",
        -8.710969659180524
      ],
      [
        "▁जी",
        -8.712212560101788
      ],
      [
        "▁year",
        -8.715708600075128
      ],
      [
        "u",
        -8.716525456896317
      ],
      [
        "▁best",
        -8.718643937036866
      ],
      [
        "▁चार",
        -8.719277500923551
      ],
      [
        "▁पूर्व",
        -8.719536415174666
      ],
      [
        "▁another",
        -8.720689835691084
      ],
      [
        "▁against",
        -8.721545253498858
      ],
      [
        "▁वाली",
        -8.722525920779269
      ],
      [
        "▁कमी",
        -8.723152211682367
      ],
      [
        "▁बना",
        -8.724432786015935
      ],
      [
        "▁risk",
        -8.725177318749983
      ],
      [
        "▁त्यांच्या",
        -8.7252877451619
      ],
      [
        "▁place",
        -8.72551399545611
      ],
      [
        "▁निर्माण",
        -8.726241646697634
      ],
      [
        "▁यहां",
        -8.726817495224257
      ],
      [
        "▁go",
        -8.727621908743702
      ],
      [
        "▁M",
        -8.727654320010643
      ],
      [
        "▁जाती",
        -8.72785894611433
      ],
      [
        "▁ओर",
        -8.727887459436605
      ],
      [
        "▁कोरोना",
        -8.728466789124617
      ],
      [
        "▁असा",
        -8.730636762007457
      ],
      [
        "▁form",
        -8.735327671537748
      ],
      [
        "▁ऐसा",
        -8.739848183411286
      ],
      [
        ".\"",
        -8.73987149189391
      ],
      [
        "▁de",
        -8.740390185478361
      ],
      [
        "▁अगर",
        -8.742607603734427
      ],
      [
        "▁early",
        -8.744795237596062
      ],
      [
        "▁जारी",
        -8.745089806886048
      ],
      [
        "▁देने",
        -8.745392427103948
      ],
      [
        "ic",
        -8.74570238267275
      ],
      [
        "▁women",
        -8.746502696711422
      ],
      [
        "तील",
        -8.746624119276348
      ],
      [
        "▁उत्तर",
        -8.748391677400056
      ],
      [
        "ांनी",
        -8.749751911965259
      ],
      [
        "▁set",
        -8.750636155614325
      ],
      [
        "▁नाही",
        -8.75196463661502
      ],
      [
        "▁provide",
        -8.75262661556119
      ],
      [
        "▁असून",
        -8.753120007440106
      ],
      [
        "▁per",
        -8.753408598801515
      ],
      [
        "x",
        -8.754795168921305
      ],
      [
        "▁माहिती",
        -8.755134125245267
      ],
      [
        "▁public",
        -8.75563564676884
      ],
      [
        "▁स्वास्थ्य",
        -8.757209251797992
      ],
      [
        "▁end",
        -8.76182099001734
      ],
      [
        "▁आपण",
        -8.762207059229734
      ],
      [
        "▁means",
        -8.765035096099119
      ],
      [
        "▁विशेष",
        -8.766335194806235
      ],
      [
        "▁blood",
        -8.768705689028291
      ],
      [
        "ांची",
        -8.769056806104992
      ],
      [
        "▁लिया",
        -8.769422893048086
      ],
      [
        "▁ती",
        -8.770142055206232
      ],
      [
        "▁महिला",
        -8.770284118626213
      ],
      [
        "ांच्या",
        -8.772099477475951
      ],
      [
        "ओं",
        -8.773143116588438
      ],
      [
        "ers",
        -8.773600451052593
      ],
      [
        "▁मामले",
        -8.773627607439074
      ],
      [
        "▁G",
        -8.773656491603363
      ],
      [
        "▁होत",
        -8.773825352217637
      ],
      [
        "▁United",
        -8.774136083966189
      ],
      [
        "▁want",
        -8.776197702139747
      ],
      [
        "g",
        -8.776735753920152
      ],
      [
        "▁child",
        -8.779532008534463
      ],
      [
        "▁अशा",
        -8.782574888445454
      ],
      [
        "▁बता",
        -8.783627502906239
      ],
      [
        "▁order",
        -8.78582722004369
      ],
      [
        "▁—",
        -8.78658856897642
      ],
      [
        "▁किया।",
        -8.786591251790412
      ],
      [
        "▁श्री",
        -8.787911108553484
      ],
      [
        "▁cause",
        -8.788156049120914
      ],
      [
        "ावर",
        -8.79025844074203
      ],
      [
        "▁better",
        -8.791059595473806
      ],
      [
        "ह",
        -8.794151288076163
      ],
      [
        "▁त्यांना",
        -8.795207238550558
      ],
      [
        "▁several",
        -8.79701831264236
      ],
      [
        "वा",
        -8.798898355492787
      ],
      [
        "▁process",
        -8.801748931832412
      ],
      [
        "en",
        -8.802380815289702
      ],
      [
        "▁मुख्य",
        -8.80292736640142
      ],
      [
        "▁One",
        -8.805819213955736
      ],
      [
        "▁मुंबई",
        -8.806981232323093
      ],
      [
        "▁आहे,",
        -8.808875237220056
      ],
      [
        "▁इसी",
        -8.81122646559127
      ],
      [
        "▁How",
        -8.812193624360932
      ],
      [
        "०",
        -8.814481060931483
      ],
      [
        "▁area",
        -8.814925387786351
      ],
      [
        "▁support",
        -8.817098302546356
      ],
      [
        "▁last",
        -8.820409664131981
      ],
      [
        "▁वो",
        -8.822339441073797
      ],
      [
        "▁जैसे",
        -8.824849997269114
      ],
      [
        "▁F",
        -8.825118856170512
      ],
      [
        "▁भर",
        -8.82580736207749
      ],
      [
        "▁किए",
        -8.827819624071187
      ],
      [
        "▁आई",
        -8.828202069660747
      ],
      [
        "▁बन",
        -8.829743550649628
      ],
      [
        "▁An",
        -8.830715499266468
      ],
      [
        "us",
        -8.830909809571486
      ],
      [
        "▁able",
        -8.835293119667986
      ],
      [
        "▁12",
        -8.835472381984324
      ],
      [
        "▁re",
        -8.836817905365919
      ],
      [
        "▁8",
        -8.837234887645314
      ],
      [
        "▁include",
        -8.837354487773528
      ],
      [
        "शी",
        -8.839659217880316
      ],
      [
        "▁करत",
        -8.840528935754039
      ],
      [
        "▁person",
        -8.84358870450001
      ],
      [
        "▁since",
        -8.845294772585056
      ],
      [
        "▁मुख्यमंत्री",
        -8.846280679287393
      ],
      [
        "▁अधिकारी",
        -8.846617269514123
      ],
      [
        "▁मोदी",
        -8.847030475630271
      ],
      [
        "k",
        -8.847680309334166
      ],
      [
        "▁पार्टी",
        -8.848418953129466
      ],
      [
        "▁जानकारी",
        -8.850976069217982
      ],
      [
        "▁group",
        -8.851318377628486
      ],
      [
        "▁चुनाव",
        -8.857501786968134
      ],
      [
        "▁30",
        -8.858140114555741
      ],
      [
        "▁केंद्र",
        -8.860808859130366
      ],
      [
        "▁मन",
        -8.861666011707257
      ],
      [
        "▁government",
        -8.862979895800144
      ],
      [
        "▁At",
        -8.866333726091353
      ],
      [
        "▁काफी",
        -8.866530538255601
      ],
      [
        "0",
        -8.868979294776185
      ],
      [
        "▁N",
        -8.869494096089605
      ],
      [
        "▁give",
        -8.869983903076875
      ],
      [
        "▁based",
        -8.870144802821029
      ],
      [
        "▁आदि",
        -8.87115765939457
      ],
      [
        "▁काय",
        -8.874199275052899
      ],
      [
        "▁जिसमें",
        -8.87536895970248
      ],
      [
        "▁control",
        -8.875587971843133
      ],
      [
        "▁think",
        -8.876060770699517
      ],
      [
        "ion",
        -8.876848697980254
      ],
      [
        "ातील",
        -8.880331849753631
      ],
      [
        "▁तब",
        -8.880410939321699
      ],
      [
        "▁type",
        -8.88074577205283
      ],
      [
        "▁धर्म",
        -8.88276046110288
      ],
      [
        "▁Some",
        -8.883191301486274
      ],
      [
        "▁home",
        -8.884502608799325
      ],
      [
        "▁development",
        -8.885324394721406
      ],
      [
        "▁तसेच",
        -8.885682078308221
      ],
      [
        "▁इसे",
        -8.887143932940551
      ],
      [
        "▁me",
        -8.889514871872638
      ],
      [
        "▁लोक",
        -8.89037858252407
      ],
      [
        "▁things",
        -8.891975605939134
      ],
      [
        "▁सामने",
        -8.892256412658512
      ],
      [
        "▁प्रति",
        -8.893673678276832
      ],
      [
        "▁local",
        -8.895417834983329
      ],
      [
        "▁National",
        -8.899807253615272
      ],
      [
        "▁learning",
        -8.900157074659399
      ],
      [
        "▁fact",
        -8.902864708795516
      ],
      [
        "▁result",
        -8.904529052062934
      ],
      [
        "▁off",
        -8.90755877677014
      ],
      [
        "रा",
        -8.908563127980557
      ],
      [
        "▁On",
        -8.90859585440101
      ],
      [
        "▁come",
        -8.908768260506003
      ],
      [
        "श",
        -8.90920794681192
      ],
      [
        "▁among",
        -8.90943364368054
      ],
      [
        "▁7",
        -8.910365914707096
      ],
      [
        "▁species",
        -8.910444934741859
      ],
      [
        "▁म्हणजे",
        -8.913425179361314
      ],
      [
        "▁बंद",
        -8.914520851388355
      ],
      [
        "▁कांग्रेस",
        -8.916774592723337
      ],
      [
        "▁इससे",
        -8.918784070413622
      ],
      [
        "▁too",
        -8.922959794007989
      ],
      [
        "में",
        -8.923075854826143
      ],
      [
        "▁लगा",
        -8.923686792551525
      ],
      [
        "▁case",
        -8.925090697645752
      ],
      [
        "it",
        -8.927660823063867
      ],
      [
        "▁look",
        -8.928075060456115
      ],
      [
        "▁ना",
        -8.928996400817384
      ],
      [
        "▁name",
        -8.932269682433882
      ],
      [
        "▁सकती",
        -8.932492604387997
      ],
      [
        "▁ज्यादा",
        -8.933762862211108
      ],
      [
        "▁प्र",
        -8.934315935222289
      ],
      [
        "▁शहर",
        -8.935065138407861
      ],
      [
        "▁learn",
        -8.93576313590923
      ],
      [
        "▁possible",
        -8.937873440158858
      ],
      [
        "▁little",
        -8.938122811840211
      ],
      [
        "▁family",
        -8.93924191604745
      ],
      [
        "▁उन",
        -8.940279466289226
      ],
      [
        "▁point",
        -8.940609761916512
      ],
      [
        "▁निर्णय",
        -8.941000433255276
      ],
      [
        "▁क्योंकि",
        -8.941256527007077
      ],
      [
        "▁keep",
        -8.942208686053005
      ],
      [
        "▁following",
        -8.94223684873647
      ],
      [
        "▁लिये",
        -8.946157719011122
      ],
      [
        "▁झाली",
        -8.947128990919671
      ],
      [
        "▁कंपनी",
        -8.947791925044527
      ],
      [
        "ग",
        -8.952202706507196
      ],
      [
        "▁आली",
        -8.953056687644837
      ],
      [
        "▁level",
        -8.954046901578938
      ],
      [
        "▁until",
        -8.954384478281812
      ],
      [
        "▁जाते",
        -8.954510748371947
      ],
      [
        "|",
        -8.955828208127356
      ],
      [
        "▁natural",
        -8.95674217524902
      ],
      [
        "▁जिस",
        -8.964812864240772
      ],
      [
        "▁given",
        -8.965747152863017
      ],
      [
        "▁झाले",
        -8.969225238967104
      ],
      [
        "▁making",
        -8.970395982708032
      ],
      [
        "▁here",
        -8.970441567776712
      ],
      [
        "▁बस",
        -8.970483775257108
      ],
      [
        "▁available",
        -8.970994184874353
      ],
      [
        "▁treatment",
        -8.971103224930902
      ],
      [
        "▁light",
        -8.974038320240627
      ],
      [
        "▁जात",
        -8.976851930226866
      ],
      [
        "▁घटना",
        -8.977031748826438
      ],
      [
        "▁वहीं",
        -8.978296842675087
      ],
      [
        "▁कुमार",
        -8.978789919804331
      ],
      [
        "▁जे",
        -8.979251538668017
      ],
      [
        "▁यदि",
        -8.979488725797395
      ],
      [
        "▁संख्या",
        -8.981526186379062
      ],
      [
        "▁due",
        -8.983797611564734
      ],
      [
        "▁योजना",
        -8.984856982091896
      ],
      [
        "▁तरी",
        -8.987415237265717
      ],
      [
        "—",
        -8.988606662513106
      ],
      [
        "▁R",
        -8.990023778423915
      ],
      [
        "िक",
        -8.990408538424726
      ],
      [
        "▁U.S.",
        -8.99412658292225
      ],
      [
        "▁something",
        -8.99485442370098
      ],
      [
        "▁/",
        -8.995048955042037
      ],
      [
        "्या",
        -8.995498399183031
      ],
      [
        "पासून",
        -8.995774498580387
      ],
      [
        "▁खिलाफ",
        -8.996456177861983
      ],
      [
        "▁9",
        -8.999516105273521
      ],
      [
        "st",
        -9.0014106197772
      ],
      [
        ",\"",
        -9.002281074321141
      ],
      [
        "▁areas",
        -9.002386938795954
      ],
      [
        "▁केवल",
        -9.003084042284303
      ],
      [
        "▁17",
        -9.003743557272713
      ],
      [
        "▁care",
        -9.004721024683136
      ],
      [
        "▁अनुभव",
        -9.0064220712441
      ],
      [
        "ए",
        -9.006750135413952
      ],
      [
        "▁व्यक्ति",
        -9.009224600044464
      ],
      [
        "▁likely",
        -9.009258212618846
      ],
      [
        "▁मीडिया",
        -9.009692349031116
      ],
      [
        "▁H",
        -9.01012984681118
      ],
      [
        "▁सु",
        -9.010441781557786
      ],
      [
        "▁By",
        -9.010714127635012
      ],
      [
        "▁प्रश्न",
        -9.015295768686038
      ],
      [
        "▁उसकी",
        -9.01608348655492
      ],
      [
        "ांत",
        -9.017251063903531
      ],
      [
        "▁था,",
        -9.0174696018276
      ],
      [
        "▁God",
        -9.01755435016486
      ],
      [
        "▁ब",
        -9.017841644759246
      ],
      [
        "▁अलावा",
        -9.018762823762625
      ],
      [
        "▁पूरी",
        -9.020330597362674
      ],
      [
        "▁उनका",
        -9.020675396743096
      ],
      [
        "▁always",
        -9.021168704590533
      ],
      [
        "▁increase",
        -9.02564427348991
      ],
      [
        "▁second",
        -9.027419438050597
      ],
      [
        "▁example,",
        -9.027617265777224
      ],
      [
        "▁आरोप",
        -9.028236599952514
      ],
      [
        "▁पूर्ण",
        -9.028476072100885
      ],
      [
        "▁say",
        -9.029052342379444
      ],
      [
        "(",
        -9.029342548906207
      ],
      [
        "▁डॉ.",
        -9.03089227640683
      ],
      [
        "▁age",
        -9.03327144102883
      ],
      [
        "th",
        -9.033422906313735
      ],
      [
        "▁मिल",
        -9.034779598765427
      ],
      [
        "ation",
        -9.036260920357398
      ],
      [
        "able",
        -9.036278357795512
      ],
      [
        "▁आधार",
        -9.036793727532634
      ],
      [
        "▁झाला",
        -9.03686291783459
      ],
      [
        "▁disease",
        -9.037743326825701
      ],
      [
        "▁present",
        -9.038268987190033
      ],
      [
        "▁times",
        -9.041600597980764
      ],
      [
        "▁create",
        -9.043350595053788
      ],
      [
        "▁air",
        -9.046283019303056
      ],
      [
        "▁L",
        -9.046443305514297
      ],
      [
        "▁इसलिए",
        -9.046477452714988
      ],
      [
        "▁usually",
        -9.046760691841206
      ],
      [
        "▁percent",
        -9.047313308518968
      ],
      [
        "▁प्रत्येक",
        -9.047399104490896
      ],
      [
        "▁free",
        -9.049993685978952
      ],
      [
        "▁अभी",
        -9.051952101547604
      ],
      [
        "पर",
        -9.055628288889508
      ],
      [
        "▁why",
        -9.058734141900915
      ],
      [
        "▁four",
        -9.059284969045835
      ],
      [
        "▁दें",
        -9.063956299426398
      ],
      [
        "▁men",
        -9.06439981467701
      ],
      [
        "▁येथे",
        -9.068150022745812
      ],
      [
        "▁भाजपा",
        -9.070234183968035
      ],
      [
        "While",
        -9.070967637043546
      ],
      [
        "▁उपयोग",
        -9.071694107509524
      ],
      [
        "▁put",
        -9.07255806570178
      ],
      [
        "▁book",
        -9.072829454173482
      ],
      [
        "▁चर्चा",
        -9.073075706363776
      ],
      [
        "▁course",
        -9.07328599424827
      ],
      [
        "ीय",
        -9.07622562701268
      ],
      [
        "▁इसमें",
        -9.076377784057774
      ],
      [
        "▁million",
        -9.076730851907975
      ],
      [
        "▁major",
        -9.077555853812765
      ],
      [
        "▁केली.",
        -9.079315897263537
      ],
      [
        "▁इसका",
        -9.082490784659997
      ],
      [
        "2",
        -9.08307759175043
      ],
      [
        "▁history",
        -9.083340570879102
      ],
      [
        "▁आवश्यक",
        -9.08377535908305
      ],
      [
        "▁land",
        -9.083784776538534
      ],
      [
        "▁मैच",
        -9.08460921269294
      ],
      [
        "▁सेवा",
        -9.08506117037747
      ],
      [
        "▁अनुसार",
        -9.085213068529784
      ],
      [
        "▁राम",
        -9.08619345688131
      ],
      [
        "▁levels",
        -9.086687570665337
      ],
      [
        "▁next",
        -9.087842070001686
      ],
      [
        "▁low",
        -9.08792943331309
      ],
      [
        "▁शरीर",
        -9.089295558159995
      ],
      [
        "▁आगे",
        -9.091578276761293
      ],
      [
        "▁along",
        -9.092956715162506
      ],
      [
        "▁आला",
        -9.093125139225073
      ],
      [
        "▁राज",
        -9.093540737215529
      ],
      [
        "▁16",
        -9.094258562924082
      ],
      [
        "▁ए",
        -9.095792994390317
      ],
      [
        "नंतर",
        -9.095857978641549
      ],
      [
        "||",
        -9.096412258700006
      ],
      [
        "▁various",
        -9.097211137882562
      ],
      [
        "▁across",
        -9.097876609721844
      ],
      [
        "▁cells",
        -9.098180389094361
      ],
      [
        "▁दिया।",
        -9.09826042669333
      ],
      [
        "▁दूर",
        -9.098428809177824
      ],
      [
        "▁आने",
        -9.100985062081927
      ],
      [
        "▁heart",
        -9.101198110715549
      ],
      [
        "w",
        -9.101450534613729
      ],
      [
        "▁later",
        -9.101587195155123
      ],
      [
        "▁दूसरे",
        -9.101773689647985
      ],
      [
        "▁कार्यक्रम",
        -9.102168865076013
      ],
      [
        "▁सोशल",
        -9.10329296222278
      ],
      [
        "▁K",
        -9.103602524054807
      ],
      [
        "▁higher",
        -9.104318133200694
      ],
      [
        "▁उप",
        -9.106827335812843
      ],
      [
        "▁बैठक",
        -9.106909670574098
      ],
      [
        "▁All",
        -9.109094013316398
      ],
      [
        "▁येत",
        -9.109264806394071
      ],
      [
        "▁दर्ज",
        -9.109292063129875
      ],
      [
        "▁least",
        -9.110288763419597
      ],
      [
        "▁त्याच्या",
        -9.110637717471025
      ],
      [
        "▁however",
        -9.111203864009862
      ],
      [
        "ांचा",
        -9.113239542817107
      ],
      [
        "ल्या",
        -9.113387009500101
      ],
      [
        "S",
        -9.114116961583077
      ],
      [
        "▁working",
        -9.114690860251345
      ],
      [
        "▁World",
        -9.115471949102607
      ],
      [
        "▁understand",
        -9.117601295039304
      ],
      [
        "▁says",
        -9.119635094524165
      ],
      [
        "▁करती",
        -9.121025325847151
      ],
      [
        "▁certain",
        -9.121305900047894
      ],
      [
        "▁far",
        -9.124339287781384
      ],
      [
        "▁After",
        -9.124452674945163
      ],
      [
        "▁With",
        -9.124775460542802
      ],
      [
        "▁होगा।",
        -9.126969891551285
      ],
      [
        "▁करके",
        -9.127090989661475
      ],
      [
        "▁राष्ट्रीय",
        -9.128045375423993
      ],
      [
        "▁show",
        -9.129137364081508
      ],
      [
        "▁words",
        -9.12964241364842
      ],
      [
        "▁above",
        -9.132178444056086
      ],
      [
        "▁50",
        -9.132971450752997
      ],
      [
        "to",
        -9.1357218650946
      ],
      [
        "▁lower",
        -9.13614265566746
      ],
      [
        "▁मुझे",
        -9.136938967123648
      ],
      [
        "▁reduce",
        -9.137443069805267
      ],
      [
        "▁individual",
        -9.138348662426779
      ],
      [
        "▁होणार",
        -9.138969283453376
      ],
      [
        "▁especially",
        -9.139029728143967
      ],
      [
        "▁technology",
        -9.139423341032542
      ],
      [
        "▁प्रमुख",
        -9.141111900265397
      ],
      [
        "▁बाहर",
        -9.143356735312727
      ],
      [
        "▁असलेल्या",
        -9.143914433469408
      ],
      [
        "▁brain",
        -9.146533018900895
      ],
      [
        "▁म",
        -9.14707755151416
      ],
      [
        "▁having",
        -9.147287578664306
      ],
      [
        "▁स्थान",
        -9.148792399254484
      ],
      [
        "▁=",
        -9.149006612494286
      ],
      [
        "▁specific",
        -9.149140419327013
      ],
      [
        "▁मला",
        -9.149180874689185
      ],
      [
        "▁O",
        -9.151321261795736
      ],
      [
        "▁never",
        -9.15179074066213
      ],
      [
        "▁18",
        -9.151971727287226
      ],
      [
        "▁live",
        -9.153263726638682
      ],
      [
        "▁J",
        -9.153666221172406
      ],
      [
        "▁करण्यासाठी",
        -9.15377153297075
      ],
      [
        "▁समाज",
        -9.153979534207926
      ],
      [
        "▁experience",
        -9.15552054955392
      ],
      [
        "▁बड़ी",
        -9.155559018643045
      ],
      [
        "▁11",
        -9.155920666192245
      ],
      [
        "▁उपलब्ध",
        -9.157909282904688
      ],
      [
        "▁जहां",
        -9.158594912996197
      ],
      [
        "मुळे",
        -9.160115343371663
      ],
      [
        "▁test",
        -9.160770984835754
      ],
      [
        "▁ध्यान",
        -9.161116285914808
      ],
      [
        "▁man",
        -9.16219590775062
      ],
      [
        "▁१",
        -9.162493094593062
      ],
      [
        "▁left",
        -9.163947650019436
      ],
      [
        "▁प्रयत्न",
        -9.164836687468762
      ],
      [
        "▁दिवस",
        -9.166773097901109
      ],
      [
        "▁others",
        -9.167374900526575
      ],
      [
        "कडे",
        -9.168577406370721
      ],
      [
        "at",
        -9.169455747372094
      ],
      [
        "▁general",
        -9.169694396550181
      ],
      [
        "▁स्थित",
        -9.170379719553427
      ],
      [
        "▁जर",
        -9.171425958185422
      ],
      [
        "...",
        -9.171654660217863
      ],
      [
        "▁25",
        -9.172893307349165
      ],
      [
        "चं",
        -9.174666529588027
      ],
      [
        "▁enough",
        -9.175595470614192
      ],
      [
        "p",
        -9.17579310305368
      ],
      [
        "▁community",
        -9.176409234623025
      ],
      [
        "▁access",
        -9.17908118925462
      ],
      [
        "▁became",
        -9.179622148263313
      ],
      [
        "▁changes",
        -9.180118700598182
      ],
      [
        "▁परंतु",
        -9.180878682151329
      ],
      [
        "▁lead",
        -9.181002565882443
      ],
      [
        "▁जनता",
        -9.181367506004207
      ],
      [
        "▁side",
        -9.182838796854144
      ],
      [
        "▁results",
        -9.183292437083011
      ],
      [
        "▁खान",
        -9.184401826318727
      ],
      [
        "▁physical",
        -9.184527623715676
      ],
      [
        "िया",
        -9.184653209573316
      ],
      [
        "▁whether",
        -9.18504699991825
      ],
      [
        "▁main",
        -9.185244177559682
      ],
      [
        "▁पद",
        -9.185624797172451
      ],
      [
        "▁विषय",
        -9.186386435650086
      ],
      [
        "▁संबंध",
        -9.186577666107437
      ],
      [
        "▁it.",
        -9.186675394990713
      ],
      [
        "▁current",
        -9.187049782004987
      ],
      [
        "▁त्याला",
        -9.187708824824004
      ],
      [
        "▁young",
        -9.187795851847806
      ],
      [
        "ीत",
        -9.187838727366504
      ],
      [
        "▁अर्थ",
        -9.189122219471761
      ],
      [
        "▁करोड़",
        -9.189157533325583
      ],
      [
        "▁14",
        -9.18991525962185
      ],
      [
        "▁going",
        -9.191001617608325
      ],
      [
        "▁बढ़",
        -9.191333975876105
      ],
      [
        "▁types",
        -9.191987260319195
      ],
      [
        "▁program",
        -9.192039354698052
      ],
      [
        "▁जांच",
        -9.19479966719346
      ],
      [
        "▁केले.",
        -9.196456572523507
      ],
      [
        "ु",
        -9.199384054965437
      ],
      [
        "▁don’t",
        -9.202745468837671
      ],
      [
        "ासाठी",
        -9.20346934616388
      ],
      [
        "▁days",
        -9.203915670312233
      ],
      [
        "man",
        -9.20453010858941
      ],
      [
        "▁पोलीस",
        -9.204593991903781
      ],
      [
        "▁देखील",
        -9.20572019143269
      ],
      [
        "▁further",
        -9.205805159563406
      ],
      [
        "▁project",
        -9.206088086196255
      ],
      [
        "1",
        -9.20784237611423
      ],
      [
        "▁start",
        -9.208268932876893
      ],
      [
        "▁role",
        -9.208647738253008
      ],
      [
        "▁feel",
        -9.21177688488126
      ],
      [
        "▁needs",
        -9.216157798061015
      ],
      [
        "़",
        -9.216718699790128
      ],
      [
        "▁W",
        -9.217034682416651
      ],
      [
        "▁बदल",
        -9.220144358734837
      ],
      [
        "ar",
        -9.22197074801359
      ],
      [
        "▁बनाने",
        -9.222777801451079
      ],
      [
        "ळ",
        -9.223310727003689
      ],
      [
        "▁similar",
        -9.223360303479254
      ],
      [
        "▁नई",
        -9.223395162761209
      ],
      [
        "▁100",
        -9.224504179560178
      ],
      [
        "▁makes",
        -9.224823952977344
      ],
      [
        "▁plant",
        -9.226329953125486
      ],
      [
        "▁पक्ष",
        -9.226640453697426
      ],
      [
        "▁full",
        -9.226904522585423
      ],
      [
        "▁ऑफ",
        -9.226939038567775
      ],
      [
        "▁यांना",
        -9.226940581396839
      ],
      [
        "▁amount",
        -9.227852637424395
      ],
      [
        "▁English",
        -9.228235399202822
      ],
      [
        "▁गई।",
        -9.229446515124318
      ],
      [
        "▁स्थिति",
        -9.229770595534461
      ],
      [
        "▁systems",
        -9.229966797835981
      ],
      [
        "▁population",
        -9.231644616978507
      ],
      [
        "▁नगर",
        -9.233003878061412
      ],
      [
        "▁space",
        -9.233071562799658
      ],
      [
        "ांचे",
        -9.233159777560777
      ],
      [
        "येथील",
        -9.233354989085921
      ],
      [
        "▁पानी",
        -9.233823605614974
      ],
      [
        "▁States",
        -9.233883019893119
      ],
      [
        "▁country",
        -9.234312439887303
      ],
      [
        "▁ऐसी",
        -9.235162112411333
      ],
      [
        "▁तैयार",
        -9.235727863156852
      ],
      [
        "▁read",
        -9.236830392250422
      ],
      [
        "▁चल",
        -9.237399008658523
      ],
      [
        "▁आदेश",
        -9.238549221447856
      ],
      [
        "मा",
        -9.241644285459452
      ],
      [
        "सा",
        -9.241772883477458
      ],
      [
        "ंग",
        -9.24251654625444
      ],
      [
        "▁Do",
        -9.243895825969084
      ],
      [
        "▁नजर",
        -9.243990647837942
      ],
      [
        "▁सदस्य",
        -9.244010260543629
      ],
      [
        "पिछले",
        -9.244907349479078
      ],
      [
        "▁आर्थिक",
        -9.245698192396784
      ],
      [
        "▁studies",
        -9.246502117820244
      ],
      [
        "▁जल",
        -9.246578727966602
      ],
      [
        "▁seen",
        -9.248628675059846
      ],
      [
        "▁key",
        -9.249698719921426
      ],
      [
        "▁range",
        -9.24972011528627
      ],
      [
        "▁problem",
        -9.250284334597833
      ],
      [
        "▁रंग",
        -9.250719564226957
      ],
      [
        "▁उसका",
        -9.25102215133133
      ],
      [
        "▁already",
        -9.25105668814363
      ],
      [
        "▁develop",
        -9.2520059589584
      ],
      [
        "▁आम",
        -9.252109443998481
      ],
      [
        "–",
        -9.25352066361724
      ],
      [
        "as",
        -9.253763511815215
      ],
      [
        "▁उसने",
        -9.254318992521918
      ],
      [
        "▁design",
        -9.254483350785168
      ],
      [
        "▁rather",
        -9.25491288734767
      ],
      [
        "▁स्पष्ट",
        -9.256171298304036
      ],
      [
        "▁ज्ञान",
        -9.256173984754598
      ],
      [
        "▁सुरक्षा",
        -9.26024218281205
      ],
      [
        "जिसके",
        -9.26049380440778
      ],
      [
        "▁period",
        -9.260691531412728
      ],
      [
        "णे",
        -9.2609116355577
      ],
      [
        "ास",
        -9.261308555929547
      ],
      [
        "▁cases",
        -9.261475099400192
      ],
      [
        "वी",
        -9.262422728252403
      ],
      [
        "▁असं",
        -9.262870315864246
      ],
      [
        "▁away",
        -9.263853391573813
      ],
      [
        "कार",
        -9.263894733033421
      ],
      [
        "▁पता",
        -9.264356010442468
      ],
      [
        "▁really",
        -9.264430028948285
      ],
      [
        "▁शिक्षा",
        -9.26447884519972
      ],
      [
        "▁बड़े",
        -9.265567453421678
      ],
      [
        "▁cancer",
        -9.267747603621055
      ],
      [
        "▁education",
        -9.26915403141224
      ],
      [
        "▁देव",
        -9.269628284068851
      ],
      [
        "▁future",
        -9.2702462831748
      ],
      [
        "▁उच्च",
        -9.271602016759537
      ],
      [
        "▁old",
        -9.271745408482717
      ],
      [
        "▁शब्द",
        -9.272186153610694
      ],
      [
        "▁इतर",
        -9.273287683181415
      ],
      [
        "▁knowledge",
        -9.273517491946015
      ],
      [
        "▁either",
        -9.273584132165256
      ],
      [
        "डी",
        -9.276261945275978
      ],
      [
        "▁सूचना",
        -9.27633879878095
      ],
      [
        "\\n",
        -9.27725273525628
      ],
      [
        "▁sure",
        -9.277447512970435
      ],
      [
        "्य",
        -9.27921087991284
      ],
      [
        "▁medical",
        -9.280102909113046
      ],
      [
        "▁evidence",
        -9.280781241125231
      ],
      [
        "▁कल्याण",
        -9.282175529345203
      ],
      [
        "▁कभी",
        -9.28250816668844
      ],
      [
        "▁developed",
        -9.283357655771132
      ],
      [
        "▁That",
        -9.284371100136608
      ],
      [
        "▁white",
        -9.284625567570927
      ],
      [
        "▁language",
        -9.284658697713478
      ],
      [
        "▁effects",
        -9.284667946510544
      ],
      [
        "▁science",
        -9.286217118162822
      ],
      [
        "▁हमारे",
        -9.286396419479555
      ],
      [
        "▁open",
        -9.287013132095588
      ],
      [
        "▁line",
        -9.287171632674555
      ],
      [
        "▁word",
        -9.288071138346561
      ],
      [
        "▁पाकिस्तान",
        -9.289709121958085
      ],
      [
        "▁वीडियो",
        -9.289909367473307
      ],
      [
        "▁मदद",
        -9.29024610656107
      ],
      [
        "▁तयार",
        -9.290289001459877
      ],
      [
        "▁पत्र",
        -9.2903856806392
      ],
      [
        "▁problems",
        -9.291261189540418
      ],
      [
        "▁जाना",
        -9.291478745412602
      ],
      [
        "▁war",
        -9.291546441338337
      ],
      [
        "▁hand",
        -9.291836378206133
      ],
      [
        "▁prevent",
        -9.293999374254872
      ],
      [
        "▁ways",
        -9.297046379526384
      ],
      [
        "▁वाला",
        -9.298296359216033
      ],
      [
        "▁city",
        -9.298407125648717
      ],
      [
        "▁देते",
        -9.298682459703299
      ],
      [
        "▁once",
        -9.299272127896687
      ],
      [
        "▁क",
        -9.299476363284255
      ],
      [
        "▁Health",
        -9.299725920299187
      ],
      [
        "ity",
        -9.299896672098162
      ],
      [
        "सी",
        -9.300085330753166
      ],
      [
        "▁potential",
        -9.301117165793725
      ],
      [
        "▁them.",
        -9.301691246533839
      ],
      [
        "▁भाव",
        -9.301928269763122
      ],
      [
        "▁though",
        -9.30215109776636
      ],
      [
        "▁असल्याचे",
        -9.302187225210726
      ],
      [
        "▁War",
        -9.302478847461954
      ],
      [
        "▁climate",
        -9.302653402505364
      ],
      [
        "▁plants",
        -9.302764401007954
      ],
      [
        "▁२",
        -9.303130744082841
      ],
      [
        "▁today",
        -9.30508718273106
      ],
      [
        "▁law",
        -9.305212773264603
      ],
      [
        "▁दर",
        -9.307099574812218
      ],
      [
        "▁lot",
        -9.308337980136576
      ],
      [
        "▁taken",
        -9.308645561500096
      ],
      [
        "▁five",
        -9.309258686355935
      ],
      [
        "▁value",
        -9.310354137044632
      ],
      [
        "▁simple",
        -9.310413850244514
      ],
      [
        "▁दिनों",
        -9.31087673668794
      ],
      [
        "▁upon",
        -9.310888270597317
      ],
      [
        "▁लाभ",
        -9.312992460402864
      ],
      [
        "▁impact",
        -9.314335141048117
      ],
      [
        "▁symptoms",
        -9.315794492387141
      ],
      [
        "▁संघ",
        -9.315833411716406
      ],
      [
        "▁past",
        -9.316874517996228
      ],
      [
        "▁1.",
        -9.319611173280018
      ],
      [
        "▁She",
        -9.321004153138338
      ],
      [
        "▁particular",
        -9.322624587701045
      ],
      [
        "_",
        -9.322671587945436
      ],
      [
        "3",
        -9.323166027193402
      ],
      [
        "▁द",
        -9.32459689910104
      ],
      [
        "▁researchers",
        -9.324868396425316
      ],
      [
        "▁कार",
        -9.325364657881963
      ],
      [
        "▁विश्व",
        -9.326698230962892
      ],
      [
        "▁news",
        -9.326994125315638
      ],
      [
        "मधील",
        -9.327840317694085
      ],
      [
        "▁significant",
        -9.328663524043108
      ],
      [
        "▁came",
        -9.329291024425673
      ],
      [
        "▁living",
        -9.329308821179463
      ],
      [
        "▁considered",
        -9.330496509588997
      ],
      [
        "्",
        -9.330691156419615
      ],
      [
        "थ",
        -9.330985903454584
      ],
      [
        "▁et",
        -9.331355537240574
      ],
      [
        "▁John",
        -9.333000625137096
      ],
      [
        "▁political",
        -9.333597536759395
      ],
      [
        "▁team",
        -9.334203035633438
      ],
      [
        "▁था.",
        -9.334207762243782
      ],
      [
        "▁patients",
        -9.334225734433065
      ],
      [
        "▁cannot",
        -9.334266376670152
      ],
      [
        "▁वि",
        -9.334793121701605
      ],
      [
        "▁single",
        -9.334955182071392
      ],
      [
        "▁जगह",
        -9.335053205209864
      ],
      [
        "▁रन",
        -9.335613040465692
      ],
      [
        "▁created",
        -9.335631178172301
      ],
      [
        "re",
        -9.336429671565105
      ],
      [
        "▁उपस्थित",
        -9.336705679395937
      ],
      [
        "फ",
        -9.337212172353588
      ],
      [
        "▁building",
        -9.338000544553829
      ],
      [
        "▁मान",
        -9.33937793813203
      ],
      [
        "▁understanding",
        -9.340292661294484
      ],
      [
        "▁गांधी",
        -9.34064292008683
      ],
      [
        "▁सी",
        -9.34077122206288
      ],
      [
        "▁done",
        -9.340906800003223
      ],
      [
        "▁whole",
        -9.342400396303939
      ],
      [
        "▁article",
        -9.343643252733559
      ],
      [
        "▁Many",
        -9.344022575026177
      ],
      [
        "▁जन्म",
        -9.344351455172935
      ],
      [
        "▁quality",
        -9.344464828131066
      ],
      [
        "z",
        -9.34465295045164
      ],
      [
        "▁आम्ही",
        -9.347057724472387
      ],
      [
        "▁गांव",
        -9.34730895537894
      ],
      [
        "▁परीक्षा",
        -9.347816798973906
      ],
      [
        "▁material",
        -9.349009301278555
      ],
      [
        "▁effect",
        -9.349270281947366
      ],
      [
        "▁associated",
        -9.34940026080621
      ],
      [
        "▁report",
        -9.34940260056846
      ],
      [
        "▁मंदिर",
        -9.349696686096419
      ],
      [
        "▁की।",
        -9.350952880643073
      ],
      [
        "▁short",
        -9.3514921354109
      ],
      [
        "▁related",
        -9.351564311112808
      ],
      [
        "▁पूरा",
        -9.353125221960116
      ],
      [
        "▁चाहिए।",
        -9.35318764139843
      ],
      [
        "जबकि",
        -9.353878533713209
      ],
      [
        "▁आपके",
        -9.356301938117538
      ],
      [
        "▁रहने",
        -9.357072362878748
      ],
      [
        "▁24",
        -9.357409298274632
      ],
      [
        "▁source",
        -9.357851068639906
      ],
      [
        "▁South",
        -9.358587524182143
      ],
      [
        "पर्यंत",
        -9.358624080716876
      ],
      [
        "▁increased",
        -9.35935552198234
      ],
      [
        "▁according",
        -9.359435677299816
      ],
      [
        "▁करू",
        -9.360052132422073
      ],
      [
        "▁महाराष्ट्र",
        -9.360885069990296
      ],
      [
        "पुर",
        -9.361335127634051
      ],
      [
        "▁together",
        -9.36151950919446
      ],
      [
        "▁दुनिया",
        -9.361783513441944
      ],
      [
        "▁जाएगा।",
        -9.363968451595868
      ],
      [
        "▁बड़ा",
        -9.364450141653887
      ],
      [
        "▁आहेत",
        -9.365017840753584
      ],
      [
        "हि",
        -9.3652195845798
      ],
      [
        "▁rate",
        -9.365268051631276
      ],
      [
        "▁hard",
        -9.366035326162274
      ],
      [
        "▁improve",
        -9.367050382688339
      ],
      [
        "▁story",
        -9.367893596209962
      ],
      [
        "▁V",
        -9.367932189660804
      ],
      [
        "▁actually",
        -9.368816687922761
      ],
      [
        "▁13",
        -9.369863497448293
      ],
      [
        "ंना",
        -9.370972579081544
      ],
      [
        "▁believe",
        -9.371884145030174
      ],
      [
        "est",
        -9.372284568121458
      ],
      [
        "▁student",
        -9.37250471565894
      ],
      [
        "▁नाव",
        -9.372555135411401
      ],
      [
        "▁groups",
        -9.372604677695463
      ],
      [
        "▁भाषा",
        -9.373101329470211
      ],
      [
        "ness",
        -9.37353848682136
      ],
      [
        "▁प",
        -9.373761221052439
      ],
      [
        "▁production",
        -9.375715351458771
      ],
      [
        "▁चला",
        -9.376200400037227
      ],
      [
        "▁तहत",
        -9.376553032713824
      ],
      [
        "▁केला.",
        -9.377052579053565
      ],
      [
        "▁करीब",
        -9.377717135000191
      ],
      [
        "▁घेऊन",
        -9.380408979529177
      ],
      [
        "▁North",
        -9.38050083643003
      ],
      [
        "▁व्यक्त",
        -9.381030560531627
      ],
      [
        "▁oil",
        -9.382104878399758
      ],
      [
        "▁दाखल",
        -9.382321302792331
      ],
      [
        "▁clear",
        -9.38270549081876
      ],
      [
        "▁published",
        -9.382884799311734
      ],
      [
        "▁लग",
        -9.384261670050861
      ],
      [
        "▁economic",
        -9.384286325100252
      ],
      [
        "▁व्यवस्था",
        -9.385207699564143
      ],
      [
        "▁growth",
        -9.386114375165265
      ],
      [
        "▁मांग",
        -9.38654329010806
      ],
      [
        "▁गये",
        -9.387653287289897
      ],
      [
        "सह",
        -9.388008430729386
      ],
      [
        "▁विभिन्न",
        -9.388542136445153
      ],
      [
        "▁business",
        -9.389103534891563
      ],
      [
        "▁play",
        -9.389489402869483
      ],
      [
        "दार",
        -9.39061002385955
      ],
      [
        "▁ज्या",
        -9.390961855307355
      ],
      [
        "▁resources",
        -9.391479915206707
      ],
      [
        "▁site",
        -9.39192744275009
      ],
      [
        "▁मत",
        -9.392281177239383
      ],
      [
        "ंनी",
        -9.395041924807952
      ],
      [
        "▁काल",
        -9.395364879873476
      ],
      [
        "▁almost",
        -9.396133153393345
      ],
      [
        "नं",
        -9.396571854536658
      ],
      [
        "▁black",
        -9.396712825066544
      ],
      [
        "▁non-",
        -9.397132473094834
      ],
      [
        "▁activity",
        -9.397493573824033
      ],
      [
        "▁माध्यम",
        -9.398181931207658
      ],
      [
        "▁दिए",
        -9.39921134698589
      ],
      [
        "▁ability",
        -9.40182565002088
      ],
      [
        "▁activities",
        -9.402265075234393
      ],
      [
        "▁संबंधित",
        -9.402346690342833
      ],
      [
        "▁time.",
        -9.40483154437726
      ],
      [
        "▁क्रिकेट",
        -9.406009831902404
      ],
      [
        "▁मंत्रालय",
        -9.406356748860038
      ],
      [
        "▁national",
        -9.406582439997226
      ],
      [
        "▁size",
        -9.40674706336346
      ],
      [
        "▁नि",
        -9.407099794346937
      ],
      [
        "▁रह",
        -9.407405064276933
      ],
      [
        "▁होगा",
        -9.409026040906191
      ],
      [
        "▁comes",
        -9.40929907592159
      ],
      [
        "▁India",
        -9.410041947001032
      ],
      [
        "ओ",
        -9.411453405608814
      ],
      [
        "▁होना",
        -9.411747396866717
      ],
      [
        "▁•",
        -9.412907430316025
      ],
      [
        "▁top",
        -9.412985260200111
      ],
      [
        "Although",
        -9.414105352531354
      ],
      [
        "▁दिले",
        -9.415062145906136
      ],
      [
        "▁thought",
        -9.415203473401935
      ],
      [
        "वे",
        -9.415643425958681
      ],
      [
        "▁provides",
        -9.415821873155949
      ],
      [
        "▁भूमिका",
        -9.41586266314069
      ],
      [
        "▁मार्ग",
        -9.416079670914622
      ],
      [
        "▁model",
        -9.416823395971228
      ],
      [
        "▁Most",
        -9.418157690101332
      ],
      [
        "▁surface",
        -9.418515551777348
      ],
      [
        "▁गेल्या",
        -9.418993078608128
      ],
      [
        "ism",
        -9.419112789994612
      ],
      [
        "▁विविध",
        -9.41930336241745
      ],
      [
        "▁took",
        -9.419427012673731
      ],
      [
        "दा",
        -9.419433090986901
      ],
      [
        "▁nature",
        -9.419813112837204
      ],
      [
        "▁पहुंच",
        -9.42109132876026
      ],
      [
        "▁पांच",
        -9.421694459175049
      ],
      [
        "▁Re",
        -9.422530403924997
      ],
      [
        "▁तुम्ही",
        -9.423066974299035
      ],
      [
        "▁products",
        -9.423516831145786
      ],
      [
        "▁जास्त",
        -9.423995478550564
      ],
      [
        "नए",
        -9.424524963002327
      ],
      [
        "▁idea",
        -9.42455034697848
      ],
      [
        "▁वापर",
        -9.42491759328312
      ],
      [
        "▁near",
        -9.425334445163944
      ],
      [
        "▁चाहिए",
        -9.425466900237835
      ],
      [
        "▁आरोपी",
        -9.42650799653695
      ],
      [
        "▁questions",
        -9.427224136842128
      ],
      [
        "▁De",
        -9.428665158254672
      ],
      [
        "▁हाल",
        -9.428803161845835
      ],
      [
        "▁global",
        -9.429071621829179
      ],
      [
        "▁वजह",
        -9.429382019320355
      ],
      [
        "▁योग्य",
        -9.429729798347129
      ],
      [
        "▁State",
        -9.431147096617329
      ],
      [
        "▁सात",
        -9.431526113944836
      ],
      [
        "▁खेल",
        -9.431769840586345
      ],
      [
        "▁death",
        -9.432406744603304
      ],
      [
        "▁His",
        -9.433937046089934
      ],
      [
        "▁Here",
        -9.434375215364234
      ],
      [
        "▁40",
        -9.434458815572341
      ],
      [
        "▁Research",
        -9.434982275180497
      ],
      [
        "▁हाथ",
        -9.435081766113882
      ],
      [
        "▁मेरे",
        -9.43563136308033
      ],
      [
        "▁effective",
        -9.435871978562087
      ],
      [
        "▁field",
        -9.43655867920428
      ],
      [
        "▁No",
        -9.437332497667164
      ],
      [
        "el",
        -9.437494155241039
      ],
      [
        "▁करें।",
        -9.438025259568668
      ],
      [
        "▁cell",
        -9.440620550608456
      ],
      [
        "▁began",
        -9.44068523229178
      ],
      [
        "ति",
        -9.441061288839851
      ],
      [
        "▁प्रेम",
        -9.441663970609635
      ],
      [
        "▁पा",
        -9.441953280695436
      ],
      [
        "▁महा",
        -9.441990218259106
      ],
      [
        "▁कुल",
        -9.442896453535994
      ],
      [
        "▁नेता",
        -9.443036956719737
      ],
      [
        "▁modern",
        -9.443498059937879
      ],
      [
        "▁class",
        -9.443859389676561
      ],
      [
        "▁परिणाम",
        -9.443995135537342
      ],
      [
        "le",
        -9.444899546674698
      ],
      [
        "▁करें",
        -9.445237526839904
      ],
      [
        "▁समस्या",
        -9.445295893076333
      ],
      [
        "▁conditions",
        -9.445617274193546
      ],
      [
        "▁कहते",
        -9.44611599601944
      ],
      [
        "▁उ",
        -9.44618549676897
      ],
      [
        "▁विजय",
        -9.448573287057478
      ],
      [
        "▁दिला",
        -9.448602439025231
      ],
      [
        "▁real",
        -9.448749349551932
      ],
      [
        "▁नही",
        -9.449264091610367
      ],
      [
        "▁produce",
        -9.449287708550239
      ],
      [
        "4",
        -9.450918287414604
      ],
      [
        "▁healthy",
        -9.451110123147426
      ],
      [
        "▁countries",
        -9.452910800389546
      ],
      [
        "▁example",
        -9.453809344499573
      ],
      [
        "▁त्यानंतर",
        -9.453989175985908
      ],
      [
        "▁देण्यात",
        -9.454694785438535
      ],
      [
        "▁नवीन",
        -9.454800070455837
      ],
      [
        "लगभग",
        -9.455380769928524
      ],
      [
        "▁देखा",
        -9.455737132519499
      ],
      [
        "▁रात",
        -9.458250472119056
      ],
      [
        "▁राजा",
        -9.459067915821922
      ],
      [
        "▁yet",
        -9.459525767202901
      ],
      [
        "▁skin",
        -9.4600290285229
      ],
      [
        "▁issues",
        -9.461516490565469
      ],
      [
        "▁जिले",
        -9.461986100199582
      ],
      [
        "▁question",
        -9.464335444879408
      ],
      [
        "म्",
        -9.464503778650974
      ],
      [
        "▁स्कूल",
        -9.465531761398575
      ],
      [
        "▁तुम",
        -9.465609059945598
      ],
      [
        "▁जिला",
        -9.466083873362006
      ],
      [
        "▁term",
        -9.466966458701705
      ],
      [
        "▁सध्या",
        -9.467556299356815
      ],
      [
        "▁members",
        -9.468690198077873
      ],
      [
        "▁आया",
        -9.468909704878195
      ],
      [
        "▁bring",
        -9.470073978745761
      ],
      [
        "▁required",
        -9.47039663706313
      ],
      [
        "▁British",
        -9.471221687874854
      ],
      [
        "▁रिपोर्ट",
        -9.471434321079618
      ],
      [
        "▁method",
        -9.471588954402456
      ],
      [
        "▁throughout",
        -9.471667964603864
      ],
      [
        "▁skills",
        -9.472246743245517
      ],
      [
        "▁time,",
        -9.473145418251885
      ],
      [
        "▁rights",
        -9.473343977180313
      ],
      [
        "▁विधानसभा",
        -9.473508575551062
      ],
      [
        "रे",
        -9.474137336574062
      ],
      [
        "▁लेने",
        -9.47446406350464
      ],
      [
        "▁यही",
        -9.475874392467523
      ],
      [
        "▁आले.",
        -9.477531423091063
      ],
      [
        "▁खर्च",
        -9.477927145124069
      ],
      [
        "जिससे",
        -9.479191108230264
      ],
      [
        "▁दिली",
        -9.479493704209013
      ],
      [
        "▁taking",
        -9.479710465994252
      ],
      [
        "▁pain",
        -9.479785403849576
      ],
      [
        "▁मिला",
        -9.479884571177072
      ],
      [
        "s:",
        -9.479933875223127
      ],
      [
        "▁difficult",
        -9.48004481390127
      ],
      [
        "▁बोर्ड",
        -9.48015699918009
      ],
      [
        "▁वहां",
        -9.480200697552513
      ],
      [
        "▁practice",
        -9.480724767886638
      ],
      [
        "▁2.",
        -9.48089683529734
      ],
      [
        "▁प्रवेश",
        -9.481892141126277
      ],
      [
        "▁कहना",
        -9.482957050974775
      ],
      [
        "▁allow",
        -9.483232434156115
      ],
      [
        "▁gas",
        -9.483964409351282
      ],
      [
        "एं",
        -9.484178342093307
      ],
      [
        "▁sense",
        -9.484318278649756
      ],
      [
        "▁प्रदान",
        -9.48488799732867
      ],
      [
        "▁सामाजिक",
        -9.485016667145672
      ],
      [
        "▁सा",
        -9.487001186697613
      ],
      [
        "ant",
        -9.487667912943495
      ],
      [
        "▁total",
        -9.487702848253845
      ],
      [
        "▁प्रधानमंत्री",
        -9.487717133620501
      ],
      [
        "▁recent",
        -9.489470174875256
      ],
      [
        "▁प्रक्रिया",
        -9.490675306319115
      ],
      [
        "▁बिना",
        -9.491956099729586
      ],
      [
        "▁पत्नी",
        -9.492606592910219
      ],
      [
        "▁पहली",
        -9.492836844542406
      ],
      [
        "▁half",
        -9.493167540626272
      ],
      [
        "मे",
        -9.493474428194299
      ],
      [
        "▁US",
        -9.493647247531722
      ],
      [
        "▁मौत",
        -9.493831415730314
      ],
      [
        "▁head",
        -9.496383974619901
      ],
      [
        "▁Dr.",
        -9.496864803586163
      ],
      [
        "▁केंद्रीय",
        -9.496883260725797
      ],
      [
        "▁देख",
        -9.496983250495996
      ],
      [
        "▁themselves",
        -9.497351896855392
      ],
      [
        "▁खुद",
        -9.498550849674958
      ],
      [
        "▁आए",
        -9.498681648516804
      ],
      [
        "et",
        -9.499887969623273
      ],
      [
        "▁animals",
        -9.500855017365582
      ],
      [
        "▁close",
        -9.500886991591518
      ],
      [
        "▁ensure",
        -9.501549898684221
      ],
      [
        "इसकी",
        -9.504165746663666
      ],
      [
        "▁loss",
        -9.505537139982593
      ],
      [
        "कडून",
        -9.505955412871215
      ],
      [
        "▁May",
        -9.50653592865747
      ],
      [
        "▁ever",
        -9.506987563815654
      ],
      [
        "▁states",
        -9.508632922001555
      ],
      [
        "▁अधिकार",
        -9.509666405616455
      ],
      [
        "▁जीत",
        -9.509733682319675
      ],
      [
        "▁focus",
        -9.509855291290522
      ],
      [
        "▁राहुल",
        -9.50992798470138
      ],
      [
        "▁kind",
        -9.511096671354641
      ],
      [
        "▁फोन",
        -9.511241495909106
      ],
      [
        "▁special",
        -9.512264262795508
      ],
      [
        "▁वा",
        -9.512333035644247
      ],
      [
        "▁बच्चों",
        -9.51233356706059
      ],
      [
        "▁लगे",
        -9.512459682221634
      ],
      [
        "▁parts",
        -9.514372295761346
      ],
      [
        "▁weight",
        -9.515152633301147
      ],
      [
        "▁कह",
        -9.516130916269004
      ],
      [
        "▁येणार",
        -9.516584104964917
      ],
      [
        "लं",
        -9.51691828177938
      ],
      [
        "v",
        -9.51775135623533
      ],
      [
        "▁तरफ",
        -9.51812029361125
      ],
      [
        "▁इंडिया",
        -9.518547113578869
      ],
      [
        "▁view",
        -9.518575536601128
      ],
      [
        "▁करणे",
        -9.518937655227171
      ],
      [
        "▁strong",
        -9.519323615427195
      ],
      [
        "▁दूसरी",
        -9.519602511673577
      ],
      [
        "▁shows",
        -9.519976261238957
      ],
      [
        "णी",
        -9.520359250839702
      ],
      [
        "▁अलग",
        -9.520618573300863
      ],
      [
        "▁heat",
        -9.520726835113264
      ],
      [
        "▁सामान्य",
        -9.520872729667055
      ],
      [
        "▁नाही,",
        -9.521356025370679
      ],
      [
        "▁कैसे",
        -9.521553780184588
      ],
      [
        "ly,",
        -9.523723761159104
      ],
      [
        "▁function",
        -9.52438044437331
      ],
      [
        "▁मार",
        -9.524942289359899
      ],
      [
        "▁जीव",
        -9.525558618091413
      ],
      [
        "▁यावेळी",
        -9.52573502817703
      ],
      [
        "▁Your",
        -9.527074101882462
      ],
      [
        "▁approach",
        -9.527330086830169
      ],
      [
        "ne",
        -9.52767758524088
      ],
      [
        "▁मोठ्या",
        -9.527728865732682
      ],
      [
        "▁environmental",
        -9.527902181530175
      ],
      [
        "▁paper",
        -9.530271936125533
      ],
      [
        "▁provided",
        -9.531019415041799
      ],
      [
        "ंत",
        -9.531950068785743
      ],
      [
        "ive",
        -9.532715826780159
      ],
      [
        "▁cost",
        -9.533608175496937
      ],
      [
        "▁money",
        -9.534065929783017
      ],
      [
        "ियां",
        -9.53416594884496
      ],
      [
        "▁parents",
        -9.534166771837347
      ],
      [
        "▁average",
        -9.535225952806075
      ],
      [
        "▁पुन्हा",
        -9.535798808814349
      ],
      [
        "▁जन",
        -9.53599867268135
      ],
      [
        "▁पार",
        -9.536381778387595
      ],
      [
        "▁reason",
        -9.536703501857815
      ],
      [
        "▁computer",
        -9.537006999824566
      ],
      [
        "▁necessary",
        -9.537150548927553
      ],
      [
        "▁बाजार",
        -9.537371258427003
      ],
      [
        "▁मिली",
        -9.537754754598641
      ],
      [
        "▁pressure",
        -9.537791231075106
      ],
      [
        "am",
        -9.53813069506555
      ],
      [
        "▁factors",
        -9.538815387079097
      ],
      [
        "According",
        -9.539495779114333
      ],
      [
        "▁needed",
        -9.540090967700051
      ],
      [
        "▁reading",
        -9.54068432451737
      ],
      [
        "▁caused",
        -9.543168791048766
      ],
      [
        "▁झालेल्या",
        -9.544269255036436
      ],
      [
        "▁materials",
        -9.545922720084045
      ],
      [
        "ment",
        -9.54756847659466
      ],
      [
        "▁p",
        -9.547612137171873
      ],
      [
        "▁turn",
        -9.547696489420687
      ],
      [
        "▁लागू",
        -9.54769767462553
      ],
      [
        "▁प्रदर्शन",
        -9.549360705904329
      ],
      [
        "▁पाणी",
        -9.549391283265473
      ],
      [
        "▁सरकारी",
        -9.551190726752859
      ],
      [
        "▁चीन",
        -9.551623478562979
      ],
      [
        "▁मार्च",
        -9.552431332544574
      ],
      [
        "▁designed",
        -9.552692952370867
      ],
      [
        "▁हमें",
        -9.552881281564009
      ],
      [
        "▁मागणी",
        -9.553197033419279
      ],
      [
        "▁below",
        -9.554528673812932
      ],
      [
        "▁From",
        -9.55470658532658
      ],
      [
        "▁22",
        -9.555440066077537
      ],
      [
        "▁स्तर",
        -9.556513531882478
      ],
      [
        "▁works",
        -9.556885389332718
      ],
      [
        "▁longer",
        -9.556909092593546
      ],
      [
        "र्स",
        -9.557641796500283
      ],
      [
        "ंच्या",
        -9.558484568162683
      ],
      [
        "▁कोर्ट",
        -9.558786896075551
      ],
      [
        "te",
        -9.560383748934575
      ],
      [
        "▁माना",
        -9.560518256472246
      ],
      [
        "▁shown",
        -9.560628701550112
      ],
      [
        "▁सो",
        -9.560945544018223
      ],
      [
        "▁खूप",
        -9.56247490990411
      ],
      [
        "▁plan",
        -9.562611658044665
      ],
      [
        "▁अच्छा",
        -9.564658106856735
      ],
      [
        "A",
        -9.564929132748105
      ],
      [
        "▁--",
        -9.567066485013326
      ],
      [
        "▁original",
        -9.568414589619916
      ],
      [
        "▁विरोध",
        -9.568811267559854
      ],
      [
        "▁personal",
        -9.569524805689444
      ],
      [
        "▁built",
        -9.569707624285378
      ],
      [
        "▁वाढ",
        -9.57005058816235
      ],
      [
        "▁build",
        -9.570195275379962
      ],
      [
        "▁असताना",
        -9.57053789379023
      ],
      [
        "▁रख",
        -9.5714315072232
      ],
      [
        "▁variety",
        -9.572075310884458
      ],
      [
        "▁३",
        -9.572488627533078
      ],
      [
        "▁includes",
        -9.572930364904208
      ],
      [
        "▁move",
        -9.572981462302653
      ],
      [
        "ख",
        -9.573027026184288
      ],
      [
        "▁उसी",
        -9.57406033921278
      ],
      [
        "▁York",
        -9.574765047824378
      ],
      [
        "▁simply",
        -9.574850385787007
      ],
      [
        "▁ठीक",
        -9.574959254938317
      ],
      [
        "▁soil",
        -9.574979041374329
      ],
      [
        "▁complex",
        -9.57504920537651
      ],
      [
        "▁तेव्हा",
        -9.575529758322562
      ],
      [
        "▁रोजी",
        -9.575709772037877
      ],
      [
        "\".",
        -9.575760519322559
      ],
      [
        "▁होगी।",
        -9.575761888850606
      ],
      [
        "▁online",
        -9.576010513787626
      ],
      [
        "▁causes",
        -9.576742624603831
      ],
      [
        "▁training",
        -9.57756771969572
      ],
      [
        "▁mind",
        -9.57773799416279
      ],
      [
        "▁sea",
        -9.578156272587178
      ],
      [
        "▁again",
        -9.57881016854224
      ],
      [
        "▁service",
        -9.579010019334902
      ],
      [
        "▁writing",
        -9.579219072011417
      ],
      [
        "▁call",
        -9.582194683206385
      ],
      [
        "▁मराठी",
        -9.582969773681658
      ],
      [
        "▁परिषद",
        -9.584152855297697
      ],
      [
        "▁ठाकरे",
        -9.584378780707974
      ],
      [
        "▁analysis",
        -9.585350856778394
      ],
      [
        "▁management",
        -9.585674320962859
      ],
      [
        "▁easy",
        -9.585754998669243
      ],
      [
        "▁matter",
        -9.58659708420234
      ],
      [
        "▁sometimes",
        -9.587341485774791
      ],
      [
        "▁गंभीर",
        -9.587485247995563
      ],
      [
        "▁होकर",
        -9.587767126127286
      ],
      [
        "▁पुढे",
        -9.588174583510373
      ],
      [
        "▁पूरे",
        -9.58893485537974
      ],
      [
        "▁greater",
        -9.58973333077053
      ],
      [
        "▁love",
        -9.590153003366241
      ],
      [
        "जा",
        -9.590279682380904
      ],
      [
        "▁protect",
        -9.590418840945816
      ],
      [
        "▁प्रभाव",
        -9.5919076378815
      ],
      [
        "▁itself",
        -9.592667704001837
      ],
      [
        "▁विश्वास",
        -9.594365334300765
      ],
      [
        "ate",
        -9.594627614574373
      ],
      [
        "▁प्रशासन",
        -9.594732002179283
      ],
      [
        "▁शादी",
        -9.596497906015133
      ],
      [
        "▁देता",
        -9.59660897305067
      ],
      [
        "▁red",
        -9.596646295210288
      ],
      [
        "▁असेल",
        -9.59669869430667
      ],
      [
        "▁वन",
        -9.598027215764874
      ],
      [
        "▁आनंद",
        -9.598138981711648
      ],
      [
        "-based",
        -9.599378123029734
      ],
      [
        "▁ठिकाणी",
        -9.6005309838598
      ],
      [
        "▁terms",
        -9.600724215274798
      ],
      [
        "▁जान",
        -9.600745602197398
      ],
      [
        "▁structure",
        -9.601281538707465
      ],
      [
        "▁thing",
        -9.601864520291285
      ],
      [
        "▁सं",
        -9.602193256019058
      ],
      [
        "▁outside",
        -9.602247960336182
      ],
      [
        "▁individuals",
        -9.602765458522665
      ],
      [
        "▁hours",
        -9.602994482280257
      ],
      [
        "▁company",
        -9.603306486412462
      ],
      [
        "▁चुकी",
        -9.603321091617358
      ],
      [
        "▁सवाल",
        -9.60339681396439
      ],
      [
        "▁दक्षिण",
        -9.604645432927997
      ],
      [
        "▁फोटो",
        -9.604753322318864
      ],
      [
        "▁services",
        -9.605628317697628
      ],
      [
        "▁said.",
        -9.605862913430444
      ],
      [
        "▁21",
        -9.606237219645337
      ],
      [
        "▁determine",
        -9.606715334213986
      ],
      [
        "▁मध्य",
        -9.607721593802385
      ],
      [
        "▁contact",
        -9.607991799936663
      ],
      [
        "▁popular",
        -9.60804875399332
      ],
      [
        "▁true",
        -9.608193342107226
      ],
      [
        "▁यादव",
        -9.608619158222162
      ],
      [
        "▁complete",
        -9.608715834193493
      ],
      [
        "▁*",
        -9.609250500766624
      ],
      [
        "▁reported",
        -9.609384696424984
      ],
      [
        "▁subject",
        -9.609855967493278
      ],
      [
        "▁देखने",
        -9.610217202773969
      ],
      [
        "▁art",
        -9.611302194244734
      ],
      [
        "um",
        -9.611519587338057
      ],
      [
        "less",
        -9.61180374297145
      ],
      [
        "▁खबर",
        -9.612807412178348
      ],
      [
        "co",
        -9.613189553206013
      ],
      [
        "▁युद्ध",
        -9.613706917948315
      ],
      [
        "▁शर्मा",
        -9.614621472634365
      ],
      [
        "▁mean",
        -9.614883183059314
      ],
      [
        "▁written",
        -9.614992523454926
      ],
      [
        "▁असते.",
        -9.615257043682087
      ],
      [
        "▁affect",
        -9.61595186005093
      ],
      [
        "▁असल्याने",
        -9.6174714630224
      ],
      [
        "▁गए।",
        -9.61759352841234
      ],
      [
        "…",
        -9.618516882374564
      ],
      [
        "▁क्यों",
        -9.618626619524502
      ],
      [
        "▁School",
        -9.618901222043876
      ],
      [
        "▁ऊपर",
        -9.61912088316904
      ],
      [
        "▁scientists",
        -9.619856576467695
      ],
      [
        "▁action",
        -9.620137702882786
      ],
      [
        "▁Be",
        -9.620199467883753
      ],
      [
        "लेल्या",
        -9.620764404685005
      ],
      [
        "▁खास",
        -9.621028232587545
      ],
      [
        "▁p.",
        -9.62110808158384
      ],
      [
        "▁कु",
        -9.621159975522056
      ],
      [
        "▁बैंक",
        -9.62118388421849
      ],
      [
        "▁करीत",
        -9.62207459040662
      ],
      [
        "▁१९",
        -9.622890776360528
      ],
      [
        "▁doing",
        -9.623441228587678
      ],
      [
        "▁environment",
        -9.623474204309073
      ],
      [
        "▁रखा",
        -9.623937788499152
      ],
      [
        "▁basic",
        -9.624056727423131
      ],
      [
        "▁try",
        -9.624446799328737
      ],
      [
        "▁ground",
        -9.625045872042012
      ],
      [
        "▁सिर्फ",
        -9.625558519256709
      ],
      [
        "▁प्रथम",
        -9.626265517171067
      ],
      [
        "▁थीं",
        -9.626513729410636
      ],
      [
        "id",
        -9.62693569282643
      ],
      [
        "ian",
        -9.62717451387345
      ],
      [
        "ंची",
        -9.627306009826732
      ],
      [
        "▁जिल्हा",
        -9.628015805789506
      ],
      [
        "▁content",
        -9.628518134030761
      ],
      [
        "▁नीति",
        -9.629368750160998
      ],
      [
        "ton",
        -9.630496820519658
      ],
      [
        "▁temperature",
        -9.632342010836505
      ],
      [
        "▁century",
        -9.63242273085741
      ],
      [
        "▁अथवा",
        -9.633210940311017
      ],
      [
        "गी",
        -9.633374848381012
      ],
      [
        "▁गयी",
        -9.633380830863219
      ],
      [
        "▁।।",
        -9.63357050789174
      ],
      [
        "▁पवार",
        -9.633891073240873
      ],
      [
        "▁उत्पादन",
        -9.637132637286589
      ],
      [
        "▁positive",
        -9.637576192482284
      ],
      [
        "▁इ",
        -9.637739422341307
      ],
      [
        "▁media",
        -9.638455803908585
      ],
      [
        "▁जून",
        -9.638711439190148
      ],
      [
        "टी",
        -9.639294876824072
      ],
      [
        "▁consider",
        -9.63968744207878
      ],
      [
        "▁चुके",
        -9.639840288214414
      ],
      [
        "▁led",
        -9.640966730079732
      ],
      [
        "▁वेळ",
        -9.641134061681749
      ],
      [
        "▁First",
        -9.641256109443365
      ],
      [
        "de",
        -9.641936637286479
      ],
      [
        "▁particularly",
        -9.642226326976425
      ],
      [
        "▁कार्यालय",
        -9.642368642163765
      ],
      [
        "▁घोषणा",
        -9.642369151537071
      ],
      [
        "▁ख",
        -9.643031437384558
      ],
      [
        "▁interest",
        -9.643073348042014
      ],
      [
        "▁run",
        -9.643647961075533
      ],
      [
        "▁Our",
        -9.644471251211547
      ],
      [
        "▁months",
        -9.644549852181006
      ],
      [
        "▁developing",
        -9.645093244822354
      ],
      [
        "▁avoid",
        -9.646821427488396
      ],
      [
        "▁त्याचा",
        -9.64730661220917
      ],
      [
        "During",
        -9.648478597797828
      ],
      [
        "▁continue",
        -9.648672535090641
      ],
      [
        "▁share",
        -9.649689326028026
      ],
      [
        "▁हालांकि",
        -9.650019903031449
      ],
      [
        "▁animal",
        -9.65022213274371
      ],
      [
        "▁आयोजित",
        -9.65065545749737
      ],
      [
        "▁सहित",
        -9.650705871183435
      ],
      [
        "▁आवश्यकता",
        -9.651196622508673
      ],
      [
        "▁six",
        -9.651357464682917
      ],
      [
        "▁big",
        -9.65158998024553
      ],
      [
        "▁शो",
        -9.651617950945079
      ],
      [
        "▁उत्पन्न",
        -9.65211217581135
      ],
      [
        "▁“The",
        -9.652163588525786
      ],
      [
        "ंच",
        -9.65300644461913
      ],
      [
        "▁region",
        -9.65301829399894
      ],
      [
        "▁महीने",
        -9.653359120015175
      ],
      [
        "▁टेस्ट",
        -9.65526849270222
      ],
      [
        "▁poor",
        -9.655647801221422
      ],
      [
        "▁2022",
        -9.655811209847869
      ],
      [
        "▁post",
        -9.656475321935075
      ],
      [
        "ड़",
        -9.656618037111237
      ],
      [
        "▁helps",
        -9.657731949092256
      ],
      [
        "▁रि",
        -9.657983723142609
      ],
      [
        "▁(S",
        -9.658749850191226
      ],
      [
        "▁list",
        -9.659461851092594
      ],
      [
        "▁शिव",
        -9.659521617591006
      ],
      [
        "▁carbon",
        -9.660382770360021
      ],
      [
        "▁साहित्य",
        -9.660696541387823
      ],
      [
        "▁धन",
        -9.662000485136367
      ],
      [
        "▁benefits",
        -9.662168898744005
      ],
      [
        "▁बजे",
        -9.662588988240127
      ],
      [
        "▁uses",
        -9.663290115918942
      ],
      [
        "▁generally",
        -9.66335333083081
      ],
      [
        "▁tell",
        -9.663576123845692
      ],
      [
        "▁essential",
        -9.664100618559651
      ],
      [
        "ातून",
        -9.66470101650489
      ],
      [
        "▁fish",
        -9.664746765118124
      ],
      [
        "▁grow",
        -9.664947263075025
      ],
      [
        "il",
        -9.664973375475109
      ],
      [
        "▁नंबर",
        -9.665233513062923
      ],
      [
        "▁growing",
        -9.666085859370051
      ],
      [
        "▁ग",
        -9.666177530611302
      ],
      [
        "▁lack",
        -9.66887581911157
      ],
      [
        "लगातार",
        -9.669496418016232
      ],
      [
        "▁सर्वात",
        -9.669836084189452
      ],
      [
        "▁सामना",
        -9.670453713378565
      ],
      [
        "▁उपचार",
        -9.671224366140198
      ],
      [
        "▁वर्ग",
        -9.67159702843912
      ],
      [
        "▁समान",
        -9.672012337781474
      ],
      [
        "▁eat",
        -9.672898403502819
      ],
      [
        "▁More",
        -9.673859785713645
      ],
      [
        "▁produced",
        -9.674661671108405
      ],
      [
        "▁अस्पताल",
        -9.674978207757732
      ],
      [
        "C",
        -9.675114606884925
      ],
      [
        "▁नुकसान",
        -9.675250321251708
      ],
      [
        "▁आग",
        -9.6758405797886
      ],
      [
        "▁त्याने",
        -9.676753926723418
      ],
      [
        "▁मनुष्य",
        -9.676978652305158
      ],
      [
        "▁त्यात",
        -9.67735078847569
      ],
      [
        "▁series",
        -9.678682185365451
      ],
      [
        "▁मु",
        -9.679627721157019
      ],
      [
        "▁Now",
        -9.679801195368782
      ],
      [
        "▁प्रकाश",
        -9.68028258528521
      ],
      [
        "▁कधी",
        -9.680415246613961
      ],
      [
        "▁इतिहास",
        -9.680440027222774
      ],
      [
        "▁text",
        -9.682591702312811
      ],
      [
        "▁U",
        -9.683999083411022
      ],
      [
        "rs",
        -9.684519033866566
      ],
      [
        "▁बनाया",
        -9.685477463711074
      ],
      [
        "▁चाहते",
        -9.685478858531507
      ],
      [
        "▁पैसे",
        -9.686326503366452
      ],
      [
        "▁late",
        -9.686475335508621
      ],
      [
        "▁image",
        -9.686943702402356
      ],
      [
        "▁गुण",
        -9.68703687701283
      ],
      [
        "▁methods",
        -9.687726727625785
      ],
      [
        "▁(A",
        -9.688562532972677
      ],
      [
        "▁condition",
        -9.688735284033944
      ],
      [
        "▁प्रयोग",
        -9.688850043278585
      ],
      [
        "▁industry",
        -9.68887516816216
      ],
      [
        "▁position",
        -9.689027343633583
      ],
      [
        "▁19",
        -9.689274288956318
      ],
      [
        "▁थे,",
        -9.690357996256715
      ],
      [
        "▁involved",
        -9.691359060547029
      ],
      [
        "▁Earth",
        -9.69248180863605
      ],
      [
        "ाई",
        -9.693377129678854
      ],
      [
        "▁face",
        -9.693486182547614
      ],
      [
        "▁केवळ",
        -9.694216284575896
      ],
      [
        "▁मदत",
        -9.69488557173133
      ],
      [
        "▁international",
        -9.695516131709018
      ],
      [
        "▁सीमा",
        -9.696621668518647
      ],
      [
        "वें",
        -9.696735003694457
      ],
      [
        "▁rest",
        -9.696829204769829
      ],
      [
        "▁probably",
        -9.69690132768763
      ],
      [
        "▁कहा,",
        -9.697138259393919
      ],
      [
        "▁Institute",
        -9.697324917354715
      ],
      [
        "▁normal",
        -9.69754188522272
      ],
      [
        "▁Is",
        -9.69827340379413
      ],
      [
        "▁fire",
        -9.698512860042646
      ],
      [
        "▁require",
        -9.69886990809618
      ],
      [
        "ling",
        -9.699460180049794
      ],
      [
        "ent",
        -9.699583998905968
      ],
      [
        "▁ली",
        -9.700620435873294
      ],
      [
        "▁included",
        -9.701076436525485
      ],
      [
        "▁getting",
        -9.701082386694392
      ],
      [
        "se",
        -9.701383817626159
      ],
      [
        "▁यात्रा",
        -9.701386408050812
      ],
      [
        "▁market",
        -9.701990496117155
      ],
      [
        "▁standard",
        -9.702731974128909
      ],
      [
        "▁therefore",
        -9.703167876101112
      ],
      [
        "age",
        -9.70501496356114
      ],
      [
        "▁issue",
        -9.705026708051347
      ],
      [
        "▁house",
        -9.705677678053267
      ],
      [
        "▁J.",
        -9.706442899403124
      ],
      [
        "▁Science",
        -9.706481593123458
      ],
      [
        "▁टक्के",
        -9.706989465371159
      ],
      [
        "ंचा",
        -9.707211093135555
      ],
      [
        "▁3.",
        -9.708728759528926
      ],
      [
        "▁पुरुष",
        -9.7091798314317
      ],
      [
        "▁years.",
        -9.710159009880734
      ],
      [
        "▁पिता",
        -9.710692270304854
      ],
      [
        "▁बिहार",
        -9.711746846797462
      ],
      [
        "▁पाच",
        -9.71222012272918
      ],
      [
        "▁someone",
        -9.712405140839008
      ],
      [
        "▁यहाँ",
        -9.71388769351274
      ],
      [
        "▁झाला.",
        -9.713893388464365
      ],
      [
        "ary",
        -9.71508510298935
      ],
      [
        "▁मग",
        -9.715578955460558
      ],
      [
        "▁तेल",
        -9.716108047855037
      ],
      [
        "▁movement",
        -9.716134350951826
      ],
      [
        "▁डॉक्टर",
        -9.716864919893577
      ],
      [
        "▁response",
        -9.718012793463725
      ],
      [
        "▁color",
        -9.718715665853892
      ],
      [
        "▁कोटी",
        -9.719067986543319
      ],
      [
        "▁नियम",
        -9.719450466521884
      ],
      [
        "ed.",
        -9.719454769342063
      ],
      [
        "▁programs",
        -9.720001323465805
      ],
      [
        "▁forms",
        -9.720004656710941
      ],
      [
        "quite",
        -9.720900887867701
      ],
      [
        "▁Other",
        -9.721067142106431
      ],
      [
        "▁thus",
        -9.722716467024458
      ],
      [
        "▁Department",
        -9.723617947027142
      ],
      [
        "▁वाहन",
        -9.72375109385062
      ],
      [
        "▁entire",
        -9.724822516855829
      ],
      [
        "▁थी,",
        -9.725281636736975
      ],
      [
        "▁culture",
        -9.725453789501502
      ],
      [
        "▁लाल",
        -9.725731347488622
      ],
      [
        "▁Center",
        -9.725877998669336
      ],
      [
        "▁तुम्हाला",
        -9.726239563839524
      ],
      [
        "▁am",
        -9.726962604078935
      ],
      [
        "जिसे",
        -9.727165512673112
      ],
      [
        "▁looking",
        -9.727632082261293
      ],
      [
        "▁न्यूज",
        -9.728141341615677
      ],
      [
        "▁कोशिश",
        -9.729161031848419
      ],
      [
        "▁schools",
        -9.729379645837192
      ],
      [
        "▁car",
        -9.729788609673296
      ],
      [
        "▁सुबह",
        -9.729902836107431
      ],
      [
        "j",
        -9.730083389811648
      ],
      [
        "▁तौर",
        -9.731059830986387
      ],
      [
        "▁page",
        -9.732454179506215
      ],
      [
        "▁takes",
        -9.732566720119305
      ],
      [
        "▁चुका",
        -9.73278467480253
      ],
      [
        "5",
        -9.733119147518881
      ],
      [
        "▁मैंने",
        -9.734308577646079
      ],
      [
        "▁China",
        -9.734596249954851
      ],
      [
        "▁ग्रामीण",
        -9.734966105499291
      ],
      [
        "ांमध्ये",
        -9.735230115552161
      ],
      [
        "▁पेश",
        -9.73528766737938
      ],
      [
        "ine",
        -9.737380963389837
      ],
      [
        "▁International",
        -9.73848641586072
      ],
      [
        "▁Even",
        -9.738625050669372
      ],
      [
        "▁b",
        -9.739032346976767
      ],
      [
        "▁established",
        -9.73914761639141
      ],
      [
        "ized",
        -9.739665539792096
      ],
      [
        "▁traditional",
        -9.739701099639865
      ],
      [
        "▁यांची",
        -9.73996584579819
      ],
      [
        "▁वर्षों",
        -9.740278238172221
      ],
      [
        "▁लिखा",
        -9.740980943196817
      ],
      [
        "▁stress",
        -9.741302260301902
      ],
      [
        "▁inside",
        -9.742686705898604
      ],
      [
        "▁बल्कि",
        -9.742693509944711
      ],
      [
        "ील",
        -9.744095700554304
      ],
      [
        "▁शोध",
        -9.744914426974885
      ],
      [
        "रूप",
        -9.745824629731136
      ],
      [
        "गा",
        -9.745978891058401
      ],
      [
        "▁सेना",
        -9.746463041416126
      ],
      [
        "▁बच्चे",
        -9.746719733763417
      ],
      [
        "▁compared",
        -9.747224437521208
      ],
      [
        "▁green",
        -9.747803164645475
      ],
      [
        "▁आठ",
        -9.747873935016354
      ],
      [
        "▁मौजूद",
        -9.747987857291175
      ],
      [
        "▁started",
        -9.747992645448832
      ],
      [
        "▁Since",
        -9.748542131705516
      ],
      [
        "▁step",
        -9.74901314198802
      ],
      [
        "▁patient",
        -9.749154862249945
      ],
      [
        "▁सुख",
        -9.749233415088984
      ],
      [
        "▁teachers",
        -9.749416629503449
      ],
      [
        "▁held",
        -9.749584134084284
      ],
      [
        "▁नरेंद्र",
        -9.749975260784217
      ],
      [
        "▁अच्छी",
        -9.750046685153638
      ],
      [
        "▁force",
        -9.750569510724942
      ],
      [
        "▁French",
        -9.750615447291162
      ],
      [
        "▁events",
        -9.750890397725517
      ],
      [
        "▁प्रसिद्ध",
        -9.751294681648554
      ],
      [
        "▁आंदोलन",
        -9.751471122595307
      ],
      [
        "ur",
        -9.751501545610905
      ],
      [
        "▁third",
        -9.751977754435789
      ],
      [
        "तून",
        -9.752272489172496
      ],
      [
        "▁unique",
        -9.752284672689015
      ],
      [
        "िन",
        -9.75251532032468
      ],
      [
        "▁military",
        -9.752656481415906
      ],
      [
        "▁आरोग्य",
        -9.752700187584397
      ],
      [
        "मी",
        -9.752847209114602
      ],
      [
        "ांवर",
        -9.754015478405302
      ],
      [
        "▁किस",
        -9.754021796916216
      ],
      [
        "▁बाल",
        -9.75458452365559
      ],
      [
        "▁रहते",
        -9.7547887522244
      ],
      [
        "▁European",
        -9.755182781994119
      ],
      [
        "▁शिक्षण",
        -9.755975775465132
      ],
      [
        "▁addition",
        -9.756195611844419
      ],
      [
        "सोबत",
        -9.756453305332434
      ],
      [
        "▁multiple",
        -9.7568097651384
      ],
      [
        "▁safety",
        -9.756914119814548
      ],
      [
        "▁60",
        -9.75719381218091
      ],
      [
        "ies",
        -9.757597019080878
      ],
      [
        "▁video",
        -9.757746006845236
      ],
      [
        "ामुळे",
        -9.758030625556119
      ],
      [
        "ry",
        -9.758150486893348
      ],
      [
        "▁website",
        -9.758284618489428
      ],
      [
        "▁week",
        -9.758623013879005
      ],
      [
        "▁primary",
        -9.758672302168744
      ],
      [
        "वि",
        -9.759326611249165
      ],
      [
        "▁allows",
        -9.760051619869493
      ],
      [
        "▁राशि",
        -9.761102480541034
      ],
      [
        "▁attention",
        -9.761210767845236
      ],
      [
        "▁रुपए",
        -9.761953037843504
      ],
      [
        "▁महत्वपूर्ण",
        -9.762912017345139
      ],
      [
        "▁जिन",
        -9.763184634387157
      ],
      [
        "▁diet",
        -9.764618732525264
      ],
      [
        "▁June",
        -9.764795295850643
      ],
      [
        "▁इस्तेमाल",
        -9.7648429405208
      ],
      [
        "▁March",
        -9.765269899709942
      ],
      [
        "▁पीछे",
        -9.766286590108672
      ],
      [
        "▁additional",
        -9.766364640392146
      ],
      [
        "▁solar",
        -9.766440414149194
      ],
      [
        "▁directly",
        -9.766910284503503
      ],
      [
        "▁माझ्या",
        -9.767016557509578
      ],
      [
        "▁समझ",
        -9.767030896247203
      ],
      [
        "ance",
        -9.768028523980032
      ],
      [
        "▁beginning",
        -9.768779878625114
      ],
      [
        "▁प्रयास",
        -9.76943518044495
      ],
      [
        "▁प्रमाण",
        -9.76960478994933
      ],
      [
        "s)",
        -9.769968429154135
      ],
      [
        "▁फक्त",
        -9.770080834792742
      ],
      [
        "पणे",
        -9.770250450382557
      ],
      [
        "▁meaning",
        -9.770280475378527
      ],
      [
        "▁संजय",
        -9.77028345340498
      ],
      [
        "▁करण्याची",
        -9.770989572806666
      ],
      [
        "▁larger",
        -9.771210377072016
      ],
      [
        "डा",
        -9.771354361737805
      ],
      [
        "▁उद्योग",
        -9.771487352195425
      ],
      [
        "▁थी.",
        -9.771523388939842
      ],
      [
        "▁author",
        -9.772240672545763
      ],
      [
        "▁mental",
        -9.773097927276433
      ],
      [
        "▁पोस्ट",
        -9.773447856236137
      ],
      [
        "▁society",
        -9.774299763890763
      ],
      [
        "▁जमा",
        -9.774621437183479
      ],
      [
        "▁damage",
        -9.775059675404819
      ],
      [
        "6",
        -9.775094105857553
      ],
      [
        "▁History",
        -9.775739336511998
      ],
      [
        "▁रखने",
        -9.775849314067786
      ],
      [
        "▁राष्ट्र",
        -9.776424237101267
      ],
      [
        "▁scientific",
        -9.777035319617742
      ],
      [
        "▁daily",
        -9.777587587572558
      ],
      [
        "▁दल",
        -9.777633437587523
      ],
      [
        "▁पाया",
        -9.77876745154006
      ],
      [
        "▁ideas",
        -9.778836306804921
      ],
      [
        "▁account",
        -9.77897506867483
      ],
      [
        "▁ask",
        -9.780343860359626
      ],
      [
        "▁ह्या",
        -9.780349372377463
      ],
      [
        "▁world.",
        -9.780753526281156
      ],
      [
        "▁हत्या",
        -9.780995297824166
      ],
      [
        "▁foods",
        -9.781050725251335
      ],
      [
        "▁तिच्या",
        -9.781087385189945
      ],
      [
        "Because",
        -9.782403365248717
      ],
      [
        "▁सके",
        -9.782432943787295
      ],
      [
        "▁आमदार",
        -9.78247742303321
      ],
      [
        "▁पाटील",
        -9.782628915080515
      ],
      [
        "▁severe",
        -9.78298704922237
      ],
      [
        "▁add",
        -9.783158624607998
      ],
      [
        "▁त्यांची",
        -9.783997043152825
      ],
      [
        "राज",
        -9.784025646661618
      ],
      [
        "▁लेख",
        -9.784288778520994
      ],
      [
        "ization",
        -9.7843001973235
      ],
      [
        "▁त्यांचे",
        -9.785148433822924
      ],
      [
        "▁easily",
        -9.785402747621402
      ],
      [
        "▁kids",
        -9.786227983227286
      ],
      [
        "रो",
        -9.7867520522017
      ],
      [
        "▁केलेल्या",
        -9.78686611520987
      ],
      [
        "▁act",
        -9.787151494517737
      ],
      [
        "▁flow",
        -9.78913619611823
      ],
      [
        "▁आली.",
        -9.789147695865541
      ],
      [
        "▁अधिकारियों",
        -9.789888142476716
      ],
      [
        "▁music",
        -9.789955294239743
      ],
      [
        "▁चित्रपट",
        -9.790255850739067
      ],
      [
        "▁pay",
        -9.790281987217297
      ],
      [
        "▁behind",
        -9.790335495370307
      ],
      [
        "▁निर्देश",
        -9.790491724521146
      ],
      [
        "▁दिली.",
        -9.790777905059578
      ],
      [
        "▁प्रतिशत",
        -9.79094500679802
      ],
      [
        "▁life.",
        -9.791257184276782
      ],
      [
        "▁safe",
        -9.791535562231518
      ],
      [
        "▁went",
        -9.791773478173706
      ],
      [
        "▁बे",
        -9.79215503257617
      ],
      [
        "▁Of",
        -9.792257340616352
      ],
      [
        "▁sources",
        -9.79337286779405
      ],
      [
        "▁highly",
        -9.793461923956961
      ],
      [
        "▁sound",
        -9.793701626803196
      ],
      [
        "▁wide",
        -9.794569659522537
      ],
      [
        "▁अतिरिक्त",
        -9.79586613273048
      ],
      [
        "▁फल",
        -9.79594827123369
      ],
      [
        "▁active",
        -9.796131983551923
      ],
      [
        "▁सुविधा",
        -9.796154539112399
      ],
      [
        "▁रहता",
        -9.7979912681283
      ],
      [
        "ज़",
        -9.799496655076968
      ],
      [
        "▁although",
        -9.799708717797243
      ],
      [
        "▁German",
        -9.800155985949562
      ],
      [
        "ra",
        -9.800660133766527
      ],
      [
        "▁seems",
        -9.80099559309415
      ],
      [
        "▁Act",
        -9.801115066546123
      ],
      [
        "ter",
        -9.801254806909494
      ],
      [
        "ीकरण",
        -9.802052038798902
      ],
      [
        "▁address",
        -9.802129434563572
      ],
      [
        "▁meet",
        -9.802238338863564
      ],
      [
        "▁instead",
        -9.802261506121422
      ],
      [
        "िए",
        -9.80290931736487
      ],
      [
        "▁feet",
        -9.802968431836744
      ],
      [
        "▁होऊ",
        -9.803272187847742
      ],
      [
        "▁sleep",
        -9.803375885351175
      ],
      [
        "▁पोलिसांनी",
        -9.803764319654274
      ],
      [
        "B",
        -9.8039785912975
      ],
      [
        "▁News",
        -9.804414837232205
      ],
      [
        "▁त्याची",
        -9.80464609156835
      ],
      [
        "▁शेयर",
        -9.805262626366352
      ],
      [
        "▁difference",
        -9.805264427834064
      ],
      [
        "▁कर्म",
        -9.806053147124658
      ],
      [
        "बी",
        -9.80663877730894
      ],
      [
        "▁answer",
        -9.807180661438748
      ],
      [
        "▁identify",
        -9.807873853724875
      ],
      [
        "▁teaching",
        -9.808216202316398
      ],
      [
        "▁झाली.",
        -9.808748314130721
      ],
      [
        "मौके",
        -9.80939522609255
      ],
      [
        "▁छोड़",
        -9.810244875170204
      ],
      [
        "▁दर्शन",
        -9.810607372068919
      ],
      [
        "▁सीट",
        -9.810856541821158
      ],
      [
        "▁करा",
        -9.811512799852016
      ],
      [
        "त्व",
        -9.813657131432375
      ],
      [
        "▁जाणार",
        -9.813843839078066
      ],
      [
        "It’s",
        -9.814660441947625
      ],
      [
        "▁receive",
        -9.814914667332408
      ],
      [
        "▁Jesus",
        -9.816026395773424
      ],
      [
        "▁eye",
        -9.816595743469984
      ],
      [
        "▁अन",
        -9.81860508905335
      ],
      [
        "▁critical",
        -9.818679904664643
      ],
      [
        "▁cut",
        -9.819235316418107
      ],
      [
        "▁policy",
        -9.81957655559127
      ],
      [
        "▁2020",
        -9.820099000704458
      ],
      [
        "▁सुरु",
        -9.820167082988652
      ],
      [
        "▁West",
        -9.82147948296471
      ],
      [
        "▁देना",
        -9.822448972892406
      ],
      [
        "ch",
        -9.822853271889782
      ],
      [
        "▁return",
        -9.823624386163425
      ],
      [
        "▁lives",
        -9.823777174975763
      ],
      [
        "▁मूल",
        -9.823824645958156
      ],
      [
        "▁ancient",
        -9.823954930733011
      ],
      [
        "▁check",
        -9.8240331493095
      ],
      [
        "ामध्ये",
        -9.824354901498966
      ],
      [
        "▁भ",
        -9.824688956278088
      ],
      [
        "▁जरूरत",
        -9.824759032374885
      ],
      [
        "▁कॉलेज",
        -9.824911243015107
      ],
      [
        "▁बल",
        -9.825415609660755
      ],
      [
        "▁product",
        -9.82622484011452
      ],
      [
        "▁लगाया",
        -9.826251163764097
      ],
      [
        "▁४",
        -9.82657003066919
      ],
      [
        "िका",
        -9.82707765539127
      ],
      [
        "▁इतना",
        -9.827140453710728
      ],
      [
        "▁संयुक्त",
        -9.827190345014621
      ],
      [
        "▁बाहेर",
        -9.828003856429264
      ],
      [
        "▁शक्ति",
        -9.82811456844243
      ],
      [
        "▁Day",
        -9.828539260809725
      ],
      [
        "वाद",
        -9.828681102425323
      ],
      [
        "ma",
        -9.828856979524543
      ],
      [
        "▁कारवाई",
        -9.829043422909788
      ],
      [
        "▁23",
        -9.829405238452095
      ],
      [
        "▁26",
        -9.82946522430435
      ],
      [
        "▁फार",
        -9.830028183300575
      ],
      [
        "▁Indian",
        -9.830195021735323
      ],
      [
        "ां",
        -9.831188403574169
      ],
      [
        "▁28",
        -9.83166940045571
      ],
      [
        "▁follow",
        -9.831789089281656
      ],
      [
        "▁दावा",
        -9.832108701585708
      ],
      [
        "▁tree",
        -9.832404337747084
      ],
      [
        "ad",
        -9.832511591329459
      ],
      [
        "▁शासन",
        -9.832559732243705
      ],
      [
        "▁security",
        -9.833073893099936
      ],
      [
        "▁X",
        -9.834233234506568
      ],
      [
        "▁कार्रवाई",
        -9.834234445321169
      ],
      [
        "▁सुधार",
        -9.834985386060936
      ],
      [
        "▁तेज",
        -9.835123914291122
      ],
      [
        "▁towards",
        -9.835342558322822
      ],
      [
        "▁आयोजन",
        -9.835361202006423
      ],
      [
        "▁है?",
        -9.835628605370717
      ],
      [
        "▁आय",
        -9.836547329265933
      ],
      [
        "▁झाले.",
        -9.83719801097758
      ],
      [
        "▁central",
        -9.837547470605987
      ],
      [
        "▁theory",
        -9.837768483066428
      ],
      [
        "▁Also",
        -9.83814782904151
      ],
      [
        "▁offer",
        -9.83831828448195
      ],
      [
        "▁मां",
        -9.838321572047779
      ],
      [
        "▁companies",
        -9.83885428971825
      ],
      [
        "▁numbers",
        -9.838882469869953
      ],
      [
        "▁influence",
        -9.839119548708117
      ],
      [
        "राव",
        -9.839259981458868
      ],
      [
        "▁tools",
        -9.83950453398422
      ],
      [
        "▁भगवान",
        -9.839827718366779
      ],
      [
        "whose",
        -9.839883870747313
      ],
      [
        "ty",
        -9.84017977402764
      ],
      [
        "▁let",
        -9.843122570412552
      ],
      [
        "▁अमेरिका",
        -9.843625675226471
      ],
      [
        "▁July",
        -9.843739935902677
      ],
      [
        "▁direct",
        -9.84397673228338
      ],
      [
        "▁लक्ष",
        -9.844453303478733
      ],
      [
        "▁सही",
        -9.844533089950396
      ],
      [
        "▁leading",
        -9.844669799659743
      ],
      [
        "▁१०",
        -9.844671625856877
      ],
      [
        "▁mass",
        -9.844779536476393
      ],
      [
        "▁कार्ड",
        -9.844979161601248
      ],
      [
        "ँ",
        -9.845367967925569
      ],
      [
        "▁मामला",
        -9.845577367134668
      ],
      [
        "P",
        -9.845680285954364
      ],
      [
        "▁2019",
        -9.846371178442434
      ],
      [
        "मान",
        -9.84644048455279
      ],
      [
        "इ",
        -9.846445973704256
      ],
      [
        "▁hope",
        -9.846609155949547
      ],
      [
        "▁सत्य",
        -9.846804695410277
      ],
      [
        "▁बी",
        -9.847451252492693
      ],
      [
        "▁years,",
        -9.847565373206256
      ],
      [
        "▁points",
        -9.848360130486407
      ],
      [
        "ce",
        -9.848521662838593
      ],
      [
        "ै",
        -9.84929841574025
      ],
      [
        "▁added",
        -9.84971333532968
      ],
      [
        "and",
        -9.850151844901523
      ],
      [
        "▁San",
        -9.850262412265613
      ],
      [
        "▁limited",
        -9.85095034036894
      ],
      [
        "▁अंतिम",
        -9.852376517302647
      ],
      [
        "▁serious",
        -9.85274127378625
      ],
      [
        "▁पंजाब",
        -9.853566315838421
      ],
      [
        "▁व्यवहार",
        -9.853780814395865
      ],
      [
        "▁occur",
        -9.853930370415405
      ],
      [
        "▁स्वतः",
        -9.853955735912988
      ],
      [
        "▁लगता",
        -9.854015091326575
      ],
      [
        "▁दोन्ही",
        -9.854261021360303
      ],
      [
        "ir",
        -9.85579410229971
      ],
      [
        "▁निश्चित",
        -9.855893061915554
      ],
      [
        "तः",
        -9.85647937895216
      ],
      [
        "▁sugar",
        -9.856878392739663
      ],
      [
        "ायला",
        -9.85745424062786
      ],
      [
        "▁सत्ता",
        -9.858113557863485
      ],
      [
        "आ",
        -9.86098614472528
      ],
      [
        "▁Not",
        -9.861298062063627
      ],
      [
        "▁५",
        -9.861364600297103
      ],
      [
        "▁California",
        -9.861406171452431
      ],
      [
        "▁सांगितले.",
        -9.861740421843743
      ],
      [
        "im",
        -9.861788162818016
      ],
      [
        "▁ओ",
        -9.86184437531271
      ],
      [
        "▁described",
        -9.8623557576791
      ],
      [
        "▁पुत्र",
        -9.862382410858402
      ],
      [
        "▁spread",
        -9.863445571894923
      ],
      [
        "ण्याची",
        -9.863856924734025
      ],
      [
        "▁आयोग",
        -9.864134675774627
      ],
      [
        "▁जाते.",
        -9.864262416115727
      ],
      [
        "▁deal",
        -9.864655945772375
      ],
      [
        "▁April",
        -9.865305582474319
      ],
      [
        "▁supply",
        -9.866336860337725
      ],
      [
        "ये",
        -9.86649458395713
      ],
      [
        "▁useful",
        -9.866885688639131
      ],
      [
        "▁गेले",
        -9.86717579195233
      ],
      [
        "no",
        -9.868008010756634
      ],
      [
        "▁ago",
        -9.868073663983457
      ],
      [
        "▁network",
        -9.868149068193398
      ],
      [
        "▁begin",
        -9.868526122436368
      ],
      [
        "▁brought",
        -9.868970658135293
      ],
      [
        "▁books",
        -9.869517538305391
      ],
      [
        "▁दिस",
        -9.869892889489249
      ],
      [
        "▁भेट",
        -9.869924410804432
      ],
      [
        "▁write",
        -9.870288609810938
      ],
      [
        "▁पूजा",
        -9.870758346616476
      ],
      [
        "▁private",
        -9.87105333359434
      ],
      [
        "▁जम",
        -9.871318816846266
      ],
      [
        "▁पोलिस",
        -9.871557064097756
      ],
      [
        "▁largest",
        -9.872568538417804
      ],
      [
        "▁contains",
        -9.872886148867622
      ],
      [
        "▁सांगितले",
        -9.873705518924728
      ],
      [
        "▁River",
        -9.874896637127842
      ],
      [
        "▁यांचा",
        -9.875418404693226
      ],
      [
        "▁महिलाओं",
        -9.875422104729848
      ],
      [
        "▁रोग",
        -9.87614990144192
      ],
      [
        "▁behavior",
        -9.876388877302654
      ],
      [
        "▁देशों",
        -9.876579031666763
      ],
      [
        "▁भाई",
        -9.876695082783174
      ],
      [
        "प्र",
        -9.876785458624274
      ],
      [
        "▁America",
        -9.877305478530104
      ],
      [
        "▁King",
        -9.877407278001446
      ],
      [
        "▁2012",
        -9.877581433024176
      ],
      [
        "▁appropriate",
        -9.878228068378911
      ],
      [
        "▁exercise",
        -9.878370293655662
      ],
      [
        "▁deep",
        -9.878836584570367
      ],
      [
        "▁सह",
        -9.879523881851828
      ],
      [
        "▁राजस्थान",
        -9.87955359240699
      ],
      [
        "▁Why",
        -9.87960391158622
      ],
      [
        "▁protein",
        -9.880449976688878
      ],
      [
        "▁विकेट",
        -9.88114860522235
      ],
      [
        "▁आधी",
        -9.88115840881832
      ],
      [
        "▁received",
        -9.881598491747427
      ],
      [
        "▁People",
        -9.881875575349085
      ],
      [
        "▁financial",
        -9.88211536321875
      ],
      [
        "▁शुरुआत",
        -9.883803258745333
      ],
      [
        "▁पुणे",
        -9.88384721361788
      ],
      [
        "▁पदार्थ",
        -9.884017734564704
      ],
      [
        "▁सार्वजनिक",
        -9.884719625227712
      ],
      [
        "▁negative",
        -9.88611692056276
      ],
      [
        "▁Then",
        -9.886208317429096
      ],
      [
        "▁benefit",
        -9.88653339007646
      ],
      [
        "▁बनाए",
        -9.886740120938235
      ],
      [
        "▁reach",
        -9.886958894616946
      ],
      [
        "▁La",
        -9.887644815181027
      ],
      [
        "son",
        -9.887716714233587
      ],
      [
        "▁fall",
        -9.888015893064756
      ],
      [
        "▁भूमि",
        -9.88879386956485
      ],
      [
        "▁Al",
        -9.88895738849948
      ],
      [
        "▁सर",
        -9.889022490606884
      ],
      [
        "▁यासाठी",
        -9.88925340341343
      ],
      [
        "▁देखते",
        -9.889350054766084
      ],
      [
        "वरील",
        -9.889475975714143
      ],
      [
        "▁किये",
        -9.890165093246468
      ],
      [
        "▁etc.",
        -9.890861799644682
      ],
      [
        "▁वही",
        -9.890993068246937
      ],
      [
        "ंस",
        -9.891418333360491
      ],
      [
        "▁मिलने",
        -9.891968828948965
      ],
      [
        "▁स्वीकार",
        -9.89221228529417
      ],
      [
        "▁Use",
        -9.893066719564985
      ],
      [
        "▁भाजप",
        -9.893238002776183
      ],
      [
        "▁मेरी",
        -9.893271173926163
      ],
      [
        "be",
        -9.893284487299777
      ],
      [
        "▁मृत्यू",
        -9.89384311454665
      ],
      [
        "▁front",
        -9.89425625046685
      ],
      [
        "▁बयान",
        -9.894470865291733
      ],
      [
        "▁मात्र,",
        -9.89453725643818
      ],
      [
        "▁Can",
        -9.895562487068457
      ],
      [
        "▁प्रस्ताव",
        -9.896032317631771
      ],
      [
        "▁requires",
        -9.896618128741208
      ],
      [
        "▁नदी",
        -9.897565963434998
      ],
      [
        "▁बीजेपी",
        -9.89770179547202
      ],
      [
        "▁त्याचे",
        -9.89801541346948
      ],
      [
        "▁2010",
        -9.898326643384706
      ],
      [
        "▁नीचे",
        -9.89904837116942
      ],
      [
        "land",
        -9.899061256630342
      ],
      [
        "▁हात",
        -9.89919716621962
      ],
      [
        "▁Education",
        -9.899680930621258
      ],
      [
        "▁कप",
        -9.900194596827243
      ],
      [
        "नि",
        -9.90092279830904
      ],
      [
        "▁job",
        -9.901007135828833
      ],
      [
        "▁कीमत",
        -9.901937108629316
      ],
      [
        "▁appear",
        -9.902057031556993
      ],
      [
        "▁डाल",
        -9.902730272383302
      ],
      [
        "▁soon",
        -9.90279630835542
      ],
      [
        "टे",
        -9.90310366683085
      ],
      [
        "▁ज",
        -9.903172717453423
      ],
      [
        "▁युवक",
        -9.903365544058131
      ],
      [
        "शा",
        -9.903484581730197
      ],
      [
        "▁located",
        -9.903511760496366
      ],
      [
        "▁remains",
        -9.90367654604766
      ],
      [
        "▁quickly",
        -9.90385559260434
      ],
      [
        "▁increasing",
        -9.904036908981926
      ],
      [
        "▁इलाक",
        -9.904144118198763
      ],
      [
        "तो",
        -9.905863665523393
      ],
      [
        "▁शेअर",
        -9.906196505907248
      ],
      [
        "▁religious",
        -9.906335709226177
      ],
      [
        "▁कर्मचारी",
        -9.906928186644405
      ],
      [
        "▁यांचे",
        -9.907077991114228
      ],
      [
        "▁अवसर",
        -9.90856700086182
      ],
      [
        "▁इच्छा",
        -9.908596677895684
      ],
      [
        "▁यामुळे",
        -9.909162122687366
      ],
      [
        "▁काळात",
        -9.90917900183605
      ],
      [
        "▁चलते",
        -9.909476885538137
      ],
      [
        "▁आला.",
        -9.909576325719868
      ],
      [
        "ुन",
        -9.910374775029926
      ],
      [
        "▁बोल",
        -9.910549056957764
      ],
      [
        "▁federal",
        -9.91057158629875
      ],
      [
        "▁nearly",
        -9.91062845344218
      ],
      [
        "E",
        -9.910748675268739
      ],
      [
        "▁संपूर्ण",
        -9.91102488145682
      ],
      [
        "you’re",
        -9.911137091926593
      ],
      [
        "▁My",
        -9.911190408626268
      ],
      [
        "▁Chinese",
        -9.911249214946771
      ],
      [
        "▁importance",
        -9.911261907335268
      ],
      [
        "▁योग",
        -9.91195103115391
      ],
      [
        "▁sun",
        -9.912318083440551
      ],
      [
        "▁performance",
        -9.912809707940948
      ],
      [
        "▁told",
        -9.913283954548977
      ],
      [
        "▁जाय",
        -9.914417537695329
      ],
      [
        "▁नये",
        -9.915293759364557
      ],
      [
        "▁+",
        -9.91542213279916
      ],
      [
        "जिसका",
        -9.91587245084233
      ],
      [
        "▁2021",
        -9.916610368500633
      ],
      [
        "▁waste",
        -9.917202524754309
      ],
      [
        "▁chemical",
        -9.918070445384625
      ],
      [
        "▁visit",
        -9.918377404150554
      ],
      [
        "▁saw",
        -9.919768905731575
      ],
      [
        "▁27",
        -9.920147511166455
      ],
      [
        "▁नियंत्रण",
        -9.920202833155733
      ],
      [
        "▁stop",
        -9.920310157111233
      ],
      [
        "▁वेबसाइट",
        -9.92045642671591
      ],
      [
        "▁families",
        -9.920892852871667
      ],
      [
        "▁व्यवसाय",
        -9.921311809747994
      ],
      [
        "▁relationship",
        -9.921697386889255
      ],
      [
        "▁elements",
        -9.921921598469101
      ],
      [
        "तर",
        -9.92220403830769
      ],
      [
        "▁कहीं",
        -9.923428172328206
      ],
      [
        "▁ग्राम",
        -9.923441798253439
      ],
      [
        "▁trees",
        -9.923673741363658
      ],
      [
        "T",
        -9.925274027334508
      ],
      [
        "▁becomes",
        -9.925464342563124
      ],
      [
        "▁maintain",
        -9.925537112881877
      ],
      [
        "▁जग",
        -9.925557720148285
      ],
      [
        "▁घेत",
        -9.925646028401882
      ],
      [
        "वार",
        -9.92597272263704
      ],
      [
        "▁Europe",
        -9.926151314192655
      ],
      [
        "▁choose",
        -9.92626298021259
      ],
      [
        "▁seem",
        -9.92640240407428
      ],
      [
        "▁नव",
        -9.926412953902592
      ],
      [
        "▁उठा",
        -9.926449367117675
      ],
      [
        "▁थाना",
        -9.927243410568344
      ],
      [
        "▁See",
        -9.927481215501947
      ],
      [
        "▁President",
        -9.927623654193003
      ],
      [
        "▁teacher",
        -9.92771060183594
      ],
      [
        "▁section",
        -9.927957870359483
      ],
      [
        "ाना",
        -9.928402768032782
      ],
      [
        "▁मुताबिक",
        -9.928556063987923
      ],
      [
        "▁विधायक",
        -9.928859328529047
      ],
      [
        "▁object",
        -9.929194818032638
      ],
      [
        "▁typically",
        -9.929365333890807
      ],
      [
        "▁lost",
        -9.929461807268988
      ],
      [
        "▁सिद्ध",
        -9.929980049422547
      ],
      [
        "▁गो",
        -9.930160261356468
      ],
      [
        "Another",
        -9.930273036917747
      ],
      [
        "Each",
        -9.930459669087481
      ],
      [
        "▁game",
        -9.930659618609392
      ],
      [
        "▁M.",
        -9.930671663239345
      ],
      [
        "8",
        -9.930985526219253
      ],
      [
        "ठ",
        -9.931352500215889
      ],
      [
        "▁हमारी",
        -9.931612818998216
      ],
      [
        "सं",
        -9.931643245309926
      ],
      [
        "▁किती",
        -9.932341169068057
      ],
      [
        "7",
        -9.93274076659626
      ],
      [
        "▁करण्याचा",
        -9.932987337540032
      ],
      [
        "▁August",
        -9.933572255672116
      ],
      [
        "▁stay",
        -9.933947496677359
      ],
      [
        "▁(C",
        -9.934819171894231
      ],
      [
        "▁जमीन",
        -9.934888517942197
      ],
      [
        "▁1,",
        -9.934962763849805
      ],
      [
        "▁Journal",
        -9.935197842862198
      ],
      [
        "▁गिरफ्तार",
        -9.935512682389163
      ],
      [
        "▁January",
        -9.935847123113653
      ],
      [
        "▁जल्द",
        -9.936010961745056
      ],
      [
        "▁night",
        -9.93630176055396
      ],
      [
        "▁पश्चिम",
        -9.93659430436086
      ],
      [
        "▁पी",
        -9.93820667881924
      ],
      [
        "▁राजकीय",
        -9.938237126011941
      ],
      [
        "▁thinking",
        -9.93837773231142
      ],
      [
        "▁digital",
        -9.938717808241426
      ],
      [
        "▁कल",
        -9.939227344757677
      ],
      [
        "ंचे",
        -9.939480969472031
      ],
      [
        "▁आल्या",
        -9.939810588935035
      ],
      [
        "▁किसानों",
        -9.940238373049878
      ],
      [
        "▁वेळी",
        -9.940468597124312
      ],
      [
        "▁eating",
        -9.940865486101874
      ],
      [
        "▁थे.",
        -9.941055325913558
      ],
      [
        "▁2011",
        -9.941623140328899
      ],
      [
        "=",
        -9.942017230541174
      ],
      [
        "▁born",
        -9.942075148541266
      ],
      [
        "▁राज्यों",
        -9.94223920500777
      ],
      [
        "▁समोर",
        -9.94241816741451
      ],
      [
        "▁मित्र",
        -9.942482689000945
      ],
      [
        "वरून",
        -9.942669595178257
      ],
      [
        "▁4.",
        -9.943435587388208
      ],
      [
        "▁(the",
        -9.94364682340697
      ],
      [
        "▁हि",
        -9.943823229546382
      ],
      [
        "▁anything",
        -9.944424903084379
      ],
      [
        "आपकी",
        -9.944835060798884
      ],
      [
        "▁Black",
        -9.945831083075921
      ],
      [
        "▁system.",
        -9.945971960399726
      ],
      [
        "▁परन्तु",
        -9.946682148065404
      ],
      [
        "▁don't",
        -9.947039007325127
      ],
      [
        "▁खेळ",
        -9.94721016453977
      ],
      [
        "▁legal",
        -9.947280880339482
      ],
      [
        "▁Great",
        -9.947958746187235
      ],
      [
        "▁pre",
        -9.948009185335087
      ],
      [
        "▁दिल",
        -9.948263991014661
      ],
      [
        "▁everything",
        -9.948819984360936
      ],
      [
        "▁nothing",
        -9.948840616602029
      ],
      [
        "▁उतर",
        -9.948840823629906
      ],
      [
        "▁जवाब",
        -9.948878486127454
      ],
      [
        "▁year.",
        -9.94996071142806
      ],
      [
        "▁Washington",
        -9.950187748892121
      ],
      [
        "▁नेतृत्व",
        -9.950496209204523
      ],
      [
        "▁मा",
        -9.950938908866572
      ],
      [
        "▁features",
        -9.95110998432778
      ],
      [
        "▁म्हटले",
        -9.951125067050064
      ],
      [
        "▁(P",
        -9.952031055577407
      ],
      [
        "ve",
        -9.952273093293137
      ],
      [
        "▁hot",
        -9.952316814927613
      ],
      [
        "▁speed",
        -9.952320367686708
      ],
      [
        "▁2013",
        -9.952371728284305
      ],
      [
        "▁protection",
        -9.9527870312357
      ],
      [
        "▁September",
        -9.952823548840929
      ],
      [
        "▁प्रशिक्षण",
        -9.95305272518666
      ],
      [
        "▁doctor",
        -9.953696624133602
      ],
      [
        "▁creating",
        -9.954317994331113
      ],
      [
        "▁यात",
        -9.955396730185571
      ],
      [
        "▁पड़",
        -9.95545010810813
      ],
      [
        "▁tool",
        -9.956033401702403
      ],
      [
        "▁पुरस्कार",
        -9.956980929384244
      ],
      [
        "▁करताना",
        -9.957181573538058
      ],
      [
        "▁cold",
        -9.958210127727497
      ],
      [
        "er,",
        -9.958648546504808
      ],
      [
        "▁(19",
        -9.959137494550312
      ],
      [
        "▁\"The",
        -9.959515248721742
      ],
      [
        "by",
        -9.960381797814572
      ],
      [
        "▁बने",
        -9.960656241920297
      ],
      [
        "▁बढ़ा",
        -9.961053052385612
      ],
      [
        "▁शक्यता",
        -9.961092291816296
      ],
      [
        "ul",
        -9.961129146457653
      ],
      [
        "▁Water",
        -9.961139177680401
      ],
      [
        "▁परत",
        -9.961547201135069
      ],
      [
        "▁तुमच्या",
        -9.962450583279034
      ],
      [
        "▁लक्ष्य",
        -9.962972333033264
      ],
      [
        "▁वर्तमान",
        -9.963133033455714
      ],
      [
        "▁cultural",
        -9.96354606695513
      ],
      [
        "▁रे",
        -9.96390327330934
      ],
      [
        "▁responsible",
        -9.964191373429246
      ],
      [
        "▁किन्तु",
        -9.964200647435069
      ],
      [
        "▁सचिव",
        -9.96432289307546
      ],
      [
        "उससे",
        -9.96476608223436
      ],
      [
        "▁स्वयं",
        -9.96487218826501
      ],
      [
        "▁देत",
        -9.965496781810376
      ],
      [
        "▁आपल्याला",
        -9.965668130647986
      ],
      [
        "▁final",
        -9.966255126588566
      ],
      [
        "▁A.",
        -9.966454435967995
      ],
      [
        "▁Once",
        -9.966633313294764
      ],
      [
        "▁समावेश",
        -9.966900276750678
      ],
      [
        "▁हिस्सा",
        -9.967735744832904
      ],
      [
        "ting",
        -9.96787357227423
      ],
      [
        "▁बेहतर",
        -9.968378708167478
      ],
      [
        "▁दिखाई",
        -9.968392855942579
      ],
      [
        "▁date",
        -9.968593721487021
      ],
      [
        "▁goal",
        -9.968752206795427
      ],
      [
        "▁कला",
        -9.969204998302823
      ],
      [
        "I",
        -9.96948748140484
      ],
      [
        "▁याची",
        -9.969511473456418
      ],
      [
        "हा",
        -9.96997722491734
      ],
      [
        "▁images",
        -9.970040082907929
      ],
      [
        "हासिल",
        -9.970138061114428
      ],
      [
        "▁2023",
        -9.970450769263344
      ],
      [
        "▁African",
        -9.970469132619897
      ],
      [
        "▁II",
        -9.970824934009514
      ],
      [
        "▁स्टेशन",
        -9.971038427196376
      ],
      [
        "णार",
        -9.971521790069739
      ],
      [
        "▁पति",
        -9.971548160282053
      ],
      [
        "▁asked",
        -9.971811384065273
      ],
      [
        "▁al.",
        -9.971890303838585
      ],
      [
        "▁followed",
        -9.972428053665707
      ],
      [
        "▁अभियान",
        -9.972808326944014
      ],
      [
        "▁hold",
        -9.972942188228556
      ],
      [
        "▁contain",
        -9.973510263752138
      ],
      [
        "▁आपले",
        -9.974092987287799
      ],
      [
        "▁अभ्यास",
        -9.97425741595223
      ],
      [
        "▁software",
        -9.974304222431282
      ],
      [
        "▁कौन",
        -9.974389337391235
      ],
      [
        "▁beyond",
        -9.975196098904451
      ],
      [
        "▁Or",
        -9.97520391892575
      ],
      [
        "▁डिग्री",
        -9.975316682243383
      ],
      [
        "▁record",
        -9.975772500670388
      ],
      [
        "▁पालन",
        -9.976090916794828
      ],
      [
        "me",
        -9.976121805528072
      ],
      [
        "▁हवा",
        -9.976400499574194
      ],
      [
        "▁got",
        -9.976896652149648
      ],
      [
        "▁Z",
        -9.977334224353582
      ],
      [
        "▁लगी",
        -9.97741754454534
      ],
      [
        "▁October",
        -9.978906951124394
      ],
      [
        "▁General",
        -9.979003505865863
      ],
      [
        "em",
        -9.979952362363749
      ],
      [
        "▁भारी",
        -9.98091849319178
      ],
      [
        "▁values",
        -9.982436603156387
      ],
      [
        "मधून",
        -9.983377818923026
      ],
      [
        "▁older",
        -9.98343349734912
      ],
      [
        "▁असतात.",
        -9.983617805068034
      ],
      [
        "▁cover",
        -9.983656513359684
      ],
      [
        "▁recently",
        -9.984283602834374
      ],
      [
        "ish",
        -9.984504560434868
      ],
      [
        "▁talk",
        -9.985223295926426
      ],
      [
        "▁concept",
        -9.985232756340471
      ],
      [
        "▁drug",
        -9.98541941506522
      ],
      [
        "▁St",
        -9.98638827014731
      ],
      [
        "▁त्यांचा",
        -9.986798150123528
      ],
      [
        "▁रस",
        -9.98746597006622
      ],
      [
        "▁measure",
        -9.987549694188626
      ],
      [
        "▁याचा",
        -9.987630754707585
      ],
      [
        "▁bad",
        -9.987672337656019
      ],
      [
        "▁माजी",
        -9.987810057854755
      ],
      [
        "▁trade",
        -9.987827300846206
      ],
      [
        "▁2017",
        -9.98814343363009
      ],
      [
        "▁काँग्रेस",
        -9.988485856708968
      ],
      [
        "▁स्वरूप",
        -9.988825473456727
      ],
      [
        "▁City",
        -9.989119065612893
      ],
      [
        "▁dry",
        -9.99040970886516
      ],
      [
        "▁मानव",
        -9.990526830456883
      ],
      [
        "▁केस",
        -9.990557901407952
      ],
      [
        "▁event",
        -9.990795554040552
      ],
      [
        "▁bit",
        -9.991417884153481
      ],
      [
        "▁मोठा",
        -9.99152845057156
      ],
      [
        "▁कानून",
        -9.991723556686146
      ],
      [
        "▁सड़क",
        -9.9917890043284
      ],
      [
        "▁purpose",
        -9.99181594978029
      ],
      [
        "▁fuel",
        -9.992496278373576
      ],
      [
        "ण्यात",
        -9.992679400422936
      ],
      [
        "▁construction",
        -9.992785216517063
      ],
      [
        "▁2014",
        -9.993174331135313
      ],
      [
        "▁किसान",
        -9.993680889746761
      ],
      [
        "▁application",
        -9.994293805259648
      ],
      [
        "▁professional",
        -9.99436871370919
      ],
      [
        "▁बिल",
        -9.995331501529412
      ],
      [
        "▁miles",
        -9.99546596305913
      ],
      [
        "▁center",
        -9.995567524893435
      ],
      [
        "▁भावना",
        -9.996562088625604
      ],
      [
        "▁सुरक्षित",
        -9.997505365608372
      ],
      [
        "▁regular",
        -9.998830510432615
      ],
      [
        "सर",
        -9.999082184399875
      ],
      [
        "▁क्षमता",
        -9.999495574674036
      ],
      [
        "णाऱ्या",
        -9.99974208045396
      ],
      [
        "ous",
        -10.000984849429228
      ],
      [
        "▁अर्ज",
        -10.001351355268692
      ],
      [
        "▁expected",
        -10.0013805866673
      ],
      [
        "▁providing",
        -10.001796652293356
      ],
      [
        "देव",
        -10.00216621001162
      ],
      [
        "▁शिकायत",
        -10.002636101534222
      ],
      [
        "स्ट",
        -10.004061068535473
      ],
      [
        "उ",
        -10.005782778894234
      ],
      [
        "▁mother",
        -10.006383334516817
      ],
      [
        "▁विश्वविद्यालय",
        -10.006513129921458
      ],
      [
        "▁निकाल",
        -10.0066822195665
      ],
      [
        "▁31",
        -10.006922162448106
      ],
      [
        "ेन",
        -10.007336132348117
      ],
      [
        "▁2018",
        -10.007764433444377
      ],
      [
        "9",
        -10.0086539979766
      ],
      [
        "▁workers",
        -10.008867128049111
      ],
      [
        "▁समर्थन",
        -10.009052293966313
      ],
      [
        "▁लिया।",
        -10.009204000251883
      ],
      [
        "▁देर",
        -10.010654764577135
      ],
      [
        "▁सोमवार",
        -10.010806850267231
      ],
      [
        "▁opportunity",
        -10.011965486094107
      ],
      [
        "▁smaller",
        -10.012021702113778
      ],
      [
        "▁कदम",
        -10.012059073600264
      ],
      [
        "▁साफ",
        -10.01237330043159
      ],
      [
        "▁निवड",
        -10.012506917414292
      ],
      [
        "▁situation",
        -10.013041951080563
      ],
      [
        "▁१८",
        -10.013326337342281
      ],
      [
        "▁रहती",
        -10.013664748374705
      ],
      [
        "▁leave",
        -10.013767918815795
      ],
      [
        "लो",
        -10.013876026739428
      ],
      [
        "▁तिला",
        -10.013876179143189
      ],
      [
        "▁via",
        -10.013943817757296
      ],
      [
        "men",
        -10.014940335548522
      ],
      [
        "▁Y",
        -10.015116391031935
      ],
      [
        "▁summer",
        -10.015169299991337
      ],
      [
        "▁affected",
        -10.01568401295086
      ],
      [
        "▁ताकि",
        -10.015841235789885
      ],
      [
        "▁acid",
        -10.015990318143597
      ],
      [
        "▁December",
        -10.016136775463703
      ],
      [
        "डे",
        -10.016578677007555
      ],
      [
        "▁code",
        -10.01678931701807
      ],
      [
        "▁humans",
        -10.017191272610322
      ],
      [
        "▁examples",
        -10.017213064231745
      ],
      [
        "W",
        -10.0174647571545
      ],
      [
        "▁सभा",
        -10.017777143074724
      ],
      [
        "n't",
        -10.017957803509198
      ],
      [
        "▁communication",
        -10.018187886482703
      ],
      [
        "▁efforts",
        -10.018304741710852
      ],
      [
        "▁सरकारने",
        -10.01834377707644
      ],
      [
        "M",
        -10.018561115670652
      ],
      [
        "▁November",
        -10.020042087432994
      ],
      [
        "ेश",
        -10.020256575214551
      ],
      [
        "▁करा.",
        -10.020954586958661
      ],
      [
        "▁पहचान",
        -10.021085955111918
      ],
      [
        "▁goes",
        -10.021434211096345
      ],
      [
        "▁होऊन",
        -10.021493771989238
      ],
      [
        "▁remain",
        -10.021563694606503
      ],
      [
        "▁Read",
        -10.022490692580671
      ],
      [
        "पेक्षा",
        -10.022677956914677
      ],
      [
        "▁completely",
        -10.022728215229513
      ],
      [
        "▁degree",
        -10.022906737587677
      ],
      [
        "ण्यासाठी",
        -10.022966916553885
      ],
      [
        "▁नागरिक",
        -10.023112986674164
      ],
      [
        "▁दिसत",
        -10.02371466085241
      ],
      [
        "▁संस्था",
        -10.02376724258019
      ],
      [
        "▁निकल",
        -10.02395244171123
      ],
      [
        "▁self-",
        -10.02403101836267
      ],
      [
        "D",
        -10.024835300653784
      ],
      [
        "▁currently",
        -10.024862720216374
      ],
      [
        "▁सिर",
        -10.024963413627233
      ],
      [
        "li",
        -10.025415699263895
      ],
      [
        "पा",
        -10.025578260487341
      ],
      [
        "ally",
        -10.026274731648758
      ],
      [
        "▁व्यक्ती",
        -10.02634800969334
      ],
      [
        "▁लागत",
        -10.026381669316732
      ],
      [
        "▁Americans",
        -10.02687808433562
      ],
      [
        "▁file",
        -10.026945774837648
      ],
      [
        "▁woman",
        -10.02723042754713
      ],
      [
        "▁फैसला",
        -10.027611590522646
      ],
      [
        "▁infection",
        -10.027639060250483
      ],
      [
        "▁विज्ञान",
        -10.027671280279545
      ],
      [
        "▁न्याय",
        -10.027785297559195
      ],
      [
        "शन",
        -10.027850888532498
      ],
      [
        "▁treat",
        -10.028641986903212
      ],
      [
        "▁East",
        -10.028723526482532
      ],
      [
        "▁trying",
        -10.028891458925077
      ],
      [
        "▁himself",
        -10.030131600711046
      ],
      [
        "▁rich",
        -10.030451332118645
      ],
      [
        "▁गुरु",
        -10.030636661310927
      ],
      [
        "▁dog",
        -10.031301911594326
      ],
      [
        "▁previous",
        -10.031332473131263
      ],
      [
        "▁earth",
        -10.031734390575767
      ],
      [
        "▁rates",
        -10.032049126986454
      ],
      [
        "▁ice",
        -10.032616736402957
      ],
      [
        "▁दुसऱ्या",
        -10.032727382144778
      ],
      [
        "मामलों",
        -10.032881723790831
      ],
      [
        "▁bacteria",
        -10.033209313737803
      ],
      [
        "▁छोटे",
        -10.033288102037652
      ],
      [
        "▁शिंदे",
        -10.033563457273578
      ],
      [
        "▁Africa",
        -10.033585095230029
      ],
      [
        "▁sub",
        -10.033690956347014
      ],
      [
        "▁member",
        -10.033912050245792
      ],
      [
        "झ",
        -10.033950406660662
      ],
      [
        "▁died",
        -10.034435408639508
      ],
      [
        "+",
        -10.03448921560269
      ],
      [
        "टा",
        -10.03452279847261
      ],
      [
        "▁wind",
        -10.035651675410655
      ],
      [
        "▁tend",
        -10.035933391997894
      ],
      [
        "▁places",
        -10.036332132126747
      ],
      [
        "di",
        -10.036484030830684
      ],
      [
        "▁प्रमाणात",
        -10.036741421349095
      ],
      [
        "▁continued",
        -10.036785993241342
      ],
      [
        "▁collection",
        -10.036859853190737
      ],
      [
        "▁successful",
        -10.037144208494128
      ],
      [
        "▁differences",
        -10.037345833834886
      ],
      [
        "▁चित्र",
        -10.037690690854069
      ],
      [
        "▁diseases",
        -10.037737106347118
      ],
      [
        "▁दृष्टि",
        -10.039499900458454
      ],
      [
        "y,",
        -10.03992087915977
      ],
      [
        "▁leaves",
        -10.04057126745152
      ],
      [
        "लेले",
        -10.040707233967412
      ],
      [
        "पाल",
        -10.040905717182328
      ],
      [
        "▁स्व",
        -10.04094340234961
      ],
      [
        "▁६",
        -10.041506457256787
      ],
      [
        "▁वापस",
        -10.04155051770718
      ],
      [
        "up",
        -10.041582046486733
      ],
      [
        "▁search",
        -10.041583058831081
      ],
      [
        "▁सोच",
        -10.041606545349065
      ],
      [
        "▁fat",
        -10.042228033756162
      ],
      [
        "▁tests",
        -10.043371720544219
      ],
      [
        "▁गोष्टी",
        -10.044944396391934
      ],
      [
        "▁billion",
        -10.044955875968027
      ],
      [
        "▁County",
        -10.045255921344776
      ],
      [
        "%",
        -10.045351340667134
      ],
      [
        "▁वरिष्ठ",
        -10.045587863023773
      ],
      [
        "▁sent",
        -10.045702585225506
      ],
      [
        "▁श",
        -10.045899647266163
      ],
      [
        "▁minutes",
        -10.046932761906184
      ],
      [
        "▁memory",
        -10.047011823989651
      ],
      [
        "▁निवासी",
        -10.04708550900433
      ],
      [
        "▁user",
        -10.048165638040334
      ],
      [
        "▁interesting",
        -10.04902655649397
      ],
      [
        "▁Today",
        -10.04923419824916
      ],
      [
        "▁capital",
        -10.04924398034008
      ],
      [
        "▁स्त्री",
        -10.049266792012265
      ],
      [
        "▁(or",
        -10.050040454440191
      ],
      [
        "▁जाएगी।",
        -10.05022766241404
      ],
      [
        "▁occurs",
        -10.050415778337667
      ],
      [
        "▁हृदय",
        -10.051302902304611
      ],
      [
        "▁property",
        -10.051608225209936
      ],
      [
        "▁commonly",
        -10.051904388896402
      ],
      [
        "▁toward",
        -10.05203446842042
      ],
      [
        "▁rise",
        -10.052286895523016
      ],
      [
        "▁forces",
        -10.052896043820674
      ],
      [
        "▁जेल",
        -10.052914074595499
      ],
      [
        "▁2015",
        -10.052938494474587
      ],
      [
        "▁प्रकाशित",
        -10.0534545287438
      ],
      [
        "▁adults",
        -10.054109881856848
      ],
      [
        "ol",
        -10.054196728169192
      ],
      [
        ");",
        -10.054331858997898
      ],
      [
        "):",
        -10.054578488973908
      ],
      [
        "▁200",
        -10.05496065194769
      ],
      [
        "ण्याचा",
        -10.055843553194936
      ],
      [
        "▁note",
        -10.056050101191328
      ],
      [
        "▁testing",
        -10.056212930680815
      ],
      [
        "▁named",
        -10.056228591937916
      ],
      [
        "▁पसंद",
        -10.056617002936791
      ],
      [
        "▁lines",
        -10.057500843216683
      ],
      [
        "▁कपूर",
        -10.058086535184582
      ],
      [
        "▁overall",
        -10.058239525102728
      ],
      [
        "▁link",
        -10.05864578849061
      ],
      [
        "▁device",
        -10.059058428356405
      ],
      [
        "णा",
        -10.059552987277398
      ],
      [
        "▁सांसद",
        -10.060802041375178
      ],
      [
        "▁आहेत,",
        -10.060818536279907
      ],
      [
        "ri",
        -10.061007397087508
      ],
      [
        "▁powerful",
        -10.062401950271285
      ],
      [
        "he",
        -10.062572213056036
      ],
      [
        "▁कृषि",
        -10.062899239156497
      ],
      [
        "▁याद",
        -10.06342653366445
      ],
      [
        "▁House",
        -10.064300347922169
      ],
      [
        "one",
        -10.06432875629373
      ],
      [
        "▁हमेशा",
        -10.064539021618337
      ],
      [
        "▁जागा",
        -10.064550165552928
      ],
      [
        "▁ऑनलाइन",
        -10.064974333665916
      ],
      [
        "▁2016",
        -10.06510107458647
      ],
      [
        "▁placed",
        -10.065847982797772
      ],
      [
        "N",
        -10.066472937995972
      ],
      [
        "▁गुजरात",
        -10.066505172477784
      ],
      [
        "एँ",
        -10.06660233942647
      ],
      [
        "▁शिक्षक",
        -10.066699388461108
      ],
      [
        "▁High",
        -10.066859655314317
      ],
      [
        "▁युवा",
        -10.067583739442055
      ],
      [
        "▁allowed",
        -10.06762288156007
      ],
      [
        "▁communities",
        -10.068058409691886
      ],
      [
        "▁reduced",
        -10.068191804487997
      ],
      [
        "▁discovered",
        -10.068471673886009
      ],
      [
        "▁मजबूत",
        -10.069021863394227
      ],
      [
        "▁एंड",
        -10.069253659942312
      ],
      [
        "▁web",
        -10.070274687459872
      ],
      [
        "▁अर्थात्",
        -10.070901385331075
      ],
      [
        "▁उदाहरण",
        -10.071164150343618
      ],
      [
        "▁genetic",
        -10.071670875064184
      ],
      [
        "▁पहुंचे",
        -10.071694476109148
      ],
      [
        "ro",
        -10.071753095674765
      ],
      [
        "▁गा",
        -10.07180194636063
      ],
      [
        "▁29",
        -10.072231942588685
      ],
      [
        "▁वहाँ",
        -10.072445608332245
      ],
      [
        "▁techniques",
        -10.073004511525435
      ],
      [
        "▁dis",
        -10.073854209047761
      ],
      [
        "▁measures",
        -10.074000640713752
      ],
      [
        "▁review",
        -10.074225230922092
      ],
      [
        "▁घंटे",
        -10.074355910020776
      ],
      [
        "▁नाहीत.",
        -10.074661127768548
      ],
      [
        "▁शाम",
        -10.075149830205568
      ],
      [
        "बद्दल",
        -10.075446569412955
      ],
      [
        "▁एस",
        -10.075460917643984
      ],
      [
        "▁दिशा",
        -10.07566519269259
      ],
      [
        "▁बॉलीवुड",
        -10.076757233655439
      ],
      [
        "▁costs",
        -10.077114645965114
      ],
      [
        "ं।",
        -10.077222943832085
      ],
      [
        "F",
        -10.077438310956037
      ],
      [
        "▁England",
        -10.077523214540355
      ],
      [
        "▁day.",
        -10.077972113416235
      ],
      [
        "▁निकाय",
        -10.078411167211694
      ],
      [
        "▁वालों",
        -10.078584595616348
      ],
      [
        "जे",
        -10.078678128388482
      ],
      [
        "▁मिले",
        -10.079572867371992
      ],
      [
        "▁पंचायत",
        -10.079611016629363
      ],
      [
        "▁घेतला",
        -10.079753208726821
      ],
      [
        "▁रोड",
        -10.080949947184248
      ],
      [
        "▁formed",
        -10.0815911748683
      ],
      [
        "▁हुआ।",
        -10.082022379679042
      ],
      [
        "▁break",
        -10.082518315123139
      ],
      [
        "▁devices",
        -10.082625335101325
      ],
      [
        "ha",
        -10.082665746403176
      ],
      [
        "▁applied",
        -10.082833547425777
      ],
      [
        "the",
        -10.083438479041645
      ],
      [
        "▁रक्षा",
        -10.083439780816484
      ],
      [
        "▁यानी",
        -10.083582029355194
      ],
      [
        "नगर",
        -10.083876255381776
      ],
      [
        "▁आवेदन",
        -10.083985560014373
      ],
      [
        "▁stage",
        -10.084433691299793
      ],
      [
        "▁perhaps",
        -10.084543107430637
      ],
      [
        "tic",
        -10.084551787937444
      ],
      [
        "▁भविष्य",
        -10.0850979388087
      ],
      [
        "▁असून,",
        -10.085405695575382
      ],
      [
        "▁historical",
        -10.085955924560247
      ],
      [
        "▁middle",
        -10.086460015567667
      ],
      [
        "▁shall",
        -10.086651479122153
      ],
      [
        "▁identified",
        -10.086689528563898
      ],
      [
        "▁स्थापित",
        -10.087416873874572
      ],
      [
        "▁attack",
        -10.087544378881002
      ],
      [
        "▁gave",
        -10.087790810721039
      ],
      [
        "▁solution",
        -10.087833857143258
      ],
      [
        "▁Canada",
        -10.089498133989856
      ],
      [
        "▁विशिष्ट",
        -10.08982525839678
      ],
      [
        "J",
        -10.090077662636116
      ],
      [
        "▁steps",
        -10.090211026848111
      ],
      [
        "▁यूनिवर्सिटी",
        -10.090363129916518
      ],
      [
        "▁दरम्यान",
        -10.090370545157834
      ],
      [
        "▁गरज",
        -10.090963803264579
      ],
      [
        "अ",
        -10.091228548597716
      ],
      [
        "▁मेरा",
        -10.091537771316485
      ],
      [
        "▁presence",
        -10.092169034951642
      ],
      [
        "▁C.",
        -10.093219731938367
      ],
      [
        "▁cities",
        -10.093938340510995
      ],
      [
        "▁majority",
        -10.095211854083606
      ],
      [
        "▁therapy",
        -10.095638489242836
      ],
      [
        "▁coming",
        -10.095839628542052
      ],
      [
        "▁80",
        -10.096012928969612
      ],
      [
        "▁proper",
        -10.09689214477311
      ],
      [
        "▁...",
        -10.097279863317283
      ],
      [
        "”.",
        -10.098589524772501
      ],
      [
        "बा",
        -10.098736650456203
      ],
      [
        "▁आकार",
        -10.098805846907817
      ],
      [
        "▁clean",
        -10.098879777607745
      ],
      [
        "▁everyone",
        -10.09974520171189
      ],
      [
        "▁DNA",
        -10.099784170336305
      ],
      [
        "▁मो",
        -10.099903751432503
      ],
      [
        "▁अंत",
        -10.099940012831953
      ],
      [
        "▁wrote",
        -10.100640947752414
      ],
      [
        "▁version",
        -10.10075752003444
      ],
      [
        "▁सूर्य",
        -10.101033147852062
      ],
      [
        "भ",
        -10.10128736497081
      ],
      [
        "▁जैन",
        -10.101389466562429
      ],
      [
        "▁base",
        -10.101612615641649
      ],
      [
        "▁वस्तु",
        -10.102146532726863
      ],
      [
        "उसमें",
        -10.102511716136522
      ],
      [
        "वीं",
        -10.102766962059238
      ],
      [
        "▁संपर्क",
        -10.102768627222133
      ],
      [
        "▁serve",
        -10.102861860728586
      ],
      [
        "▁मतदान",
        -10.10305528775181
      ],
      [
        "▁आणखी",
        -10.103309278350318
      ],
      [
        "▁प्रभावित",
        -10.103556390993797
      ],
      [
        "▁basis",
        -10.103708453035951
      ],
      [
        "ंड",
        -10.10376422143556
      ],
      [
        "ध",
        -10.103900851699677
      ],
      [
        "▁sign",
        -10.104236373359168
      ],
      [
        "▁objects",
        -10.105513068334997
      ],
      [
        "▁सुरुवात",
        -10.105692622767803
      ],
      [
        "लेली",
        -10.106343461225952
      ],
      [
        "▁35",
        -10.106962309252285
      ],
      [
        "▁Christian",
        -10.107282528137384
      ],
      [
        "▁correct",
        -10.107942938561822
      ],
      [
        "▁सिनेमा",
        -10.108265864504437
      ],
      [
        "▁ऐ",
        -10.109089570976561
      ],
      [
        "▁जाहीर",
        -10.109158928875974
      ],
      [
        "▁उद्देश्य",
        -10.10945328871956
      ],
      [
        "▁रविवार",
        -10.109643725049727
      ],
      [
        "राम",
        -10.10978829346956
      ],
      [
        "▁राजधानी",
        -10.10983928913319
      ],
      [
        "▁नया",
        -10.109915294057892
      ],
      [
        "▁processes",
        -10.110342881041122
      ],
      [
        "▁relatively",
        -10.110504291072466
      ],
      [
        "▁कल्पना",
        -10.110822988124145
      ],
      [
        "▁sites",
        -10.110841008645025
      ],
      [
        "▁weeks",
        -10.111144888874524
      ],
      [
        "▁पड़ता",
        -10.111605390127723
      ],
      [
        "do",
        -10.111795450686769
      ],
      [
        "▁room",
        -10.112180714551892
      ],
      [
        "▁south",
        -10.112313266032274
      ],
      [
        "▁रुग्ण",
        -10.11272190066483
      ],
      [
        "▁exposure",
        -10.113037322144221
      ],
      [
        "पूर्ण",
        -10.113535562453396
      ],
      [
        "▁बेह",
        -10.114026105985927
      ],
      [
        "▁ten",
        -10.11417212327553
      ],
      [
        "▁वक्त",
        -10.11456456371436
      ],
      [
        "▁महाराज",
        -10.115054866262033
      ],
      [
        "▁माल",
        -10.115175869012244
      ],
      [
        "▁Lord",
        -10.115363470827601
      ],
      [
        "▁करणार",
        -10.115487219427933
      ],
      [
        "▁rules",
        -10.116051258123566
      ],
      [
        "▁विस्तार",
        -10.116112014711868
      ],
      [
        "▁factor",
        -10.116322620750397
      ],
      [
        "जन",
        -10.116703168113673
      ],
      [
        "▁क्षेत्रों",
        -10.116830810491566
      ],
      [
        "▁राष्ट्रपति",
        -10.11734555526797
      ],
      [
        "▁खाली",
        -10.117507142792087
      ],
      [
        "▁70",
        -10.11753617561959
      ],
      [
        "▁laws",
        -10.117612688609977
      ],
      [
        "▁birth",
        -10.117940455562172
      ],
      [
        "▁भेज",
        -10.118429431935628
      ],
      [
        "’ve",
        -10.118525883955709
      ],
      [
        "▁scale",
        -10.118695488999544
      ],
      [
        "▁2009",
        -10.118825135709274
      ],
      [
        "▁ऑस्ट्रेलिया",
        -10.118834130148993
      ],
      [
        "▁shape",
        -10.1200883092034
      ],
      [
        "▁father",
        -10.120362372340026
      ],
      [
        "▁आत्मा",
        -10.120444096974332
      ],
      [
        "▁piece",
        -10.120944646967324
      ],
      [
        "▁रोक",
        -10.121129880522803
      ],
      [
        "ut",
        -10.12162940858545
      ],
      [
        "▁समूह",
        -10.121754491017137
      ],
      [
        "▁projects",
        -10.12211172204315
      ],
      [
        "▁practices",
        -10.12236571915117
      ],
      [
        "▁दूसरा",
        -10.12257257752725
      ],
      [
        "▁fully",
        -10.12277177677815
      ],
      [
        "▁doesn’t",
        -10.122846346214036
      ],
      [
        "▁effort",
        -10.123242393268841
      ],
      [
        "▁तपास",
        -10.123528840019354
      ],
      [
        "▁न्यायालय",
        -10.123564520434602
      ],
      [
        "▁latest",
        -10.123713408813732
      ],
      [
        "नुसार",
        -10.12416669540103
      ],
      [
        "▁year,",
        -10.124362544236094
      ],
      [
        "▁सारे",
        -10.124607409143174
      ],
      [
        "▁earlier",
        -10.124843264251151
      ],
      [
        "▁लक्षात",
        -10.12495747012869
      ],
      [
        "▁ट्विटर",
        -10.125089268590687
      ],
      [
        "▁बारिश",
        -10.125930888589055
      ],
      [
        "▁१५",
        -10.126034084513835
      ],
      [
        "भर",
        -10.126236278669664
      ],
      [
        "▁राय",
        -10.126418779851505
      ],
      [
        "्र",
        -10.126468903039454
      ],
      [
        "▁save",
        -10.127084414733718
      ],
      [
        "▁moving",
        -10.127126788331783
      ],
      [
        "▁organization",
        -10.127761095925651
      ],
      [
        "▁achieve",
        -10.12810107353759
      ],
      [
        "▁Co",
        -10.128434704025693
      ],
      [
        "▁Jewish",
        -10.128661211971835
      ],
      [
        "▁separate",
        -10.12879375049967
      ],
      [
        "ात्मक",
        -10.129359202209113
      ],
      [
        "▁संरक्षण",
        -10.129671612679108
      ],
      [
        "▁son",
        -10.1298117945811
      ],
      [
        "▁Council",
        -10.129902098723027
      ],
      [
        "▁दिख",
        -10.130049077434277
      ],
      [
        "▁करे",
        -10.130878750518047
      ],
      [
        "▁Roman",
        -10.13104381664223
      ],
      [
        "ize",
        -10.131439111811035
      ],
      [
        "ाकडे",
        -10.131484610571874
      ],
      [
        "ak",
        -10.1320595674169
      ],
      [
        "▁स्थानीय",
        -10.132366800186817
      ],
      [
        "▁fruit",
        -10.13238896152017
      ],
      [
        "▁female",
        -10.132394041541456
      ],
      [
        "▁promote",
        -10.132403197921999
      ],
      [
        "▁तू",
        -10.132518797536736
      ],
      [
        "▁ट्रेन",
        -10.132645114651936
      ],
      [
        "ेल",
        -10.13266664537668
      ],
      [
        "▁signs",
        -10.13282509285824
      ],
      [
        "▁विकसित",
        -10.132837115761454
      ],
      [
        "▁सि",
        -10.133091388141091
      ],
      [
        "▁शुक्रवार",
        -10.1336509012291
      ],
      [
        "▁कायम",
        -10.13365902957559
      ],
      [
        "▁north",
        -10.133695741359409
      ],
      [
        "▁decision",
        -10.133874626213226
      ],
      [
        "▁पुस्तक",
        -10.134355181373836
      ],
      [
        "ेशन",
        -10.134442097866778
      ],
      [
        "▁उत्तम",
        -10.134521049133891
      ],
      [
        "▁उल्लेख",
        -10.134522495591478
      ],
      [
        "▁फ",
        -10.13485532497871
      ],
      [
        "▁success",
        -10.134864169710468
      ],
      [
        "▁2008",
        -10.13487259423397
      ],
      [
        "▁रात्री",
        -10.134918217869304
      ],
      [
        "é",
        -10.135401058581527
      ],
      [
        "▁appears",
        -10.136360414017334
      ],
      [
        "▁अंतर्गत",
        -10.136893636421757
      ],
      [
        "▁perform",
        -10.13706369208444
      ],
      [
        "▁आदमी",
        -10.137861829578423
      ],
      [
        "▁unit",
        -10.138198215692272
      ],
      [
        "▁immune",
        -10.138959910031959
      ],
      [
        "▁distance",
        -10.1399717574641
      ],
      [
        "K",
        -10.140048506920179
      ],
      [
        "▁आपली",
        -10.140083212129527
      ],
      [
        "▁Man",
        -10.140153524778354
      ],
      [
        "दी",
        -10.140187727402514
      ],
      [
        "▁पहला",
        -10.14035371908566
      ],
      [
        "ाय",
        -10.140887745096503
      ],
      [
        "▁2000",
        -10.140889761284807
      ],
      [
        "▁खरेदी",
        -10.141086819250425
      ],
      [
        "▁विवाद",
        -10.141280418706021
      ],
      [
        "00",
        -10.14128489069514
      ],
      [
        "▁rule",
        -10.141371370938728
      ],
      [
        "la",
        -10.141426375046791
      ],
      [
        "▁baby",
        -10.141515430179712
      ],
      [
        "▁5.",
        -10.141526422627445
      ],
      [
        "▁बनी",
        -10.1415513569669
      ],
      [
        "▁William",
        -10.142094911128021
      ],
      [
        "▁muscle",
        -10.142230663965822
      ],
      [
        "▁gain",
        -10.142231422154802
      ],
      [
        "▁February",
        -10.14257088499901
      ],
      [
        "▁educational",
        -10.142973360231418
      ],
      [
        "▁मोबाइल",
        -10.14303025533681
      ],
      [
        "▁इलाज",
        -10.143537871395663
      ],
      [
        "▁मई",
        -10.145068072968263
      ],
      [
        "पूर",
        -10.145092872688918
      ],
      [
        "▁equal",
        -10.145510084882288
      ],
      [
        "▁Government",
        -10.145769388539607
      ],
      [
        "बाबत",
        -10.145778465103747
      ],
      [
        "▁Over",
        -10.145899426907675
      ],
      [
        "▁तय",
        -10.146103789359756
      ],
      [
        "▁लोकसभा",
        -10.146928946204598
      ],
      [
        "▁David",
        -10.147340141492734
      ],
      [
        "▁दिवशी",
        -10.148280360214581
      ],
      [
        "▁यश",
        -10.148344325917694
      ],
      [
        "▁reasons",
        -10.148483586769968
      ],
      [
        "▁eyes",
        -10.14851051426791
      ],
      [
        "▁worked",
        -10.149438666166686
      ],
      [
        "▁पैदा",
        -10.14987465188495
      ],
      [
        "▁fast",
        -10.149984123087759
      ],
      [
        "▁जनवरी",
        -10.150210694079039
      ],
      [
        "▁राजनीतिक",
        -10.151227684712595
      ],
      [
        "es,",
        -10.151398966382152
      ],
      [
        "▁पड़ा",
        -10.151889545284165
      ],
      [
        "निर्धारित",
        -10.152174764851583
      ],
      [
        "10",
        -10.152370515337173
      ],
      [
        "Their",
        -10.15238024617256
      ],
      [
        "▁व्यापार",
        -10.152548877916027
      ],
      [
        "▁forest",
        -10.15273540425894
      ],
      [
        "▁फायदा",
        -10.152923445796912
      ],
      [
        "▁month",
        -10.153168300858432
      ],
      [
        "▁अटक",
        -10.153246438486354
      ],
      [
        "▁instance",
        -10.153608649464347
      ],
      [
        "▁अपेक्षा",
        -10.15381041731474
      ],
      [
        "ली.",
        -10.153848869151513
      ],
      [
        "▁yourself",
        -10.153921508309432
      ],
      [
        "तात.",
        -10.154245381938663
      ],
      [
        "▁walk",
        -10.154519323126094
      ],
      [
        "▁डी",
        -10.154601175913637
      ],
      [
        "▁#",
        -10.154616455006755
      ],
      [
        "▁existing",
        -10.154829719413462
      ],
      [
        "line",
        -10.155144182844793
      ],
      [
        "▁Students",
        -10.155182376380122
      ],
      [
        "▁increases",
        -10.155189726775268
      ],
      [
        "▁(B",
        -10.155473479383163
      ],
      [
        "▁जैसा",
        -10.155569594766487
      ],
      [
        "▁location",
        -10.155659828393976
      ],
      [
        "ions",
        -10.155729738001298
      ],
      [
        "▁apply",
        -10.155885912163813
      ],
      [
        "▁diabetes",
        -10.156012616551656
      ],
      [
        "▁S.",
        -10.15644283625408
      ],
      [
        "▁तरीके",
        -10.1568223318001
      ],
      [
        "▁St.",
        -10.156951216663849
      ],
      [
        "▁सम",
        -10.158547636521433
      ],
      [
        "▁मोठी",
        -10.15881204313236
      ],
      [
        "▁विमान",
        -10.158852125607496
      ],
      [
        "▁जैसी",
        -10.158969457092756
      ],
      [
        "▁लहान",
        -10.159021494444978
      ],
      [
        "▁Con",
        -10.15924741620281
      ],
      [
        "▁dark",
        -10.15975177338188
      ],
      [
        "▁राहत",
        -10.159961104271245
      ],
      [
        "▁figure",
        -10.159968331550049
      ],
      [
        "▁remember",
        -10.159994087621373
      ],
      [
        "▁विवाह",
        -10.159998826793876
      ],
      [
        "▁कराया",
        -10.160151577547216
      ],
      [
        "▁पत्रकार",
        -10.160563359409505
      ],
      [
        "▁खराब",
        -10.160630252647294
      ],
      [
        "▁देवी",
        -10.161039742795877
      ],
      [
        "▁जय",
        -10.161656903723399
      ],
      [
        "▁giving",
        -10.161930028720365
      ],
      [
        "▁equipment",
        -10.162163954057062
      ],
      [
        "▁winter",
        -10.162332479529672
      ],
      [
        "▁पहिल्या",
        -10.162412515863622
      ],
      [
        "▁2007",
        -10.16255322363455
      ],
      [
        "▁offers",
        -10.162619070080599
      ],
      [
        "▁length",
        -10.162799226107339
      ],
      [
        "▁co",
        -10.162822440193088
      ],
      [
        "▁seven",
        -10.163907884919212
      ],
      [
        "▁चरण",
        -10.164217881476679
      ],
      [
        "▁running",
        -10.164492146819006
      ],
      [
        "▁शनिवार",
        -10.16454731122579
      ],
      [
        "कोणत्याही",
        -10.164567585701704
      ],
      [
        "▁एकूण",
        -10.164578957008514
      ],
      [
        "▁नेते",
        -10.164606283352237
      ],
      [
        "▁करेंगे।",
        -10.16494548040632
      ],
      [
        "▁गाव",
        -10.165039739493007
      ],
      [
        "▁पीएम",
        -10.165310606820315
      ],
      [
        "▁भर्ती",
        -10.165654967958883
      ],
      [
        "▁अध्ययन",
        -10.165671738931456
      ],
      [
        "▁explain",
        -10.165757196599245
      ],
      [
        "▁आलेल्या",
        -10.166298592621336
      ],
      [
        "▁Church",
        -10.166479011780657
      ],
      [
        "▁virus",
        -10.166530158050309
      ],
      [
        "▁weather",
        -10.167495573312003
      ],
      [
        "वान",
        -10.16750652483951
      ],
      [
        "▁वर्णन",
        -10.167698217240467
      ],
      [
        "▁लग्न",
        -10.168374918018834
      ],
      [
        "▁वृद्धि",
        -10.168419709058082
      ],
      [
        "▁native",
        -10.169284044765803
      ],
      [
        "▁अंदर",
        -10.16950874768381
      ],
      [
        "▁character",
        -10.170308658287002
      ],
      [
        "▁slow",
        -10.17047437329506
      ],
      [
        "▁उम्मीद",
        -10.17080411571352
      ],
      [
        "वून",
        -10.170835660618962
      ],
      [
        "▁2005",
        -10.171082042372333
      ],
      [
        "▁परि",
        -10.171366629784334
      ],
      [
        "▁staff",
        -10.171545094668678
      ],
      [
        "▁होतो.",
        -10.171603795973118
      ],
      [
        "ंट",
        -10.17161023870903
      ],
      [
        "▁तरुण",
        -10.172128028496282
      ],
      [
        "▁Society",
        -10.172491874197135
      ],
      [
        "▁birds",
        -10.172547562966963
      ],
      [
        "▁remove",
        -10.172569715145562
      ],
      [
        "▁demand",
        -10.172634530770877
      ],
      [
        "▁अप्रैल",
        -10.172866142626212
      ],
      [
        "ेस",
        -10.173193385018504
      ],
      [
        "▁मरीज",
        -10.173383901553912
      ],
      [
        "▁town",
        -10.17375237280157
      ],
      [
        "▁हूँ",
        -10.173777137513646
      ],
      [
        "▁लगाने",
        -10.173828872888635
      ],
      [
        "▁wood",
        -10.17394318618629
      ],
      [
        "▁Me",
        -10.174132217380746
      ],
      [
        "R",
        -10.175566139746406
      ],
      [
        "▁Park",
        -10.175579944698095
      ],
      [
        "▁याबाबत",
        -10.175662071908167
      ],
      [
        "ge",
        -10.176967987194377
      ],
      [
        "▁thousands",
        -10.177069171146007
      ],
      [
        "गत",
        -10.17732282914576
      ],
      [
        "▁former",
        -10.177502192826482
      ],
      [
        "▁बुधवार",
        -10.177820742047931
      ],
      [
        "▁मैदान",
        -10.17787893763363
      ],
      [
        "▁church",
        -10.178120688735016
      ],
      [
        "V",
        -10.178565062762269
      ],
      [
        "▁सहायता",
        -10.178674423539356
      ],
      [
        "▁प्रतिक्रिया",
        -10.178774249271731
      ],
      [
        "अगले",
        -10.179116523515503
      ],
      [
        "ful",
        -10.179255637396182
      ],
      [
        "ability",
        -10.179258182533683
      ],
      [
        "if",
        -10.18006151793558
      ],
      [
        "▁style",
        -10.180259313446456
      ],
      [
        "▁believed",
        -10.180535449184317
      ],
      [
        "▁आते",
        -10.180994259419244
      ],
      [
        "▁गृह",
        -10.181270007465844
      ],
      [
        "▁Japanese",
        -10.181582580233247
      ],
      [
        "▁आयुक्त",
        -10.181726346516841
      ],
      [
        "▁होतं.",
        -10.182044399540734
      ],
      [
        "▁College",
        -10.182087167946072
      ],
      [
        "▁Congress",
        -10.182087975565807
      ],
      [
        "▁huge",
        -10.182166591391963
      ],
      [
        "▁गिर",
        -10.182213078106662
      ],
      [
        "्ड",
        -10.182521167397079
      ],
      [
        "▁models",
        -10.182978312738143
      ],
      [
        "रि",
        -10.183599421589829
      ],
      [
        "▁respect",
        -10.183958141269404
      ],
      [
        "▁Get",
        -10.183988538279868
      ],
      [
        "▁$",
        -10.184119396000268
      ],
      [
        "▁अंक",
        -10.184414909485982
      ],
      [
        "वादी",
        -10.185029038705226
      ],
      [
        "▁hands",
        -10.185065511338955
      ],
      [
        "▁प्यार",
        -10.185245766989638
      ],
      [
        "▁enter",
        -10.185488497436573
      ],
      [
        "▁drugs",
        -10.185990958503847
      ],
      [
        "▁names",
        -10.186106803443188
      ],
      [
        "▁“I",
        -10.186342424489338
      ],
      [
        "▁findings",
        -10.186550837824303
      ],
      [
        "▁एम",
        -10.186650712513224
      ],
      [
        "▁income",
        -10.187087245213414
      ],
      [
        "▁users",
        -10.187237196683865
      ],
      [
        "▁Association",
        -10.187336049949362
      ],
      [
        "▁हूं",
        -10.188185368772261
      ],
      [
        "▁नसल्या",
        -10.188440793324489
      ],
      [
        "▁समिति",
        -10.189151100884635
      ],
      [
        "ेट",
        -10.189167469954773
      ],
      [
        "▁आमच्या",
        -10.189393726238492
      ],
      [
        "▁अनु",
        -10.190040747989999
      ],
      [
        "▁encourage",
        -10.190053717380364
      ],
      [
        "showed",
        -10.19006460055936
      ],
      [
        "▁teeth",
        -10.190225978497237
      ],
      [
        "▁defined",
        -10.190579040289862
      ],
      [
        "▁संगठन",
        -10.191095638543844
      ],
      [
        "▁केन्द्र",
        -10.191283232107454
      ],
      [
        "▁उम्र",
        -10.191791545097516
      ],
      [
        "▁हार",
        -10.191982120847735
      ],
      [
        "?\"",
        -10.192124397314132
      ],
      [
        "▁रेल्वे",
        -10.192157055940939
      ],
      [
        "▁well.",
        -10.19243060897243
      ],
      [
        "▁UK",
        -10.192551766959104
      ],
      [
        "▁chance",
        -10.193086605102323
      ],
      [
        "▁सुंदर",
        -10.193271089481739
      ],
      [
        "▁सकाळी",
        -10.193387897364127
      ],
      [
        "िस",
        -10.193635626260415
      ],
      [
        "▁घरी",
        -10.193751597178533
      ],
      [
        "ताना",
        -10.194068427323295
      ],
      [
        "▁मौसम",
        -10.194407622099172
      ],
      [
        "पी",
        -10.194697869999947
      ],
      [
        "▁learned",
        -10.194736698848518
      ],
      [
        "▁डॉ",
        -10.1950260873059
      ],
      [
        "▁आवाज",
        -10.195342498584047
      ],
      [
        "मन",
        -10.195356231369736
      ],
      [
        "▁कप्तान",
        -10.195399166356212
      ],
      [
        "▁famous",
        -10.195780681548547
      ],
      [
        "▁अगदी",
        -10.195805810438564
      ],
      [
        "पूर्वक",
        -10.196403560874424
      ],
      [
        "▁James",
        -10.19660529204137
      ],
      [
        "▁सीएम",
        -10.196624540465423
      ],
      [
        "▁प्रधान",
        -10.19726377504036
      ],
      [
        "▁standards",
        -10.197362531190837
      ],
      [
        "▁guide",
        -10.197986062950342
      ],
      [
        "▁alcohol",
        -10.198062642496684
      ],
      [
        "▁एन",
        -10.1989693120378
      ],
      [
        "▁भोजन",
        -10.19901837152324
      ],
      [
        "▁travel",
        -10.199328097748108
      ],
      [
        "▁शकते.",
        -10.199736793634504
      ],
      [
        "▁Western",
        -10.20024211398809
      ],
      [
        "▁suggest",
        -10.200282205139287
      ],
      [
        "▁१२",
        -10.200596516668844
      ],
      [
        "▁जरूरी",
        -10.200623963118321
      ],
      [
        "▁धार्मिक",
        -10.2009132489449
      ],
      [
        "▁contribute",
        -10.20118560479355
      ],
      [
        "▁चिकित्सा",
        -10.201473992353831
      ],
      [
        "▁road",
        -10.202732726423886
      ],
      [
        "▁film",
        -10.203234786588387
      ],
      [
        "▁हिंदू",
        -10.203321211801644
      ],
      [
        "▁मूल्य",
        -10.203466837431035
      ],
      [
        "▁fun",
        -10.203478819957681
      ],
      [
        "▁Her",
        -10.203531657320188
      ],
      [
        "ca",
        -10.203940638396436
      ],
      [
        "▁machine",
        -10.20394866541043
      ],
      [
        "▁बांध",
        -10.204127048031221
      ],
      [
        "▁चाहिये",
        -10.204219775484999
      ],
      [
        "▁उपाय",
        -10.20473725479143
      ],
      [
        "▁घायल",
        -10.204862420179227
      ],
      [
        "▁राष्ट्रवादी",
        -10.20543935257294
      ],
      [
        "▁शाह",
        -10.20563418902548
      ],
      [
        "▁Human",
        -10.205657482061357
      ],
      [
        "▁होईल.",
        -10.205795436219589
      ],
      [
        "▁Social",
        -10.205817729446176
      ],
      [
        "carried",
        -10.206416562734477
      ],
      [
        "ऊ",
        -10.20657957514621
      ],
      [
        "▁Go",
        -10.20680625286949
      ],
      [
        "▁applications",
        -10.207034850488965
      ],
      [
        "▁करणाऱ्या",
        -10.207171456192624
      ],
      [
        "▁तस्वीर",
        -10.20743431490205
      ],
      [
        "▁असतो.",
        -10.207750242382982
      ],
      [
        "▁passed",
        -10.207792723187792
      ],
      [
        "▁eventually",
        -10.208460961646617
      ],
      [
[...]
