{
  "version": "1.0",
  "truncation": null,
  "padding": null,
  "added_tokens": [
    {
      "id": 0,
      "content": "<pad>",
      "single_word": false,
      "lstrip": false,
      "rstrip": false,
      "normalized": false,
      "special": true
    },
    {
      "id": 1,
      "content": "<eos>",
      "single_word": false,
      "lstrip": false,
      "rstrip": false,
      "normalized": false,
      "special": true
    },
    {
      "id": 2,
      "content": "<bos>",
      "single_word": false,
      "lstrip": false,
      "rstrip": false,
      "normalized": false,
      "special": true
    },
    {
      "id": 3,
      "content": "<unk>",
      "single_word": false,
      "lstrip": false,
      "rstrip": false,
      "normalized": false,
      "special": true
    }
  ],
  "normalizer": {
    "type": "NFC"
  },
  "pre_tokenizer": {
    "type": "Sequence",
    "pretokenizers": [
      {
        "type": "UnicodeScripts"
      },
      {
        "type": "Split",
        "pattern": {
          "Regex": " ?[^\\s\\d]+| ?\\d+|\\s+"
        },
        "behavior": "Isolated",
        "invert": false
      },
      {
        "type": "Digits",
        "individual_digits": true
      },
      {
        "type": "ByteLevel",
        "add_prefix_space": false,
        "trim_offsets": true,
        "use_regex": false
      }
    ]
  },
  "post_processor": null,
  "decoder": {
    "type": "ByteLevel",
    "add_prefix_space": true,
    "trim_offsets": true,
    "use_regex": true
  },
  "model": {
    "type": "BPE",
    "dropout": null,
    "unk_token": "<unk>",
    "continuing_subword_prefix": null,
    "end_of_word_suffix": null,
    "fuse_unk": false,
    "byte_fallback": false,
    "ignore_merges": false,
    "vocab": {
      "<pad>": 0,
      "<eos>": 1,
      "<bos>": 2,
      "<unk>": 3,
      "!": 4,
      "\"": 5,
      "#": 6,
      "$": 7,
      "%": 8,
      "&": 9,
      "'": 10,
      "(": 11,
      ")": 12,
      "*": 13,
      "+": 14,
      ",": 15,
      "-": 16,
      ".": 17,
      "/": 18,
      "0": 19,
      "1": 20,
      "2": 21,
      "3": 22,
      "4": 23,
      "5": 24,
      "6": 25,
      "7": 26,
      "8": 27,
      "9": 28,
      ":": 29,
      ";": 30,
      "<": 31,
      "=": 32,
      ">": 33,
      "?": 34,
      "@": 35,
      "A": 36,
      "B": 37,
      "C": 38,
      "D": 39,
      "E": 40,
      "F": 41,
      "G": 42,
      "H": 43,
      "I": 44,
      "J": 45,
      "K": 46,
      "L": 47,
      "M": 48,
      "N": 49,
      "O": 50,
      "P": 51,
      "Q": 52,
      "R": 53,
      "S": 54,
      "T": 55,
      "U": 56,
      "V": 57,
      "W": 58,
      "X": 59,
      "Y": 60,
      "Z": 61,
      "[": 62,
      "\\": 63,
      "]": 64,
      "^": 65,
      "_": 66,
      "`": 67,
      "a": 68,
      "b": 69,
      "c": 70,
      "d": 71,
      "e": 72,
      "f": 73,
      "g": 74,
      "h": 75,
      "i": 76,
      "j": 77,
      "k": 78,
      "l": 79,
      "m": 80,
      "n": 81,
      "o": 82,
      "p": 83,
      "q": 84,
      "r": 85,
      "s": 86,
      "t": 87,
      "u": 88,
      "v": 89,
      "w": 90,
      "x": 91,
      "y": 92,
      "z": 93,
      "{": 94,
      "|": 95,
      "}": 96,
      "~": 97,
      "¡": 98,
      "¢": 99,
      "£": 100,
      "¤": 101,
      "¥": 102,
      "¦": 103,
      "§": 104,
      "¨": 105,
      "©": 106,
      "ª": 107,
      "«": 108,
      "¬": 109,
      "®": 110,
      "¯": 111,
      "°": 112,
      "±": 113,
      "²": 114,
      "³": 115,
      "´": 116,
      "µ": 117,
      "¶": 118,
      "·": 119,
      "¸": 120,
      "¹": 121,
      "º": 122,
      "»": 123,
      "¼": 124,
      "½": 125,
      "¾": 126,
      "¿": 127,
      "À": 128,
      "Á": 129,
      "Â": 130,
      "Ã": 131,
      "Ä": 132,
      "Å": 133,
      "Æ": 134,
      "Ç": 135,
      "È": 136,
      "É": 137,
      "Ê": 138,
      "Ë": 139,
      "Ì": 140,
      "Í": 141,
      "Î": 142,
      "Ï": 143,
      "Ð": 144,
      "Ñ": 145,
      "Ò": 146,
      "Ó": 147,
      "Ô": 148,
      "Õ": 149,
      "Ö": 150,
      "×": 151,
      "Ø": 152,
      "Ù": 153,
      "Ú": 154,
      "Û": 155,
      "Ü": 156,
      "Ý": 157,
      "Þ": 158,
      "ß": 159,
      "à": 160,
      "á": 161,
      "â": 162,
      "ã": 163,
      "ä": 164,
      "å": 165,
      "æ": 166,
      "ç": 167,
      "è": 168,
      "é": 169,
      "ê": 170,
      "ë": 171,
      "ì": 172,
      "í": 173,
      "î": 174,
      "ï": 175,
      "ð": 176,
      "ñ": 177,
      "ò": 178,
      "ó": 179,
      "ô": 180,
      "õ": 181,
      "ö": 182,
      "÷": 183,
      "ø": 184,
      "ù": 185,
      "ú": 186,
      "û": 187,
      "ü": 188,
      "ý": 189,
      "þ": 190,
      "ÿ": 191,
      "Ā": 192,
      "ā": 193,
      "Ă": 194,
      "ă": 195,
      "Ą": 196,
      "ą": 197,
      "Ć": 198,
      "ć": 199,
      "Ĉ": 200,
      "ĉ": 201,
      "Ċ": 202,
      "ċ": 203,
      "Č": 204,
      "č": 205,
      "Ď": 206,
      "ď": 207,
      "Đ": 208,
      "đ": 209,
      "Ē": 210,
      "ē": 211,
      "Ĕ": 212,
      "ĕ": 213,
      "Ė": 214,
      "ė": 215,
      "Ę": 216,
      "ę": 217,
      "Ě": 218,
      "ě": 219,
      "Ĝ": 220,
      "ĝ": 221,
      "Ğ": 222,
      "ğ": 223,
      "Ġ": 224,
      "ġ": 225,
      "Ģ": 226,
      "ģ": 227,
      "Ĥ": 228,
      "ĥ": 229,
      "Ħ": 230,
      "ħ": 231,
      "Ĩ": 232,
      "ĩ": 233,
      "Ī": 234,
      "ī": 235,
      "Ĭ": 236,
      "ĭ": 237,
      "Į": 238,
      "į": 239,
      "İ": 240,
      "ı": 241,
      "Ĳ": 242,
      "ĳ": 243,
      "Ĵ": 244,
      "ĵ": 245,
      "Ķ": 246,
      "ķ": 247,
      "ĸ": 248,
      "Ĺ": 249,
      "ĺ": 250,
      "Ļ": 251,
      "ļ": 252,
      "Ľ": 253,
      "ľ": 254,
      "Ŀ": 255,
      "ŀ": 256,
      "Ł": 257,
      "ł": 258,
      "Ń": 259,
      "à¤": 260,
      "à¥": 261,
      "Ġà¤": 262,
      "à¤¾": 263,
      "à¤¾à¤": 264,
      "à¥ĩ": 265,
      "à¥į": 266,
      "à¥įà¤": 267,
      "à¥Ģ": 268,
      "à¤°": 269,
      "à¤¿": 270,
      "Ġt": 271,
      "Ġà¤ķ": 272,
      "à¤¿à¤": 273,
      "he": 274,
      "Ġa": 275,
      "in": 276,
      "à¤Ĥ": 277,
      "à¥ĭ": 278,
      "à¤¨": 279,
      "à¤¤": 280,
      "à¤ķ": 281,
      "re": 282,
      "on": 283,
      "Ġthe": 284,
      "à¤²": 285,
      "er": 286,
      "à¥įà¤¯": 287,
      "à¤¸": 288,
      "Ġà¤¸": 289,
      "at": 290,
      "Ġo": 291,
      "Ġs": 292,
      "Ġà¤¹": 293,
      "an": 294,
      "en": 295,
      "à¤¹": 296,
      "à¥ģ": 297,
      "Ġà¤®": 298,
      "Ġà¤ª": 299,
      "Ġc": 300,
      "es": 301,
      "à¤®": 302,
      "is": 303,
      "or": 304,
      "it": 305,
      "à¥įà¤°": 306,
      "Ġw": 307,
      "al": 308,
      "à¤¾à¤°": 309,
      "ed": 310,
      "Ġp": 311,
      "Ġof": 312,
      "à¤µ": 313,
      "à¤ª": 314,
      "ing": 315,
      "Ġf": 316,
      "à¥Ī": 317,
      "Ġb": 318,
      "ar": 319,
      "ou": 320,
      "Ġin": 321,
      "Ġan": 322,
      "ic": 323,
      "Ġto": 324,
      "Ġà¤Ĩ": 325,
      "Ġm": 326,
      "à¤¦": 327,
      "à¥Ĥ": 328,
      "ion": 329,
      "à¤Ĺ": 330,
      "Ġà¤¨": 331,
      "à¤ļ": 332,
      "Ġd": 333,
      "Ġà¤µ": 334,
      "à¥ĩà¤Ĥ": 335,
      "Ġà¤ħ": 336,
      "à¥¤": 337,
      "Ġà¤ķà¥ĩ": 338,
      "à¤£": 339,
      "le": 340,
      "à¤¯": 341,
      "as": 342,
      "ro": 343,
      "Ġand": 344,
      "Ġà¤¹à¥Ī": 345,
      "Ġà¤¦": 346,
      "Ġà¤¬": 347,
      "à¥įà¤¯à¤¾à¤": 348,
      "Ġà¤ľ": 349,
      "à¤ľ": 350,
      "à¤°à¥įà¤": 351,
      "ent": 352,
      "à¤¾à¤¨": 353,
      "Ġà¤¤": 354,
      "Ġh": 355,
      "à¤¡": 356,
      "Ġth": 357,
      "Ġà¤°": 358,
      "ct": 359,
      "il": 360,
      "Ġà¤²": 361,
      "à¤¾à¤Ĥ": 362,
      "à¤¬": 363,
      "à¤¶": 364,
      "à¤Ł": 365,
      "om": 366,
      "ve": 367,
      "st": 368,
      "Ġe": 369,
      "Ġre": 370,
      "à¤¾à¤¤": 371,
      "Ġl": 372,
      "Ġà¤®à¥ĩà¤Ĥ": 373,
      "à¤¾à¤²": 374,
      "à¥ĭà¤Ĥ": 375,
      "Ġn": 376,
      "Ġà¤ķà¤°": 377,
      "à¤¿à¤ķ": 378,
      "à¤¨à¥ĩ": 379,
      "à¥įà¤¯à¤¾": 380,
      "ly": 381,
      "à¤¿à¤¯": 382,
      "âĢ": 383,
      "et": 384,
      "Ġà¤Ĺ": 385,
      "Ġà¤¯": 386,
      "à¥įà¤¤": 387,
      "Ġis": 388,
      "à¤§": 389,
      "ol": 390,
      "Ġà¤ķà¥Ģ": 391,
      "se": 392,
      "ation": 393,
      "Ġbe": 394,
      "and": 395,
      "Ġà¤Ń": 396,
      "im": 397,
      "Ġà¤ªà¥įà¤°": 398,
      "id": 399,
      "Ġà¤ķà¥ĭ": 400,
      "Ġg": 401,
      "Ġà¤ī": 402,
      "ut": 403,
      "ot": 404,
      "à¤¿à¤¤": 405,
      "ce": 406,
      "ur": 407,
      "ch": 408,
      "ow": 409,
      "Ġà¤¶": 410,
      "ra": 411,
      "à¥ģà¤": 412,
      "Ġà¤¹à¥ĭ": 413,
      "ig": 414,
      "The": 415,
      "Ġfor": 416,
      "Ġà¤¸à¥ĩ": 417,
      "à¤¿à¤²": 418,
      "à¤¾à¤µ": 419,
      "Ġu": 420,
      "Ġthat": 421,
      "ver": 422,
      "the": 423,
      "Ġon": 424,
      "Ķà¤°": 425,
      "à¤¾à¤¹": 426,
      "à¤¾à¤®": 427,
      "à¤²à¥ĩ": 428,
      "à¤¹à¥ĩ": 429,
      "ir": 430,
      "Ġst": 431,
      "Ġà¤ļ": 432,
      "à¥įà¤Ł": 433,
      "à¤¾à¤¸": 434,
      "Ġà¤ı": 435,
      "ul": 436,
      "am": 437,
      "Ġà¤Ķà¤°": 438,
      "Ġà¤ªà¤°": 439,
      "ay": 440,
      "à¤¾à¤¯": 441,
      "à¤¤à¤¾": 442,
      "à¤¼": 443,
      "à¥įà¤µ": 444,
      "ad": 445,
      "el": 446,
      "à¤¨à¤¾": 447,
      "ith": 448,
      "Ġy": 449,
      "à¤Ń": 450,
      "à¤¹à¥Ģ": 451,
      "th": 452,
      "Ġpro": 453,
      "à¤¿à¤¸": 454,
      "Ġà¤ĩ": 455,
      "à¥įà¤¹": 456,
      "ĠC": 457,
      "Ġare": 458,
      "Ġas": 459,
      "ĠS": 460,
      "Ġcon": 461,
      "Ġà¤ķà¤¾": 462,
      "if": 463,
      "à¤¤à¥ĩ": 464,
      "Ġà¤Ĩà¤¹à¥ĩ": 465,
      "à¤ķà¥įà¤": 466,
      "à¤¾à¤ľ": 467,
      "ter": 468,
      "od": 469,
      "Ġwith": 470,
      "ĠĠ": 471,
      "à¤ĸ": 472,
      "à¤¸à¥ĩ": 473,
      "nd": 474,
      "à¤¤à¥Ģ": 475,
      "à¤¿à¤¯à¤¾": 476,
      "ment": 477,
      "Ġyou": 478,
      "Ġal": 479,
      "à¤¿à¤¨": 480,
      "à¥Ĥà¤¨": 481,
      "Ġà¤¨à¥ĩ": 482,
      "ĠA": 483,
      "ge": 484,
      "à¤¾à¤ļ": 485,
      "à¤ķà¥ĩ": 486,
      "Ġà¤¹à¥Īà¤Ĥ": 487,
      "op": 488,
      "à¤¨à¥Ģ": 489,
      "ate": 490,
      "ist": 491,
      "ers": 492,
      "à¤°à¥Ģ": 493,
      "à¤²à¤¾": 494,
      "Ġhe": 495,
      "ab": 496,
      "us": 497,
      "Ġit": 498,
      "Ġor": 499,
      "ies": 500,
      "ill": 501,
      "Ġà¤ĸ": 502,
      "ess": 503,
      "à¤ħ": 504,
      "Ġà¤ıà¤ķ": 505,
      "à¤¾à¤¦": 506,
      "Ġà¤¥": 507,
      "Ġà¤µà¤¿à¤": 508,
      "res": 509,
      "Ġde": 510,
      "à¤²à¥Ģ": 511,
      "à¤Ĥà¤¤": 512,
      "ac": 513,
      "ect": 514,
      "um": 515,
      "âĢĻ": 516,
      "à¤ı": 517,
      "Ġex": 518,
      "ere": 519,
      "ity": 520,
      "à¤Ī": 521,
      "ore": 522,
      "est": 523,
      "ive": 524,
      "Ġà¤«": 525,
      "à¥ĩà¤¶": 526,
      "à¤¿à¤ı": 527,
      "Ġcom": 528,
      "Ġà¤¸à¤Ĥ": 529,
      "rom": 530,
      "os": 531,
      "ld": 532,
      "Ġwh": 533,
      "à¤¾à¤Ĺ": 534,
      "em": 535,
      "à¥įà¤¥": 536,
      "ke": 537,
      "ant": 538,
      "iv": 539,
      "ĠM": 540,
      "ain": 541,
      "qu": 542,
      "à¥ī": 543,
      "à¤ķà¥įà¤·": 544,
      "pp": 545,
      "ĠP": 546,
      "Ġv": 547,
      "Ġà¤ķà¤¿": 548,
      "à¥ģà¤°": 549,
      "à¤ĩ": 550,
      "à¤¿à¤µ": 551,
      "Ġsu": 552,
      "nt": 553,
      "Ġby": 554,
      "igh": 555,
      "à¥Į": 556,
      "à¤¿à¤Ĥ": 557,
      "à¤¡à¤¼": 558,
      "ud": 559,
      "oc": 560,
      "Ġha": 561,
      "à¤³": 562,
      "Ġat": 563,
      "Ġà¤ĺ": 564,
      "Ġà¤Ńà¥Ģ": 565,
      "Ġcan": 566,
      "à¤«": 567,
      "Ġà¤¸à¤®": 568,
      "Ġfrom": 569,
      "à¤ļà¥įà¤¯à¤¾": 570,
      "Ġne": 571,
      "à¥ĥ": 572,
      "ri": 573,
      "ĠI": 574,
      "Ġwas": 575,
      "à¤¾à¤°à¥Ģ": 576,
      "ort": 577,
      "Ġch": 578,
      "Ġà¤¦à¥ĩ": 579,
      "à¤Ĩ": 580,
      "un": 581,
      "à¥įà¤°à¥Ģ": 582,
      "à¥įà¤®": 583,
      "Ġà¤ħà¤¸": 584,
      "à¤¯à¤¾": 585,
      "ure": 586,
      "à¤ķà¤°": 587,
      "Ġr": 588,
      "à¤·": 589,
      "art": 590,
      "Ġse": 591,
      "à¥įà¤¯à¤¾à¤ļ": 592,
      "ial": 593,
      "ical": 594,
      "à¤¿à¤°": 595,
      "à¤¾à¤ª": 596,
      "à¥ĭà¤Ĺ": 597,
      "ĠB": 598,
      "Ġà¤Ł": 599,
      "à¤¾à¤ķ": 600,
      "Ġnot": 601,
      "og": 602,
      "à¤ķà¥Ģ": 603,
      "à¤¹à¥Ģà¤Ĥ": 604,
      "Ġhave": 605,
      "à¤¥": 606,
      "Ġle": 607,
      "à¥įà¤¯à¤¾à¤Ĥ": 608,
      "her": 609,
      "pe": 610,
      "à¥įà¤²": 611,
      "à¤¾à¤£": 612,
      "Ġà¤²à¤¿à¤ı": 613,
      "per": 614,
      "all": 615,
      "à¤ķà¤¾à¤°": 616,
      "à¥ĩà¤¤": 617,
      "Ġsh": 618,
      "Ġen": 619,
      "our": 620,
      "ĠE": 621,
      "ight": 622,
      "ĠD": 623,
      "pt": 624,
      "Ġà¤¹à¥Ģ": 625,
      "ĠR": 626,
      "rou": 627,
      "à¤¾à¤¨à¥ĩ": 628,
      "Ġà¤ħà¤ª": 629,
      "ich": 630,
      "ther": 631,
      "à¥Ģà¤²": 632,
      "à¥įà¤ª": 633,
      "Ġab": 634,
      "Ġ-": 635,
      "gh": 636,
      "ions": 637,
      "ost": 638,
      "ould": 639,
      "à¤¹à¤¾": 640,
      "ome": 641,
      "Ġwor": 642,
      "Ġthis": 643,
      "du": 644,
      "ĠT": 645,
      "Ġà¤ĩà¤¸": 646,
      "à¤¾à¤¹à¥Ģ": 647,
      "Ġà¤¡": 648,
      "ated": 649,
      "à¤£à¤¿": 650,
      "ag": 651,
      "ĠG": 652,
      "à¥įà¤¯à¤¾à¤¤": 653,
      "ĠH": 654,
      "ine": 655,
      "à¥ģà¤²": 656,
      "à¤ĩà¤¸": 657,
      "Ġà¤¨à¤¹à¥Ģà¤Ĥ": 658,
      "pl": 659,
      "are": 660,
      "Ġà¤¸à¤¾à¤": 661,
      "ard": 662,
      "Ġim": 663,
      "out": 664,
      "à¥įà¤ķ": 665,
      "à¤¾à¤Ī": 666,
      "Ġà¤ķà¤¾à¤°": 667,
      "ff": 668,
      "à¤ł": 669,
      "act": 670,
      "ear": 671,
      "à¤ī": 672,
      "to": 673,
      "ell": 674,
      "Ġus": 675,
      "Ġtheir": 676,
      "ĠN": 677,
      "ans": 678,
      "à¤ķà¤¾": 679,
      "ast": 680,
      "ak": 681,
      "Ġpl": 682,
      "à¤ķà¥įà¤¤": 683,
      "à¤¾à¤ł": 684,
      "à¥ĩà¤²": 685,
      "age": 686,
      "à¤Ĥà¤¦": 687,
      "ust": 688,
      "Ġà¤Ĩà¤£à¤¿": 689,
      "à¥įà¤¸": 690,
      "à¤°à¥įà¤µ": 691,
      "à¤¾à¤¬": 692,
      "à¤Ĥà¤Ĺ": 693,
      "ĠF": 694,
      "ide": 695,
      "so": 696,
      "à¤ļà¥Ģ": 697,
      "Ġà¤®à¤¹": 698,
      "ĠL": 699,
      "à¤ļà¥ĩ": 700,
      "Ġà¤ħà¤¨": 701,
      "Ġà¤ķà¤¿à¤¯à¤¾": 702,
      "Ġwe": 703,
      "ous": 704,
      "Ġà¤Ŀ": 705,
      "Th": 706,
      "à¤§à¥įà¤¯": 707,
      "à¥įà¤§": 708,
      "iz": 709,
      "à¥įà¤¨": 710,
      "ew": 711,
      "ĠW": 712,
      "à¥įà¤¦": 713,
      "Ġyour": 714,
      "ood": 715,
      "Ġà¤¹à¥ģà¤": 716,
      "In": 717,
      "ia": 718,
      "ult": 719,
      "end": 720,
      "Ġà¤Ĩà¤ª": 721,
      "ib": 722,
      "à¤°à¥ĩ": 723,
      "Ġà¤īà¤¨": 724,
      "ru": 725,
      "for": 726,
      "cl": 727,
      "âĢľ": 728,
      "à¤®à¥ĩà¤Ĥ": 729,
      "à¥ģà¤¨": 730,
      "âĢĿ": 731,
      "ong": 732,
      "Ġk": 733,
      "Ġà¤§": 734,
      "Ġwill": 735,
      "à¤°à¥įà¤®": 736,
      "hen": 737,
      "Ġcont": 738,
      "à¤Ĥà¤¡": 739,
      "Ġall": 740,
      "à¤¾à¤ĩ": 741,
      "à¤ªà¥įà¤°": 742,
      "Ġad": 743,
      "vel": 744,
      "ations": 745,
      "Ġdis": 746,
      "ip": 747,
      "à¤ķà¥ĭ": 748,
      "Ġmore": 749,
      "à¤¤à¥įà¤¤": 750,
      "à¤¿à¤¶": 751,
      "cc": 752,
      "à¤ļà¤¾": 753,
      "ary": 754,
      "Ġcomp": 755,
      "à¤¸à¥Ģ": 756,
      "Ġà¤¯à¤¾": 757,
      "à¥ĩà¤Ł": 758,
      "Ġres": 759,
      "Ġà¤ľà¤¾à¤¤": 760,
      "ater": 761,
      "Ġà¤¤à¥ĭ": 762,
      "Ġà¤¥à¤¾": 763,
      "à¤¾à¤łà¥Ģ": 764,
      "ind": 765,
      "Ġhas": 766,
      "Ġà¤ªà¤¹": 767,
      "wh": 768,
      "ence": 769,
      "able": 770,
      "ild": 771,
      "ap": 772,
      "ire": 773,
      "Ġdo": 774,
      "à¤¾à¤²à¤¾": 775,
      "ual": 776,
      "ks": 777,
      "Ġà¤¯à¤¾à¤Ĥ": 778,
      "Ġà¤Ĺà¤¯à¤¾": 779,
      "à¥Ģà¤¨": 780,
      "ry": 781,
      "à¤¸à¥įà¤¤": 782,
      "Ġthey": 783,
      "ep": 784,
      "Ġà¤ķà¤°à¤¨à¥ĩ": 785,
      "Ġother": 786,
      "à¥ģà¤®": 787,
      "à¥įà¤¯à¤¾à¤¨": 788,
      "à¥įà¤·": 789,
      "Ġà¤°à¤¾à¤ľ": 790,
      "à¤ªà¤°": 791,
      "à¥§": 792,
      "ach": 793,
      "but": 794,
      "Ġcl": 795,
      "ance": 796,
      "à¤¿à¤®": 797,
      "à¥ĭà¤¨": 798,
      "ents": 799,
      "Ġman": 800,
      "ĠU": 801,
      "à¤¢": 802,
      "av": 803,
      "one": 804,
      "Ġ(": 805,
      "ass": 806,
      "à¥Ĥà¤°": 807,
      "Ġà¤ħà¤§": 808,
      "Ġà¤ķà¤°à¤£": 809,
      "Ġwere": 810,
      "à¤ĺ": 811,
      "reat": 812,
      "ose": 813,
      "Ġimp": 814,
      "ress": 815,
      "ign": 816,
      "ake": 817,
      "à¥ĭà¤²": 818,
      "Ġà¤²à¥ĩ": 819,
      "Ġalso": 820,
      "à¥ĭà¤ľ": 821,
      "ase": 822,
      "à¤Ĺà¤¾": 823,
      "Ġte": 824,
      "à¤µà¤°": 825,
      "Ġme": 826,
      "à¤¿à¤¯à¥ĭà¤Ĥ": 827,
      "à¥įà¤¯à¤¾à¤¸": 828,
      "au": 829,
      "Ġà¤īà¤ª": 830,
      "ice": 831,
      "ĠJ": 832,
      "à¤¾à¤²à¥ĩ": 833,
      "we": 834,
      "ction": 835,
      "ition": 836,
      "Ġà¤¸à¤¾à¤¥": 837,
      "Ġà¤¸à¥įà¤µ": 838,
      "à¥Ĥà¤ª": 839,
      "Ġone": 840,
      "à¥¦": 841,
      "Ġà¤¯à¤¹": 842,
      "It": 843,
      "ber": 844,
      "ime": 845,
      "à¥ĩà¤¸": 846,
      "very": 847,
      "à¥įà¤ļ": 848,
      "à¤¾à¤§": 849,
      "Ġà¤¸à¤ķ": 850,
      "This": 851,
      "Ġout": 852,
      "à¤¾à¤ı": 853,
      "à¤¸à¥įà¤¥": 854,
      "à¤§à¥įà¤¯à¥ĩ": 855,
      "ace": 856,
      "Ġsp": 857,
      "ish": 858,
      "ok": 859,
      ").": 860,
      "ens": 861,
      "à¤¾à¤Ł": 862,
      "ack": 863,
      "ory": 864,
      "Ġapp": 865,
      "ame": 866,
      "ub": 867,
      "Ġabout": 868,
      "Ġà¤¤à¤°": 869,
      "Ġj": 870,
      "à¥ģà¤¦": 871,
      "ount": 872,
      "à¥ģà¤ĸ": 873,
      "à¤¾à¤²à¥Ģ": 874,
      "Ġar": 875,
      "ces": 876,
      "con": 877,
      "Ġpre": 878,
      "à¤¾à¤¯à¤¾": 879,
      "ord": 880,
      "à¤µà¤¿à¤": 881,
      "Ġun": 882,
      "à¤¤à¤¿": 883,
      "à¤²à¥įà¤¯à¤¾": 884,
      "à¥ĭà¤ķ": 885,
      "ite": 886,
      "Ġà¤ł": 887,
      "à¤¾à¤¨à¤¾": 888,
      "Ġpart": 889,
      "à¤¾à¤·": 890,
      "à¤¿à¤Ł": 891,
      "Ġ\"": 892,
      "ors": 893,
      "ang": 894,
      "à¤Ĥà¤¬": 895,
      "à¤¾à¤Ĥà¤Ĺ": 896,
      "Ġthem": 897,
      "low": 898,
      "Ġstud": 899,
      "te": 900,
      "à¤¾à¤¶": 901,
      "now": 902,
      "ie": 903,
      "Ġà¤¯à¥ĩ": 904,
      "à¥ģà¤ķ": 905,
      "ue": 906,
      "form": 907,
      "ike": 908,
      "Ġhis": 909,
      "ci": 910,
      "ree": 911,
      "Ġà¤ħà¤§à¤¿à¤ķ": 912,
      "ĠO": 913,
      "Ġsy": 914,
      "ound": 915,
      "olog": 916,
      "à¤¾à¤³": 917,
      "à¤¿à¤Ĥà¤Ĺ": 918,
      "à¤¤à¥įà¤°": 919,
      "à¤¾à¤°à¤¾": 920,
      "Ġcomm": 921,
      "Ġà¤¦à¤¿à¤²": 922,
      "à¤°à¥įà¤·": 923,
      "Ġper": 924,
      "Ġà¤ªà¥Ĥ": 925,
      "Ġup": 926,
      "Ġpe": 927,
      "Ġà¤²à¤Ĺ": 928,
      "Ġev": 929,
      "Ġà¤īà¤¸": 930,
      "ric": 931,
      "à¤®à¥Ģ": 932,
      "à¤¤à¥ĭ": 933,
      "à¤Ńà¥Ģ": 934,
      "ile": 935,
      "Ġà¤¸à¤°": 936,
      "Ġà¤¨à¤¾à¤¹à¥Ģ": 937,
      "à¥ģà¤¸": 938,
      "à¤¾à¤¡": 939,
      "à¥¨": 940,
      "Ġà¤Ľ": 941,
      "iff": 942,
      "Ġso": 943,
      "Ġthan": 944,
      "Ġà¤ľà¥ĭ": 945,
      "ople": 946,
      "ph": 947,
      "à¤°à¥įà¤£": 948,
      "pec": 949,
      "à¤ĥ": 950,
      "ates": 951,
      "cre": 952,
      "ail": 953,
      "Ġà¤¸à¥įà¤¥": 954,
      "ays": 955,
      "ian": 956,
      "à¤µà¤¾": 957,
      "à¤¦à¥Ģ": 958,
      "ings": 959,
      "Ġà¤¨à¤¿": 960,
      "nder": 961,
      "Ġà¤®à¥ĭ": 962,
      "Ġmay": 963,
      "Ġqu": 964,
      "Ġà¤¬à¤¨": 965,
      "Ġwhich": 966,
      "Ġbeen": 967,
      "à¥ģà¤ª": 968,
      "à¥ģà¤³": 969,
      "à¤Łà¥Ģ": 970,
      "à¤°à¥ĭ": 971,
      "Ġà¤µà¥įà¤¯": 972,
      "Ġà¤ķà¤¹à¤¾": 973,
      "mer": 974,
      "à¤Ĺà¥Ģ": 975,
      "à¤¾à¤°à¥ĩ": 976,
      "Ġwho": 977,
      "rit": 978,
      "ough": 979,
      "à¤¾à¤¨à¥Ģ": 980,
      "à¤°à¤£": 981,
      "ren": 982,
      "Ġà¤¬à¤¾à¤¦": 983,
      "Ġà¤µà¥ĩ": 984,
      "vers": 985,
      "à¤¯à¥ĩ": 986,
      "Ġinto": 987,
      "Ġbec": 988,
      "ms": 989,
      "Ġtime": 990,
      "erv": 991,
      "âĢĵ": 992,
      "Ġà¤®à¥įà¤¹": 993,
      "Ġag": 994,
      "),": 995,
      "à¤ķà¥įà¤°": 996,
      "Ġgo": 997,
      "Ġsome": 998,
      "Ġà¤Ĩà¤¹à¥ĩà¤¤": 999,
      "alth": 1000,
      "rough": 1001,
      "à¥ħ": 1002,
      "ally": 1003,
      "Ġits": 1004,
      "ll": 1005,
      "à¥ĩà¤µ": 1006,
      "ĠSt": 1007,
      "à¤¾à¤ĸ": 1008,
      "à¤¾à¤ļà¥įà¤¯à¤¾": 1009,
      "here": 1010,
      "Ġwork": 1011,
      "clud": 1012,
      "ove": 1013,
      "ause": 1014,
      "Ġtra": 1015,
      "tern": 1016,
      "Ġà¤ķà¤¾à¤®": 1017,
      "à¤ľà¥Ģ": 1018,
      "int": 1019,
      "Ġà¤ħà¤ªà¤¨à¥ĩ": 1020,
      "Ġà¤¤à¥įà¤¯à¤¾à¤Ĥ": 1021,
      "Ġrec": 1022,
      "Ġà¤°à¤¹à¥ĩ": 1023,
      "à¤ªà¥Ģ": 1024,
      "Ġà¤¥à¥Ģ": 1025,
      "Ġover": 1026,
      "Ġdiff": 1027,
      "à¤¦à¤¾à¤°": 1028,
      "à¤¶à¥Ģ": 1029,
      "ific": 1030,
      "ĵà¤Ĥ": 1031,
      "ĠK": 1032,
      "ons": 1033,
      "Ġà¤¦à¤¿à¤¯à¤¾": 1034,
      "Ġà¤Ńà¤¾à¤°": 1035,
      "ities": 1036,
      "row": 1037,
      "..": 1038,
      "Ġà¤®à¤¿à¤²": 1039,
      "Ġuse": 1040,
      "which": 1041,
      "à¤Ĥà¤§": 1042,
      "Ġà¤ªà¥įà¤°à¤¤": 1043,
      "lect": 1044,
      "ys": 1045,
      "à¥ģà¤³à¥ĩ": 1046,
      "ments": 1047,
      "à¤¿à¤ª": 1048,
      "Ġnew": 1049,
      "à¥įà¤Łà¥įà¤°": 1050,
      "irst": 1051,
      "à¤¾à¤¤à¥įà¤°": 1052,
      "ook": 1053,
      "Ġact": 1054,
      "à¤¿à¤·": 1055,
      "Ġour": 1056,
      "lic": 1057,
      "Ġhad": 1058,
      "Ġthese": 1059,
      "ob": 1060,
      "à¤¤à¤°": 1061,
      "à¤°à¥įà¤¤": 1062,
      "Ġcons": 1063,
      "ject": 1064,
      "ning": 1065,
      "Ġpeople": 1066,
      "Ġà¤¹à¥ĭà¤¤à¤¾": 1067,
      "à¥ģà¤¤": 1068,
      "Ġbet": 1069,
      "ĠCh": 1070,
      "Ġà¤¹à¥ĭà¤¤à¥ĩ": 1071,
      "à¤¢à¤¼": 1072,
      "Ġà¤ľà¥Ģ": 1073,
      "à¤®à¤§à¥įà¤¯à¥ĩ": 1074,
      "Ġà¤®à¥ĩ": 1075,
      "Ġcol": 1076,
      "Ġà¤¤à¤ķ": 1077,
      "à¤¿à¤ľ": 1078,
      "velop": 1079,
      "Ġro": 1080,
      "ple": 1081,
      "Ġknow": 1082,
      "stem": 1083,
      "à¤·à¥įà¤Ł": 1084,
      "à¤®à¥ĩ": 1085,
      "Ġunder": 1086,
      "à¤¸à¤¾": 1087,
      "uch": 1088,
      "Ġwhen": 1089,
      "Ġwould": 1090,
      "à¤µà¥Ģ": 1091,
      "cess": 1092,
      "ational": 1093,
      "à¥įà¤¯à¤¾à¤µ": 1094,
      "Ġneed": 1095,
      "à¥ĭà¤°": 1096,
      "à¤¦à¥ĩà¤¶": 1097,
      "Ġà¤¹à¥ģà¤ı": 1098,
      "ffect": 1099,
      "Ġint": 1100,
      "à¥ĩà¤Ĥà¤¦": 1101,
      "Ġà¤²à¥ĭà¤Ĺ": 1102,
      "Ġmost": 1103,
      "à¤Ĥà¤¤à¤°": 1104,
      "Ġà¤¦à¥ĩà¤ĸ": 1105,
      "red": 1106,
      "Ġbl": 1107,
      "Ġà¤¤à¥ĩ": 1108,
      "à¤Ĺà¤°": 1109,
      "ov": 1110,
      "Ġà¤®à¥įà¤¹à¤£": 1111,
      "Ġra": 1112,
      "à¤£à¥Ģ": 1113,
      "Ġà¤µà¤¿à¤¶": 1114,
      "à¤¡à¥ĩ": 1115,
      "à¤īà¤¨": 1116,
      "Ġrel": 1117,
      "Ġdes": 1118,
      "Ġà¤¥à¥ĩ": 1119,
      "à¥Īà¤Ĥ": 1120,
      "à¥Įà¤°": 1121,
      "Ġà¤¸à¥ĭ": 1122,
      "à¥ĥà¤¤": 1123,
      "ne": 1124,
      "à¥įà¤¡": 1125,
      "Ġà¤¸à¥ģ": 1126,
      "Ġà¤¸à¤°à¥įà¤µ": 1127,
      "lp": 1128,
      "ative": 1129,
      "Ġtw": 1130,
      "à¤¹à¤°": 1131,
      "Ġà¤¸à¤¾à¤®": 1132,
      "à¤°à¥įà¤¥": 1133,
      "ath": 1134,
      "Ġtr": 1135,
      "hed": 1136,
      "à¥įà¤ŀ": 1137,
      "Ġyear": 1138,
      "ious": 1139,
      "à¤µà¤¾à¤°": 1140,
      "Ġany": 1141,
      "ular": 1142,
      "à¤¯à¤¹": 1143,
      "Ġlike": 1144,
      "à¥ĭà¤Ł": 1145,
      "ics": 1146,
      "ced": 1147,
      "ating": 1148,
      "Ġchild": 1149,
      "à¤¾à¤ģ": 1150,
      "Ġà¤°à¤¹à¤¾": 1151,
      "Ġà¤µà¤¹": 1152,
      "Ġà¤ķà¤¾à¤°à¥įà¤¯": 1153,
      "Wh": 1154,
      "ool": 1155,
      "Ġà¤¸à¥ģà¤°": 1156,
      "aw": 1157,
      "les": 1158,
      "Ġgen": 1159,
      "Ġà¤Ĺà¤Ī": 1160,
      "à¥ĭà¤Ĥà¤¨à¥ĩ": 1161,
      "Ġhelp": 1162,
      "Ġused": 1163,
      "à¥įà¤¹à¥ĭà¤Ĥà¤¨à¥ĩ": 1164,
      "ĠâĢľ": 1165,
      "à¤Ĥà¤¤à¥įà¤°à¥Ģ": 1166,
      "à¤¡à¥Ģ": 1167,
      "à¤Ĺà¥ĩ": 1168,
      "à¤µà¥ĩ": 1169,
      "Ġacc": 1170,
      "ise": 1171,
      "Ġà¤ľà¤¾": 1172,
      "à¤¾à¤µà¤°": 1173,
      "ark": 1174,
      "à¤¾à¤ĵà¤Ĥ": 1175,
      "à¤ľà¥ĩ": 1176,
      "oss": 1177,
      "fter": 1178,
      "Ġonly": 1179,
      "ĠV": 1180,
      "Ġpr": 1181,
      "Ġà¤°à¤¹": 1182,
      "Ġà¤¸à¥Ģ": 1183,
      "iet": 1184,
      "Ġprodu": 1185,
      "Ġà¤¹à¥ĩ": 1186,
      "old": 1187,
      "Ġhow": 1188,
      "Ġthere": 1189,
      "à¤¤à¤¾à¤¤": 1190,
      "Ġà¤¹à¥ĭà¤¤à¥Ģ": 1191,
      "à¤Ĥà¤ļ": 1192,
      "à¤¾à¤¥": 1193,
      "iss": 1194,
      "à¥įà¤¯à¤¾à¤²": 1195,
      "à¤°à¥įà¤ľ": 1196,
      "als": 1197,
      "Ġwhat": 1198,
      "round": 1199,
      "Ġfirst": 1200,
      "Ġoff": 1201,
      "Ġph": 1202,
      "ful": 1203,
      "Ġdevelop": 1204,
      "Ġà¤°à¥Ĥà¤ª": 1205,
      "uc": 1206,
      "à¥ģà¤Ľ": 1207,
      "Ġprov": 1208,
      "Ġam": 1209,
      "Ġà¤ķà¤¿à¤¸": 1210,
      "Ġthrough": 1211,
      "Ġrep": 1212,
      "oth": 1213,
      "uring": 1214,
      "à¥Ĥà¤²": 1215,
      "ink": 1216,
      "à¤¾à¤ļà¤¾": 1217,
      "à¤¿à¤¦": 1218,
      "eth": 1219,
      "Ġind": 1220,
      "of": 1221,
      "erm": 1222,
      "Ġà¤¬à¥Ģ": 1223,
      "à¤¿à¤¤à¥Ģ": 1224,
      "à¤Ĥà¤¤à¥įà¤°": 1225,
      "Ġà¤¸à¤°à¤ķà¤¾à¤°": 1226,
      "à¤ķà¤¿à¤¨": 1227,
      "Ġspec": 1228,
      "Ġà¤¹à¤®": 1229,
      "Ġà¤ĳ": 1230,
      "à¤¾à¤«": 1231,
      "à¤¾à¤ļà¥Ģ": 1232,
      "Ġno": 1233,
      "ied": 1234,
      "Ġà¤¸à¤¹": 1235,
      "Ġà¤ķà¥įà¤·": 1236,
      "Ġexp": 1237,
      "Ġsystem": 1238,
      "Ġà¤ķà¤°à¤¤à¥ĩ": 1239,
      "Ġà¤¦à¥ĭ": 1240,
      "à¥ĭà¤§": 1241,
      "Ġass": 1242,
      "ility": 1243,
      "à¤¿à¤ĸ": 1244,
      "Ġreg": 1245,
      "Ġpo": 1246,
      "ible": 1247,
      "Ġmany": 1248,
      "ts": 1249,
      "Ġà¤¦à¥Ģ": 1250,
      "à¥įà¤¯à¥Ĥ": 1251,
      "Ġdiffere": 1252,
      "Ġà¤Ĳ": 1253,
      "ten": 1254,
      "Ġà¤°à¤¹à¥Ģ": 1255,
      "à¤ªà¤£": 1256,
      "à¤¾à¤Ĥà¤¨à¤¾": 1257,
      "com": 1258,
      "ased": 1259,
      "ex": 1260,
      "Ġà¤¬à¤¾à¤¤": 1261,
      "Ġac": 1262,
      "Ġà¤ĵ": 1263,
      "ife": 1264,
      "Ġà¤¬à¤¹": 1265,
      "Ġtwo": 1266,
      "à¤°à¥įà¤Ł": 1267,
      "Ġsa": 1268,
      "Ġfe": 1269,
      "à¥įà¤¯à¤¾à¤ļà¥Ģ": 1270,
      "Ġem": 1271,
      "Ġà¤ļà¤¾à¤¹": 1272,
      "ange": 1273,
      "Ġà¤ķà¤®": 1274,
      "ble": 1275,
      "Ġà¤¯à¤¾à¤Ĥà¤¨à¥Ģ": 1276,
      "Ġob": 1277,
      "ng": 1278,
      "à¤Ĭ": 1279,
      "fore": 1280,
      "à¥įà¤¯à¤¾à¤®": 1281,
      "Ġà¤¦à¥ĩà¤¶": 1282,
      "ram": 1283,
      "its": 1284,
      "Ġà¤ķà¥ĩà¤²à¥ĩ": 1285,
      "Ġà¤µà¤¿à¤ķ": 1286,
      "à¤¸à¤Ĥ": 1287,
      "à¤Ķà¤°": 1288,
      "ert": 1289,
      "à¤°à¤¾": 1290,
      "ĠIn": 1291,
      "arch": 1292,
      "Ġatt": 1293,
      "sel": 1294,
      "ures": 1295,
      "à¥ĩà¤ķ": 1296,
      "Ġà¤²à¤¾à¤Ĺ": 1297,
      "Ġif": 1298,
      "Ġsur": 1299,
      "à¤¾à¤ļà¥ĩ": 1300,
      "ower": 1301,
      "own": 1302,
      "à¤Ĥà¤Ł": 1303,
      "ract": 1304,
      "Ġà¤®à¤¨": 1305,
      "à¤¾à¤Ĥà¤¤": 1306,
      "ween": 1307,
      "Ġà¤®à¤¿à¤": 1308,
      "Ġà¤®à¥ģ": 1309,
      "ec": 1310,
      "Ġadd": 1311,
      "à¤¾à¤Ĥà¤¨à¥Ģ": 1312,
      "à¤°à¥įà¤¶": 1313,
      "à¤®à¤¾à¤¨": 1314,
      "Ġà¤ľà¤¨": 1315,
      "Ġà¤®à¤¾à¤¨": 1316,
      "Ġwell": 1317,
      "Ġshould": 1318,
      "ĠUn": 1319,
      "Ġà¤¦à¥įà¤µ": 1320,
      "à¥įà¤¯à¤¾à¤¸à¤¾à¤łà¥Ģ": 1321,
      "à¥ģà¤·": 1322,
      "à¤¯à¥ĭà¤Ĺ": 1323,
      "ade": 1324,
      "à¤µà¤¨": 1325,
      "cy": 1326,
      "gan": 1327,
      "à¤ķà¥įà¤¸": 1328,
      "Ġinf": 1329,
      "ss": 1330,
      "Ġsupp": 1331,
      "à¥ĩà¤·": 1332,
      "à¤³à¥Ģ": 1333,
      "à¥Ĥà¤¸": 1334,
      "Ġà¤Ĩà¤µ": 1335,
      "à¥ģà¤£": 1336,
      "Ġà¤¸à¤¬": 1337,
      "à¤¾à¤¢": 1338,
      "à¥įà¤¯à¤¾à¤ļà¥ĩ": 1339,
      "à¤ķà¤¿": 1340,
      "à¤ľà¤¨": 1341,
      "à¤ģ": 1342,
      "à¤ľà¤¿à¤¸": 1343,
      "à¥įà¤¯à¤¾à¤ª": 1344,
      "à¤ķà¥įà¤·à¤¾": 1345,
      "Ġfl": 1346,
      "ick": 1347,
      "Ġwater": 1348,
      "Ġà¤ķà¥ģà¤Ľ": 1349,
      "à¤§à¥Ģ": 1350,
      "Ġrem": 1351,
      "Ġinv": 1352,
      "Ġsc": 1353,
      "ond": 1354,
      "ever": 1355,
      "Ġsuch": 1356,
      "à¤¸à¥įà¤Ł": 1357,
      "à¤ļà¥įà¤ļ": 1358,
      "Ġsub": 1359,
      "Ġà¤¹à¥ĭà¤¨à¥ĩ": 1360,
      "à¤¥à¤¾": 1361,
      "à¤¿à¤ķà¤¾": 1362,
      "à¥įà¤Ľ": 1363,
      "If": 1364,
      "à¤£à¤¾à¤°": 1365,
      "ily": 1366,
      "Ġbetween": 1367,
      "à¤¾à¤¤à¥Ģà¤²": 1368,
      "Ġà¤Łà¥Ģ": 1369,
      "à¥ĩà¤¨": 1370,
      "à¤¬à¤°": 1371,
      "Ġco": 1372,
      "à¥įà¤¯à¤®": 1373,
      "Ġà¤Ĺà¥įà¤°": 1374,
      "à¤¾à¤µà¤¾": 1375,
      "Ġà¤µà¤°à¥įà¤·": 1376,
      "à¤¿à¤Ĺ": 1377,
      "ered": 1378,
      "ology": 1379,
      "Ġà¤®à¤¾à¤°": 1380,
      "à¤Ĺà¥įà¤°": 1381,
      "Ġcould": 1382,
      "ants": 1383,
      "à¥©": 1384,
      "wn": 1385,
      "âĢĶ": 1386,
      "Ġhealth": 1387,
      "ident": 1388,
      "Ġà¤¦à¥ĭà¤¨": 1389,
      "à¥įà¤¯à¤¾à¤¨à¥ĩ": 1390,
      "Ġsm": 1391,
      "à¤¿à¤²à¤¾": 1392,
      "Ġà¤ľà¤¾à¤¤à¤¾": 1393,
      "chn": 1394,
      "ited": 1395,
      "à¤ıà¤ķ": 1396,
      "Ġà¤ªà¤¾à¤°": 1397,
      "Ġpres": 1398,
      "Ġget": 1399,
      "à¤°à¥įà¤¸": 1400,
      "Ġà¤ħà¤Ń": 1401,
      "ural": 1402,
      "Ġà¤īà¤¤": 1403,
      "ting": 1404,
      "ps": 1405,
      "à¤¿à¤ķà¥įà¤·": 1406,
      "chool": 1407,
      "Ġimport": 1408,
      "Ġà¤®à¤¿à¤³": 1409,
      "Ġà¤ķà¤¹": 1410,
      "à¤¾à¤¸à¥įà¤¤": 1411,
      "à¤Ŀ": 1412,
      "land": 1413,
      "à¥«": 1414,
      "Ġà¤ĩà¤¨": 1415,
      "à¤¬à¥Ģ": 1416,
      "à¤°à¥įà¤Ĺ": 1417,
      "ins": 1418,
      "other": 1419,
      "Ġhigh": 1420,
      "Ġmake": 1421,
      "à¤ļà¥įà¤Ľ": 1422,
      "meric": 1423,
      "Ġà¤ªà¤¹à¤²à¥ĩ": 1424,
      "ef": 1425,
      "à¤ªà¥Ĥ": 1426,
      "ines": 1427,
      "Ġà¤Ĩà¤ľ": 1428,
      "Ġtrans": 1429,
      "à¥ĩà¤Ĥà¤¦à¥įà¤°": 1430,
      "Ġpers": 1431,
      "Ġà¤ķà¥ĩà¤²à¥Ģ": 1432,
      "Ġà¤¸à¤®à¤¯": 1433,
      "hes": 1434,
      "Ġinclud": 1435,
      "Ġà¤ħà¤²": 1436,
      "à¥įà¤¯à¥ĭà¤Ĥ": 1437,
      "Ġear": 1438,
      "à¥įà¤¹à¥ĩà¤Ĥ": 1439,
      "à¤¸à¥įà¤µ": 1440,
      "Ġ'": 1441,
      "à¤¿à¤¹": 1442,
      "Ġà¤ľà¤¾à¤ı": 1443,
      "We": 1444,
      "Ġbu": 1445,
      "Ġà¤¶à¤ķ": 1446,
      "ron": 1447,
      "à¤°à¥įà¤ļ": 1448,
      "ivers": 1449,
      "Ġnum": 1450,
      "Ġexam": 1451,
      "ict": 1452,
      "ata": 1453,
      "ists": 1454,
      "formation": 1455,
      "Ġpol": 1456,
      "Ġinter": 1457,
      "à¥Īà¤¸à¥ĩ": 1458,
      "Ġà¤ħà¤µ": 1459,
      "Ġà¤°à¤ĸ": 1460,
      "Ġform": 1461,
      "à¤¦à¥įà¤§": 1462,
      "à¥Īà¤¨": 1463,
      "ĠThe": 1464,
      "Ġher": 1465,
      "à¤Ĥà¤ª": 1466,
      "How": 1467,
      "ism": 1468,
      "ness": 1469,
      "oy": 1470,
      "aking": 1471,
      "gy": 1472,
      "à¤¦à¤¾": 1473,
      "ually": 1474,
      "à¥įà¤¯à¤¾à¤ļà¤¾": 1475,
      "any": 1476,
      "Ġmod": 1477,
      "ollow": 1478,
      "Ġà¤µà¤¿à¤Ń": 1479,
      "urn": 1480,
      "Ġà¤Ĩà¤¯": 1481,
      "Ġà¤µà¥įà¤¯à¤ķà¥įà¤¤": 1482,
      "Ġworld": 1483,
      "Ġà¤¦à¤¿à¤¨": 1484,
      "à¥ĩà¤®": 1485,
      "Ġlear": 1486,
      "ev": 1487,
      "cept": 1488,
      "à¥ĩà¤¤à¥įà¤°": 1489,
      "Ġinst": 1490,
      "Ġrese": 1491,
      "ature": 1492,
      "Ġà¤Ĺà¤ı": 1493,
      "get": 1494,
      "à¤Ľ": 1495,
      "Ġfound": 1496,
      "Ġway": 1497,
      "Ġà¤ħà¤ªà¤¨à¥Ģ": 1498,
      "ork": 1499,
      "à¤¿à¤¤à¥įà¤°": 1500,
      "à¤°à¤¾à¤ľ": 1501,
      "Ġà¤ķà¥ĭà¤Ī": 1502,
      "Ġlar": 1503,
      "Ġincre": 1504,
      "ution": 1505,
      "Ġdifferent": 1506,
      "Ġvery": 1507,
      "Ġcent": 1508,
      "Ġeffect": 1509,
      "Ġmed": 1510,
      "Ġà¤²à¥ĭà¤ķ": 1511,
      "Ġà¤®à¥ģà¤ĸ": 1512,
      "Ġà¤µà¤¾à¤²à¥ĩ": 1513,
      "ft": 1514,
      "Ġty": 1515,
      "Ġà¤¹à¥ģà¤Ĩ": 1516,
      "Ġexper": 1517,
      "Ġlong": 1518,
      "Ġà¤ķà¥įà¤°": 1519,
      "ically": 1520,
      "à¤¾à¤Ĥà¤¸": 1521,
      "à¤µà¥įà¤¹": 1522,
      "Ġà¤¸à¥įà¤Ł": 1523,
      "à¤¡à¤¼à¤¾": 1524,
      "à¤¾à¤·à¥įà¤Łà¥įà¤°": 1525,
      "Ġà¤ªà¥įà¤°à¤¶": 1526,
      "à¥ª": 1527,
      "Ġdet": 1528,
      "à¤¡à¤¼à¥ĩ": 1529,
      "Ġsim": 1530,
      "ives": 1531,
      "Ġà¤ĺà¤°": 1532,
      "Ġà¤¦à¥įà¤µà¤¾à¤°à¤¾": 1533,
      "vent": 1534,
      "cer": 1535,
      "cent": 1536,
      "For": 1537,
      "à¥įà¤¯à¤¾à¤®à¥ģà¤³à¥ĩ": 1538,
      "ck": 1539,
      "à¤¿à¤¯à¥ĩ": 1540,
      "arm": 1541,
      "Ġhum": 1542,
      "ds": 1543,
      "Ġà¤ķà¤¾à¤°à¤£": 1544,
      "Ġà¤ªà¥ĭ": 1545,
      "Ġcar": 1546,
      "iew": 1547,
      "à¤²à¤Ĥ": 1548,
      "à¤ľà¤°": 1549,
      "They": 1550,
      "à¥ģà¤¦à¥įà¤§": 1551,
      "Ġà¤®à¥Ģ": 1552,
      "à¤ľà¥ĭ": 1553,
      "Ġà¤Ĩà¤²à¥ĩ": 1554,
      "Ġcount": 1555,
      "à¤¾à¤Ĥà¤ļà¥įà¤¯à¤¾": 1556,
      "Ġà¤Ĩà¤®": 1557,
      "Ġà¤Ńà¤¾à¤°à¤¤": 1558,
      "He": 1559,
      "à¤¿à¤§": 1560,
      "Ġà¤ľà¤¾à¤¨": 1561,
      "Ġsign": 1562,
      "ĠY": 1563,
      "ues": 1564,
      "Ġà¤¨à¤¾à¤®": 1565,
      "Ġvar": 1566,
      "Ġà¤²à¥ĭà¤Ĺà¥ĭà¤Ĥ": 1567,
      "Ġà¤ªà¥Ģ": 1568,
      "Ġà¤°à¤¾à¤¹": 1569,
      "As": 1570,
      "Ġjust": 1571,
      "à¥Ĥà¤®": 1572,
      "Ġke": 1573,
      "Ġà¤µà¤¿à¤¦": 1574,
      "There": 1575,
      "à¥įà¤¯à¤¾à¤¯": 1576,
      "Ġthose": 1577,
      "be": 1578,
      "à¤ķà¥įà¤ķ": 1579,
      "Ġprog": 1580,
      ".âĢĿ": 1581,
      "à¤¾à¤µà¥ĩ": 1582,
      "à¤ķà¤¾à¤°à¥Ģ": 1583,
      "à¤§à¤¾à¤°": 1584,
      "à¤ıà¤¸": 1585,
      "Ġà¤ªà¥įà¤°à¤ķà¤¾à¤°": 1586,
      "à¥įà¤¬": 1587,
      "ases": 1588,
      "Ġà¤ħà¤¸à¤²": 1589,
      "Ġgener": 1590,
      "Ġà¤¤à¤°à¤¹": 1591,
      "à¤¿à¤µà¤¾à¤°": 1592,
      "tle": 1593,
      "led": 1594,
      "Ġafter": 1595,
      "Ġref": 1596,
      "Ġfact": 1597,
      "Ġà¤¬à¤¾à¤°": 1598,
      "à¥įà¤Ĺ": 1599,
      "Ġsee": 1600,
      "Ġresp": 1601,
      "à¤ķà¥įà¤Ł": 1602,
      "Ġà¤Ĺà¥ĭ": 1603,
      "vern": 1604,
      "iron": 1605,
      "ĠAmeric": 1606,
      "à¥įà¤°à¥Ģà¤¯": 1607,
      "ruct": 1608,
      "Ġprocess": 1609,
      "sh": 1610,
      "à¥ģà¤²à¤¿à¤¸": 1611,
      "à¤¾à¤¦à¥Ģ": 1612,
      "ublic": 1613,
      "à¥įà¤¯à¤¾à¤ļà¥įà¤¯à¤¾": 1614,
      "à¤¸à¥įà¤ķ": 1615,
      "à¤¸à¤®": 1616,
      "Ġà¤ħà¤¸à¥ĩ": 1617,
      "ody": 1618,
      "Ġà¤ķà¥įà¤·à¥ĩà¤¤à¥įà¤°": 1619,
      "Ġlife": 1620,
      "Ġed": 1621,
      "ty": 1622,
      "Ġà¤ķà¤¿à¤¸à¥Ģ": 1623,
      "Ġimportant": 1624,
      "à¤²à¥ĩà¤ķà¤¿à¤¨": 1625,
      "Ġà¤¬à¤¤": 1626,
      "Ġext": 1627,
      "ages": 1628,
      "à¤¡à¤¼à¥Ģ": 1629,
      "Ġevery": 1630,
      "Ġà¤ķà¤°à¤¨à¤¾": 1631,
      "à¤Ĥà¤ľ": 1632,
      "Ġpat": 1633,
      "Ġà¤®à¥Į": 1634,
      "à¤¾à¤±": 1635,
      "Ġà¤ķà¤°à¤£à¥įà¤¯à¤¾à¤¤": 1636,
      "à¤µà¤¹": 1637,
      "à¥įà¤£": 1638,
      "Ġà¤¨à¤¿à¤µ": 1639,
      "de": 1640,
      "Ġchildren": 1641,
      "à¤°à¥įà¤¦": 1642,
      "à¤¿à¤Ĥà¤¹": 1643,
      "Ġà¤īà¤¦": 1644,
      "ather": 1645,
      "Ġà¤ķà¤²": 1646,
      "Ġà¤ķà¤¾à¤¹à¥Ģ": 1647,
      "à¥įà¤²à¥Ģ": 1648,
      "with": 1649,
      "Ġbut": 1650,
      "imes": 1651,
      "à¤¾à¤²à¤¯": 1652,
      "ized": 1653,
      "Ġbeing": 1654,
      "Ġresult": 1655,
      "à¥¬": 1656,
      "Ġcall": 1657,
      "Ġà¤¹à¥ĭà¤¤": 1658,
      "Ġloc": 1659,
      "Ġà¤¤à¥ģà¤®": 1660,
      "Ġset": 1661,
      "Ġà¤¨à¤¿à¤¯": 1662,
      "Ġà¤¸à¤ķà¤¤à¤¾": 1663,
      "à¤¦à¤¿": 1664,
      "Ġinformation": 1665,
      "Ġà¤¹à¥ģà¤Ī": 1666,
      "ices": 1667,
      "à¤¿à¤£": 1668,
      "à¤Ńà¤¾à¤µ": 1669,
      "à¥ģà¤¸à¤¾à¤°": 1670,
      "Ġà¤ĺà¥ĩ": 1671,
      "à¤¶à¥įà¤¯": 1672,
      "à¤¬à¤Ĥà¤§": 1673,
      "à¤¤à¥Ģà¤¯": 1674,
      "ave": 1675,
      "Ġmuch": 1676,
      "à¤ķà¥ĭà¤Ĥ": 1677,
      "Ġrequ": 1678,
      "io": 1679,
      "à¥įà¤ł": 1680,
      "ward": 1681,
      "à¥ĩà¤¡": 1682,
      "Ġà¤¬à¥Ī": 1683,
      "Ġsoc": 1684,
      "à¥ģà¤ķà¥įà¤¤": 1685,
      "à¤¸à¤°": 1686,
      "Ġown": 1687,
      "Ġà¤¦à¤¿à¤µ": 1688,
      "xt": 1689,
      "Ġtechn": 1690,
      "Ġfollow": 1691,
      "gg": 1692,
      "Ġcommun": 1693,
      "Ġdist": 1694,
      "à¤ªà¥ģà¤°": 1695,
      "Ġsame": 1696,
      "à¥įà¤¹à¥Ģ": 1697,
      "à¤¹à¤®": 1698,
      "St": 1699,
      "à¤Ńà¤¾à¤°": 1700,
      "cri": 1701,
      "à¥ģà¤µ": 1702,
      "à¥įà¤Łà¥Ģ": 1703,
      "Ġà¤¬à¤¢à¤¼": 1704,
      "Ġcre": 1705,
      "Ġmy": 1706,
      "Ġà¤ľà¤¿à¤¸": 1707,
      "Ġfam": 1708,
      "Ġà¤ªà¥ģà¤°": 1709,
      "à¤¤à¥Ģà¤²": 1710,
      "Ġà¤ķà¤°à¥ĩà¤Ĥ": 1711,
      "Ġlevel": 1712,
      "But": 1713,
      "Ġeach": 1714,
      "Ġent": 1715,
      "à¤¾à¤Ń": 1716,
      "orm": 1717,
      "Ġright": 1718,
      "Ġà¤ıà¤µ": 1719,
      "Ġà¤¸à¥įà¤ª": 1720,
      "à¥įà¤¯à¤¾à¤¦": 1721,
      "Ġdef": 1722,
      "Ġà¤ĺà¥ĩà¤¤": 1723,
      "à¥įà¤¹à¤¾": 1724,
      "Ġbecause": 1725,
      "à¥įà¤¯à¤¾à¤µà¤°": 1726,
      "ection": 1727,
      "omm": 1728,
      "und": 1729,
      "à¤ĩà¤¸à¤ķà¥ĩ": 1730,
      "Ġdisc": 1731,
      "Ġà¤Ńà¤¾à¤Ĺ": 1732,
      "ted": 1733,
      "à¤ªà¤¾à¤¸": 1734,
      "ize": 1735,
      "Ġart": 1736,
      "à¤¨à¥ĩà¤ķ": 1737,
      "Ġread": 1738,
      "Ġà¤ļà¤²": 1739,
      "à¤ķà¥įà¤°à¤®": 1740,
      "Ġà¤ķà¥ĩà¤²à¤¾": 1741,
      "à¥¯": 1742,
      "Ġeven": 1743,
      "à¤¾à¤£à¥Ģ": 1744,
      "Ġfood": 1745,
      "à¤¾à¤Ĥà¤ļ": 1746,
      "à¥įà¤ľ": 1747,
      "à¥ģà¤Ń": 1748,
      "ah": 1749,
      "ļà¤¾à¤°": 1750,
      "Ġdec": 1751,
      "read": 1752,
      "Ġà¤ªà¥įà¤°à¤®": 1753,
      "à¤£à¥ĩ": 1754,
      "à¤¾à¤ªà¥įà¤¤": 1755,
      "Ġà¤ķà¤°à¤¤à¤¾": 1756,
      "stand": 1757,
      "ale": 1758,
      "à¥ĩà¤°": 1759,
      "Ġsk": 1760,
      "Ġmade": 1761,
      "Ġwhere": 1762,
      "à¤¾à¤Ĥà¤ļà¥Ģ": 1763,
      "Ġà¤¸à¤¾à¤Ĥà¤Ĺ": 1764,
      "Ġà¤¨à¤¿à¤ķ": 1765,
      "Ġà¤°à¤¾à¤ľà¥įà¤¯": 1766,
      "Ġproble": 1767,
      "à¤ľà¤¬": 1768,
      "Ġà¤Ŀà¤¾à¤²": 1769,
      "Ġstr": 1770,
      "Ġduring": 1771,
      "Ġperson": 1772,
      "ient": 1773,
      "Ġdoes": 1774,
      ".,": 1775,
      "à¤¿à¤¸à¥įà¤¤": 1776,
      "Ġstudy": 1777,
      "à¤¿à¤Ĥà¤¦": 1778,
      "Ġfind": 1779,
      "Ġà¤®à¤¾à¤¹": 1780,
      "me": 1781,
      "Ġgrow": 1782,
      "Ġca": 1783,
      "Ġdep": 1784,
      "rop": 1785,
      "à¥Ģà¤¤": 1786,
      "iversity": 1787,
      "à¥Ģà¤°": 1788,
      "Ġgood": 1789,
      "Ġpartic": 1790,
      "à¤²à¥įà¤²": 1791,
      "viron": 1792,
      "Ġà¤ľà¤¬": 1793,
      "à¤ļà¤¾à¤°": 1794,
      "à¤ıà¤®": 1795,
      "à¥įà¤ŀà¤¾à¤¨": 1796,
      "An": 1797,
      "à¥īà¤²": 1798,
      "Ġlead": 1799,
      "Ġaut": 1800,
      "Ġdata": 1801,
      "Ġstudents": 1802,
      "Ġback": 1803,
      "à¥ģà¤Ĺ": 1804,
      "Ġà¤¹à¤¾": 1805,
      "Ġà¤ķà¤Ī": 1806,
      "Ġyears": 1807,
      "omen": 1808,
      "Ġà¤²à¥ĩà¤ķà¤°": 1809,
      "rol": 1810,
      "Ġcur": 1811,
      "you": 1812,
      "Ġà¤¸à¥Ĥ": 1813,
      "Ġà¤¬à¤¹à¥ģà¤¤": 1814,
      "Ġins": 1815,
      "à¤¿à¤²à¥įà¤®": 1816,
      "ality": 1817,
      "à¤¾à¤Ĭ": 1818,
      "à¥®": 1819,
      "Ġà¤ĺà¤Ł": 1820,
      "rain": 1821,
      "Ġà¤¸à¤ķà¤¤à¥ĩ": 1822,
      "Ġmon": 1823,
      "Ġà¤®à¥Ī": 1824,
      "cient": 1825,
      "Ġpop": 1826,
      "à¤£à¥įà¤¯à¤¾à¤¤": 1827,
      "Ġgrou": 1828,
      "Ġav": 1829,
      "up": 1830,
      "ince": 1831,
      "Ġà¤Łà¥įà¤°": 1832,
      "à¥ģà¤Ł": 1833,
      "à¤ľà¤¾à¤°": 1834,
      "ix": 1835,
      "Ġà¤¤à¤¥à¤¾": 1836,
      "Ġà¤ħà¤¬": 1837,
      "ivid": 1838,
      "ock": 1839,
      "ially": 1840,
      "Ġà¤®à¤¾à¤®": 1841,
      "à¤¦à¤¾à¤¨": 1842,
      "der": 1843,
      "Ġend": 1844,
      "ax": 1845,
      "à¤Ĩà¤ª": 1846,
      "à¥ĩà¤¶à¤¨": 1847,
      "oh": 1848,
      "Ġà¤ľà¤¿à¤²": 1849,
      "à¤¿à¤ļ": 1850,
      "orn": 1851,
      "inal": 1852,
      "à¤īà¤¨à¥įà¤¹à¥ĭà¤Ĥà¤¨à¥ĩ": 1853,
      "iel": 1854,
      "||": 1855,
      "What": 1856,
      "ved": 1857,
      "Ġsmall": 1858,
      "à¤¾à¤°à¥įà¤¥": 1859,
      "Ġschool": 1860,
      "à¤ĩà¤¨": 1861,
      "à¤°à¥įà¤¡": 1862,
      "Ġcomple": 1863,
      "à¤°à¤¿à¤ķ": 1864,
      "à¥ĭà¤¡": 1865,
      "Ġà¤°à¥ģà¤ª": 1866,
      "Ġagain": 1867,
      "nce": 1868,
      "air": 1869,
      "Ġche": 1870,
      "à¤ķà¤°à¤£": 1871,
      "à¤Łà¤°": 1872,
      "ished": 1873,
      "ash": 1874,
      "ran": 1875,
      "à¥Ń": 1876,
      "Al": 1877,
      "Ġhist": 1878,
      "dition": 1879,
      "Ġtreat": 1880,
      "Ġà¤ªà¤¾à¤¹": 1881,
      "à¤¦à¤°": 1882,
      "You": 1883,
      "Ġà¤¶à¥ģà¤°": 1884,
      "ergy": 1885,
      "à¤¾à¤ī": 1886,
      "à¤ķà¤²": 1887,
      "imate": 1888,
      "à¤®à¤¹": 1889,
      "Ġbefore": 1890,
      "Ġhim": 1891,
      "they": 1892,
      "Ġtest": 1893,
      "Ġprot": 1894,
      "Ġà¤¸à¤Ńà¥Ģ": 1895,
      "à¤°à¥įà¤ķ": 1896,
      "Ġexpl": 1897,
      "ral": 1898,
      "Ġà¤īà¤¨à¤ķà¥ĩ": 1899,
      "Ġà¤¸à¤¿à¤Ĥà¤¹": 1900,
      "Ġthen": 1901,
      "gen": 1902,
      "Ġà¤µà¤¿à¤ļà¤¾à¤°": 1903,
      "not": 1904,
      "Ch": 1905,
      "à¤¾à¤¸à¤¨": 1906,
      "Ġà¤ħà¤¨à¥įà¤¯": 1907,
      "akes": 1908,
      "aj": 1909,
      "pro": 1910,
      "Ġval": 1911,
      "Ġà¤Ĩà¤°": 1912,
      "Ġday": 1913,
      "Ġà¤Ŀà¤¾à¤²à¥ĩ": 1914,
      "Ġà¤¤à¥Ģà¤¨": 1915,
      "Ġà¤¬à¤¦": 1916,
      "irect": 1917,
      "Ġgl": 1918,
      "à¤¾à¤ľà¥Ģ": 1919,
      "Ġbo": 1920,
      "Ġmain": 1921,
      "Ġposs": 1922,
      "à¤¶à¤¨": 1923,
      "ulation": 1924,
      "ands": 1925,
      "Ġà¤¦à¥Įà¤°": 1926,
      "à¤¤à¥įà¤¤à¤°": 1927,
      "ury": 1928,
      "vironment": 1929,
      "Ġnumber": 1930,
      "à¤īà¤¸": 1931,
      "Ġsaid": 1932,
      "Ġris": 1933,
      "Ġsol": 1934,
      "à¤¿à¤¤à¤¾": 1935,
      "Ġdise": 1936,
      "Ġà¤ķà¤¾à¤¯": 1937,
      "ier": 1938,
      "ined": 1939,
      "Ġà¤¨à¤¿à¤°à¥įà¤®": 1940,
      "à¤¤à¥įà¤¨": 1941,
      "Ġà¤ªà¤¾à¤¸": 1942,
      "ead": 1943,
      "Ġshow": 1944,
      "à¤¾à¤ķà¤°": 1945,
      "Ġà¤µà¤¿à¤°": 1946,
      "Ġà¤¹à¥ĭà¤Ĺà¤¾": 1947,
      "Ġstate": 1948,
      "When": 1949,
      "iety": 1950,
      "Ġless": 1951,
      "Ġtake": 1952,
      "Ġusing": 1953,
      "iqu": 1954,
      "ides": 1955,
      "iving": 1956,
      "Ġgra": 1957,
      "ears": 1958,
      "pr": 1959,
      "Ġ.": 1960,
      "à¥įà¤¯à¤¾à¤²à¤¾": 1961,
      "Ġserv": 1962,
      "à¤¤à¥įà¤¯": 1963,
      "by": 1964,
      "uss": 1965,
      "Ġà¤µà¤¿à¤Ńà¤¾à¤Ĺ": 1966,
      "à¤µà¤¾à¤¨": 1967,
      "These": 1968,
      "Ġà¤ıà¤µà¤Ĥ": 1969,
      "Ġpower": 1970,
      "Ġlit": 1971,
      "ĠPro": 1972,
      "Ġà¤µà¤¿à¤§": 1973,
      "Ġboth": 1974,
      "Ġbody": 1975,
      "Ġocc": 1976,
      "Ġactiv": 1977,
      "à¤¨à¥įà¤¦": 1978,
      "Ġà¤ħà¤¨à¥ĩà¤ķ": 1979,
      "ital": 1980,
      "self": 1981,
      "ger": 1982,
      "Ġà¤¹à¤°": 1983,
      "Ġoften": 1984,
      "ribut": 1985,
      "Ġdi": 1986,
      "ters": 1987,
      "Ġà¤ªà¥įà¤°à¤µ": 1988,
      "à¤²à¥ĩà¤²à¥įà¤¯à¤¾": 1989,
      "Ġorgan": 1990,
      "à¤¡à¥Ĥà¤¨": 1991,
      "Ġcell": 1992,
      "ves": 1993,
      "Ġmem": 1994,
      "à¥¥": 1995,
      "Ġhuman": 1996,
      "à¥įà¤°à¤®": 1997,
      "à¤¾à¤ľà¤ª": 1998,
      "Ġà¤µà¤¿à¤µ": 1999,
      "hers": 2000,
      "Ġnow": 2001,
      "Ġfun": 2002,
      "Ġà¤ĩà¤¤": 2003,
      "Ġsupport": 2004,
      "Ġdown": 2005,
      "Ġà¤ļà¥ģ": 2006,
      "Ġà¤¬à¥įà¤°": 2007,
      "à¤¶à¤¾": 2008,
      "day": 2009,
      ".\"": 2010,
      "Ġà¤µà¤¿à¤¶à¥įà¤µ": 2011,
      "Ġaround": 2012,
      "Ġà¤ľà¤¾à¤¨à¥ĩ": 2013,
      "Ġà¤ªà¥ģà¤²à¤¿à¤¸": 2014,
      "ĠNew": 2015,
      "Ġà¤¤à¥Ģ": 2016,
      "Ġchar": 2017,
      "Ġà¤«à¤¿à¤°": 2018,
      "Ġbel": 2019,
      "Ġà¤ľà¤Ĺ": 2020,
      "Ġresearch": 2021,
      "ars": 2022,
      "à¥Ĥà¤Ĥ": 2023,
      "à¥ĭà¤ª": 2024,
      "Ġdesign": 2025,
      "Ġà¤Ńà¤°": 2026,
      "Ġmust": 2027,
      "Ġshe": 2028,
      "Ġà¤ķà¤°à¥Ĥà¤¨": 2029,
      "à¤¤à¥įà¤µ": 2030,
      "Ġclass": 2031,
      "à¤§à¤¾à¤¨": 2032,
      "ouse": 2033,
      "ĠInd": 2034,
      "Ġcommon": 2035,
      "Ġgreat": 2036,
      "Ġà¤ħà¤§à¥įà¤¯": 2037,
      "ains": 2038,
      "Ġthree": 2039,
      "Ġvis": 2040,
      "ross": 2041,
      "Ġà¤Ĩà¤°à¥ĭ": 2042,
      "à¤¤à¥įà¤¯à¤¾à¤Ĥ": 2043,
      "vernment": 2044,
      "Ġplan": 2045,
      "à¤¾à¤®à¥Ģ": 2046,
      "à¥ĩà¤¹": 2047,
      "Ġà¤¬à¤¤à¤¾à¤¯à¤¾": 2048,
      "Ġmin": 2049,
      "Ġà¤ªà¤¹à¥ģ": 2050,
      "âĢĺ": 2051,
      "hip": 2052,
      "Ġexample": 2053,
      "ared": 2054,
      "Ġà¤¶à¤¾à¤®": 2055,
      "itions": 2056,
      "à¤Ĥà¤¬à¤Ī": 2057,
      "Ġlook": 2058,
      "that": 2059,
      "Ġest": 2060,
      "And": 2061,
      "Ġstart": 2062,
      "acter": 2063,
      "Ġà¤µà¥Ī": 2064,
      "Ġconf": 2065,
      "à¤¿à¤¡": 2066,
      "Ġà¤Ĩà¤¤": 2067,
      "Ġà¤®à¤¤": 2068,
      "à¤¶à¥įà¤¯à¤ķ": 2069,
      "Ġà¤ªà¥įà¤°à¤¦à¥ĩà¤¶": 2070,
      "Ġdid": 2071,
      "Ġpoint": 2072,
      "ional": 2073,
      "Ġà¤¶à¤¿à¤ķà¥įà¤·": 2074,
      "Ġser": 2075,
      "à¥ĭà¤·": 2076,
      "Ġà¤²à¤¿à¤¯à¤¾": 2077,
      "Ġà¤µà¤¾à¤¢": 2078,
      "à¥ģà¤®à¤¾à¤°": 2079,
      "à¤®à¤¾": 2080,
      "Ġà¤ķà¤°à¤¤": 2081,
      "Ġà¤²à¤ķà¥įà¤·": 2082,
      "Ġredu": 2083,
      ",âĢĿ": 2084,
      "Ġcare": 2085,
      "Ġcle": 2086,
      "Ġcontin": 2087,
      "à¤¾à¤¤à¤¾": 2088,
      "Ġà¤¸à¥įà¤¥à¤¿à¤¤": 2089,
      "à¥ĩà¤¦": 2090,
      "à¤¾à¤ĩà¤¨": 2091,
      "min": 2092,
      "Ġà¤®à¤¦": 2093,
      "Ġà¤īà¤¨à¥įà¤¹à¥ĩà¤Ĥ": 2094,
      "Ġelect": 2095,
      "à¤±": 2096,
      "ven": 2097,
      "à¥ĩà¤ľ": 2098,
      "à¥ģà¤Ŀ": 2099,
      "way": 2100,
      "ĠAr": 2101,
      "Ġconsid": 2102,
      "Ġlarge": 2103,
      "Ġbr": 2104,
      "outh": 2105,
      "à¤¾à¤¡à¤¼": 2106,
      "Ġà¤¸à¥įà¤ķ": 2107,
      "à¤®à¤¨": 2108,
      "man": 2109,
      "à¤Ńà¤¾": 2110,
      "Ġà¤¸à¤Ĥà¤¬à¤Ĥà¤§": 2111,
      "à¤¯à¤¾à¤°": 2112,
      "ull": 2113,
      "à¥ĭà¤¡à¤¼": 2114,
      "à¤¤à¥įà¤¯à¤¾": 2115,
      "Ġà¤ľà¤°": 2116,
      "Ġà¤ļà¤¾à¤¹à¤¿à¤ı": 2117,
      "Ġcour": 2118,
      "ets": 2119,
      "rent": 2120,
      "Ġà¤¯à¥ĩà¤¥": 2121,
      "à¤¦à¤°à¥įà¤¶": 2122,
      "Ġà¤«à¤¿à¤²à¥įà¤®": 2123,
      "à¥ĥà¤·": 2124,
      "à¤¿à¤¦à¥įà¤§": 2125,
      "conom": 2126,
      "à¤²à¤¬": 2127,
      "ien": 2128,
      "iven": 2129,
      "à¥ĭà¤ľà¤¨": 2130,
      "à¥įà¤¯à¤¾à¤²à¤¯": 2131,
      "Ġà¤ħà¤¸à¥Ĥà¤¨": 2132,
      "Ġcor": 2133,
      "Ġà¤ªà¤¦": 2134,
      "Ġà¤ªà¥įà¤°à¤¾à¤ªà¥įà¤¤": 2135,
      "Ġà¤īà¤¤à¥įà¤ª": 2136,
      "Ġà¤ļà¥Į": 2137,
      "pect": 2138,
      "à¤Ĥà¤¸": 2139,
      "Ġunderstand": 2140,
      "à¥ĩà¤¬": 2141,
      "à¤ķà¤¾à¤¶": 2142,
      "Ġà¤Łà¥Ģà¤®": 2143,
      "Ġà¤ļà¤¾à¤°": 2144,
      "there": 2145,
      "ute": 2146,
      "Ġà¤¬à¥Ģà¤ļ": 2147,
      "Ġà¤¯à¥ĭà¤Ĺ": 2148,
      "à¥ĭà¤¤": 2149,
      "ont": 2150,
      "à¤Ĳ": 2151,
      "à¤°à¥įà¤¨": 2152,
      "Ġà¤¦à¥Ĥà¤¸": 2153,
      "à¤°à¤µ": 2154,
      "à¥įà¤¯à¤¾à¤¨à¤Ĥà¤¤à¤°": 2155,
      "Ġà¤ĸà¤¿à¤²": 2156,
      "ving": 2157,
      "Ġconst": 2158,
      "oci": 2159,
      "à¤¨à¥įà¤¨": 2160,
      "ividual": 2161,
      "à¥Ģà¤¯": 2162,
      "à¤¾à¤¸à¤¾à¤łà¥Ģ": 2163,
      "eng": 2164,
      "Ġà¤¬à¥Īà¤ł": 2165,
      "à¤µà¤²": 2166,
      "aterial": 2167,
      "Ġreport": 2168,
      "Ġà¤¶à¥įà¤°à¥Ģ": 2169,
      "à¤ĵ": 2170,
      "à¤Ĥà¤ķ": 2171,
      "à¥ĩà¤Ĥà¤Ł": 2172,
      "à¥ĥà¤·à¥įà¤Ł": 2173,
      "à¤Ĭà¤¨": 2174,
      "à¤¤à¥įà¤¯à¤¾à¤®à¥ģà¤³à¥ĩ": 2175,
      "oms": 2176,
      "Ġà¤¦à¥Įà¤°à¤¾à¤¨": 2177,
      "Ġà¤ªà¥įà¤°à¤¯": 2178,
      "Ġà¤ªà¥Ĥà¤°à¥įà¤µ": 2179,
      "erest": 2180,
      "à¥ĩà¤²à¥įà¤¯à¤¾": 2181,
      "ired": 2182,
      "à¥ĩà¤ĸ": 2183,
      "Ġadv": 2184,
      "Ġret": 2185,
      "Ġà¤ķà¤¿à¤Ĥ": 2186,
      "Ġstill": 2187,
      "osed": 2188,
      "els": 2189,
      "bs": 2190,
      "less": 2191,
      "Ġop": 2192,
      "Ġpract": 2193,
      "ium": 2194,
      "Ġà¤ķà¤ª": 2195,
      "Ġbuild": 2196,
      "oun": 2197,
      "à¤¤à¤ĥ": 2198,
      "Ġà¤ķà¤Ĥà¤ª": 2199,
      "ential": 2200,
      "lish": 2201,
      "à¤®à¤¾à¤°": 2202,
      "à¤¸à¥įà¤¥à¤¾": 2203,
      "itive": 2204,
      "Ġequ": 2205,
      "Ġà¤®à¥ĭà¤ł": 2206,
      "ries": 2207,
      "iod": 2208,
      "à¥Ĥà¤ķ": 2209,
      "However": 2210,
      "Ġà¤Ńà¤¾à¤°à¤¤à¥Ģà¤¯": 2211,
      "Ġà¤¸à¤¦": 2212,
      "Ġà¤Ĩà¤Ī": 2213,
      "port": 2214,
      "Ġbeh": 2215,
      "Ġà¤¸à¥įà¤¤": 2216,
      "à¤ľà¤¼": 2217,
      "ik": 2218,
      "à¤°à¥įà¤§": 2219,
      "cience": 2220,
      "bers": 2221,
      "Ġquest": 2222,
      "à¤¿à¤«": 2223,
      "ids": 2224,
      "Ġeduc": 2225,
      "Ġà¤ªà¥Ī": 2226,
      "Ġthink": 2227,
      "à¤¾à¤Ĥà¤ļà¤¾": 2228,
      "ense": 2229,
      "Ġà¤¸à¤Ĥà¤ĺ": 2230,
      "Ġplace": 2231,
      "Ġide": 2232,
      "ization": 2233,
      "Ġpublic": 2234,
      "à¤¯à¤°": 2235,
      "eral": 2236,
      "ering": 2237,
      "raph": 2238,
      "à¤ĸà¥įà¤¯à¤¾": 2239,
      "cond": 2240,
      "à¤¿à¤¬": 2241,
      "Ġà¤µà¤¾à¤ª": 2242,
      "à¤¾à¤¯à¤ķ": 2243,
      "ior": 2244,
      "Ġà¤µà¤¿à¤¶à¥ĩà¤·": 2245,
      "à¤¾à¤¸à¥įà¤¥": 2246,
      "ources": 2247,
      "Ġà¤Ĺà¤¾à¤Ĥ": 2248,
      "ration": 2249,
      "Ġfew": 2250,
      "Ġà¤Ĩà¤²à¥Ģ": 2251,
      "Ġeas": 2252,
      "ason": 2253,
      "iness": 2254,
      "Ġà¤Ĩà¤µà¤¶à¥įà¤¯à¤ķ": 2255,
      "à¤µà¤¾à¤²": 2256,
      "ner": 2257,
      "To": 2258,
      "Ġà¤Ī": 2259,
      "ertain": 2260,
      "Ġallow": 2261,
      "Ġwrit": 2262,
      "ination": 2263,
      "Ġà¤ķà¥įà¤¯à¤¾": 2264,
      "Ġà¤ľà¤¾à¤¤à¥ĩ": 2265,
      "Ġcalled": 2266,
      "Ġà¤ªà¥įà¤°à¤¸": 2267,
      "Ġmat": 2268,
      "à¤¸à¥ĭ": 2269,
      "ived": 2270,
      "Ġgu": 2271,
      "Ġà¤Ŀà¤¾à¤²à¥Ģ": 2272,
      "à¤¨à¥įà¤¤": 2273,
      "à¥įà¤¯à¤Ĥà¤¤": 2274,
      "ffic": 2275,
      "Ġwant": 2276,
      "Ġà¤ķà¥Ī": 2277,
      "Ġmight": 2278,
      "ethod": 2279,
      "à¤Ĩà¤Ī": 2280,
      "mon": 2281,
      "Ġà¤¸à¤¾à¤²": 2282,
      "Ġà¤¬à¥ĭà¤²": 2283,
      "Ġappro": 2284,
      "Ġknown": 2285,
      "ording": 2286,
      "à¤¾à¤·à¥įà¤Ł": 2287,
      "à¤¡à¤£": 2288,
      "tt": 2289,
      "à¤®à¤¤": 2290,
      "Ġà¤¸à¤¬à¤¸à¥ĩ": 2291,
      "uro": 2292,
      "à¤µà¤¾à¤Ī": 2293,
      "alk": 2294,
      "à¤µà¥įà¤¯": 2295,
      "à¤µà¤³": 2296,
      "ption": 2297,
      "Ġà¤µà¤¿à¤ķà¤¾à¤¸": 2298,
      "az": 2299,
      "Ġdr": 2300,
      "includ": 2301,
      "Ġgre": 2302,
      "Ġà¤¡à¥ī": 2303,
      "Ġà¤¦à¤¿à¤²à¥įà¤²à¥Ģ": 2304,
      "eg": 2305,
      "Ġà¤¯à¥ĩà¤¤": 2306,
      "Ġà¤¶à¥įà¤°": 2307,
      "Ġsom": 2308,
      "ug": 2309,
      "Ġenvironment": 2310,
      "Ġtyp": 2311,
      "Ġà¤ļà¥ģà¤¨": 2312,
      "Ġchang": 2313,
      "ians": 2314,
      "Ġpresent": 2315,
      "à¤ļà¤¨à¤¾": 2316,
      "Ġchange": 2317,
      "Ġà¤¶à¤¿à¤µ": 2318,
      "orth": 2319,
      "Ġsym": 2320,
      "Ġà¤¸à¥ģà¤°à¥Ĥ": 2321,
      "à¤°à¥įà¤Ń": 2322,
      "Ġà¤īà¤¸à¤ķà¥ĩ": 2323,
      "Ġà¤µà¤¿à¤·": 2324,
      "ton": 2325,
      "Ġà¤¬à¤¾à¤¹": 2326,
      "angu": 2327,
      "where": 2328,
      "illion": 2329,
      "Ġwithin": 2330,
      "à¤ķà¥įà¤·à¤£": 2331,
      "Ġiss": 2332,
      "Ġà¤Ŀà¤¾à¤²à¤¾": 2333,
      "Ġenergy": 2334,
      "Ġtem": 2335,
      "Ġproduct": 2336,
      "Ġlearn": 2337,
      "Ġà¤ķà¥ī": 2338,
      "ability": 2339,
      "Ġà¤¶à¥ģà¤°à¥Ĥ": 2340,
      "Ġpur": 2341,
      "Ġà¤ľà¤²": 2342,
      "ee": 2343,
      "Ġarea": 2344,
      "Ġà¤¦à¤¿à¤µà¤¸": 2345,
      "Ġà¤ķà¤°à¥įà¤®": 2346,
      "Ġdevelopment": 2347,
      "Ġà¤ĸà¥ĩ": 2348,
      "agn": 2349,
      "Ġà¤¤à¤°à¥Ģ": 2350,
      "à¥Ĥà¤¤": 2351,
      "Ġà¤¦à¤¿à¤¸": 2352,
      "Ġbre": 2353,
      "Ġà¤¶à¤¾à¤®à¤¿à¤²": 2354,
      "Ġmaterial": 2355,
      "à¤¾à¤¤à¥įà¤®": 2356,
      "arent": 2357,
      "Ġà¤īà¤¨à¥įà¤¹à¥ĭà¤Ĥà¤¨à¥ĩ": 2358,
      "à¥įà¤°à¥ĩà¤¸": 2359,
      "Ġindividual": 2360,
      "à¤¾à¤Ĥà¤ļà¥ĩ": 2361,
      "à¥ģà¤¢": 2362,
      "à¤Ĩà¤°": 2363,
      "à¤¾à¤·à¥įà¤Łà¥įà¤°à¥Ģà¤¯": 2364,
      "Ġà¤µà¥įà¤¯à¤µ": 2365,
      "à¤¾à¤§à¤¿à¤ķ": 2366,
      "Ġà¤¬à¤¸": 2367,
      "Ġspe": 2368,
      "à¤ħà¤ª": 2369,
      "Ġmet": 2370,
      "Ġben": 2371,
      "Ġdisease": 2372,
      "ological": 2373,
      "Ġplay": 2374,
      "Ġà¤ħà¤§à¥įà¤¯à¤ķà¥įà¤·": 2375,
      "Ġident": 2376,
      "à¤¿à¤¯à¥ĭ": 2377,
      "Ġà¤¨à¥Ģ": 2378,
      "à¥įà¤¯à¤®à¤Ĥà¤¤à¥įà¤°à¥Ģ": 2379,
      "ats": 2380,
      "cing": 2381,
      "à¥ĩà¤¸à¥įà¤Ł": 2382,
      "à¤¾à¤¯à¤°": 2383,
      "Ġlaw": 2384,
      "Ġà¤¸à¥ģà¤¨": 2385,
      "Ġà¤ħà¤°à¥įà¤¥": 2386,
      "ified": 2387,
      "Ġcap": 2388,
      "med": 2389,
      "par": 2390,
      "Ġpos": 2391,
      "ience": 2392,
      "Ġpass": 2393,
      "à¤¾à¤¤à¥ĩ": 2394,
      "including": 2395,
      "Ġphys": 2396,
      "Ġsit": 2397,
      "Ġproject": 2398,
      "Ġà¤ªà¤ķà¥įà¤·": 2399,
      "ected": 2400,
      "ajor": 2401,
      "Ġà¤¶à¤¹à¤°": 2402,
      "à¤¯à¥Ģ": 2403,
      "atic": 2404,
      "ccess": 2405,
      "à¥Ĥà¤Ł": 2406,
      "à¤¿à¤Łà¥Ģ": 2407,
      "Ġà¤¸à¥įà¤¥à¤¾à¤¨": 2408,
      "à¤£à¥įà¤¯à¤¾à¤¸à¤¾à¤łà¥Ģ": 2409,
      "à¤¾à¤«à¥Ģ": 2410,
      "à¤¿à¤²à¥ĩ": 2411,
      "--": 2412,
      "Ġdon": 2413,
      "ify": 2414,
      "Ġrisk": 2415,
      "Ġimpro": 2416,
      "such": 2417,
      "à¤¹à¤¾à¤²": 2418,
      "Ġhome": 2419,
      "à¤ľà¤¹": 2420,
      "ield": 2421,
      "Ġpot": 2422,
      "ained": 2423,
      "Ġinclude": 2424,
      "rist": 2425,
      "Ġcaus": 2426,
      "Ġair": 2427,
      "Ġà¤µà¤¿à¤ľ": 2428,
      "Ġà¤ľà¥Ģà¤µà¤¨": 2429,
      "Ġà¤®à¤Ĥà¤¤à¥įà¤°à¥Ģ": 2430,
      "ision": 2431,
      "Ġ|": 2432,
      "Ġà¤®à¤¾à¤Ĺ": 2433,
      "...": 2434,
      "Ġbelie": 2435,
      "hor": 2436,
      "Ġà¤¦à¤¿à¤ĸ": 2437,
      "Ġbest": 2438,
      "ww": 2439,
      "Ġdirect": 2440,
      "Ġà¤¬à¤Ĥà¤¦": 2441,
      "Ġinterest": 2442,
      "ank": 2443,
      "à¤ªà¥Ĥà¤°à¥įà¤£": 2444,
      "Ġà¤¨à¤µ": 2445,
      "Ġà¤īà¤¸à¥ĩ": 2446,
      "à¤ľà¤¾": 2447,
      "Ġprof": 2448,
      "Ġà¤µà¥įà¤¹": 2449,
      "Ġhand": 2450,
      "ways": 2451,
      "Ġà¤¬à¤¾à¤°à¥ĩ": 2452,
      "à¤®à¤§": 2453,
      "atural": 2454,
      "how": 2455,
      "Ġà¤ĳà¤«": 2456,
      "Ġà¤ªà¤¡": 2457,
      "Ġanother": 2458,
      "ental": 2459,
      "à¤¾à¤Ĥà¤ķ": 2460,
      "Ġve": 2461,
      "Ġà¤ķà¤®à¥Ģ": 2462,
      "Ġsl": 2463,
      "à¤¨à¥ĭà¤Ĥ": 2464,
      "Ġà¤¬à¥ĭ": 2465,
      "à¤®à¥ģ": 2466,
      "Ġà¤Ńà¤¾à¤µ": 2467,
      "à¤¶à¤²": 2468,
      "Ġà¤Ĩà¤¤à¤¾": 2469,
      "erc": 2470,
      "Ġà¤¸à¤¾à¤§": 2471,
      "Ġbas": 2472,
      "ĠEng": 2473,
      "ently": 2474,
      "à¤Ĥà¤¬à¤°": 2475,
      "Ġcontrol": 2476,
      "Ġà¤ĵà¤°": 2477,
      "à¤ħà¤¸à¥ĩ": 2478,
      "Ġwithout": 2479,
      "Ġà¤®à¤¾à¤²": 2480,
      "Ġà¤µà¤¾à¤²à¥Ģ": 2481,
      "lished": 2482,
      "Ġbecome": 2483,
      "arc": 2484,
      "ĠTh": 2485,
      "Ġlight": 2486,
      "à¤¸à¤²": 2487,
      "à¤®à¤¾à¤¤à¥įà¤°": 2488,
      "ource": 2489,
      "ĠUniversity": 2490,
      "line": 2491,
      "Ġà¤Ńà¤¾à¤ľà¤ª": 2492,
      "à¤¿à¤¯à¤¾à¤Ĥ": 2493,
      "Ġstand": 2494,
      "Ġà¤Ĩà¤ªà¤²à¥įà¤¯à¤¾": 2495,
      "Ġwomen": 2496,
      "à¤¾à¤Ŀ": 2497,
      "Ġopp": 2498,
      "gin": 2499,
      "Ġrest": 2500,
      "à¤¾à¤¤à¥Ģ": 2501,
      "ĠHe": 2502,
      "Ġmeas": 2503,
      "Ġà¤®à¥įà¤¹à¤£à¥Ĥà¤¨": 2504,
      "Ġà¤ľà¤¾à¤¤à¥Ģ": 2505,
      "fe": 2506,
      "Ġà¤¦à¥ĩà¤¨à¥ĩ": 2507,
      "Ġà¤°à¥ĭ": 2508,
      "use": 2509,
      "à¤¿à¤¸à¥įà¤Ł": 2510,
      ",\"": 2511,
      "ission": 2512,
      "ills": 2513,
      "acc": 2514,
      "Ġcult": 2515,
      "Ġold": 2516,
      "à¤¾à¤¸à¥įà¤¥à¥įà¤¯": 2517,
      "Ġà¤¦à¥ĭà¤¨à¥ĭà¤Ĥ": 2518,
      "Ġà¤ªà¥ģ": 2519,
      "à¤¾à¤±à¥įà¤¯à¤¾": 2520,
      "Ġà¤¨à¤¿à¤°à¥įà¤®à¤¾à¤£": 2521,
      "sy": 2522,
      "Ġblood": 2523,
      "Ġà¤ļà¤¾à¤²": 2524,
      "à¤¾à¤Ĥà¤¡": 2525,
      "ĠAmerican": 2526,
      "Ġagainst": 2527,
      "Ġmethod": 2528,
      "Ġthough": 2529,
      "iver": 2530,
      "Ġeng": 2531,
      "Ġsocial": 2532,
      "Ġà¤µà¤¾à¤Ł": 2533,
      "most": 2534,
      "à¤¾à¤¤à¥Ĥà¤¨": 2535,
      "Ġà¤¦à¤¾à¤ĸ": 2536,
      "Ġprogram": 2537,
      "Ġmus": 2538,
      "lu": 2539,
      "Ġorder": 2540,
      "Ġant": 2541,
      "Ġà¤¬à¤ļà¥įà¤ļ": 2542,
      "Ġproper": 2543,
      "over": 2544,
      "Ġbetter": 2545,
      "Ġwar": 2546,
      "ories": 2547,
      "Ġà¤Ĩà¤²à¤¾": 2548,
      "Ġmark": 2549,
      "Ġà¤ķà¥ĭà¤£": 2550,
      "à¤ªà¤Ł": 2551,
      "à¥įà¤¯à¤¾à¤¤à¥Ģà¤²": 2552,
      "Ġmove": 2553,
      "icle": 2554,
      "Ġà¤ľà¤¾à¤£": 2555,
      "amp": 2556,
      "à¥įà¤¯à¤¾à¤¦à¤¾": 2557,
      "Ġà¤ľà¤¾à¤°à¥Ģ": 2558,
      "Ġanim": 2559,
      "à¤¸à¤¾à¤łà¥Ģ": 2560,
      "Ġà¤ħà¤¤": 2561,
      "Ġà¤®à¥ģà¤²": 2562,
      "Ġà¤Ĺà¥ģ": 2563,
      "ern": 2564,
      "Ġpain": 2565,
      "Ġgovernment": 2566,
      "Ġearly": 2567,
      "Ġà¤¬à¤¦à¤²": 2568,
      "à¥ĭà¤°à¥įà¤Ł": 2569,
      "Ġà¤ªà¤¤à¥įà¤°": 2570,
      "à¤Ĩà¤ľ": 2571,
      "Ġà¤¨à¤¾à¤Ĺ": 2572,
      "Ġland": 2573,
      "cle": 2574,
      "app": 2575,
      "Ġanal": 2576,
      "Ġà¤ªà¤°à¤¿à¤µà¤¾à¤°": 2577,
      "ining": 2578,
      "à¤¾à¤ıà¤Ĥ": 2579,
      "Ġà¤®à¤¾à¤¹à¤¿à¤¤à¥Ģ": 2580,
      "ention": 2581,
      "Ġà¤²à¤¿à¤ĸ": 2582,
      "Ġà¤¤à¥įà¤¯à¤¾à¤Ĥà¤¨à¥Ģ": 2583,
      "Ġsever": 2584,
      "Ġà¤®à¤¹à¤¾à¤°": 2585,
      "Ġà¤®à¥Īà¤Ĥ": 2586,
      "Ġleg": 2587,
      "ples": 2588,
      "Ġà¤®à¤°": 2589,
      "à¤¸à¥ĩà¤ļ": 2590,
      "ina": 2591,
      "Ġà¤ķà¤¿à¤Ĥà¤µà¤¾": 2592,
      "Ġcause": 2593,
      "ware": 2594,
      "ised": 2595,
      "ailable": 2596,
      "Ġà¤Ĺà¥ĩ": 2597,
      "Ġgroup": 2598,
      "work": 2599,
      "Ġreal": 2600,
      "Ġlast": 2601,
      "à¤¿à¤¯à¤¨": 2602,
      "Ġà¤ħà¤ļà¥įà¤Ľ": 2603,
      "à¤¾à¤µà¥Ģ": 2604,
      "Ġtri": 2605,
      "Ġele": 2606,
      "à¥ĩà¤Ĥà¤Ĺà¥ĩ": 2607,
      "Ġpossible": 2608,
      "Ġà¤Ĭ": 2609,
      "à¤¦à¥įà¤¦": 2610,
      "Ġpar": 2611,
      "à¤®à¥įà¤®": 2612,
      "Ġhy": 2613,
      "Ġà¤¬à¤¾à¤ľ": 2614,
      "ients": 2615,
      "Ġà¤ķà¥ģ": 2616,
      "who": 2617,
      "à¤µà¤¿à¤§": 2618,
      "inc": 2619,
      "Ġà¤īà¤¨à¤ķà¥Ģ": 2620,
      "Ġprovide": 2621,
      "Ġlow": 2622,
      "Ġmajor": 2623,
      "Ġoper": 2624,
      "ograph": 2625,
      "Ġtre": 2626,
      "Ġfamily": 2627,
      "ards": 2628,
      "à¤ħà¤¨": 2629,
      "On": 2630,
      "this": 2631,
      "Ġà¤µà¥Ģ": 2632,
      "rodu": 2633,
      "Ġà¤ªà¥įà¤°à¤¤à¥įà¤¯": 2634,
      "Ġà¤¦à¥ģ": 2635,
      "Ġà¤łà¥ĩà¤µ": 2636,
      "Ġà¤ķà¥ĩà¤Ĥà¤¦à¥įà¤°": 2637,
      "Ġoccur": 2638,
      "Ġter": 2639,
      "Ġtop": 2640,
      "Ġhistory": 2641,
      "Ġhapp": 2642,
      "Ġdev": 2643,
      "oid": 2644,
      "Ġhere": 2645,
      "Ġà¤¦à¤°": 2646,
      "Ġeconom": 2647,
      "Ġable": 2648,
      "Ġgr": 2649,
      "Ġà¤ħà¤¨à¥ģà¤¸à¤¾à¤°": 2650,
      "Ġà¤¤à¥įà¤¯à¤¾": 2651,
      "ĠIs": 2652,
      "idence": 2653,
      "à¤®à¥ĭ": 2654,
      "à¤£à¤¾": 2655,
      "ogn": 2656,
      "à¥Ĥà¤¦": 2657,
      "Ġà¤īà¤ł": 2658,
      "à¤®à¤°": 2659,
      "à¤¿à¤²à¥Ģ": 2660,
      "à¤¾à¤£à¥ĩ": 2661,
      "Ġmeans": 2662,
      "though": 2663,
      "une": 2664,
      "à¤¶à¥įà¤ļ": 2665,
      "à¤ķà¥įà¤Łà¤°": 2666,
      "So": 2667,
      "Ġà¤ªà¤°à¤¿à¤¸": 2668,
      "ote": 2669,
      "à¤¸à¥įà¤¯": 2670,
      "Ġkeep": 2671,
      "Ġaddition": 2672,
      "Ġcurrent": 2673,
      "Ġà¤ķà¤¿à¤ı": 2674,
      "aid": 2675,
      "à¤¶à¥įà¤µ": 2676,
      "à¤¸à¥įà¤ª": 2677,
      "Ġfore": 2678,
      "rap": 2679,
      "à¤µà¤¾à¤¦": 2680,
      "Ġà¤Ńà¥Ĥà¤®": 2681,
      "years": 2682,
      "Ġà¤¨à¥įà¤¯à¤¾à¤¯": 2683,
      "Ġà¤ķà¤¾à¤³": 2684,
      "Ġà¤Ńà¤¾à¤·": 2685,
      "Ġbenef": 2686,
      "Ġà¤¸à¤Ĥà¤ª": 2687,
      "à¥ĥà¤¤à¥įà¤¤": 2688,
      "Ġinc": 2689,
      "Ġperiod": 2690,
      "à¥įà¤¯à¤¾à¤ķ": 2691,
      "Ġà¤²à¥Ģ": 2692,
      "à¤¾à¤ĩà¤Ł": 2693,
      "ator": 2694,
      "was": 2695,
      "Ġthings": 2696,
      "à¤¬à¥įà¤¦": 2697,
      "Ġà¤ļà¤°à¥įà¤ļ": 2698,
      "Ġà¤¶à¥ĩ": 2699,
      "Ġinvol": 2700,
      "à¥ĭà¤²à¤¿à¤¸": 2701,
      "Ġperform": 2702,
      "ames": 2703,
      "Ġà¤ħà¤ªà¤¨à¤¾": 2704,
      "ĠUnited": 2705,
      "eb": 2706,
      "Ġà¤«à¥Ī": 2707,
      "à¤¿à¤¨à¥įà¤¨": 2708,
      "Ġà¤§à¤°à¥įà¤®": 2709,
      "Ġindu": 2710,
      "Ġhig": 2711,
      "Ġorig": 2712,
      "osp": 2713,
      "Ġfin": 2714,
      "à¤¿à¤¤à¥įà¤¯": 2715,
      "Ġà¤µà¤¾à¤¹": 2716,
      "like": 2717,
      "Ġseveral": 2718,
      "Ġà¤ħà¤§à¤¿à¤ķà¤¾à¤°à¥Ģ": 2719,
      "à¥ĭà¤ľà¤¨à¤¾": 2720,
      "Ġareas": 2721,
      "Ġà¤¯à¤¾à¤Ĥà¤ļà¥įà¤¯à¤¾": 2722,
      "Ġlearning": 2723,
      "Ġspecies": 2724,
      "Ġà¤°à¤¾à¤®": 2725,
      "ole": 2726,
      "Ġmar": 2727,
      "Ġà¤¸à¤®à¤Ŀ": 2728,
      "Ġà¤®à¤¾à¤®à¤²à¥ĩ": 2729,
      "oint": 2730,
      "Ġà¤īà¤¤à¥įà¤¤à¤°": 2731,
      "ilar": 2732,
      "Ġà¤¸à¤¾à¤Ĥà¤Ĺà¤¿à¤¤": 2733,
      "Ġà¤Ĺà¤¿à¤°": 2734,
      "Ġà¤¦à¤¿à¤²à¥Ģ": 2735,
      "ling": 2736,
      "Ġwhile": 2737,
      "Ġà¤ªà¥įà¤²": 2738,
      "ntil": 2739,
      "stit": 2740,
      "à¥įà¤«": 2741,
      "à¥īà¤¨": 2742,
      "Ġà¤®à¤¾à¤§": 2743,
      "ended": 2744,
      "anguage": 2745,
      "Ġdescri": 2746,
      "Ġel": 2747,
      "à¤¤à¤¾à¤¨à¤¾": 2748,
      "Ġà¤ļà¤¿à¤¤à¥įà¤°": 2749,
      "Ġà¤Ĩà¤§à¤¾à¤°": 2750,
      "à¤Īà¤²": 2751,
      "à¤¿à¤¯à¤®": 2752,
      "Ġaffect": 2753,
      "Ġsignific": 2754,
      "Ġà¤ªà¥Ĥà¤°à¥įà¤£": 2755,
      "usiness": 2756,
      "Ġà¤Ĩà¤°à¥ĭà¤ª": 2757,
      "Ġtreatment": 2758,
      "ĠRes": 2759,
      "Ġfeel": 2760,
      "Ġcountry": 2761,
      "Ġfre": 2762,
      "Ġlim": 2763,
      "Ġsay": 2764,
      "à¤²à¥ĭà¤Ĥ": 2765,
      "resent": 2766,
      "à¤°à¥Ĥà¤ª": 2767,
      "ĠStates": 2768,
      "Ġnear": 2769,
      "Ġà¤ľà¤¾à¤ıà¤Ĺà¤¾": 2770,
      "ploy": 2771,
      "ocus": 2772,
      "à¤°à¥įà¤«": 2773,
      "Ġà¤°à¤¾à¤·à¥įà¤Łà¥įà¤°": 2774,
      "Ġà¤ħà¤Ĥà¤¤": 2775,
      "Ġà¤¸à¤®à¤¾à¤ľ": 2776,
      "Ġopen": 2777,
      "Ġà¤¹à¤ľà¤¾à¤°": 2778,
      "à¤ľà¥įà¤ŀ": 2779,
      "Ġcost": 2780,
      "ably": 2781,
      "Ġà¤¤à¥Ī": 2782,
      "ĠAl": 2783,
      "Ġcase": 2784,
      "ope": 2785,
      "Ġtoo": 2786,
      "à¤°à¥ĭà¤¨à¤¾": 2787,
      "à¤¸à¤Ńà¤¾": 2788,
      "Ġà¤ķà¤¾à¤«à¥Ģ": 2789,
      "Ġà¤ªà¥ģà¤¨": 2790,
      "Ġà¤¨à¤¿à¤°à¥įà¤£": 2791,
      "urther": 2792,
      "Ġothers": 2793,
      "Ġà¤ħà¤Ĺ": 2794,
      "Ġà¤ªà¥įà¤°à¤Ńà¤¾à¤µ": 2795,
      "__": 2796,
      "Ġavailable": 2797,
      "Ġsecond": 2798,
      "à¤¸à¥įà¤¥à¤¾à¤¨": 2799,
      "Ġà¤Ĩà¤ªà¤ķà¥ĭ": 2800,
      "Ġà¤¸à¤¾à¤¹": 2801,
      "Ġobject": 2802,
      "à¤¿à¤ķà¥ĩà¤Ł": 2803,
      "Some": 2804,
      "ots": 2805,
      "Ġà¤®à¥Ģà¤¡": 2806,
      "à¤¸à¥įà¤¥à¤¿à¤¤": 2807,
      "One": 2808,
      "Ġà¤µà¤¿à¤°à¥ĭà¤§": 2809,
      "Ġà¤¦à¥ĩà¤µ": 2810,
      "hem": 2811,
      "Ġà¤ĩà¤Ĥà¤¡": 2812,
      "Ġà¤ıà¤ķà¤¾": 2813,
      "Ġfollowing": 2814,
      "Ġà¤ķà¥ģà¤®à¤¾à¤°": 2815,
      "Ġà¤ªà¤¾à¤°à¥įà¤Łà¥Ģ": 2816,
      "Ġcertain": 2817,
      "Ġà¤¸à¤¾à¤®à¤¨à¥ĩ": 2818,
      "Ġà¤īà¤ªà¤¯à¥ĭà¤Ĺ": 2819,
      "br": 2820,
      "Ġcond": 2821,
      "à¤¾à¤Ĥà¤Ĺà¥įà¤°à¥ĩà¤¸": 2822,
      "por": 2823,
      "à¤¬à¤¤": 2824,
      "Ġcal": 2825,
      "Ġmen": 2826,
      "Ġà¤ľà¤¾à¤Ĺ": 2827,
      "Ġname": 2828,
      "orld": 2829,
      "Ġcome": 2830,
      "à¤ªà¤¾à¤²": 2831,
      "Ġà¤®à¤¾à¤°à¥įà¤Ĺ": 2832,
      "à¤Ĩà¤£à¤¿": 2833,
      "à¤µà¤°à¥įà¤·": 2834,
      "ided": 2835,
      "Ġà¤®à¤Ĥà¤¤à¥įà¤°": 2836,
      "At": 2837,
      "Ġplant": 2838,
      "Ġà¤ħà¤§à¤¿à¤ķà¤¾à¤°": 2839,
      "ĠCon": 2840,
      "à¤¾à¤¸à¥Ģ": 2841,
      "Ġà¤¸à¤ķà¤¤à¥Ģ": 2842,
      "ething": 2843,
      "Ġfac": 2844,
      "ression": 2845,
      "à¥įà¤¯à¥ĭà¤Ĥà¤ķà¤¿": 2846,
      "let": 2847,
      "hy": 2848,
      "Ġprevent": 2849,
      "Ġfour": 2850,
      "then": 2851,
      "put": 2852,
      "Ġnon": 2853,
      "Ġfar": 2854,
      "à¤¤à¤¿à¤ķ": 2855,
      "Ġà¤ªà¤¾à¤²": 2856,
      "Ġproblem": 2857,
      "Ġaccess": 2858,
      "Ġstruct": 2859,
      "ecause": 2860,
      "Ġà¤ľà¤®": 2861,
      "Ġtype": 2862,
      "icult": 2863,
      "ends": 2864,
      "à¤¿à¤Ľ": 2865,
      "aper": 2866,
      "Ġà¤ľà¤¾à¤¯": 2867,
      "olution": 2868,
      "Ġview": 2869,
      "elf": 2870,
      "à¤ħà¤°": 2871,
      "Ġà¤ªà¥įà¤°à¤®à¤¾à¤£": 2872,
      "à¤°à¥Ģà¤°": 2873,
      "ĠGod": 2874,
      "Ġà¤¨à¤¿à¤°à¥įà¤£à¤¯": 2875,
      "Ġà¤ķà¥įà¤²": 2876,
      "à¤µà¤¿à¤¦": 2877,
      "abor": 2878,
      "Ġage": 2879,
      "ggest": 2880,
      "Ġdel": 2881,
      "Ġà¤²à¤¿à¤¯à¥ĩ": 2882,
      "Ġlocal": 2883,
      "Ġà¤®à¥ĭà¤¦à¥Ģ": 2884,
      "à¤¿à¤¸à¥įà¤¤à¤¾à¤¨": 2885,
      "à¤µà¤£": 2886,
      "ek": 2887,
      "urope": 2888,
      "ones": 2889,
      "Ġsuccess": 2890,
      "à¤Ĺà¤³": 2891,
      "à¤¿à¤¤à¥įà¤¤": 2892,
      "Ġà¤ħà¤¨à¥ģà¤Ń": 2893,
      "Ġcr": 2894,
      "Ġpress": 2895,
      "Ġpost": 2896,
      "Ġhead": 2897,
      "view": 2898,
      "à¤µà¤¹à¥Ģà¤Ĥ": 2899,
      "Ġconn": 2900,
      "Ġà¤ľà¥įà¤¯à¤¾à¤¦à¤¾": 2901,
      "à¥įà¤¯à¤¾à¤Ĥà¤¨à¤¾": 2902,
      "à¤¾à¤®à¥ģà¤³à¥ĩ": 2903,
      "Ġproblems": 2904,
      "Ġfree": 2905,
      "Ġbi": 2906,
      "Ġà¤ªà¤¡à¤¼": 2907,
      "Ġrun": 2908,
      "ances": 2909,
      "Ġlittle": 2910,
      "ode": 2911,
      "à¤ħà¤¬": 2912,
      "Ġmil": 2913,
      "ged": 2914,
      "Ġmean": 2915,
      "bed": 2916,
      "Ġhard": 2917,
      "Ġscient": 2918,
      "à¥Ģà¤ķ": 2919,
      "à¤¸à¤¾à¤¯": 2920,
      "ĠSe": 2921,
      "ledge": 2922,
      "Ġcells": 2923,
      "ately": 2924,
      "à¥ģà¤°à¥ģ": 2925,
      "à¤µà¤¾à¤°à¥Ģ": 2926,
      "Ġlist": 2927,
      "Ġrece": 2928,
      "oks": 2929,
      "Ġà¤®à¥ģà¤ĸà¥įà¤¯": 2930,
      "ird": 2931,
      "Ġamount": 2932,
      "Ġamong": 2933,
      "Ġlevels": 2934,
      "Ġintern": 2935,
      "ither": 2936,
      "lo": 2937,
      "à¤¾à¤¯à¤¤": 2938,
      "Ġà¤®à¥įà¤¹à¤£à¤ľà¥ĩ": 2939,
      "Ġbased": 2940,
      "ĠComm": 2941,
      "ĠSh": 2942,
      "uture": 2943,
      "Ġà¤¹à¥ĭà¤Ĺà¥Ģ": 2944,
      "agement": 2945,
      "Ġà¤®à¥ĥà¤¤": 2946,
      "à¤¬à¤¹": 2947,
      "ann": 2948,
      "ortun": 2949,
      "Ġlo": 2950,
      "mit": 2951,
      "à¤®à¥ģà¤ĸ": 2952,
      "à¤Ńà¤°": 2953,
      "ths": 2954,
      "icro": 2955,
      "Ġassoci": 2956,
      "ication": 2957,
      "Ġyoung": 2958,
      "atory": 2959,
      "ured": 2960,
      "Ġà¤°à¥ģà¤ªà¤¯à¥ĩ": 2961,
      "ĠCent": 2962,
      "Ġà¤µà¤¿à¤¦à¥įà¤¯": 2963,
      "à¤¤à¥įà¤¤à¥įà¤µ": 2964,
      "ĠSp": 2965,
      "à¤²à¤¿à¤ı": 2966,
      "Ġbro": 2967,
      "nal": 2968,
      "Ġnatural": 2969,
      "pre": 2970,
      "Ġput": 2971,
      "Ġà¤ľà¤¾à¤¨à¤ķà¤¾à¤°à¥Ģ": 2972,
      "¶à¤¨": 2973,
      "face": 2974,
      "With": 2975,
      "Ġà¤ĸà¤¿à¤²à¤¾à¤«": 2976,
      "aken": 2977,
      "Ġimpact": 2978,
      "Ġà¤®à¤¾à¤§à¥įà¤¯à¤®": 2979,
      "Ġlater": 2980,
      "à¤ªà¤¾à¤¸à¥Ĥà¤¨": 2981,
      "Ġà¤Ĩà¤²": 2982,
      "Ġparticular": 2983,
      "Ġà¤ķà¤¾à¤²": 2984,
      "à¤²à¤¬à¥įà¤§": 2985,
      "Ġbook": 2986,
      "Ġcho": 2987,
      "sw": 2988,
      "aps": 2989,
      "Ġà¤ļà¥ģà¤¨à¤¾à¤µ": 2990,
      "ĠCol": 2991,
      "Ġà¤¢": 2992,
      "à¥ģà¤Ŀà¥ĩ": 2993,
      "when": 2994,
      "Ġà¤µà¤°": 2995,
      "Ġà¤µà¤¿à¤·à¤¯": 2996,
      "Ġflow": 2997,
      "Ġsignificant": 2998,
      "tal": 2999,
      "Ġà¤¤à¤¹": 3000,
      "Ġpolit": 3001,
      "Ġà¤ķà¥ĩà¤²": 3002,
      "Ġess": 3003,
      "Un": 3004,
      "vious": 3005,
      "hether": 3006,
      "Ġà¤°à¥ĭà¤ľ": 3007,
      "Ġà¤ķà¤¾à¤°à¥įà¤¯à¤ķà¥įà¤°à¤®": 3008,
      "à¤ķà¥Ģà¤¯": 3009,
      "à¤®à¥Īà¤Ĥ": 3010,
      "Ġà¤¨à¤¿à¤¯à¤®": 3011,
      "ending": 3012,
      "Ġcir": 3013,
      "Ġindust": 3014,
      "Ġcourse": 3015,
      "Ġà¤¨à¤¿à¤°": 3016,
      "Ġà¤ħà¤²à¤¾à¤µà¤¾": 3017,
      "Ġlikely": 3018,
      "Ġà¤ķà¤Ĥà¤ªà¤¨à¥Ģ": 3019,
      "duct": 3020,
      "à¤¿à¤¥": 3021,
      "Ġdeterm": 3022,
      "Ġseem": 3023,
      "atch": 3024,
      "à¥ģà¤Ĺà¥įà¤£": 3025,
      "Ġà¤¦à¤°à¥įà¤ľ": 3026,
      "Ġà¤¯à¤¾à¤¦": 3027,
      "à¤¦à¥įà¤¯": 3028,
      "aut": 3029,
      "Ġturn": 3030,
      "à¤µà¤¿à¤¶": 3031,
      "à¤¤à¤ķ": 3032,
      "Ġà¤ªà¥įà¤°à¤¶à¥įà¤¨": 3033,
      "ours": 3034,
      "Ġà¤ªà¤¾à¤ł": 3035,
      "à¤¾à¤¯à¤²à¤¾": 3036,
      "Ġheart": 3037,
      "pos": 3038,
      "à¤¿à¤·à¥įà¤ł": 3039,
      "Ġà¤ªà¤°à¥Ģ": 3040,
      "ape": 3041,
      "à¤¹à¥ĭ": 3042,
      "tain": 3043,
      "Ġà¤ľà¥ģ": 3044,
      "ox": 3045,
      "ohn": 3046,
      "Ġgiven": 3047,
      "rel": 3048,
      "Ġobs": 3049,
      "à¤¾à¤ĩà¤²": 3050,
      "ĠDe": 3051,
      "Ġprom": 3052,
      "Ġbehav": 3053,
      "à¤ľà¤¯": 3054,
      "aster": 3055,
      "Ġà¤®à¤¹à¤¿à¤²à¤¾": 3056,
      "Ġà¤īà¤ªà¤²à¤¬à¥įà¤§": 3057,
      "Ġà¤ķà¤¾à¤¢": 3058,
      "à¤®à¥ĩà¤Ĥà¤Ł": 3059,
      "Ġcomput": 3060,
      "percent": 3061,
      "ember": 3062,
      "Ġà¤¹à¥ĭà¤Ĥ": 3063,
      "NA": 3064,
      "pecially": 3065,
      "Ġà¤Ĩà¤£": 3066,
      "Ġfocus": 3067,
      "cul": 3068,
      "Ġà¤ªà¥ĭà¤²à¤¿à¤¸": 3069,
      "Ġfunction": 3070,
      "à¤¦à¤°à¥įà¤¶à¤¨": 3071,
      "SA": 3072,
      "Ġà¤¦à¥ĩà¤Ĥ": 3073,
      "à¤£à¥įà¤¯à¤¾à¤ļà¥Ģ": 3074,
      "That": 3075,
      "à¤¿à¤¯à¤°": 3076,
      "while": 3077,
      "Ġshort": 3078,
      "Ġcreat": 3079,
      "à¤Ĥà¤¤à¥ģ": 3080,
      "ĠChrist": 3081,
      "part": 3082,
      "à¤¿à¤°à¥Ģ": 3083,
      "à¤¿à¤¶à¥įà¤ļ": 3084,
      "Ġà¤Ĩà¤¦": 3085,
      "Ġà¤ªà¤¹à¥ģà¤Ĥà¤ļ": 3086,
      "Ġsystems": 3087,
      "New": 3088,
      "à¤¶à¥įà¤°à¥Ģ": 3089,
      "à¤¨à¤²": 3090,
      "Ġà¤¸à¤Ĥà¤ĸà¥įà¤¯à¤¾": 3091,
      "Ġà¤¤à¥įà¤¯à¤¾à¤Ĥà¤¨à¤¾": 3092,
      "âĢ¦": 3093,
      "Ġà¤Ĩà¤¤à¥įà¤®": 3094,
      "etic": 3095,
      "Ġinvest": 3096,
      "Ġalways": 3097,
      "à¤ªà¥Ĥà¤°à¥įà¤µ": 3098,
      "ptoms": 3099,
      "Ġsomething": 3100,
      "à¤µà¤¿à¤·": 3101,
      "à¤¡à¤¾": 3102,
      "Ġeducation": 3103,
      "asing": 3104,
      "from": 3105,
      "Ġà¤²à¤¡à¤¼": 3106,
      "ĠCl": 3107,
      "aim": 3108,
      "à¤¿à¤·à¤¦": 3109,
      "Ġclear": 3110,
      "à¤¿à¤¨à¤¾": 3111,
      "Ġà¤Ĩà¤¸": 3112,
      "Ġmult": 3113,
      "ĠZ": 3114,
      "à¤Ĥà¤¦à¤°": 3115,
      "à¤ļà¤Ĥ": 3116,
      "Ġcentury": 3117,
      "Ġsing": 3118,
      "Ġline": 3119,
      "anc": 3120,
      "idd": 3121,
      "à¥ĩà¤Ĺà¤¾": 3122,
      "à¥įà¤¯à¤¾à¤Ĥà¤¨à¥Ģ": 3123,
      "à¤Łà¤ķ": 3124,
      "Ġà¤ªà¥Ĥà¤°à¥Ģ": 3125,
      "à¤Ńà¤¾à¤°à¤¤": 3126,
      "Ġnews": 3127,
      "Ġtimes": 3128,
      "Ġbrain": 3129,
      "ai": 3130,
      "Ġcommunity": 3131,
      "Ġsw": 3132,
      "Ġdifficult": 3133,
      "Ġà¤Ĳà¤¸à¤¾": 3134,
      "ored": 3135,
      "ively": 3136,
      "fric": 3137,
      "ush": 3138,
      "cur": 3139,
      "Ġpast": 3140,
      "obal": 3141,
      "Ġà¤ħà¤®": 3142,
      "Ġvir": 3143,
      "à¤ıà¤²": 3144,
      "ruction": 3145,
      "Ġà¤®à¥ģà¤ĸà¥įà¤¯à¤®à¤Ĥà¤¤à¥įà¤°à¥Ģ": 3146,
      "Ġexperience": 3147,
      "Ġà¤¦à¥Ĥà¤°": 3148,
      "Ġexist": 3149,
      "Ġà¤Ĩà¤ªà¤£": 3150,
      "Ġfil": 3151,
      "ĠPh": 3152,
      "especially": 3153,
      "Ġcomb": 3154,
      "à¤µà¤¾à¤¦à¥Ģ": 3155,
      "Ġresults": 3156,
      "à¤¾à¤°à¤£": 3157,
      "Ġà¤¸à¤«": 3158,
      "Ġà¤¨à¤Ĺà¤°": 3159,
      "Ġà¤¶à¤¿à¤ķ": 3160,
      "à¤¾à¤¨à¥įà¤¯": 3161,
      "ators": 3162,
      "à¤Ńà¤¾à¤Ĺ": 3163,
      "Ġincrease": 3164,
      "ĠEurope": 3165,
      "Ġà¤®à¥ģà¤Ĥà¤¬à¤Ī": 3166,
      "Ġspecific": 3167,
      "Ġpopulation": 3168,
      "Ġà¤īà¤¤à¥įà¤ªà¤¾à¤¦": 3169,
      "Ġà¤²à¤¾à¤ĸ": 3170,
      "Ġdem": 3171,
      "Ġsuggest": 3172,
      "à¤¿à¤·à¥įà¤Ł": 3173,
      "Ġcreate": 3174,
      "Ġuntil": 3175,
      "Ġvol": 3176,
      "Ġà¤Ĩà¤¦à¤¿": 3177,
      "à¥įà¤Łà¤°": 3178,
      "raw": 3179,
      "By": 3180,
      "co": 3181,
      "Ġconditions": 3182,
      "à¤¯à¤¨": 3183,
      "à¤ľà¤¿à¤¨": 3184,
      "Ġgive": 3185,
      "Ġneeds": 3186,
      "à¤¾à¤¡à¥Ģ": 3187,
      "Ġdeath": 3188,
      "Ġspace": 3189,
      "Ġà¤¶à¤¬à¥įà¤¦": 3190,
      "à¤¬à¤²": 3191,
      "Ġà¤ªà¥įà¤°à¤ķà¤¾à¤¶": 3192,
      "ĠNational": 3193,
      "à¤ķà¥įà¤¤à¤¿": 3194,
      "Ġfuture": 3195,
      "ique": 3196,
      "Ġà¤ªà¥ģà¤¢": 3197,
      "Ġà¤µà¥ĩà¤³": 3198,
      "Ġà¤¨à¥įà¤¯à¥Ĥ": 3199,
      "oney": 3200,
      "à¤¾à¤¬à¤¤": 3201,
      "Ġrad": 3202,
      "Ġlanguage": 3203,
      "à¥Ģà¤¸": 3204,
      "à¤¤à¥įà¤¤à¤¾": 3205,
      "Ġà¤²à¥ĩà¤ĸ": 3206,
      "Ġnext": 3207,
      "à¤¾à¤¨à¥ĭà¤Ĥ": 3208,
      "ray": 3209,
      "Ġnecess": 3210,
      "Ġtoday": 3211,
      "Ġimm": 3212,
      "Ġconsum": 3213,
      "ences": 3214,
      "ane": 3215,
      "à¥ģà¤Ĩ": 3216,
      "rug": 3217,
      "à¤®à¤Ĥà¤¤à¥įà¤°à¥Ģ": 3218,
      "à¤¤à¤¾à¤²": 3219,
      "Ġrele": 3220,
      "Ġcancer": 3221,
      "Ġdue": 3222,
      "Ġabove": 3223,
      "à¤ķà¤°à¥įà¤¤": 3224,
      "à¥Ģà¤Ĥ": 3225,
      "All": 3226,
      "Ġsince": 3227,
      "selves": 3228,
      "Ġà¤µà¥įà¤¯à¤ķà¥įà¤¤à¤¿": 3229,
      "à¤¸à¤¾à¤¥": 3230,
      "acy": 3231,
      "Ġteac": 3232,
      "ĠQ": 3233,
      "ateg": 3234,
      "arth": 3235,
      "Ġà¤®à¤¾à¤¤à¥įà¤°": 3236,
      "Ġtechnology": 3237,
      "Ġey": 3238,
      "Ġrecord": 3239,
      "ĠPl": 3240,
      "ler": 3241,
      "do": 3242,
      "à¤¹à¤¨": 3243,
      "Ġleast": 3244,
      "can": 3245,
      "Ġà¤ħà¤¨à¥ģà¤Ńà¤µ": 3246,
      "ilities": 3247,
      "Ġà¤¶à¥ĩà¤¤": 3248,
      "oman": 3249,
      "aves": 3250,
      "ym": 3251,
      "Ġà¤Ĩà¤ı": 3252,
      "Ġspecial": 3253,
      "Ġwords": 3254,
      "à¥Īà¤²": 3255,
      "à¤¬à¥įà¤°": 3256,
      "Ġà¤µà¤¾à¤°": 3257,
      "Ġà¤µà¥ĭ": 3258,
      "Ġdiscuss": 3259,
      "Ġà¤ķà¤°à¤¤à¥Ģ": 3260,
      "Ġà¤ĸà¤¾à¤¨": 3261,
      "Ġer": 3262,
      "à¤Ńà¤Ĺ": 3263,
      "Ġenc": 3264,
      "go": 3265,
      "thern": 3266,
      "Ġsimilar": 3267,
      "à¤Ĥà¤¦à¤¿à¤°": 3268,
      "ĠCan": 3269,
      "oot": 3270,
      "Ġà¤°à¤Ĥà¤Ĺ": 3271,
      "Ġtemper": 3272,
      "ison": 3273,
      "Ġcharacter": 3274,
      "Ġà¤Ĩà¤¨à¥ĩ": 3275,
      "à¤ªà¤°à¥įà¤¯à¤Ĥà¤¤": 3276,
      "Ġà¤°à¥ģà¤Ĺà¥įà¤£": 3277,
      "ring": 3278,
      "Ġauthor": 3279,
      "omet": 3280,
      "Ġà¤µà¤¾à¤ªà¤°": 3281,
      "Ġkind": 3282,
      "While": 3283,
      "Ġchanges": 3284,
      "Ġside": 3285,
      "Ġà¤ķà¤°à¤ķà¥ĩ": 3286,
      "Ġvarious": 3287,
      "thing": 3288,
      "Ġapplic": 3289,
      "Ġacross": 3290,
      "Ġà¤²à¤Ĺà¤¾": 3291,
      "aching": 3292,
      "à¤Ĥà¤¦à¥įà¤°": 3293,
      "Ġcrit": 3294,
      "Ġaway": 3295,
      "Pro": 3296,
      "Ġà¤ľà¤¿à¤¨": 3297,
      "Ġdam": 3298,
      "Ġbegin": 3299,
      "à¤ķà¤Ł": 3300,
      "Ġill": 3301,
      "à¤¬à¤¸": 3302,
      "aces": 3303,
      "Ġà¤¨à¤¾à¤µ": 3304,
      "Ġà¤¯à¥ĭà¤ľà¤¨à¤¾": 3305,
      "à¤Ĺà¤¾à¤°": 3306,
      "reg": 3307,
      "à¤¤à¥ģà¤®": 3308,
      "Ġrespons": 3309,
      "Ġà¤¬à¤²": 3310,
      "Ġà¤¬à¤°": 3311,
      "fer": 3312,
      "Ġà¤ķà¥ĩà¤µà¤²": 3313,
      "à¤ķà¤°à¥Ģ": 3314,
      "Ġà¤µà¤¿à¤§à¤¾à¤¨": 3315,
      "à¥Īà¤°": 3316,
      "Ġstrong": 3317,
      "à¤ıà¤¨": 3318,
      "Ġà¤¤à¥įà¤¯à¤¾à¤Ĥà¤ļà¥įà¤¯à¤¾": 3319,
      "//": 3320,
      "Ġestab": 3321,
      "à¤²à¥Ģà¤¸": 3322,
      "Ġmov": 3323,
      "Ġhigher": 3324,
      "à¥ĩà¤ķà¥įà¤·à¤¾": 3325,
      "Ġà¤ĺà¥ĭà¤·": 3326,
      "Ġenough": 3327,
      "ĠAd": 3328,
      "à¤ļà¤¾à¤²": 3329,
      "ĠAn": 3330,
      "Ġà¤®à¥ģà¤¦": 3331,
      "alf": 3332,
      "à¤ªà¥įà¤°à¤¤": 3333,
      "Ġà¤²à¤¾à¤Ń": 3334,
      "Ġà¤ªà¥įà¤°à¤¯à¤¤à¥įà¤¨": 3335,
      "à¥įà¤¯à¤¾à¤£": 3336,
      "Ġworks": 3337,
      "Ġà¤¹à¤¾à¤¥": 3338,
      "Ġà¤µà¥įà¤¯à¤¾à¤ª": 3339,
      "à¤¾à¤Ĥà¤®à¤§à¥įà¤¯à¥ĩ": 3340,
      "ilt": 3341,
      "ung": 3342,
      "Ġrequire": 3343,
      "Ġtru": 3344,
      "Ġà¤Ĺà¥ģà¤£": 3345,
      "à¥įà¤¯à¤¤à¤¾": 3346,
      "à¤°à¥Ģà¤²": 3347,
      "Ġà¤ħà¤¸à¥ĩà¤²": 3348,
      "Ex": 3349,
      "ĠMed": 3350,
      "Ġà¤¸à¤ª": 3351,
      "Ġà¤¦à¤¿à¤²à¥ĩ": 3352,
      "Ġà¤¶à¤°à¥Ģà¤°": 3353,
      ".\\": 3354,
      "à¥įà¤Ń": 3355,
      "Ġà¤¬à¥ģ": 3356,
      "Ġcomplete": 3357,
      "à¤µà¤¿à¤£": 3358,
      "Ġlet": 3359,
      "Ġà¤¸à¤®à¤¸": 3360,
      "Ġà¤¸à¥įà¤µà¤¾à¤¸à¥įà¤¥à¥įà¤¯": 3361,
      "à¤¾à¤®à¤§à¥įà¤¯à¥ĩ": 3362,
      "apt": 3363,
      "Ad": 3364,
      "Ġà¤ķà¤°à¤£à¥įà¤¯à¤¾à¤¸à¤¾à¤łà¥Ģ": 3365,
      "ysis": 3366,
      "à¤¾à¤¬à¤¾à¤¦": 3367,
      "ument": 3368,
      "Ġways": 3369,
      "ned": 3370,
      "à¤¸à¥ģ": 3371,
      "side": 3372,
      "ising": 3373,
      "Ġwhy": 3374,
      "à¤¾à¤°à¤ĸ": 3375,
      "à¤¿à¤Ń": 3376,
      "Ġtool": 3377,
      "Ġmot": 3378,
      "Ġà¤ķà¤¾à¤Ĥà¤Ĺà¥įà¤°à¥ĩà¤¸": 3379,
      "Ġà¤¨à¤¿à¤°à¥įà¤¦": 3380,
      "Ġà¤¬à¤ļ": 3381,
      "iting": 3382,
      "Ġà¤ħà¤¸à¤²à¥ĩà¤²à¥įà¤¯à¤¾": 3383,
      "à¤¾à¤³à¥Ģ": 3384,
      "Ġterm": 3385,
      "Ġnever": 3386,
      "Ġà¤®à¤¹à¤¤à¥įà¤µ": 3387,
      "ales": 3388,
      "ening": 3389,
      "Ġask": 3390,
      "ued": 3391,
      "ae": 3392,
      "Ġleft": 3393,
      "ges": 3394,
      "à¤®à¥įà¤¹": 3395,
      "Ġimprove": 3396,
      "Ġparent": 3397,
      "à¤¾à¤¤à¥įà¤®à¤ķ": 3398,
      "Ġcolle": 3399,
      "After": 3400,
      "ips": 3401,
      "Ġkey": 3402,
      "Ġbusiness": 3403,
      "Ġà¤¸à¥įà¤ªà¤·à¥įà¤Ł": 3404,
      "Ġà¤ĸà¥ģ": 3405,
      "à¤¾à¤Ĥà¤µà¤°": 3406,
      "Ġà¤¦à¤°à¥įà¤¶": 3407,
      "Ġà¤ļà¤°à¥įà¤ļà¤¾": 3408,
      "Ġà¤°à¤¾à¤¤": 3409,
      "Ġnet": 3410,
      "Ġlive": 3411,
      "Ġà¤Ĩà¤ł": 3412,
      "à¤ľà¥įà¤ŀà¤¾à¤¨": 3413,
      "Ġà¤¨à¤¾à¤Ĺà¤°à¤¿à¤ķ": 3414,
      "Ġà¤ĩà¤¸à¤ķà¥ĩ": 3415,
      "Ġà¤µà¤¨": 3416,
      "Ġtoget": 3417,
      "Ġtogether": 3418,
      "Ġà¤®à¤¾à¤Ŀ": 3419,
      "istic": 3420,
      "yn": 3421,
      "Ġà¤®à¥Ĥà¤²": 3422,
      "omes": 3423,
      "Ġà¤ķà¥ĭà¤°à¥ĭà¤¨à¤¾": 3424,
      "Ġà¤Ĩà¤Ĺà¥ĩ": 3425,
      "à¤¦à¥įà¤µ": 3426,
      "à¤¸à¤¾à¤²": 3427,
      "à¤¿à¤ķà¤²": 3428,
      "à¥Īà¤Ĥà¤¡": 3429,
      "eds": 3430,
      "lement": 3431,
      "Ġeffects": 3432,
      "à¥ĩà¤Ĥà¤¡": 3433,
      "Ġà¤ĩà¤²": 3434,
      "rams": 3435,
      "orts": 3436,
      "Ġà¤ķà¥Į": 3437,
      "ency": 3438,
      "à¤Ĩà¤¯": 3439,
      "amm": 3440,
      "://": 3441,
      "à¥īà¤ķ": 3442,
      "à¤¾à¤Ĥà¤ķà¤¿": 3443,
      "Ġprofess": 3444,
      "Ġà¤®à¥Ģà¤¡à¤¿à¤¯à¤¾": 3445,
      "itor": 3446,
      "ĠMar": 3447,
      "Ġà¤ľà¤¿à¤²à¥įà¤¹": 3448,
      "Ġà¤ħà¤²à¤Ĺ": 3449,
      "Ġgeneral": 3450,
      "à¤¿à¤¨à¥ĩ": 3451,
      "Ġusually": 3452,
      "Ġà¤ĩà¤¸à¥ĩ": 3453,
      "ification": 3454,
      "Ġworking": 3455,
      "à¤®à¥įà¤¯à¤¾à¤¨": 3456,
      "af": 3457,
      "ready": 3458,
      "ott": 3459,
      "Ġà¤¸à¤²": 3460,
      "Ġà¤ªà¥įà¤°à¤®à¥ģà¤ĸ": 3461,
      "à¤¿à¤¹à¤¾à¤¸": 3462,
      "Ġplants": 3463,
      "chie": 3464,
      "Ġà¤¹à¤¾à¤²": 3465,
      "my": 3466,
      "Ġà¤ĸà¤¾à¤¸": 3467,
      "ery": 3468,
      "Ġreason": 3469,
      "à¤¡à¤¿à¤¯à¥ĭ": 3470,
      "Ġà¤ľà¥ĩ": 3471,
      "Ġà¤¯à¤¾à¤Ĥà¤ļ": 3472,
      "Ġrelations": 3473,
      "Ġtypes": 3474,
      "erence": 3475,
      "Ġà¤¬à¥ĩà¤¹": 3476,
      "Ġà¤¸à¥Į": 3477,
      "Ġà¤¨à¥ĩà¤¤": 3478,
      "à¤ķà¥įà¤·à¤ķ": 3479,
      "à¤Ĥà¤Ĺà¤²": 3480,
      "à¤ķà¥įà¤·à¤¿à¤¤": 3481,
      "Ġà¤¯à¤¹à¤¾à¤Ĥ": 3482,
      "à¤¯à¤¾à¤¨": 3483,
      "ĠAfric": 3484,
      "Ġteam": 3485,
      "Ġà¤īà¤ªà¤¸à¥įà¤¥à¤¿à¤¤": 3486,
      "ipp": 3487,
      "Ġà¤ļà¥Ģ": 3488,
      "Ġà¤¬à¤¨à¤¾": 3489,
      "à¥Ģà¤¦": 3490,
      "à¤¾à¤Ĥà¤¬": 3491,
      "Ġà¤¬à¤¡à¤¼à¥Ģ": 3492,
      "Ġsymptoms": 3493,
      "Ġà¤¦à¥ĥà¤·à¥įà¤Ł": 3494,
      "à¤°à¥įà¤¥à¤¿à¤ķ": 3495,
      "Ġcountries": 3496,
      "Ġà¤īà¤¸à¤ķà¥Ģ": 3497,
      "à¤¤à¤®": 3498,
      "Ġsubject": 3499,
      "Ġtry": 3500,
      "à¤ªà¤°à¤Ĥà¤¤à¥ģ": 3501,
      "ires": 3502,
      "à¤¹à¤¾à¤°": 3503,
      "Ġà¤ļà¤¾à¤Ĥà¤Ĺ": 3504,
      "Ġchem": 3505,
      "Ġà¤¦à¥ĩà¤ĸà¥Ģà¤²": 3506,
      "Ġà¤ıà¤¸": 3507,
      "rans": 3508,
      "Ġà¤¸à¤¾à¤Ĥà¤Ĺà¤¿à¤¤à¤²à¥ĩ": 3509,
      "Ġmind": 3510,
      "Ġcity": 3511,
      "Ġknowledge": 3512,
      "Ġà¤Ķ": 3513,
      "Ġà¤ħà¤®à¥ĩ": 3514,
      "ĠBrit": 3515,
      "à¥ĥà¤¹": 3516,
      "however": 3517,
      "Ġà¤¹à¤¿à¤¸": 3518,
      "icy": 3519,
      "ĠEx": 3520,
      "mber": 3521,
      "Ġfull": 3522,
      "Ġsens": 3523,
      "Ġà¤µà¤¸à¥įà¤¤": 3524,
      "à¤¿à¤¨à¥Ģ": 3525,
      "Ġà¤¬à¥ī": 3526,
      "à¤¬à¤¾à¤°": 3527,
      "Ġà¤ªà¥Ĥà¤°": 3528,
      "Ġconcer": 3529,
      "Ġgoing": 3530,
      "Ġstep": 3531,
      "ublished": 3532,
      "su": 3533,
      "Ġà¤ľà¥Īà¤¸à¥ĩ": 3534,
      "Ġcy": 3535,
      "ley": 3536,
      "ĠWar": 3537,
      "Ġstudies": 3538,
      "à¥ĩà¤Ĥà¤¸": 3539,
      "Ġrole": 3540,
      "Ġà¤¯à¥ĩà¤¥à¥ĩ": 3541,
      "à¤°à¥įà¤®à¤¾": 3542,
      "Ġaccount": 3543,
      "million": 3544,
      "à¤Ĺà¤¾à¤µ": 3545,
      "Ġground": 3546,
      "unt": 3547,
      "ER": 3548,
      "à¤¸à¤¾à¤®": 3549,
      "Ġà¤¤à¤¬": 3550,
      "Ġcases": 3551,
      "iation": 3552,
      "Ġhouse": 3553,
      "Ġà¤ħà¤¸à¤¤à¥ĩ": 3554,
      "à¥įà¤¸à¤¾": 3555,
      "ask": 3556,
      "à¤«à¥įà¤¤": 3557,
      "att": 3558,
      "ites": 3559,
      "rad": 3560,
      "Ġfund": 3561,
      "Ġà¤¸à¤¿à¤¦à¥įà¤§": 3562,
      "Ġà¤ĺà¤Łà¤¨à¤¾": 3563,
      "Ġà¤Ĳà¤¸à¥ĩ": 3564,
      "à¤µà¤¿à¤ķ": 3565,
      "iol": 3566,
      "augh": 3567,
      "Ġprotect": 3568,
      "Ġà¤Ńà¤Ĺ": 3569,
      "Ġà¤§à¥įà¤¯à¤¾à¤¨": 3570,
      "Ġà¤¸à¥įà¤¥à¤¾à¤ª": 3571,
      "à¤¿à¤¨à¥įà¤¦": 3572,
      "atures": 3573,
      "à¤¤à¤¸à¥ĩà¤ļ": 3574,
      "Ġà¤¬à¤¨à¤¾à¤¨à¥ĩ": 3575,
      "Ġinflu": 3576,
      "urch": 3577,
      "Ġbig": 3578,
      "Ġquestion": 3579,
      "ables": 3580,
      "Ġsure": 3581,
      "ĠEn": 3582,
      "à¤¿à¤Ľà¤²à¥ĩ": 3583,
      "Ġmakes": 3584,
      "Ġà¤ķà¤°à¥Ĥ": 3585,
      "Ġalong": 3586,
      "ĠWorld": 3587,
      "Ġsum": 3588,
      "IS": 3589,
      "à¤¾à¤ķà¤¿à¤¸à¥įà¤¤à¤¾à¤¨": 3590,
      "Ġstory": 3591,
      "Ġchall": 3592,
      "ibility": 3593,
      "Ġà¤¬à¤¾à¤²": 3594,
      "Ġà¤ľà¤¨à¥įà¤®": 3595,
      "Ġbir": 3596,
      "à¤¾à¤¨à¥įà¤¤": 3597,
      "Ġà¤¦à¥ĩà¤¤à¥ĩ": 3598,
      "ream": 3599,
      "à¤ĳ": 3600,
      "Ġbecame": 3601,
      "Ġà¤²à¤¾à¤µ": 3602,
      "bon": 3603,
      "Ġactivities": 3604,
      "Ġà¤ľà¤¹": 3605,
      "Ġà¤®à¥Īà¤ļ": 3606,
      "Ph": 3607,
      "à¤¥à¥ĩ": 3608,
      "Ġconsider": 3609,
      "Ġvalue": 3610,
      "à¤£à¤¾à¤±à¥įà¤¯à¤¾": 3611,
      "Ġà¤¨à¤ľà¤°": 3612,
      "Ġà¤¬à¤¾à¤Ĥ": 3613,
      "à¤ļà¤¨": 3614,
      "à¤²à¤¾à¤ĸ": 3615,
      "ried": 3616,
      "Ġà¤²à¥ĩà¤ķà¤¿à¤¨": 3617,
      "light": 3618,
      "Ġprim": 3619,
      "à¤¹à¤¾à¤²à¤¾à¤Ĥà¤ķà¤¿": 3620,
      "fact": 3621,
      "Ġfurther": 3622,
      "Ġà¤®à¤¾à¤Ĥà¤Ĺ": 3623,
      "à¤¿à¤£à¤¾à¤®": 3624,
      "Ġgroups": 3625,
      "Ġseen": 3626,
      "Ġrepresent": 3627,
      "oura": 3628,
      "Ġphysical": 3629,
      "str": 3630,
      "Ġeff": 3631,
      "Ġmaking": 3632,
      "à¤¦à¥ĩà¤µ": 3633,
      "uation": 3634,
      "Ġactivity": 3635,
      "à¤¾à¤ļà¤¾à¤°": 3636,
      "sc": 3637,
      "Ġà¤ľà¤¨à¤¤à¤¾": 3638,
      "Be": 3639,
      "Ġà¤ªà¥įà¤°à¤¸à¥įà¤¤": 3640,
      "Ġlower": 3641,
      "Ġà¤¤à¥Īà¤¯à¤¾à¤°": 3642,
      "omp": 3643,
      "à¤ľà¥Ĥà¤¦": 3644,
      "Ġà¤łà¤¿à¤ķ": 3645,
      "à¤°à¤¨": 3646,
      "Ġà¤ªà¤Ł": 3647,
      "Ġà¤°à¤¿à¤ª": 3648,
      "Ġdone": 3649,
      "ĠTe": 3650,
      "Ġopt": 3651,
      "Ġtoward": 3652,
      "Ġà¤Ĩà¤¦à¥ĩà¤¶": 3653,
      "Ġstat": 3654,
      "à¤¯à¥ģà¤ķà¥įà¤¤": 3655,
      "à¤¾à¤¸à¥Ĥà¤¨": 3656,
      "à¥Ĥà¤°à¥Ģ": 3657,
      "à¥ĩà¤ļà¥įà¤¯à¤¾": 3658,
      "Ġz": 3659,
      "Ġà¤Ĺà¤°": 3660,
      "iam": 3661,
      "Ġpatients": 3662,
      "Ġlot": 3663,
      "à¤²à¥ĩà¤²à¥ĩ": 3664,
      "à¤²à¥ĭà¤ķ": 3665,
      "Ġà¤¦à¥Ĥà¤¸à¤°à¥ĩ": 3666,
      "Ġà¤¸à¤¾à¤¤": 3667,
      "Ġresources": 3668,
      "Ġrange": 3669,
      "Ġalready": 3670,
      "inter": 3671,
      "Ġà¤¸à¤Ĥà¤Ĺ": 3672,
      "à¤®à¥ģà¤Ĥà¤¬à¤Ī": 3673,
      "à¤°à¥ģà¤ª": 3674,
      "Ġscience": 3675,
      "Ġà¤ħà¤Ńà¥Ģ": 3676,
      "Ar": 3677,
      "Ġà¤ľà¤¾à¤Ĥà¤ļ": 3678,
      "ĠRe": 3679,
      "à¤ķà¤²à¥įà¤ª": 3680,
      "verage": 3681,
      "Sh": 3682,
      "iple": 3683,
      "à¥įà¤µà¥Ģ": 3684,
      "Ġà¤ªà¤¾à¤Ł": 3685,
      "Ġpotential": 3686,
      "overed": 3687,
      "Ġà¤¸à¥įà¤®": 3688,
      "ĠEnglish": 3689,
      "Ġsite": 3690,
      "à¤Ĳà¤¸à¥ĩ": 3691,
      "Ġà¤¸à¥ĭà¤¶à¤²": 3692,
      "Ġà¤¦à¥ģà¤¸": 3693,
      "amin": 3694,
      "):": 3695,
      "ext": 3696,
      "Ġresearc": 3697,
      "Ġproducts": 3698,
      "à¤¨à¥įà¤¦à¥įà¤°": 3699,
      "Ġà¤¸à¥ĩà¤µà¤¾": 3700,
      "osis": 3701,
      "Ġà¤¤à¤¾à¤²": 3702,
      "Ġword": 3703,
      "Ġbelow": 3704,
      "à¤¦à¤¨": 3705,
      "oll": 3706,
      "ormal": 3707,
      "à¤ļà¤¿à¤¤": 3708,
      "Ġself": 3709,
      "à¤Ĥà¤Ĺà¥ĩ": 3710,
      "Ġà¤ķà¤°à¤¾": 3711,
      "à¤¾à¤ķà¤¾à¤°": 3712,
      "Ġà¤¬à¤¾à¤¹à¤°": 3713,
      "sych": 3714,
      "à¤¨à¥įà¤§": 3715,
      "Ġloss": 3716,
      "Ġà¤¸à¥įà¤¥à¤¿à¤¤à¤¿": 3717,
      ".)": 3718,
      "Ġà¤ªà¥įà¤°à¤§à¤¾à¤¨": 3719,
      "Ġà¤ķà¤°à¥Ģ": 3720,
      "Ġclose": 3721,
      "Ġcontribut": 3722,
      "à¤ķà¤¾à¤°à¤£": 3723,
      "Ġà¤¨à¤µà¥įà¤¹": 3724,
      "à¥ĥà¤¤à¤¿": 3725,
      "Ġdig": 3726,
      "Ġà¤¸à¤ļ": 3727,
      "Ġreally": 3728,
      "à¤¸à¤¹": 3729,
      "earch": 3730,
      "Ġgrowth": 3731,
      "à¤ķà¥įà¤¯à¤¾": 3732,
      "Ġà¤ĸà¥ĩà¤³": 3733,
      "Ġà¤®à¤¦à¤¦": 3734,
      "ches": 3735,
      "ils": 3736,
      "Ġoffic": 3737,
      "ĠGo": 3738,
      "val": 3739,
      "à¤ªà¥Ĥà¤°": 3740,
      "Ġet": 3741,
      "Ġà¤ľà¤¾à¤¨à¤¾": 3742,
      "Ġà¤īà¤ļà¥įà¤ļ": 3743,
      "Ġhaving": 3744,
      "bo": 3745,
      "à¥Ĥà¤ģ": 3746,
      "Ġà¤µà¤¾à¤²à¤¾": 3747,
      "Ġsays": 3748,
      "Ġneg": 3749,
      "Ġquality": 3750,
      "à¥ģà¤¡": 3751,
      "ival": 3752,
      "Ġà¤¬à¤¾à¤ľà¤¾à¤°": 3753,
      "Ġà¤ķà¤²à¥įà¤¯à¤¾à¤£": 3754,
      "based": 3755,
      "Ġà¤¬à¤¾à¤¬": 3756,
      "Ġtext": 3757,
      "ivil": 3758,
      "Ġmodel": 3759,
      "Ġnut": 3760,
      "Ġà¤Ĩà¤Ĺ": 3761,
      "Ġparticip": 3762,
      "à¤ķà¤¡à¥ĩ": 3763,
      "à¤¨à¤¾à¤¥": 3764,
      "Ġsingle": 3765,
      "Ġcontain": 3766,
      "à¤£à¥įà¤¡": 3767,
      "Ġà¤¸à¤Ĥà¤¸": 3768,
      "Ġarticle": 3769,
      "Ġemploy": 3770,
      "Ġrecogn": 3771,
      "Ġissues": 3772,
      "Ġwr": 3773,
      "rict": 3774,
      "à¤Łà¤¨": 3775,
      "Ġproduction": 3776,
      "aring": 3777,
      "Ġevidence": 3778,
      "Ġà¤ªà¤¾à¤¨à¥Ģ": 3779,
      "à¤ķà¤¾à¤²": 3780,
      "Ġà¤¯à¤¾à¤Ĥà¤¨à¤¾": 3781,
      "Ġà¤¹à¥ĭà¤£à¤¾à¤°": 3782,
      "Ġtradition": 3783,
      "ĠGerm": 3784,
      "rect": 3785,
      "she": 3786,
      "ety": 3787,
      "mb": 3788,
      "à¤¯à¤Ĥ": 3789,
      "Ġà¤ħà¤¶à¥Ģ": 3790,
      "Ġà¤ķà¥ģà¤²": 3791,
      "Ġà¤ķà¥ĥà¤·": 3792,
      "Ġà¤ħà¤¸à¤²à¥įà¤¯à¤¾à¤ļà¥ĩ": 3793,
      "Ġà¤Ĩà¤¨": 3794,
      "roll": 3795,
      "Ġrate": 3796,
      "Ġà¤®à¥Ĥ": 3797,
      "Ġà¤¬à¥ĩ": 3798,
      "ournal": 3799,
      "Ġdiet": 3800,
      "Ġachie": 3801,
      "à¤®à¥įà¤¬": 3802,
      "à¥¤à¥¤": 3803,
      "Ġà¤ªà¥įà¤°à¤ķà¥įà¤°": 3804,
      "Ġà¤ªà¥įà¤°à¤¤à¥įà¤¯à¥ĩà¤ķ": 3805,
      "Ġà¤ķà¥įà¤°à¤¿à¤ķà¥ĩà¤Ł": 3806,
      "org": 3807,
      "Ġens": 3808,
      "Ġà¤¤à¤¿à¤ļ": 3809,
      "Ġà¤ªà¤¢à¤¼": 3810,
      "Ġà¤ĸà¥ĩà¤²": 3811,
      "Ġà¤®à¤¹à¤¾à¤°à¤¾à¤·à¥įà¤Łà¥įà¤°": 3812,
      "à¤°à¥įà¤¤à¥Ģ": 3813,
      "Ġfall": 3814,
      "à¤ĩà¤¸à¥Ģ": 3815,
      "Ġà¤ľà¥Ģà¤µ": 3816,
      "leep": 3817,
      "Ġà¤°à¤¾à¤·à¥įà¤Łà¥įà¤°à¥Ģà¤¯": 3818,
      "à¤²à¤Ĺ": 3819,
      "Ġà¤¨à¤¿à¤µà¤¡à¤£": 3820,
      "plic": 3821,
      "Ġsource": 3822,
      "à¥Īà¤Ĥà¤ķ": 3823,
      "Ġflu": 3824,
      "à¤§à¤¿à¤ķ": 3825,
      "Ġmass": 3826,
      "Ġreturn": 3827,
      "Ġà¤ªà¤¤à¤¾": 3828,
      "Ġà¤īà¤¨à¤ķà¤¾": 3829,
      "Ġà¤¨à¤°": 3830,
      "Ġnature": 3831,
      "ibr": 3832,
      "Ġfield": 3833,
      "à¤¶à¥įà¤°": 3834,
      "Ġmeet": 3835,
      "Ġpred": 3836,
      "Ġcollect": 3837,
      "Ġtaken": 3838,
      "Ġdeveloped": 3839,
      "Ġsurface": 3840,
      "epend": 3841,
      "Ġskills": 3842,
      "Ġfive": 3843,
      "Ġà¤ľà¥įà¤ŀà¤¾à¤¨": 3844,
      "Ġà¤¤à¤¯à¤¾à¤°": 3845,
      "sp": 3846,
      "know": 3847,
      "Ġthemselves": 3848,
      "à¤Ĺà¥įà¤°à¥ĩà¤¸": 3849,
      "Ġà¤°à¤¹à¤¨à¥ĩ": 3850,
      "ened": 3851,
      "more": 3852,
      "à¥įà¤¹à¤¾à¤²à¤¾": 3853,
      "Ind": 3854,
      "Ġwind": 3855,
      "Ġà¤®à¤¹à¤¿à¤²": 3856,
      "à¤ªà¤£à¥ĩ": 3857,
      "Ġà¤ķà¤¾à¤¨": 3858,
      "Ġwhole": 3859,
      "Ġbuilding": 3860,
      "à¤µà¥Ĥà¤¨": 3861,
      "Ġà¤ªà¤¹à¥ģà¤Ĥ": 3862,
      "Ġabs": 3863,
      "Ġà¤Ĺà¥ĭà¤·à¥įà¤Ł": 3864,
      "Ġà¤ªà¥įà¤°à¤¤à¤¿": 3865,
      "Ġdetail": 3866,
      "âĢ¢": 3867,
      "Ġà¤Ĺà¤¾à¤Ĥà¤§à¥Ģ": 3868,
      "ule": 3869,
      "Ġ[": 3870,
      "Ġreduce": 3871,
      "Ġà¤§à¤¨": 3872,
      "Ġà¤ĺà¤¡": 3873,
      "fficient": 3874,
      "Ġà¤µà¤¿à¤¨": 3875,
      "Ġevent": 3876,
      "enn": 3877,
      "ivity": 3878,
      "Ġsun": 3879,
      "Ġconcept": 3880,
      "à¤Ĥà¤Ń": 3881,
      "Ġdays": 3882,
      "Ġupon": 3883,
      "Ġà¤®à¤§à¥įà¤¯": 3884,
      "Ġindic": 3885,
      "Ġquestions": 3886,
      "ĠUS": 3887,
      "Ġfrequ": 3888,
      "Ġà¤ķà¤Ńà¥Ģ": 3889,
      "à¤Ĩà¤®": 3890,
      "Ġconsidered": 3891,
      "illed": 3892,
      "ĠAs": 3893,
      "à¤°à¥ĭà¤Ĥ": 3894,
      "Ġdom": 3895,
      "à¤¸à¥Ĥ": 3896,
      "à¤¾à¤ķà¥įà¤·": 3897,
      "Ġà¤¦à¤¿à¤²à¤¾": 3898,
      "Ġpaper": 3899,
      "Se": 3900,
      "à¤¾à¤¡à¤¼à¥Ģ": 3901,
      "ma": 3902,
      "Ġansw": 3903,
      "Ġà¤¬à¤¡à¤¼à¥ĩ": 3904,
      "à¥ĩà¤ª": 3905,
      "new": 3906,
      "Ġà¤ªà¥įà¤°à¤¶à¤¾à¤¸à¤¨": 3907,
      "à¤¦à¤¯": 3908,
      "à¤®à¤§à¥Ģà¤²": 3909,
      "ĠOr": 3910,
      "Ġà¤¤à¥įà¤°": 3911,
      "sequ": 3912,
      "Ġinit": 3913,
      "à¤ķà¥įà¤·à¤¿à¤£": 3914,
      "Ġà¤łà¤¾à¤ķ": 3915,
      "Ġmedical": 3916,
      "à¤¸à¥įà¤ķà¤¾à¤°": 3917,
      "Ġà¤ľà¤Ĺà¤¹": 3918,
      "Ġsent": 3919,
      "à¤ľà¥Ĥà¤¨": 3920,
      "à¤ķà¥įà¤¶à¤¨": 3921,
      "ĠHealth": 3922,
      "She": 3923,
      "Ġaddress": 3924,
      "Ġà¤Ĩà¤¯à¤¾": 3925,
      "utions": 3926,
      "ĠYork": 3927,
      "Ġà¤®à¤Ĥà¤¦à¤¿à¤°": 3928,
      "Ġnational": 3929,
      "à¤µà¤¤": 3930,
      "Ġà¤µà¤¿à¤¦à¥įà¤¯à¤¾à¤°à¥įà¤¥": 3931,
      "\".": 3932,
      "Ġprob": 3933,
      "à¤ħà¤Ĺà¤°": 3934,
      "Ġphot": 3935,
      "à¤®à¥įà¤¹à¤£": 3936,
      "à¤¸à¤¨": 3937,
      "Ġà¤®à¤§à¥įà¤¯à¥ĩ": 3938,
      "Ġur": 3939,
      "ney": 3940,
      "à¥ĩà¤¯": 3941,
      "Ġà¤łà¤°": 3942,
      "Ġassociated": 3943,
      "Ġclimate": 3944,
      "Ġdrug": 3945,
      "even": 3946,
      "à¤°à¥įà¤²": 3947,
      "Ġthought": 3948,
      "Ġà¤¸à¤¾à¤°": 3949,
      "Ġdoct": 3950,
      "ĠIntern": 3951,
      "Ġcannot": 3952,
      "Ġmembers": 3953,
      "ĠAmerica": 3954,
      "à¤¿à¤¶à¥įà¤ļà¤¿à¤¤": 3955,
      "ging": 3956,
      "Ġliving": 3957,
      "Ġwide": 3958,
      "Ġà¤Ĩà¤°à¥įà¤¥à¤¿à¤ķ": 3959,
      "Ġpressure": 3960,
      "Ġà¤¨à¤¸": 3961,
      "Ġdest": 3962,
      "Ġà¤ħà¤¶à¤¾": 3963,
      "Ġrelated": 3964,
      "Ġà¤ĩà¤¤à¤°": 3965,
      "Ġà¤¯à¥ĩà¤¥à¥Ģà¤²": 3966,
      "ober": 3967,
      "Ġà¤¤à¤¹à¤¤": 3968,
      "oph": 3969,
      "PA": 3970,
      "Ġrecomm": 3971,
      "iding": 3972,
      "à¤ĩà¤¸à¤¸à¥ĩ": 3973,
      "Ġà¤ıà¤ķà¥įà¤¸": 3974,
      "à¥ģà¤¨à¤¿à¤¯à¤¾": 3975,
      "aving": 3976,
      "Ġà¤Ĺà¤¾à¤µ": 3977,
      "Ġrights": 3978,
      "à¥īà¤Ł": 3979,
      "cont": 3980,
      "Ġà¤ªà¥ĭà¤²à¥Ģà¤¸": 3981,
      "alt": 3982,
      "gr": 3983,
      "Ġobserv": 3984,
      "Ġà¤ľà¥Ī": 3985,
      "Ġsize": 3986,
      "reme": 3987,
      "à¤¥à¤®": 3988,
      "à¤®à¥ģà¤³à¥ĩ": 3989,
      "aged": 3990,
      "Ġfri": 3991,
      "Ġà¤ĺà¥ĩà¤Ĭà¤¨": 3992,
      "Ġcreated": 3993,
      "Ġà¤ªà¤°à¤¿à¤£à¤¾à¤®": 3994,
      "Ġitself": 3995,
      "à¤¸à¤°à¥įà¤µ": 3996,
      "Ġfail": 3997,
      "itud": 3998,
      "Ġhold": 3999,
      "oon": 4000,
      "à¤°à¤¾à¤®": 4001,
      "Ġopportun": 4002,
      "Many": 4003,
      "à¤®à¥įà¤ª": 4004,
      "Ġrequired": 4005,
      "Ġà¤Ĺà¤¯à¥ĩ": 4006,
      "Ġentire": 4007,
      "Ġcame": 4008,
      "à¥įà¤°à¤¾à¤®": 4009,
      "Ġà¤®à¤Ĥà¤¤à¥įà¤°à¤¾à¤²à¤¯": 4010,
      "Ġà¤ªà¤°à¤¿à¤·à¤¦": 4011,
      "aced": 4012,
      "à¤¾à¤ģà¤Ĺà¥įà¤°à¥ĩà¤¸": 4013,
      "Ġann": 4014,
      "Ġcirc": 4015,
      "à¤ĩà¤¸à¤²à¤¿à¤ı": 4016,
      "à¤¡à¥ī": 4017,
      "Ġpractice": 4018,
      "Ġweek": 4019,
      "Ġà¤ħà¤Ĥà¤¤à¤°": 4020,
      "lying": 4021,
      "Ġcondition": 4022,
      "Ġlay": 4023,
      "à¤ľà¥įà¤ľ": 4024,
      "Ġà¤Ĺà¤¾à¤Ĥà¤µ": 4025,
      "Ġcut": 4026,
      "Ġà¤ıà¤¨": 4027,
      "à¤Łà¤¾": 4028,
      "Ġà¤Ĺà¤Ĥ": 4029,
      "Ġà¤¸à¥ģà¤°à¤ķà¥įà¤·à¤¾": 4030,
      "Ġà¤ªà¥Ĥà¤°à¤¾": 4031,
      "Ġneeded": 4032,
      "Ġidea": 4033,
      "Ġanimals": 4034,
      "à¤ªà¤¹": 4035,
      "Ġà¤¯à¥Ĥ": 4036,
      "Ġactually": 4037,
      "erve": 4038,
      "Ġsimple": 4039,
      "oles": 4040,
      "à¤¾à¤¸à¥įà¤¤à¥įà¤°": 4041,
      "Ġrelig": 4042,
      "ump": 4043,
      "Ġà¤²à¤Ĺà¥ĩ": 4044,
      "Ġà¤°à¤¾à¤¶": 4045,
      "Ġà¤¦à¤¿à¤ı": 4046,
      "Ġintrodu": 4047,
      "Ġà¤¨à¤¿à¤°à¥įà¤¦à¥ĩà¤¶": 4048,
      "Ġmarket": 4049,
      "ounds": 4050,
      "Ġrelationship": 4051,
      "à¤ħà¤¶à¥Ģ": 4052,
      "à¤°à¥Ģà¤ľ": 4053,
      "Ġà¤®à¤Ĥà¤¡": 4054,
      "à¤¾à¤ľà¤¿à¤ķ": 4055,
      "Ġà¤¯à¥ģà¤µ": 4056,
      "hib": 4057,
      "à¥ĥà¤¦à¥įà¤§": 4058,
      "Ġà¤¸à¤¤": 4059,
      "à¤Ńà¥Ģà¤°": 4060,
      "ID": 4061,
      "Ġpay": 4062,
      "Ġunderstanding": 4063,
      "Ġstress": 4064,
      "che": 4065,
      "à¥ĭà¤µ": 4066,
      "Ġà¤¬à¥ĩà¤Ł": 4067,
      "Ġpolitical": 4068,
      "aging": 4069,
      "hold": 4070,
      "eter": 4071,
      "à¤®à¥įà¤®à¥Ģà¤¦": 4072,
      "Ġà¤¬à¤¡à¤¼à¤¾": 4073,
      "Ġwhether": 4074,
      "Ġtell": 4075,
      "itary": 4076,
      "Ġà¤Ľà¥ĭà¤¡à¤¼": 4077,
      "Ġstudent": 4078,
      "Ġcomplex": 4079,
      "à¥Ĥà¤°à¤¤": 4080,
      "Ġweight": 4081,
      "Ġability": 4082,
      "Ġskin": 4083,
      "acks": 4084,
      "Ġeffective": 4085,
      "atter": 4086,
      "Ġà¤¨à¥ģà¤ķ": 4087,
      "ises": 4088,
      "à¤¿à¤ķà¥įà¤¤": 4089,
      "gest": 4090,
      "Ġprop": 4091,
      "à¤¤à¥įà¤¨à¥Ģ": 4092,
      "Ġonce": 4093,
      "ply": 4094,
      "just": 4095,
      "Ġà¤ľà¥Ģà¤¤": 4096,
      "à¤°à¤¾à¤¤": 4097,
      "à¥įà¤¯à¤¾à¤Ĥà¤ļà¥įà¤¯à¤¾": 4098,
      "chan": 4099,
      "Ġà¤¹à¥ĭà¤¨à¤¾": 4100,
      "Ġadult": 4101,
      "Ġmanagement": 4102,
      "ystem": 4103,
      "ister": 4104,
      "Ġà¤ªà¥įà¤°à¥ĩà¤®": 4105,
      "à¥ģà¤ķà¥įà¤°": 4106,
      "Ġquick": 4107,
      "Ġmaterials": 4108,
      "yle": 4109,
      "ume": 4110,
      "à¤ķà¤¿à¤¸": 4111,
      "ES": 4112,
      "artment": 4113,
      "à¤°à¥įà¤Ĺà¤¤": 4114,
      "Ġeither": 4115,
      "Ġincreased": 4116,
      "à¥ģà¤ķà¥Ģ": 4117,
      "à¤ªà¤¦": 4118,
      "Ġmicro": 4119,
      "Ġnecessary": 4120,
      "utes": 4121,
      "clus": 4122,
      "Ġver": 4123,
      "iles": 4124,
      "apan": 4125,
      "Ġwhite": 4126,
      "vere": 4127,
      "Ġà¤°à¥ĩà¤²": 4128,
      "Ġmor": 4129,
      "Ġhistor": 4130,
      "ront": 4131,
      "Ġfamil": 4132,
      "Ġà¤µà¥įà¤¯à¤µà¤¸à¥įà¤¥à¤¾": 4133,
      "à¤¾à¤µà¥ĩà¤³à¥Ģ": 4134,
      "ĠBl": 4135,
      "Ġà¤¦à¤¾à¤ĸà¤²": 4136,
      "Ġà¤°à¤µ": 4137,
      "rown": 4138,
      "Ġglobal": 4139,
      "à¤ľà¤¿à¤¸à¤®à¥ĩà¤Ĥ": 4140,
      "Ġà¤µà¤ľà¤¹": 4141,
      "Ġri": 4142,
      "Ġà¤®à¥įà¤¹à¤£à¤¾à¤²à¥ĩ": 4143,
      "Ġà¤ªà¤ķ": 4144,
      "ĠAss": 4145,
      "à¥ĭà¤°à¥Ģ": 4146,
      "right": 4147,
      "Ġà¤°à¤¿à¤ªà¥ĭà¤°à¥įà¤Ł": 4148,
      "Ġà¤¬à¥Īà¤łà¤ķ": 4149,
      "Ġexperien": 4150,
      "ows": 4151,
      "à¤ļà¤¾à¤¨": 4152,
      "à¤«à¤¿à¤°": 4153,
      "Ġà¤¶à¤¿à¤ķà¥įà¤·à¤¾": 4154,
      "ĠNorth": 4155,
      "Ġà¤«à¤¾à¤¯": 4156,
      "Ġà¤ľà¤¼": 4157,
      "à¤¨à¤µ": 4158,
      "Ġred": 4159,
      "Ġà¤µà¤¿à¤µà¤¿à¤§": 4160,
      "Ġarg": 4161,
      "Acc": 4162,
      "Ġcomes": 4163,
      "à¥ĭà¤¹": 4164,
      "à¥ĭà¤¸": 4165,
      "Ġà¤¡à¥Ģ": 4166,
      "Ġdoc": 4167,
      "Ġà¤¸à¤®à¥įà¤®": 4168,
      "à¤ªà¤¤à¥įà¤°": 4169,
      "à¤¶à¤¿à¤µ": 4170,
      "Ġà¤ķà¤°à¤£à¥ĩ": 4171,
      "à¤ĸà¥Ģ": 4172,
      "ĠEarth": 4173,
      "htt": 4174,
      "à¥Ĥà¤¹": 4175,
      "Ġà¤¤à¥įà¤¯à¤¾à¤²à¤¾": 4176,
      "Ġservices": 4177,
      "Ġwebs": 4178,
      "à¤¾à¤ķà¥Ģ": 4179,
      "Ġà¤¸à¥įà¤µà¤¤à¤ĥ": 4180,
      "Ġfactors": 4181,
      "Ġà¤ħà¤Ĥà¤Ĺ": 4182,
      "à¥įà¤¯à¤¾à¤¹": 4183,
      "umb": 4184,
      "Ġà¤Ĺà¤£": 4185,
      "eding": 4186,
      "Ġmoney": 4187,
      "à¤¿à¤¤à¥įà¤µ": 4188,
      "Con": 4189,
      "Ġexerc": 4190,
      "Ġà¤¸à¥įà¤ķà¥Ĥà¤²": 4191,
      "ensive": 4192,
      "Ġà¤¬à¤¾à¤Ĥà¤§": 4193,
      "Ġà¤§à¥ĭ": 4194,
      "empt": 4195,
      "Ġà¤µà¤¿à¤¶à¥įà¤µà¤¾à¤¸": 4196,
      "à¤¹à¤¾à¤¨": 4197,
      "Ġà¤ħà¤¦": 4198,
      "à¤¿à¤¨à¤¿à¤§": 4199,
      "Ġmodern": 4200,
      "Ġhealthy": 4201,
      "à¥īà¤ª": 4202,
      "Ġà¤¦à¥ĩà¤£à¥įà¤¯à¤¾à¤¤": 4203,
      "hing": 4204,
      "ese": 4205,
      "Ġhalf": 4206,
      "izing": 4207,
      "nces": 4208,
      "Ġà¤¹à¥Ĥà¤Ĥ": 4209,
      "à¤°à¤¾à¤¬": 4210,
      "uel": 4211,
      "Ġà¤®à¤²à¤¾": 4212,
      "Ġà¤ľà¤¾à¤¸à¥įà¤¤": 4213,
      "Ġoil": 4214,
      "Although": 4215,
      "iction": 4216,
      "abit": 4217,
      "gar": 4218,
      "ene": 4219,
      "à¤¦à¥ĭà¤¨": 4220,
      "Ġà¤ªà¥įà¤°à¤µà¥ĩà¤¶": 4221,
      "Ġà¤¨à¤¹à¥Ģ": 4222,
      "Ġà¤¸à¤¦à¤¸à¥įà¤¯": 4223,
      "à¤ľà¤²": 4224,
      "Ġà¤ħà¤¡": 4225,
      "à¤¦à¥įà¤¦à¤²": 4226,
      "à¤¨à¤¾à¤®": 4227,
      "à¤¸à¤¾à¤¨": 4228,
      "Ġà¤¯à¤¾à¤¤à¥įà¤°": 4229,
      "Ġparts": 4230,
      "Ġsuff": 4231,
      "Ġà¤ĸà¥ģà¤¦": 4232,
      "Ġà¤ħà¤Ĺà¤°": 4233,
      "à¤¾à¤§à¥įà¤¯": 4234,
      "Ġport": 4235,
      "Do": 4236,
      "duc": 4237,
      "rapy": 4238,
      "said": 4239,
      "Ġappear": 4240,
      "Ġpath": 4241,
      "à¥ĭà¤ľà¤¿à¤¤": 4242,
      "Ġà¤µà¥Ģà¤¡à¤¿à¤¯à¥ĭ": 4243,
      "Ġsense": 4244,
      "Ġregion": 4245,
      "IN": 4246,
      "Ġever": 4247,
      "à¤³à¥ĩ": 4248,
      "ĠSouth": 4249,
      "Ġproduce": 4250,
      "Ġreact": 4251,
      "Ġà¤¸à¤Ĥà¤¬à¤Ĥà¤§à¤¿à¤¤": 4252,
      "Ġavoid": 4253,
      "à¥ĩà¤Ĥà¤¦à¥įà¤°à¥Ģà¤¯": 4254,
      "Ġpattern": 4255,
      "à¤¦à¥ĩ": 4256,
      "à¤¯à¥Ĥ": 4257,
      "aff": 4258,
      "Ġà¤ķà¥ĭà¤°": 4259,
      "Ġlink": 4260,
      "à¤ķà¤¾à¤®": 4261,
      "à¤¾à¤°à¥įà¤Ł": 4262,
      "Ġà¤¯à¥ĭà¤Ĺà¥įà¤¯": 4263,
      "Ġtook": 4264,
      "Ġà¤¤à¤°à¤«": 4265,
      "opy": 4266,
      "Ġsuper": 4267,
      "Ġpriv": 4268,
      "Ġvers": 4269,
      "Ġà¤ķà¤¾à¤°à¥įà¤¯à¤¾à¤²à¤¯": 4270,
      "Ġà¤Ńà¤¾à¤ľà¤ªà¤¾": 4271,
      "De": 4272,
      "Ġà¤ĩà¤Ĥ": 4273,
      "Ġà¤¦à¤²": 4274,
      "Ġà¤²à¥ĩà¤¨à¥ĩ": 4275,
      "Most": 4276,
      "Ġà¤¦à¤¿à¤¨à¥ĭà¤Ĥ": 4277,
      "Ġà¤ªà¤¾à¤£à¥Ģ": 4278,
      "Ġà¤Ĳà¤¸à¥Ģ": 4279,
      "Ġapproach": 4280,
      "Ġà¤ķà¤°à¥ĩà¤Ĥà¤Ĺà¥ĩ": 4281,
      "Ġà¤¨à¥įà¤¯à¤¾à¤¯à¤¾à¤²à¤¯": 4282,
      "Ġmeasure": 4283,
      "Ġà¤®à¥ģà¤Ŀà¥ĩ": 4284,
      "Ġassess": 4285,
      "medi": 4286,
      "Ġblack": 4287,
      "à¥įà¤µà¤°": 4288,
      "ĠIndia": 4289,
      "ules": 4290,
      "Ġeconomic": 4291,
      "Ġà¤®à¥ģà¤¤": 4292,
      "à¤ıà¤«": 4293,
      "erous": 4294,
      "à¤µà¤¾à¤¹": 4295,
      "Ġà¤«à¥ĭà¤Ł": 4296,
      "Ġprovides": 4297,
      "Ġà¤µà¤¿à¤Ńà¤¿à¤¨à¥įà¤¨": 4298,
      "Ġcat": 4299,
      "yl": 4300,
      "à¤¹à¤ľà¤¾à¤°": 4301,
      "Ġclaim": 4302,
      "icles": 4303,
      "iddle": 4304,
      "II": 4305,
      "www": 4306,
      "Ġengine": 4307,
      "AT": 4308,
      "à¤ªà¥įà¤ª": 4309,
      "Ġalmost": 4310,
      "à¤¯à¤¦à¤¿": 4311,
      "Ġaction": 4312,
      "has": 4313,
      "Ġprote": 4314,
      "Ġà¤īà¤¸à¤ķà¤¾": 4315,
      "igure": 4316,
      "Ġfish": 4317,
      "Ġà¤¨à¥ĩà¤¤à¤¾": 4318,
      "à¤¨à¤¿": 4319,
      "ĠInstit": 4320,
      "Ġà¤Ńà¥Ĥà¤®à¤¿à¤ķà¤¾": 4321,
      "Ġthroughout": 4322,
      "Ġà¤¸à¥įà¤¤à¤°": 4323,
      "Ġpopular": 4324,
      "uck": 4325,
      "Ġà¤ķà¤¹à¤¨à¤¾": 4326,
      "Ġbegan": 4327,
      "à¤¾à¤¯à¤²": 4328,
      "Ġlab": 4329,
      "à¥ģà¤·à¥įà¤¯": 4330,
      "Ġà¤®à¤¹à¤¤à¥įà¤¤à¥įà¤µ": 4331,
      "Ġà¤¸à¤®à¤°à¥įà¤¥": 4332,
      "Ġarr": 4333,
      "à¤¹à¥Ī": 4334,
      "Ġà¤ªà¤Ĥà¤ļ": 4335,
      "Ġà¤ªà¥Ĥà¤Ľ": 4336,
      "Ġà¤µà¤°à¥įà¤Ĺ": 4337,
      "Ġà¤ªà¥įà¤°à¤¦à¤¾à¤¨": 4338,
      "Ġà¤ĸà¤°à¥įà¤ļ": 4339,
      "à¤ļà¤°": 4340,
      "ections": 4341,
      "ns": 4342,
      "à¤§à¥įà¤¯à¤¾": 4343,
      "Ġresearchers": 4344,
      "ederal": 4345,
      "Ġà¤¬à¤¿à¤²": 4346,
      "estern": 4347,
      "ricult": 4348,
      "Ġà¤®à¤¾à¤¸": 4349,
      "arget": 4350,
      "Ġà¤¹à¥ĭà¤Īà¤²": 4351,
      "order": 4352,
      "ze": 4353,
      "Ġanalysis": 4354,
      "ched": 4355,
      "isc": 4356,
      "Ġgas": 4357,
      "ĠâĢĵ": 4358,
      "because": 4359,
      "Ġà¤®à¥ģà¤¸": 4360,
      "à¤ķà¥įà¤ķà¥ĩ": 4361,
      "à¤¤à¥Ģà¤¨à¥ĩ": 4362,
      "cons": 4363,
      "Ġà¤¸à¥Īà¤¨": 4364,
      "Ġstates": 4365,
      "Ġcomputer": 4366,
      "Ġsix": 4367,
      "Ġconduct": 4368,
      "minist": 4369,
      "arr": 4370,
      "Here": 4371,
      "à¤¾à¤ĩà¤¡": 4372,
      "Ġmedic": 4373,
      "Is": 4374,
      "Ġà¤ħà¤¸à¤¾": 4375,
      "à¤ªà¥ģà¤²à¤¿à¤¸": 4376,
      "ĠPr": 4377,
      "à¤ļà¤²": 4378,
      "Ġcoll": 4379,
      "Ġà¤¬à¤ľ": 4380,
      "Ġà¤¯à¤¾à¤¦à¤µ": 4381,
      "Ġstop": 4382,
      "Ġà¤¸à¤Ĥà¤¸à¥įà¤¥": 4383,
      "ĠSoc": 4384,
      "Ġà¤ªà¥ĩà¤¶": 4385,
      "Ġsam": 4386,
      "Ġà¤®à¥ģà¤ķ": 4387,
      "Ġà¤ĩà¤¸à¥įà¤¤": 4388,
      "à¤ķà¥įà¤¯à¥ĭà¤Ĥà¤ķà¤¿": 4389,
      "dom": 4390,
      "Ġà¤ªà¥ĭà¤¸à¥įà¤Ł": 4391,
      "Ġà¤Ĩà¤ªà¤ķà¥ĩ": 4392,
      "Ġsoil": 4393,
      "Ã©": 4394,
      "ana": 4395,
      "Ġà¤Łà¤¾à¤ķ": 4396,
      "bl": 4397,
      "à¤¶à¥įà¤ļà¤¿à¤®": 4398,
      "Ġà¤®à¥įà¤¹à¤Ł": 4399,
      "abet": 4400,
      "lear": 4401,
      "ulations": 4402,
      "Ġjob": 4403,
      "ĠState": 4404,
      "Ġà¤¨à¥Į": 4405,
      "Ġà¤ıà¤®": 4406,
      "ĠMan": 4407,
      "Ġmatter": 4408,
      "Ġarch": 4409,
      "Ġservice": 4410,
      "à¤¸à¥įà¤Łà¥įà¤°": 4411,
      "ĠWh": 4412,
      "Ġà¤ħà¤«": 4413,
      "Ġdog": 4414,
      "Ġrecent": 4415,
      "à¤¤à¤°à¥Ģ": 4416,
      "à¤°à¥įà¤ª": 4417,
      "Ġprevious": 4418,
      "Ġà¤¦à¥ĩà¤ĸà¤¾": 4419,
      "emic": 4420,
      "à¤¾à¤¤à¥į": 4421,
      "see": 4422,
      "à¤ķà¤®": 4423,
      "Re": 4424,
      "Ġpublished": 4425,
      "Ġà¤Ľà¥ĭà¤Ł": 4426,
      "Ġà¤¸à¤Ĥà¤ļà¤¾à¤²": 4427,
      "Ġà¤«à¤¾à¤°": 4428,
      "Ġà¤«à¥įà¤°": 4429,
      "Ġlonger": 4430,
      "Ġà¤Ĩà¤ķ": 4431,
      "Ġà¤ħà¤¶": 4432,
      "Ġfire": 4433,
      "à¤¿à¤¹à¤¾à¤°": 4434,
      "Ġbar": 4435,
      "Ġà¤ªà¤¾à¤Ĥà¤ļ": 4436,
      "lor": 4437,
      "onse": 4438,
      "Ġcontent": 4439,
      "Ġà¤®à¥ģà¤¤à¤¾à¤¬": 4440,
      "Ġthing": 4441,
      "ster": 4442,
      "istance": 4443,
      "fully": 4444,
      "à¤ķà¤°à¥ĭà¤¡à¤¼": 4445,
      "à¥ĭà¤²à¤¨": 4446,
      "ider": 4447,
      "à¥įà¤¯à¤¾à¤¶": 4448,
      "ĠAust": 4449,
      "Ġà¤®à¥Įà¤¤": 4450,
      "Ġà¤ĸà¤°à¥Ģ": 4451,
      "Ġemer": 4452,
      "à¤£à¥įà¤¯à¤¾à¤ļà¤¾": 4453,
      "vey": 4454,
      "à¤¨à¥Ģà¤¯": 4455,
      "Ġà¤ªà¤¾à¤µ": 4456,
      "Ġfat": 4457,
      "Ġchemical": 4458,
      "à¤¹à¤¿à¤¤": 4459,
      "Ġà¤®à¥ģà¤¤à¤¾à¤¬à¤¿à¤ķ": 4460,
      "à¤Ĥà¤Łà¤°": 4461,
      "Ġstructure": 4462,
      "Ġà¤ķà¥ĭà¤¶": 4463,
      "Ġà¤¶à¤¾à¤¸à¤¨": 4464,
      "à¥ĩà¤µà¥įà¤¹à¤¾": 4465,
      "ada": 4466,
      "Ġsepar": 4467,
      "ĠBe": 4468,
      "inary": 4469,
      "à¥ģà¤°à¥Ģ": 4470,
      "ha": 4471,
      "anced": 4472,
      "aily": 4473,
      "ĠCar": 4474,
      "à¤¦à¤¾à¤°à¥įà¤¥": 4475,
      "à¤¦à¤®": 4476,
      "Ġposition": 4477,
      "bor": 4478,
      "Ġcompany": 4479,
      "Ġà¤¸à¥ģà¤µà¤¿à¤§": 4480,
      "Ġparents": 4481,
      "à¤¿à¤ķà¥ĩ": 4482,
      "Ġpersonal": 4483,
      "mar": 4484,
      "raft": 4485,
      "reng": 4486,
      "Ġà¤ħà¤¸à¥įà¤ª": 4487,
      "AR": 4488,
      "Ġterms": 4489,
      "Ġà¤ķà¤µ": 4490,
      "ropri": 4491,
      "Ġà¤ķà¤°à¥įà¤®à¤ļ": 4492,
      "ĠJew": 4493,
      "à¤¤à¤Ĥà¤¤à¥įà¤°": 4494,
      "Ġà¤¬à¥ĭà¤°à¥įà¤¡": 4495,
      "Ġà¤¸à¤ķà¥ĩ": 4496,
      "Ġà¤ľà¤¾à¤Ĭ": 4497,
      "Ġà¤ļà¤¿à¤¤à¥įà¤°à¤ªà¤Ł": 4498,
      "Ġà¤¸à¤Ĥà¤¤": 4499,
      "Ġbehavior": 4500,
      "Ġà¤¹à¤®à¤¾à¤°à¥ĩ": 4501,
      "Ġsociety": 4502,
      "à¤ħà¤¸à¤¾": 4503,
      "Ġindustry": 4504,
      "Ġà¤ĩà¤ļà¥įà¤Ľ": 4505,
      "Ġà¤īà¤²à¥įà¤²": 4506,
      "lands": 4507,
      "Ġà¤ķà¤°à¥Ģà¤¬": 4508,
      "Ġà¤¶à¤°à¥įà¤®à¤¾": 4509,
      "ideo": 4510,
      "Ġliter": 4511,
      "Ġà¤¸à¤Ĥà¤°": 4512,
      "itation": 4513,
      "Ġonline": 4514,
      "Ġut": 4515,
      "à¤¾à¤¯à¥Ģ": 4516,
      "Ġà¤®à¤¿à¤¶": 4517,
      "Ġbur": 4518,
      "ĠAct": 4519,
      "à¤Ńà¤¾à¤°à¤¤à¥Ģà¤¯": 4520,
      "Ġcolor": 4521,
      "Ġgreen": 4522,
      "Ġreading": 4523,
      "Cl": 4524,
      "erson": 4525,
      "Ġà¤ªà¥ģà¤°à¥ģà¤·": 4526,
      "ĠPol": 4527,
      "pid": 4528,
      "Ġà¤®à¤¹à¥Ģ": 4529,
      "à¤¦à¤¿à¤¨": 4530,
      "Ġsoft": 4531,
      "Ġà¤°à¥ĭà¤ķ": 4532,
      "Ġà¤Ĺà¤Ĥà¤Ńà¥Ģà¤°": 4533,
      "ĠRep": 4534,
      "Ġtrue": 4535,
      "à¤Ĥà¤ĸ": 4536,
      "Ġpie": 4537,
      "à¥įà¤®à¤¿à¤ķ": 4538,
      "à¤¿à¤ĺ": 4539,
      "ming": 4540,
      "astic": 4541,
      "mp": 4542,
      "ores": 4543,
      "Ġà¤īà¤¤à¥įà¤¤": 4544,
      "Ġtraining": 4545,
      "place": 4546,
      "According": 4547,
      "Res": 4548,
      "Ġheat": 4549,
      "Ġà¤¨à¤¾à¤¹à¥Ģà¤¤": 4550,
      "Ġà¤īà¤®à¥įà¤®à¥Ģà¤¦": 4551,
      "Ġtalk": 4552,
      "à¤µà¤¿à¤°": 4553,
      "à¤ªà¥įà¤°à¤§à¤¾à¤¨": 4554,
      "Ġrather": 4555,
      "Ġà¤Ľà¤¾à¤¤à¥įà¤°": 4556,
      "à¤¤à¥Ģà¤¤": 4557,
      "rought": 4558,
      "à¤¾à¤Īà¤²": 4559,
      "Pl": 4560,
      "Ġbenefits": 4561,
      "Ġfarm": 4562,
      "Ġinteract": 4563,
      "Ġdecl": 4564,
      "à¤īà¤ª": 4565,
      "à¥Ĥà¤°à¥įà¤µ": 4566,
      "Ġà¤¨à¤¾à¤°": 4567,
      "Ġà¤Ĩà¤°à¥ĭà¤ªà¥Ģ": 4568,
      "No": 4569,
      "Ġbreak": 4570,
      "Ġà¤ķà¥ĭà¤°à¥įà¤Ł": 4571,
      "atives": 4572,
      "Ġà¤Ĺà¥ģà¤¨": 4573,
      "à¤²à¥ĭà¤Ĺ": 4574,
      "Ġincreasing": 4575,
      "Ġà¤ªà¥įà¤°à¤ķà¥įà¤°à¤¿à¤¯à¤¾": 4576,
      "Ġà¤ļà¥ģà¤ķà¥Ģ": 4577,
      "Ġà¤¤à¥įà¤¯à¤¾à¤ļà¥įà¤¯à¤¾": 4578,
      "Ġà¥¤": 4579,
      "Ġà¤ķà¤¿à¤¤": 4580,
      "Ġà¤ĩà¤¸à¤ķà¤¾": 4581,
      "ele": 4582,
      "hood": 4583,
      "des": 4584,
      "ĠCal": 4585,
      "istics": 4586,
      "Ġtotal": 4587,
      "à¤¸à¤Ĥà¤¦": 4588,
      "Ġge": 4589,
      "Ġdeg": 4590,
      "Ġà¤¬à¥įà¤²": 4591,
      "cular": 4592,
      "aries": 4593,
      "Ġsaf": 4594,
      "Ġà¤¶à¥ĭ": 4595,
      "Ġà¤¨à¤¾": 4596,
      "iment": 4597,
      "istory": 4598,
      "Ġà¤ªà¤µà¤¾à¤°": 4599,
      "Ġà¤¹à¤¾à¤¤": 4600,
      "lt": 4601,
      "à¤µà¤¡": 4602,
      "curity": 4603,
      "Ġà¤ªà¤°à¤¿à¤¸à¥įà¤¥": 4604,
      "Ġà¤ħà¤ĸ": 4605,
      "à¤¨à¥įà¤¸": 4606,
      "amed": 4607,
      "ronic": 4608,
      "Ġsurv": 4609,
      "Ġshown": 4610,
      "Ġvariety": 4611,
      "imately": 4612,
      "à¤²à¥ĩà¤²à¥Ģ": 4613,
      "Ġà¤ªà¤¾à¤ķà¤¿à¤¸à¥įà¤¤à¤¾à¤¨": 4614,
      "Ġà¤®à¤¾à¤Ĺà¤£à¥Ģ": 4615,
      "urs": 4616,
      "Ġaccept": 4617,
      "ades": 4618,
      "Ġà¤ķà¤¹à¤¤à¥ĩ": 4619,
      "à¤¿à¤°à¤¿à¤ķà¥įà¤¤": 4620,
      "Ġà¤Ŀà¤¾à¤²à¥ĩà¤²à¥įà¤¯à¤¾": 4621,
      "Ġà¤ªà¥įà¤°à¤¦à¤°à¥įà¤¶à¤¨": 4622,
      "Ġà¤¸à¤Ĥà¤Ń": 4623,
      "à¤¾à¤¶à¥Ģ": 4624,
      "Ġwriting": 4625,
      "Ġà¤ªà¥ĩ": 4626,
      "Ġà¤¦à¥ģà¤¨à¤¿à¤¯à¤¾": 4627,
      "à¤²à¥ĩà¤²à¤¾": 4628,
      "Ġà¤¹à¥ĭà¤ķà¤°": 4629,
      "Ġà¤¸à¥Ĥà¤ļà¤¨à¤¾": 4630,
      "à¤¹à¥įà¤®": 4631,
      "Ġà¤ªà¤¾à¤Łà¥Ģà¤²": 4632,
      "wo": 4633,
      "rior": 4634,
      "Ġà¤µà¤¿à¤®": 4635,
      "no": 4636,
      "Ġcaused": 4637,
      "ights": 4638,
      "Ġbuilt": 4639,
      "Ġheav": 4640,
      "Ġlives": 4641,
      "Ġlove": 4642,
      "Ġcauses": 4643,
      "Ġbelieve": 4644,
      "Ġmedia": 4645,
      "à¤µà¥Ī": 4646,
      "Ġtemperature": 4647,
      "Ġà¤¹à¤¿à¤Ĥà¤¦": 4648,
      "Ġà¤¸à¥ģà¤ĸ": 4649,
      "Ġenvironmental": 4650,
      "lex": 4651,
      "à¤¸à¤¿à¤¤": 4652,
      "irit": 4653,
      "Ġindividuals": 4654,
      "à¤¾à¤ĺ": 4655,
      "ĠX": 4656,
      "Ġprograms": 4657,
      "Ġà¤¬à¤¿à¤¨à¤¾": 4658,
      "à¥ģà¤Ĥà¤¬": 4659,
      "à¤°à¤¾à¤ľà¥įà¤¯": 4660,
      "Ġremain": 4661,
      "Ġmethods": 4662,
      "Ġà¤²à¤¿à¤ĸà¤¾": 4663,
      "ĠBritish": 4664,
      "rast": 4665,
      "à¤¾à¤Ĥà¤¸à¤¾à¤łà¥Ģ": 4666,
      "Ġviol": 4667,
      "Ġà¤®à¥ģà¤¦à¥įà¤¦": 4668,
      "Ġà¤¸à¤¾à¤ĩ": 4669,
      "some": 4670,
      "Ġà¤ľà¤¿à¤²à¥ĩ": 4671,
      "olic": 4672,
      "à¤¦à¥Ģà¤ª": 4673,
      "Ġeasy": 4674,
      "water": 4675,
      "Ġà¤ķà¤¾à¤ģà¤Ĺà¥įà¤°à¥ĩà¤¸": 4676,
      "aling": 4677,
      "à¤®à¤¤à¤¾": 4678,
      "ĠGu": 4679,
      "Ġà¤ħà¤¸à¤¤à¤¾à¤¤": 4680,
      "Ġregard": 4681,
      "eration": 4682,
      "aches": 4683,
      "Ġsleep": 4684,
      "à¤ĩà¤¸à¤®à¥ĩà¤Ĥ": 4685,
      "Ġà¤ªà¤¤à¥įà¤¨à¥Ģ": 4686,
      "à¤łà¤¨": 4687,
      "Ġà¤²à¤Ĺà¤Ńà¤Ĺ": 4688,
      "Ġà¤Ĩà¤¨à¤Ĥà¤¦": 4689,
      "à¤Ĩà¤¤à¤¾": 4690,
      "à¤¥à¤µà¤¾": 4691,
      "Ġpositive": 4692,
      "à¤Ĥà¤Ĺà¤¾": 4693,
      "ufact": 4694,
      "Ġsou": 4695,
      "Ġà¤¯à¥ĩà¤£à¤¾à¤°": 4696,
      "à¥ĩà¤Łà¥įà¤°": 4697,
      "à¤¾à¤£à¤¾": 4698,
      "Ġà¤ħà¤¸à¤¤": 4699,
      "Ġdesigned": 4700,
      "Ġbring": 4701,
      "à¤°à¥ĭà¤¬à¤°": 4702,
      "ervation": 4703,
      "rench": 4704,
      "Ġsafe": 4705,
      "Ġà¤ªà¥įà¤°à¤¯à¥ĭà¤Ĺ": 4706,
      "Ġà¤ľà¤¾à¤ıà¤Ĺà¥Ģ": 4707,
      "Ġà¤®à¤¹à¤¿à¤¨": 4708,
      "Ġà¤¯à¥Ĥà¤¨": 4709,
      "More": 4710,
      "à¥ģà¤ĵà¤Ĥ": 4711,
      "udents": 4712,
      "cell": 4713,
      "IC": 4714,
      "ĠSchool": 4715,
      "what": 4716,
      "Ġà¤Ńà¥ĩà¤Ł": 4717,
      "Ġoriginal": 4718,
      "Ġà¤łà¤¿à¤ķà¤¾à¤£à¥Ģ": 4719,
      "Ġincludes": 4720,
      "Ġà¤ķà¤°à¥ĩ": 4721,
      "ender": 4722,
      "Ġà¤¥à¥Ģà¤Ĥ": 4723,
      "Ġtaking": 4724,
      "elling": 4725,
      "à¤¾à¤Łà¤ķ": 4726,
      "Ġdiagn": 4727,
      "Ġà¤īà¤¦à¥įà¤¦": 4728,
      "ĠGen": 4729,
      "ban": 4730,
      "Ġà¤Ĩà¤ªà¤²": 4731,
      "Ġrev": 4732,
      "Ġà¤²à¥ĭ": 4733,
      "Ġtravel": 4734,
      "Ġprovided": 4735,
      "à¤¤à¥įà¤¯à¤¾à¤¨à¤Ĥà¤¤à¤°": 4736,
      "Other": 4737,
      "à¥ħà¤Ł": 4738,
      "Ġclean": 4739,
      "',": 4740,
      "Ġà¤ªà¤¾à¤¹à¤¿à¤ľ": 4741,
      "à¤¤à¥ģ": 4742,
      "à¤ķà¥ģà¤Ľ": 4743,
      "à¤¿à¤°à¥įà¤«": 4744,
      "uge": 4745,
      "ief": 4746,
      "à¥īà¤¡": 4747,
      "Ġgreater": 4748,
      "Ġà¤ªà¤°à¥Ģà¤ķà¥įà¤·à¤¾": 4749,
      "ildren": 4750,
      "Ġà¤¸à¤®à¤¸à¥įà¤¯à¤¾": 4751,
      "ĠSc": 4752,
      "à¤ªà¤¤à¤¿": 4753,
      "Ġthreat": 4754,
      "oly": 4755,
      "Ġsubst": 4756,
      "Ġà¤Ńà¥ĩà¤ľ": 4757,
      "Ġmovement": 4758,
      "à¤¾à¤¤à¤¾à¤°": 4759,
      "Ġrelative": 4760,
      "Ġeat": 4761,
      "Ġà¤ªà¤¿à¤Ľà¤²à¥ĩ": 4762,
      "Ġà¤ĸà¥Ĥà¤ª": 4763,
      "lies": 4764,
      "Ġà¤«à¤¼": 4765,
      "Ġregular": 4766,
      "Ġvari": 4767,
      "Ġà¤ħà¤¸à¥įà¤ªà¤¤à¤¾à¤²": 4768,
      "à¥įà¤°à¤¾": 4769,
      "ls": 4770,
      "Ġà¤ķà¥Īà¤¸à¥ĩ": 4771,
      "idge": 4772,
      "Ġà¤ļà¤¿à¤ķ": 4773,
      "Ġà¤ªà¤¹à¤²à¥Ģ": 4774,
      "Ġaverage": 4775,
      "à¤Ĥà¤¥": 4776,
      "Ġà¤µà¤¿à¤§à¤¾à¤¨à¤¸à¤Ńà¤¾": 4777,
      "Ġmach": 4778,
      "Ġsat": 4779,
      "à¤³à¤¾": 4780,
      "à¤µà¤¿à¤¡": 4781,
      "à¤īà¤¨à¤ķà¥ĩ": 4782,
      "Ġspread": 4783,
      "ops": 4784,
      "à¤ľà¤¿à¤¸à¤ķà¥ĩ": 4785,
      "Ġà¤ĸà¥ĭ": 4786,
      "à¤¾à¤ķà¥ĩ": 4787,
      "Ġà¤ªà¥ģà¤¨à¥įà¤¹à¤¾": 4788,
      "à¤¨à¤Ĺà¤°": 4789,
      "Ġà¤ªà¤°à¤¿à¤µ": 4790,
      "Ġà¤¦à¥ĩà¤ĸà¤¨à¥ĩ": 4791,
      "Ġinvolved": 4792,
      "Ġà¤®à¤¾à¤Ĥ": 4793,
      "Ġà¤®à¤¿à¤²à¥Ģ": 4794,
      "Ġà¤¸à¤¾à¤®à¤¾à¤¨à¥įà¤¯": 4795,
      "à¤°à¤²": 4796,
      "Ġà¤«à¥ĭà¤¨": 4797,
      "ift": 4798,
      "Ġà¤¨à¥įà¤¯à¥Ĥà¤ľ": 4799,
      "Ġà¤ķà¤°à¥Ģà¤¤": 4800,
      "Ġcontact": 4801,
      "arily": 4802,
      "Ġwebsite": 4803,
      "Ġà¤īà¤¦à¥įà¤¯": 4804,
      "Ġshows": 4805,
      "Ġà¤Ĺà¤¯à¥Ģ": 4806,
      "uman": 4807,
      "Ġà¤®à¥ĭà¤łà¥įà¤¯à¤¾": 4808,
      "Ġà¤µà¤¾à¤¯à¤°": 4809,
      "Ġà¤¸à¤®à¤¾à¤¨": 4810,
      "Ġà¤§à¤¾à¤°": 4811,
      "à¥įà¤°à¤¿à¤¯": 4812,
      "Ġà¤«à¤²": 4813,
      "rial": 4814,
      "Ġà¤ħà¤¨à¥ģà¤®": 4815,
      "Ġculture": 4816,
      "Ġà¤¹à¤²": 4817,
      "bre": 4818,
      "Ġà¤¸à¥ģà¤§à¤¾à¤°": 4819,
      "ĠJohn": 4820,
      "Ġà¤¹à¥ĭà¤¤à¥ĭ": 4821,
      "à¥ĥà¤¤à¥įà¤µ": 4822,
      "Ġà¤ħà¤Ńà¤¿à¤¨": 4823,
      "à¤¬à¥įà¤²": 4824,
      "Ġà¤¡à¤¾à¤²": 4825,
      "Ġà¤ħà¤¸à¤²à¥įà¤¯à¤¾à¤¨à¥ĩ": 4826,
      "Ġtarget": 4827,
      "Ġinj": 4828,
      "Ġà¤°à¤¸à¥įà¤¤": 4829,
      "Ġà¤¦à¥ĩà¤¤à¤¾": 4830,
      "alled": 4831,
      "Ġà¤¹à¤¿à¤Ĥ": 4832,
      "Ġevents": 4833,
      "verse": 4834,
      "Ġà¤°à¥ĭà¤Ĺ": 4835,
      "Ġà¤¨à¤¿à¤®": 4836,
      "Ġearth": 4837,
      "Ġsex": 4838,
      "bes": 4839,
      "Ġà¤¶à¥ĭà¤§": 4840,
      "Ġà¤ļà¥ģà¤ķà¥ĩ": 4841,
      "rig": 4842,
      "Ġcheck": 4843,
      "AN": 4844,
      "ON": 4845,
      "Ġfoods": 4846,
      "à¥ģà¤ł": 4847,
      "Ġà¤ªà¤°à¤®": 4848,
      "OR": 4849,
      "Ġago": 4850,
      "comp": 4851,
      "Ġà¤īà¤¤à¥įà¤¸": 4852,
      "à¤¿à¤Ĥà¤ķ": 4853,
      "Ġsources": 4854,
      "Ġà¤¨à¤µà¥Ģà¤¨": 4855,
      "Ġdoing": 4856,
      "ĠGe": 4857,
      "ctions": 4858,
      "Ġstandard": 4859,
      "Ġmusic": 4860,
      "Ġà¤°à¤ĸà¤¾": 4861,
      "olar": 4862,
      "à¤£à¥įà¤¯à¤¾à¤¸": 4863,
      "Ġsimply": 4864,
      "ached": 4865,
      "Ġà¤ªà¤¦à¥įà¤§": 4866,
      "à¥įà¤¯à¤¾à¤¬": 4867,
      "Ġface": 4868,
      "Ġà¤¸à¤«à¤²": 4869,
      "à¤¾à¤ªà¤°": 4870,
      "Ġschools": 4871,
      "Ġà¤®à¤¿à¤²à¤¾": 4872,
      "à¥īà¤°à¥įà¤®": 4873,
      "isions": 4874,
      "Ġslow": 4875,
      "Ġbacter": 4876,
      "Ġà¤ħà¤Ńà¤¿à¤¯": 4877,
      "Ġà¤¸à¤¨": 4878,
      "met": 4879,
      "Ġà¤ħà¤ļà¥įà¤Ľà¤¾": 4880,
      "Ġuses": 4881,
      "Ġà¤²à¤¾à¤²": 4882,
      "Ġà¤ªà¤¾à¤ļ": 4883,
      "à¥ģà¤£à¥ĩ": 4884,
      "Ġforms": 4885,
      "Ġmechan": 4886,
      "Ġà¤µà¤¾à¤ļ": 4887,
      "ĠNews": 4888,
      "à¤¿à¤²à¥ĭ": 4889,
      "à¤Ĥà¤¤à¥įà¤°à¤£": 4890,
      "Ġà¤¸à¤®à¥ģà¤¦": 4891,
      "à¥įà¤¯à¤¾à¤ļà¤Ĥ": 4892,
      "Ġcamp": 4893,
      "enc": 4894,
      "Ġà¤«à¥Īà¤¸": 4895,
      "à¤ħà¤ªà¤¨à¥ĩ": 4896,
      "uk": 4897,
      "Ġà¤¸à¥įà¤µà¥Ģ": 4898,
      "Ġà¤ķà¥įà¤°à¤®": 4899,
      "From": 4900,
      "à¥įà¤¤à¤¾": 4901,
      "à¤·à¤£": 4902,
      "Ġà¤ķà¤¾à¤Ĥ": 4903,
      "Ġorigin": 4904,
      "Ġà¤¸à¤Ĥà¤¸à¥įà¤ķ": 4905,
      "ius": 4906,
      "Ġdamage": 4907,
      "rim": 4908,
      "à¤¸à¥įà¤¤à¤ķ": 4909,
      "Ġà¤¯à¤¾à¤ļ": 4910,
      "Ġforce": 4911,
      "à¤¸à¤¬": 4912,
      "anies": 4913,
      "used": 4914,
      "Ġfem": 4915,
      "Ġissue": 4916,
      "Ġimage": 4917,
      "Ġnormal": 4918,
      "ret": 4919,
      "Ġà¤¤à¤²": 4920,
      "Ġà¤Ĩà¤§": 4921,
      "uth": 4922,
      "Ġpict": 4923,
      "Ġoutside": 4924,
      "Ġinte": 4925,
      "à¤Ńà¥Ĥ": 4926,
      "play": 4927,
      "à¤°à¤¾à¤·à¥įà¤Łà¥įà¤°à¥Ģà¤¯": 4928,
      "Ġà¤¯à¤¶": 4929,
      "à¤¿à¤ķà¥įà¤¸": 4930,
      "Ġà¤®à¤¹à¤¾à¤ª": 4931,
      "Ġà¤Ĩà¤¯à¥ĭà¤ľà¤¿à¤¤": 4932,
      "à¤ĺà¤°": 4933,
      "Ġnor": 4934,
      "Ġresponse": 4935,
      "Ġbasic": 4936,
      "Ġà¤¤à¥ĩà¤²": 4937,
      "Ġshare": 4938,
      "Ġhelps": 4939,
      "ners": 4940,
      "à¤ķà¤¾à¤°à¥įà¤¯": 4941,
      "Ġà¤ķà¤¾à¤°à¥įà¤¯à¤ķà¤°à¥įà¤¤": 4942,
      "Ġà¤ĩà¤¤à¤¿à¤¹à¤¾à¤¸": 4943,
      "Ġà¤¸à¤µà¤¾à¤²": 4944,
      "Ġfru": 4945,
      "room": 4946,
      "à¤Łà¥ĩ": 4947,
      "Ġcarbon": 4948,
      "Ġdeep": 4949,
      "Ġà¤µà¤¾à¤¦": 4950,
      "Ġà¤Ńà¤¾à¤·à¤¾": 4951,
      "Ġidentify": 4952,
      "à¤ķà¤±": 4953,
      "Ġserious": 4954,
      "Ġà¤īà¤®": 4955,
      "cles": 4956,
      "pose": 4957,
      "Ġensure": 4958,
      "Ġà¤ĺà¤¾à¤²": 4959,
      "Ġà¤ªà¤¦à¤¾à¤°à¥įà¤¥": 4960,
      "à¤¿à¤Łà¤°": 4961,
      "Ġà¤¨à¤¾à¤¹à¥Ģà¤Ĥ": 4962,
      "Ġà¤²à¤¾à¤Ĺà¥Ĥ": 4963,
      "Ġà¤¬à¤ļà¥įà¤ļà¥ĭà¤Ĥ": 4964,
      "Ġà¤²à¤¿à¤¹": 4965,
      "Ġste": 4966,
      "ground": 4967,
      "à¤¡à¤¼à¤ķ": 4968,
      "à¤¶à¥įà¤µà¤°": 4969,
      "rag": 4970,
      "Ġdistribut": 4971,
      "Ġà¤°à¤¾à¤ľà¤¨à¥Ģ": 4972,
      "Ġà¤īà¤¸à¤¨à¥ĩ": 4973,
      "imum": 4974,
      "à¤¯à¤¹à¤¾à¤Ĥ": 4975,
      "Dr": 4976,
      "Ġpoll": 4977,
      "Ġimplement": 4978,
      "Ġwild": 4979,
      "ems": 4980,
      "vention": 4981,
      "à¤±à¥įà¤¯à¤¾": 4982,
      "à¤¾à¤§à¥įà¤¯à¤ķà¥įà¤·": 4983,
      "Ġà¤Ĩà¤¹": 4984,
      "Ġà¤ľà¤²à¥įà¤¦": 4985,
      "erg": 4986,
      "Ġà¤ħà¤°à¥įà¤ľ": 4987,
      "Ġà¤ĸà¤¬à¤°": 4988,
      "ĠCo": 4989,
      "Ġà¤¹à¥Ĥà¤ģ": 4990,
      "Ġlate": 4991,
      "à¤Ľà¥ĩ": 4992,
      "Ġà¤ĺà¥ĩà¤¤à¤²à¤¾": 4993,
      "Ġà¤ķà¥įà¤¯à¥ĭà¤Ĥ": 4994,
      "Ġdemon": 4995,
      "Ġcontinue": 4996,
      "Ġnetwork": 4997,
      "Ġà¤¸à¥Ĥà¤°": 4998,
      "na": 4999,
      "à¤²à¥ĩà¤ľ": 5000,
      "ĠLe": 5001,
      "Ġà¤īà¤¤à¥įà¤ªà¤¨à¥įà¤¨": 5002,
      "Ġà¤ªà¥įà¤°à¥ĭ": 5003,
      "à¥Īà¤ķ": 5004,
      "à¤µà¤¹à¤¾à¤°": 5005,
      "Ġencoura": 5006,
      "Ġcompon": 5007,
      "Ġcompet": 5008,
      "Ġà¤µà¤¿à¤ľà¤¯": 5009,
      "ellow": 5010,
      "Ġessential": 5011,
      "Ġtax": 5012,
      "à¤¦à¤¿à¤µ": 5013,
      "Ġharm": 5014,
      "Ġstreng": 5015,
      "Ġà¤¸à¥ĭà¤®": 5016,
      "Ġattention": 5017,
      "Ġattempt": 5018,
      "Ġdeveloping": 5019,
      "Ġà¤¦à¤¿à¤¶": 5020,
      "uary": 5021,
      "Ġà¤ķà¤ł": 5022,
      "ĠJapan": 5023,
      "à¥įà¤¯à¤¾à¤Ĥà¤ļà¥Ģ": 5024,
      "à¤¦à¤¿à¤²": 5025,
      "à¤Ĺà¥įà¤°à¤¹": 5026,
      "à¤¦à¤°à¤®à¥įà¤¯à¤¾à¤¨": 5027,
      "Ġà¤¨à¤¿à¤§": 5028,
      "ington": 5029,
      "Ġforest": 5030,
      "Ġà¤µà¤ķà¥įà¤¤": 5031,
      "à¥ĥà¤¤à¥Ģ": 5032,
      "à¤°à¥įà¤¤à¤¨": 5033,
      "Ġà¤ħà¤¸à¤¤à¤¾à¤¨à¤¾": 5034,
      "Ġattack": 5035,
      "Ġpage": 5036,
      "ror": 5037,
      "Ġà¤ħà¤°": 5038,
      "Ġà¤ĩà¤¸à¥Ģ": 5039,
      "Ġreported": 5040,
      "Ġà¤¯à¥ģà¤¦à¥įà¤§": 5041,
      "Ġà¤®à¤°à¤¾à¤łà¥Ģ": 5042,
      "à¤¿à¤ķà¥įà¤·à¤£": 5043,
      "Ġà¤¡à¥īà¤ķà¥įà¤Łà¤°": 5044,
      "Now": 5045,
      "Ġmess": 5046,
      "Ġreview": 5047,
      "à¤Łà¥įà¤°": 5048,
      "Ġà¤¨à¥ģà¤ķà¤¸à¤¾à¤¨": 5049,
      "orks": 5050,
      "ĠDep": 5051,
      "En": 5052,
      "Ġà¤ļà¤¾à¤¹à¤¤à¥ĩ": 5053,
      "Ġwritten": 5054,
      "à¤¾à¤ªà¤¨": 5055,
      "rs": 5056,
      "Ġà¤¨à¤ı": 5057,
      "Ġideas": 5058,
      "fect": 5059,
      "ustom": 5060,
      "Ġà¤¸à¤°à¤ķà¤¾à¤°à¥Ģ": 5061,
      "Ġà¤ľà¤¿à¤¸à¤®à¥ĩà¤Ĥ": 5062,
      "Ġà¤Ĩà¤µà¤¶à¥įà¤¯à¤ķà¤¤à¤¾": 5063,
      "ads": 5064,
      "à¥Ĥà¤¬": 5065,
      "Ġbal": 5066,
      "Ġà¤¤à¥ģà¤²": 5067,
      "à¤Ĥà¤¦à¤¾à¤ľ": 5068,
      "ĠCenter": 5069,
      "Ġà¤Ĩà¤Ĥà¤¦": 5070,
      "Ġà¤µà¤¾à¤¸à¥įà¤¤": 5071,
      "Ġled": 5072,
      "Ġà¤¶à¤¾à¤¦à¥Ģ": 5073,
      "Ġà¤¬à¤¨à¤¾à¤¯à¤¾": 5074,
      "Ġà¤¤à¤¯": 5075,
      "à¥įà¤¯à¤¾à¤¹à¥Ģ": 5076,
      "Ġà¤ªà¥Ĥà¤°à¥ĩ": 5077,
      "Ġà¤¡à¥įà¤°": 5078,
      "Ġgrowing": 5079,
      "à¤ħà¤¶à¤¾": 5080,
      "Ġà¤¦à¤ķà¥įà¤·à¤¿à¤£": 5081,
      "Ġhar": 5082,
      "uses": 5083,
      "Ġextreme": 5084,
      "ino": 5085,
      "Ġnight": 5086,
      "Ġà¤¤à¥Įà¤°": 5087,
      "à¤Ĥà¤¶": 5088,
      "Our": 5089,
      "Ġà¤ľà¥ĭà¤°": 5090,
      "à¤¤à¤¬": 5091,
      "Ġà¤ļà¥Įà¤ķ": 5092,
      "Ġà¤¸à¤¹à¤¿à¤¤": 5093,
      "Ġseries": 5094,
      "Ġà¤ªà¥įà¤°à¤ķà¤°à¤£": 5095,
      "Ġà¤ĩà¤Ĥà¤Ĺ": 5096,
      "à¤¶à¥įà¤®": 5097,
      "Ġà¤Łà¥ĩà¤¸à¥įà¤Ł": 5098,
      "Ġà¤®à¥Įà¤ľà¥Ĥà¤¦": 5099,
      "Ġà¤īà¤¤à¥įà¤ªà¤¾à¤¦à¤¨": 5100,
      "Ġpsych": 5101,
      "Ġà¤ĺà¥ĭà¤·à¤£à¤¾": 5102,
      "Ġrefer": 5103,
      "Ġà¤¨à¤¿à¤ķà¤¾à¤²": 5104,
      "inks": 5105,
      "Ġremov": 5106,
      "Ġchalleng": 5107,
      "Ġsafety": 5108,
      "à¥įà¤ķà¤¾à¤°": 5109,
      "à¤¾à¤¯à¥ĩ": 5110,
      "à¤Ĥà¤ľà¤¾à¤¬": 5111,
      "Ġà¤ĩà¤Ĥà¤¡à¤¿à¤¯à¤¾": 5112,
      "ĠFor": 5113,
      "Ġlack": 5114,
      "à¤¾à¤ĵ": 5115,
      "Ġaware": 5116,
      "haps": 5117,
      "leg": 5118,
      "Ġà¤¯à¥ģ": 5119,
      "Ġcorrect": 5120,
      "à¥įà¤ķà¤¿": 5121,
      "à¤®à¤¹à¤¾à¤°": 5122,
      "Ġà¤®à¤ľà¤¬": 5123,
      "à¥ĩà¤®à¤¾à¤²": 5124,
      "à¤¾à¤®à¥Ģà¤£": 5125,
      "anks": 5126,
      "Ġaff": 5127,
      "Ġà¤®à¥ĩà¤°à¥ĩ": 5128,
      "Ġà¤Ńà¤Ĺà¤µà¤¾à¤¨": 5129,
      "Ġlog": 5130,
      "Ġsust": 5131,
      "reen": 5132,
      "abetes": 5133,
      "à¥ĭà¤Ĥà¤¦": 5134,
      "Ġà¤¸à¤Ĥà¤¶": 5135,
      "Ġà¤łà¥Ģà¤ķ": 5136,
      "à¥įà¤¯à¤¾à¤ķà¤¡à¥ĩ": 5137,
      "ĠResearch": 5138,
      "ension": 5139,
      "à¤ªà¥ĩ": 5140,
      "Ġà¤¨à¤¯à¥ĩ": 5141,
      "Ġcoun": 5142,
      "à¤®à¥Ī": 5143,
      "Ġanimal": 5144,
      "den": 5145,
      "issions": 5146,
      "Ġà¤ªà¥įà¤°à¤¸à¥įà¤¤à¤¾à¤µ": 5147,
      "eed": 5148,
      "oor": 5149,
      "Ġpatient": 5150,
      "Ġà¤µà¥ĩà¤Ĺ": 5151,
      "Ġproduced": 5152,
      "Ġpoor": 5153,
      "Ġnumbers": 5154,
      "à¤¦à¥Ĥà¤¸": 5155,
      "Ġà¤Ĺà¥įà¤°à¤¾à¤®": 5156,
      "ugust": 5157,
      "Ġà¤¹à¥ĭà¤Ĥà¤Ĺà¥ĩ": 5158,
      "Ġà¤ªà¥įà¤°à¤¸à¤¿à¤¦à¥įà¤§": 5159,
      "Ġà¤¥à¥ĭ": 5160,
      "tic": 5161,
      "Ġà¤µà¤¿à¤¸à¥įà¤¤": 5162,
      "ography": 5163,
      "à¤¿à¤¯à¤²": 5164,
      "Ġcommit": 5165,
      "ancial": 5166,
      "Ġà¤¸à¤¿à¤¨": 5167,
      "iter": 5168,
      "Ġà¤¸à¤¾à¤®à¤¨à¤¾": 5169,
      "During": 5170,
      "Ġà¤¸à¤¿à¤°à¥įà¤«": 5171,
      "Ġà¤īà¤ªà¤ļà¤¾à¤°": 5172,
      "Ġà¤ķà¥ģà¤Ł": 5173,
      "Ġincluded": 5174,
      "Ġgenerally": 5175,
      "Ġyet": 5176,
      "Ġà¤¹à¥ĭà¤Ĭ": 5177,
      "à¤ķà¥ĥà¤·": 5178,
      "à¤ªà¤Ĥà¤ļ": 5179,
      "Ġmother": 5180,
      "Ġà¤µà¤°à¥įà¤£": 5181,
      "asons": 5182,
      "à¥Ĥà¤£": 5183,
      "à¤ľà¤¬à¤ķà¤¿": 5184,
      "Ġà¤Ĺà¥ĩà¤²à¥ĩ": 5185,
      "\",": 5186,
      "Ġscre": 5187,
      "à¤¾à¤§à¤¿à¤ķà¤¾à¤°à¥Ģ": 5188,
      "AS": 5189,
      "attle": 5190,
      "Ġsea": 5191,
      "Ġà¤®à¤¿à¤²à¥ĩ": 5192,
      "à¤¦à¥ĭ": 5193,
      "Ġà¤ªà¤¾à¤¹à¤¿à¤ľà¥ĩ": 5194,
      "Ġdefin": 5195,
      "Ġà¤ĭ": 5196,
      "iforn": 5197,
      "à¥įà¤¶": 5198,
      "Ġindepend": 5199,
      "itude": 5200,
      "Ġà¤¨à¤Ĥà¤¬à¤°": 5201,
      "Ġà¤«à¥ĭà¤Łà¥ĭ": 5202,
      "Ġcross": 5203,
      "uly": 5204,
      "were": 5205,
      "à¤ľà¤¹à¤¾à¤Ĥ": 5206,
      "Ġà¤®à¤¦à¤¤": 5207,
      "à¤ľà¤¾à¤¨": 5208,
      "à¤ħà¤Ĺ": 5209,
      "à¥Īà¤ķà¥Ģ": 5210,
      "à¤¦à¥įà¤°": 5211,
      "à¥įà¤¯à¥ģ": 5212,
      "Ġà¤Ĩà¤®à¥įà¤¹à¥Ģ": 5213,
      "à¤¿à¤Łà¤²": 5214,
      "à¤¾à¤ķà¤¡à¥ĩ": 5215,
      "Ġà¤¶à¤¿à¤ķà¥įà¤·à¤£": 5216,
      "Ġà¤¨à¤¿à¤Ĺ": 5217,
      "Ġà¤ľà¤¿à¤²à¤¾": 5218,
      "Ġà¤¹à¤¾à¤°": 5219,
      "Ġà¤²à¤Ĺà¤¾à¤¤à¤¾à¤°": 5220,
      "Ġinternational": 5221,
      "ĠMin": 5222,
      "Ġà¤¸à¤¾à¤¹à¤¿à¤¤à¥įà¤¯": 5223,
      "Ġà¤¬à¥Īà¤Ĥà¤ķ": 5224,
      "Ġà¤ķà¥ĭà¤¶à¤¿à¤¶": 5225,
      "Ġà¤Ĩà¤¢": 5226,
      "à¤®à¤¿à¤ķ": 5227,
      "itiz": 5228,
      "Ġà¤ļà¤¿à¤Ĥ": 5229,
      "à¥¤\"": 5230,
      "using": 5231,
      "Ġà¤ķà¤Ł": 5232,
      "Ġexpress": 5233,
      "Ġà¤Ĺà¥ĭà¤²": 5234,
      "Ġà¤¡à¤¿à¤ľ": 5235,
      "Ġà¤®à¤¾à¤¨à¤¾": 5236,
      "Ġeasily": 5237,
      "esc": 5238,
      "resident": 5239,
      "à¤¤à¥įà¤®": 5240,
      "Ġà¤Ĺà¤¿à¤°à¤«à¥įà¤¤": 5241,
      "Ġà¤ªà¤°à¤¤": 5242,
      "Ġec": 5243,
      "Ġwood": 5244,
      "à¤«à¤¼": 5245,
      "His": 5246,
      "ĠInstitute": 5247,
      "Ġtakes": 5248,
      "useum": 5249,
      "Ġfa": 5250,
      "Ġà¤¸à¤¾à¤Ĥà¤¸": 5251,
      "Even": 5252,
      "Ġà¤ħà¤¨à¥įà¤¤": 5253,
      "Ġà¤ķà¤¬": 5254,
      "Ġà¤ªà¥įà¤°à¥ĩ": 5255,
      "à¥Ĥà¤¡": 5256,
      "à¤ľà¥Īà¤¸à¥ĩ": 5257,
      "à¤¾à¤ªà¤¾à¤¸à¥Ĥà¤¨": 5258,
      "Ġdang": 5259,
      "men": 5260,
      "à¤¿à¤¶à¤¤": 5261,
      "à¤Ĺà¥ģ": 5262,
      "Ġdaily": 5263,
      "à¤Łà¤²": 5264,
      "ĠKing": 5265,
      "ropriate": 5266,
      "Ġdeb": 5267,
      "Ġà¤ķà¥įà¤¯à¥ĭà¤Ĥà¤ķà¤¿": 5268,
      "Ġà¤¶à¤¾à¤¹": 5269,
      "Ġdifference": 5270,
      "Ġpolicy": 5271,
      "Ġleaders": 5272,
      "Ġà¤¶à¤¿à¤µà¤¸à¥ĩ": 5273,
      "Ġà¤ħà¤¤à¥įà¤¯": 5274,
      "Ġdetermine": 5275,
      "set": 5276,
      "Ġà¤ħà¤ķ": 5277,
      "iot": 5278,
      "Ġà¤¤à¥ģà¤®à¥įà¤¹à¥Ģ": 5279,
      "à¤¾à¤¹à¤°à¤£": 5280,
      "à¥įà¤¹à¥ĩ": 5281,
      "Ġgetting": 5282,
      "Ġà¤¤à¥ĩà¤ľ": 5283,
      "off": 5284,
      "Ġà¤°à¤¹à¤¤à¥ĩ": 5285,
      "Ġsomeone": 5286,
      "ĠAb": 5287,
      "Ġelectric": 5288,
      "Ġdoesn": 5289,
      "Ġdraw": 5290,
      "à¤ĩà¤¤": 5291,
      "dro": 5292,
      "Ġà¤¤à¤ªà¤¾à¤¸": 5293,
      "Ġox": 5294,
      "Ġwall": 5295,
      "Ġkids": 5296,
      "ony": 5297,
      "Ġà¤¨à¤¸à¤²": 5298,
      "Ġà¤Ĩà¤§à¥Ģ": 5299,
      "Ġsomet": 5300,
      "Ġà¤¶à¥Ģ": 5301,
      "Im": 5302,
      "à¤Ĥà¤¡à¥Ģ": 5303,
      "Ġà¤ªà¥įà¤°à¤¤à¤¿à¤¨à¤¿à¤§": 5304,
      "etc": 5305,
      "Ġà¤¶à¥ģà¤Ń": 5306,
      "Ġà¤ªà¤£": 5307,
      "Ġtheory": 5308,
      "ifornia": 5309,
      "Ġà¤µà¤¾à¤²": 5310,
      "Ġcommunities": 5311,
      "à¤īà¤¤à¥įà¤¤à¤°": 5312,
      "Ġà¤ħà¤¨à¥ģ": 5313,
      "Ġà¤īà¤ªà¤¾à¤¯": 5314,
      "these": 5315,
      "à¤µà¥ĩà¤¦à¤¨": 5316,
      "Ġthird": 5317,
      "Ġast": 5318,
      "à¥īà¤°à¥įà¤¡": 5319,
      "Ġà¤°à¤ĸà¤¨à¥ĩ": 5320,
      "Ġful": 5321,
      "Ġà¤¬à¤¿à¤ľ": 5322,
      "ancy": 5323,
      "à¥ħà¤¨": 5324,
      "Ġmanufact": 5325,
      "Ġmaintain": 5326,
      "à¤¾à¤Ĥà¤µ": 5327,
      "ĠDr": 5328,
      "Not": 5329,
      "esus": 5330,
      "lection": 5331,
      "à¤¾à¤¬à¤¾à¤¬à¤¤": 5332,
      "Ġprep": 5333,
      "son": 5334,
      "Ġà¤īà¤¦à¥įà¤¦à¥ĩà¤¶": 5335,
      "ED": 5336,
      "Ġdou": 5337,
      "ari": 5338,
      "Ġà¤ķà¤°à¤£à¥įà¤¯à¤¾à¤ļà¥Ģ": 5339,
      "Ġtraditional": 5340,
      "Ġtown": 5341,
      "Ġinstit": 5342,
      "Ġstarted": 5343,
      "Ġà¤ªà¥įà¤°à¤¯à¤¾à¤¸": 5344,
      "undred": 5345,
      "Ġà¤łà¤¾à¤ķà¤°à¥ĩ": 5346,
      "à¤Ĥà¤Ĺà¥Ģ": 5347,
      "mission": 5348,
      "ilos": 5349,
      "Ġemot": 5350,
      "Ġdiv": 5351,
      "ĠScience": 5352,
      "à¤īà¤¸à¤ķà¥ĩ": 5353,
      "à¤¸à¤¾à¤°": 5354,
      "Ġà¤®à¤¹à¤¾à¤¨": 5355,
      "Ġà¤ªà¥ģà¤¢à¥ĩ": 5356,
      "à¤¿à¤¤à¤¿": 5357,
      "Ġquite": 5358,
      "Ġnation": 5359,
      "Since": 5360,
      "Ġtree": 5361,
      "Ġselect": 5362,
      "ength": 5363,
      "Ġà¤µà¤¾à¤¹à¤¨": 5364,
      "à¤¤à¤¨": 5365,
      "Ġà¤¸à¤Ń": 5366,
      "Ġà¤ªà¥įà¤°à¤Ń": 5367,
      "Ġunique": 5368,
      "ĠCount": 5369,
      "Ġà¤Ĺà¥ģà¤°à¥ģ": 5370,
      "Ġà¤ħà¤¸à¤¤à¥ĭ": 5371,
      "Ġveget": 5372,
      "lim": 5373,
      "Ġà¤¦à¥ģà¤ķ": 5374,
      "Ġà¤¯à¤¾à¤Ĥà¤ļà¥Ģ": 5375,
      "à¥įà¤¯à¤¾à¤µà¥ĩ": 5376,
      "à¤²à¥ĭ": 5377,
      "à¤²à¥Ģà¤µ": 5378,
      "Ġà¤ªà¥įà¤°à¤¥à¤®": 5379,
      "____": 5380,
      "Ġconcent": 5381,
      "Ġlif": 5382,
      "joy": 5383,
      "ĠEduc": 5384,
      "nov": 5385,
      "Ġà¤¬à¤ģ": 5386,
      "Ġà¤µà¤¿à¤ª": 5387,
      "à¤¾à¤ĥ": 5388,
      "Ġinvestig": 5389,
      "à¤¿à¤ĵ": 5390,
      "Ġcover": 5391,
      "Ġsecurity": 5392,
      "osure": 5393,
      "cil": 5394,
      "bol": 5395,
      "Ġconsist": 5396,
      "Ġmagn": 5397,
      "cret": 5398,
      "Ġà¤¨à¥Ģà¤¤à¤¿": 5399,
      "Ġà¤ĩà¤¸à¥įà¤¤à¥ĩà¤®à¤¾à¤²": 5400,
      "Ġfav": 5401,
      "Ġà¤°à¥ĭà¤ľà¥Ģ": 5402,
      "Ġteachers": 5403,
      "Ġà¤¸à¤®à¥įà¤¬": 5404,
      "Ġperformance": 5405,
      "Ġà¤īà¤¦à¥įà¤¯à¥ĭà¤Ĺ": 5406,
      "lied": 5407,
      "à¤¶à¥Ģà¤²": 5408,
      "ĠAustral": 5409,
      "Ġachieve": 5410,
      "Ġà¤¸à¤®à¤¾à¤µ": 5411,
      "Ġadded": 5412,
      "Ġà¤®à¤¹à¤¤à¥įà¤µà¤ªà¥Ĥà¤°à¥įà¤£": 5413,
      "Ġsound": 5414,
      "Ġà¤ħà¤¥à¤µà¤¾": 5415,
      "à¤®à¥Ģà¤Łà¤°": 5416,
      "Ġinside": 5417,
      "Ġlooking": 5418,
      "à¤§à¤°": 5419,
      "à¤µà¤¿à¤ľ": 5420,
      "à¤Ĺà¥ĭ": 5421,
      "pril": 5422,
      "Ġestablished": 5423,
      "Ġà¤ķà¥ĩà¤²à¥ĩà¤²à¥įà¤¯à¤¾": 5424,
      "oes": 5425,
      "Ġà¤ľà¤¯": 5426,
      "à¤µà¥Ģà¤Ĥ": 5427,
      "Ġestim": 5428,
      "have": 5429,
      "à¤ķà¥ģ": 5430,
      "Ġà¤¦à¥Ĥà¤¸à¤°à¥Ģ": 5431,
      "Ġprimary": 5432,
      "ĠPar": 5433,
      "à¥ĥà¤¥": 5434,
      "à¤°à¤¿à¤ķà¤¾": 5435,
      "Ġà¤¶à¤ķà¤¤à¥ĩ": 5436,
      "Ġquickly": 5437,
      "Ġtools": 5438,
      "Ġà¤µà¤¹à¤¾à¤Ĥ": 5439,
      "Ġdirectly": 5440,
      "Ġallows": 5441,
      "Ġà¤¨à¤®": 5442,
      "Ġà¤¤à¤¾à¤ķ": 5443,
      "Ġmonths": 5444,
      "Ġà¤Ĩà¤¶": 5445,
      "Ġdiseases": 5446,
      "à¤¾à¤¦à¤°": 5447,
      "year": 5448,
      "Ġà¤¹à¤¾à¤¸": 5449,
      "Ġla": 5450,
      "Ġlarger": 5451,
      "Ġà¤°à¤¾à¤¹à¥ģà¤²": 5452,
      "Ġimmedi": 5453,
      "Why": 5454,
      "vest": 5455,
      "osing": 5456,
      "Ġir": 5457,
      "Ġscientists": 5458,
      "Ġà¤¹à¤¿à¤¨à¥įà¤¦": 5459,
      "Ġà¤®à¤§": 5460,
      "Ġaspect": 5461,
      "Ġà¤Ĭà¤ªà¤°": 5462,
      "Ġbab": 5463,
      "Ġheld": 5464,
      "Ġà¤¹à¥ĭà¤¤à¤Ĥ": 5465,
      "Ġwarm": 5466,
      "Ġà¤¹à¤®à¥ĩà¤Ĥ": 5467,
      "Ġà¤¨à¤¿à¤·": 5468,
      "Ġà¤°à¤¹à¤¤à¤¾": 5469,
      "Us": 5470,
      "Ġà¤ħà¤Ńà¥įà¤¯à¤¾à¤¸": 5471,
      "rition": 5472,
      "Ġmeaning": 5473,
      "à¤ķà¤¾à¤¹à¥Ģ": 5474,
      "Ġà¤®à¤¹à¤¾à¤®": 5475,
      "Ġdoctor": 5476,
      "Ġprobably": 5477,
      "rest": 5478,
      "Ġà¤ĩà¤¸à¤ķà¥Ģ": 5479,
      "gency": 5480,
      "Ġà¤ķà¤§à¥Ģ": 5481,
      "à¤¤à¥įà¤ķ": 5482,
      "ying": 5483,
      "Ġoffer": 5484,
      "Ġà¤ħà¤ļà¥įà¤Ľà¥Ģ": 5485,
      "Ġprogress": 5486,
      "à¤¸à¥įà¤¤à¥Ģ": 5487,
      "Ġà¤Łà¥įà¤°à¥ĩà¤¨": 5488,
      "à¤ªà¤¾": 5489,
      "à¤¸à¥įà¤µà¥Ģà¤°": 5490,
      "ties": 5491,
      "pite": 5492,
      "Ġtiss": 5493,
      "Ġvacc": 5494,
      "Ġà¤µà¥ĩà¤¬à¤¸": 5495,
      "head": 5496,
      "yp": 5497,
      "Ġcapt": 5498,
      "Ġà¤ªà¥įà¤°à¤¤à¤¿à¤ķ": 5499,
      "Ġà¤¤à¤¸à¥ĩà¤ļ": 5500,
      "back": 5501,
      "Ġprint": 5502,
      "Ġanswer": 5503,
      "Ġà¤¸à¤¾à¤®à¤¾à¤ľà¤¿à¤ķ": 5504,
      "uries": 5505,
      "à¤Łà¤¨à¥ĩ": 5506,
      "Ġrout": 5507,
      "à¤ħà¤Ń": 5508,
      "Ġà¤®à¤²": 5509,
      "tra": 5510,
      "à¤ľà¥ĩà¤ªà¥Ģ": 5511,
      "Ġà¤¸à¤¾à¤µ": 5512,
      "Because": 5513,
      "coh": 5514,
      "cean": 5515,
      "Ġà¤ªà¤¾à¤£": 5516,
      "Ġà¤¶à¥ģà¤°à¥ģà¤Ĩ": 5517,
      "yond": 5518,
      "à¤¾à¤Ĺà¤°": 5519,
      "ĠMay": 5520,
      "Ġbooks": 5521,
      "Ġnegative": 5522,
      "Ġà¤Ńà¥Ĥ": 5523,
      "gn": 5524,
      "Ġthous": 5525,
      "equ": 5526,
      "Ġà¤ķà¤¾à¤¨à¥Ĥà¤¨": 5527,
      "Ġà¤¨à¤Ī": 5528,
      "col": 5529,
      "come": 5530,
      "Ġà¤²à¤Ĥà¤¬": 5531,
      "Ġbehind": 5532,
      "Ġsometimes": 5533,
      "Ġà¤°à¤¾à¤¶à¤¿": 5534,
      "Ġà¤Ĩà¤Ĥà¤¦à¥ĭà¤²à¤¨": 5535,
      "Ġà¤ªà¥Ģà¤Ľà¥ĩ": 5536,
      "Ġà¤µà¥ĩà¤³à¥Ģ": 5537,
      "Ġeye": 5538,
      "Ġà¤¨à¥ĩà¤¤à¥ĥà¤¤à¥įà¤µ": 5539,
      "Ġbit": 5540,
      "Ġà¤¯à¤¾à¤¤à¥įà¤°à¤¾": 5541,
      "Ġspeak": 5542,
      "à¤¶à¤¨à¤²": 5543,
      "Ġaltern": 5544,
      "iber": 5545,
      "Ġà¤ļà¤²à¤¾": 5546,
      "eople": 5547,
      "iency": 5548,
      "Ġvisit": 5549,
      "Ġà¤ªà¥įà¤°à¤§à¤¾à¤¨à¤®à¤Ĥà¤¤à¥įà¤°à¥Ģ": 5550,
      "Ġcivil": 5551,
      "AC": 5552,
      "à¤µà¤¾à¤¸": 5553,
      "à¤¿à¤¯à¤¾à¤ģ": 5554,
      "IV": 5555,
      "Ġtrees": 5556,
      "hel": 5557,
      "Ġeval": 5558,
      "Ġà¤µà¥įà¤¯à¤ķà¥įà¤¤à¥Ģ": 5559,
      "iques": 5560,
      "ĠAll": 5561,
      "Ġhumans": 5562,
      "Ġscientific": 5563,
      "à¤¤à¤Ĥ": 5564,
      "Ġà¤ķà¥ĩà¤Ĥà¤¦à¥įà¤°à¥Ģà¤¯": 5565,
      "Ġà¤¨à¤¿à¤ķà¤²": 5566,
      "Ø§": 5567,
      "IT": 5568,
      "Ġsold": 5569,
      "Ġpoints": 5570,
      "Ġproced": 5571,
      "Ġà¤¸à¥įà¤µà¥Ģà¤ķà¤¾à¤°": 5572,
      "Ġà¤²à¤Ĺà¤¾à¤¯à¤¾": 5573,
      "à¤¸à¤¿à¤ķ": 5574,
      "Ġà¤ķà¤¾à¤°à¥įà¤°": 5575,
      "known": 5576,
      "Ġtend": 5577,
      "Ġmilitary": 5578,
      "Ġà¤ªà¥Īà¤¸à¥ĩ": 5579,
      "inf": 5580,
      "people": 5581,
      "Ġà¤ĺà¥ĩà¤¤à¤²à¥Ģ": 5582,
      "iers": 5583,
      "à¤¿à¤®à¤¾à¤¨": 5584,
      "Ġà¤¸à¥ĩà¤²": 5585,
      "Ġrespect": 5586,
      "Ġhighly": 5587,
      "Ġà¤¦à¥ĩà¤¨à¤¾": 5588,
      "Ġà¤²à¤¾à¤ĩ": 5589,
      "à¤¦à¥ĩà¤ĸ": 5590,
      "à¤ķà¥įà¤²": 5591,
      "Ġà¤¬à¤¨à¤¾à¤ı": 5592,
      "Ġsolar": 5593,
      "Ġmultiple": 5594,
      "life": 5595,
      "Ġà¤µà¤°à¥įà¤¤": 5596,
      "Read": 5597,
      "bit": 5598,
      "Gen": 5599,
      "à¥ĭà¤Łà¥Ģ": 5600,
      "Ġcompanies": 5601,
      "à¤¯à¤¾à¤¤": 5602,
      "Ġreflect": 5603,
      "imal": 5604,
      "Ġà¤¬à¤¨à¥ĩ": 5605,
      "Ġadditional": 5606,
      "Ġhost": 5607,
      "Ġà¤ħà¤ªà¤°": 5608,
      "Ġà¤¯à¤¦à¤¿": 5609,
      "Then": 5610,
      "Ġà¤¹à¤¸à¥įà¤¤": 5611,
      "Ġactive": 5612,
      "ĠCont": 5613,
      "Ġfront": 5614,
      "Ġà¤¸à¥ģà¤°à¥ģ": 5615,
      "à¤¸à¥įà¤µà¤¾à¤¸à¥įà¤¥à¥įà¤¯": 5616,
      "à¤Ĺà¤¢à¤¼": 5617,
      "Ġà¤¸à¥ĩà¤µ": 5618,
      "Ġà¤Ĩà¤°à¥ĭà¤Ĺ": 5619,
      "Ġeth": 5620,
      "à¤¾à¤ªà¥Ĥà¤°": 5621,
      "Ġà¤ĸà¤°à¥ĩ": 5622,
      "Ġacid": 5623,
      "Ġdocument": 5624,
      "à¥ĩà¤·à¥įà¤ł": 5625,
      "à¤¤à¥įà¤¯à¤¾à¤ļ": 5626,
      "à¤°à¥įà¤ľà¥Ģ": 5627,
      "elt": 5628,
      "Ġincluding": 5629,
      "Ġsoon": 5630,
      "Ġwent": 5631,
      "Americ": 5632,
      "Ġà¤¸à¥įà¤µà¤°à¥Ĥà¤ª": 5633,
      "irm": 5634,
      "Ġseems": 5635,
      "eks": 5636,
      "Ġreve": 5637,
      "Ġà¤¨à¤°à¥ĩà¤Ĥà¤¦à¥įà¤°": 5638,
      "sect": 5639,
      "à¥ĩà¤¶à¥įà¤µà¤°": 5640,
      "Ġuseful": 5641,
      "à¥ģà¤ģ": 5642,
      "à¤¸à¥įà¤®": 5643,
      "dr": 5644,
      "Ġelements": 5645,
      "à¥įà¤®à¤£": 5646,
      "Ġofficial": 5647,
      "à¤ķà¤¿à¤¸à¥Ģ": 5648,
      "Ġsituation": 5649,
      "Ġà¤ļà¥ģà¤ķà¤¾": 5650,
      "vant": 5651,
      "according": 5652,
      "Ġdemonstr": 5653,
      "Ġà¤¬à¤¾à¤¹à¥ĩà¤°": 5654,
      "Ġexercise": 5655,
      "istry": 5656,
      "Ab": 5657,
      "book": 5658,
      "oring": 5659,
      "Ġà¤¶à¤¾à¤³": 5660,
      "à¤°à¥ģà¤ªà¤¯à¥ĩ": 5661,
      "Ġgovern": 5662,
      "Ġmental": 5663,
      "Ġà¤ķà¤¾à¤°à¤µà¤¾à¤Ī": 5664,
      "Ġlat": 5665,
      "Ġfram": 5666,
      "Ġà¤¸à¤®à¤¿à¤¤à¥Ģ": 5667,
      "Ġfeed": 5668,
      "Ġsupply": 5669,
      "Ġà¤ħà¤¹": 5670,
      "Ġhor": 5671,
      "See": 5672,
      "Ġà¤ķà¤¾à¤°à¥įà¤°à¤µà¤¾à¤Ī": 5673,
      "à¤ľà¤¿à¤²": 5674,
      "à¥įà¤¯à¥ĭ": 5675,
      "Ġà¤ķà¥ĩà¤²à¤Ĥ": 5676,
      "Ġfamilies": 5677,
      "Ġvit": 5678,
      "Ġà¤®à¤¹à¥Ģà¤¨à¥ĩ": 5679,
      "lier": 5680,
      "Go": 5681,
      "gram": 5682,
      "fort": 5683,
      "à¤£à¤¾à¤°à¥ĩ": 5684,
      "....": 5685,
      "Ġsevere": 5686,
      "Ġcritical": 5687,
      "Ġà¤¶à¥ģà¤ķà¥įà¤°": 5688,
      "Ġà¤ķà¤Ĥà¤ªà¤¨": 5689,
      "Ġà¤®à¤Ĥà¤ľ": 5690,
      "ologies": 5691,
      "Ġhabit": 5692,
      "Ġà¤ļà¥Ģà¤¨": 5693,
      "à¥Ģà¤ļ": 5694,
      "Ġà¤¦à¤¬": 5695,
      "ĠIm": 5696,
      "inese": 5697,
      "ding": 5698,
      "Ġdecre": 5699,
      "wise": 5700,
      "à¥Īà¤¸": 5701,
      "Ġtowards": 5702,
      "à¥ģà¤ĥ": 5703,
      "Ġfoot": 5704,
      "Ġà¤ķà¥ĭà¤Łà¥Ģ": 5705,
      "Ġcentral": 5706,
      "Ġextra": 5707,
      "cial": 5708,
      "oday": 5709,
      "Ġaud": 5710,
      "ĠIndian": 5711,
      "Ġà¤®à¤¿à¤¤à¥įà¤°": 5712,
      "Or": 5713,
      "Ġà¤ļà¥ĩ": 5714,
      "Ġà¤¯à¥ĩà¤Īà¤²": 5715,
      "Ġà¤ħà¤®à¥ĩà¤°à¤¿à¤ķ": 5716,
      "Ġsqu": 5717,
      "Ġà¤¸à¥ĭà¤¨": 5718,
      "ously": 5719,
      "Ġinfection": 5720,
      "à¤¾à¤°à¤¿à¤¤": 5721,
      "Ġà¤µà¤¿à¤¸": 5722,
      "isms": 5723,
      "Ġà¤¸à¤®à¤ľ": 5724,
      "Ġà¤Ĩà¤¯à¥ĭà¤ľà¤¨": 5725,
      "Ġà¤Ĺà¥ģà¤°": 5726,
      "à¤ľà¤¨à¤¿à¤ķ": 5727,
      "Ġà¤¸à¥ģà¤°à¥ģà¤µ": 5728,
      "Ġà¤Ńà¤¾à¤Ī": 5729,
      "ĠBo": 5730,
      "à¤¬à¤¤à¤¾": 5731,
      "Ġtur": 5732,
      "ech": 5733,
      "orders": 5734,
      "ulate": 5735,
      "itch": 5736,
      "Ġà¤Ĩà¤®à¤¦à¤¾à¤°": 5737,
      "à¤Ĺà¤²": 5738,
      "Ġà¤®à¤¹à¤¾à¤°à¤¾à¤ľ": 5739,
      "Ġelse": 5740,
      "Ġà¤¶à¥ĩà¤¯à¤°": 5741,
      "ĠChina": 5742,
      "cks": 5743,
      "Ġgard": 5744,
      "Ġà¤ķà¥ĩà¤µà¤³": 5745,
      "EN": 5746,
      "à¥įà¤µà¤ľà¤¨à¤¿à¤ķ": 5747,
      "ĠEuropean": 5748,
      "lation": 5749,
      "anuary": 5750,
      "Ġvideo": 5751,
      "atur": 5752,
      "à¤µà¤¿à¤¦à¥įà¤¯à¤¾à¤²à¤¯": 5753,
      "à¥ĭà¤¤à¥įà¤¸": 5754,
      "overy": 5755,
      "illiam": 5756,
      "Ġmonth": 5757,
      "ords": 5758,
      "Sp": 5759,
      "Ġà¤ľà¤µà¤³": 5760,
      "à¤§à¤°à¥įà¤®": 5761,
      "Ġpurpose": 5762,
      "à¤¤à¥įà¤¯à¤¾à¤¤": 5763,
      "Ġsal": 5764,
      "à¤µà¤°à¥Ģ": 5765,
      "à¤µà¤¾à¤¬": 5766,
      "Also": 5767,
      "Am": 5768,
      "Ġà¤ļà¤¿à¤ķà¤¿à¤¤": 5769,
      "Ġancient": 5770,
      ");": 5771,
      "à¤ħà¤¸à¤Ĥ": 5772,
      "term": 5773,
      "Ġà¤«à¥įà¤²": 5774,
      "ama": 5775,
      "à¤§à¤¾à¤¨à¥Ģ": 5776,
      "Ġà¤²à¤Ĺà¥Ģ": 5777,
      "à¤°à¥įà¤¤à¤¿": 5778,
      "Ġlabor": 5779,
      "à¤¶à¥ĩ": 5780,
      "Ġà¤®à¤¹à¤¾à¤µ": 5781,
      "Ġsus": 5782,
      "OS": 5783,
      "ship": 5784,
      "à¤°à¤¾à¤µ": 5785,
      "Ġà¤¤à¤¾à¤²à¥ģà¤ķ": 5786,
      "ĠFrench": 5787,
      "Ġbad": 5788,
      "Ġlost": 5789,
      "à¤¸à¥įà¤Łà¥įà¤°à¥ĩà¤²": 5790,
      "after": 5791,
      "Ġà¤ĸà¥ģà¤²": 5792,
      "Ġà¤ªà¤¿à¤¤à¤¾": 5793,
      "Ġà¤ıà¤ľ": 5794,
      "inking": 5795,
      "Ġà¤ıà¤²": 5796,
      "Ġwalk": 5797,
      "Ġteaching": 5798,
      "John": 5799,
      "Ġlimited": 5800,
      "Ġprior": 5801,
      "BC": 5802,
      "will": 5803,
      "Ġlands": 5804,
      "à¤¨à¤¿à¤µ": 5805,
      "Ġà¤®à¥ĭà¤¬": 5806,
      "Ġà¤¤à¥įà¤¯à¤¾à¤Ĥà¤ļ": 5807,
      "Ġà¤®à¤ľ": 5808,
      "Ġà¤Ĺà¤²": 5809,
      "Ġmom": 5810,
      "à¥ĩà¤¨à¥ĩ": 5811,
      "à¥įà¤¯à¤¾à¤Ĥà¤¤": 5812,
      "à¤¿à¤ķà¥Ģ": 5813,
      "à¤¬à¤¾à¤ľ": 5814,
      "ptember": 5815,
      "à¥ĭà¤¦": 5816,
      "rance": 5817,
      "à¤ªà¥įà¤¤": 5818,
      "Ġsil": 5819,
      "Ġprotection": 5820,
      "Ġà¤¨à¥ĭà¤Ĥà¤¦": 5821,
      "à¤µà¥ĩà¤Ĥ": 5822,
      "Ġà¤°à¥ģà¤ªà¤¯": 5823,
      "Ġà¤ķà¤°à¤£à¤¾à¤°": 5824,
      "Ġbase": 5825,
      "Ġlargest": 5826,
      "à¤ªà¥įà¤°à¤¤à¥įà¤¯": 5827,
      "Ġà¤¦à¥Į": 5828,
      "upp": 5829,
      "Ġones": 5830,
      "Ġà¤¸à¥ĩà¤¨à¤¾": 5831,
      "Ġà¤§à¤°": 5832,
      "à¤¸à¥ģà¤°": 5833,
      "à¤µà¥įà¤¯à¤µ": 5834,
      "Ġbroad": 5835,
      "Ġà¤¸à¤Ĥà¤¦": 5836,
      "Ġà¤¦à¤¾à¤µà¤¾": 5837,
      "Ġexpect": 5838,
      "Ġbeginning": 5839,
      "à¤²à¥Ģà¤µà¥ģà¤¡": 5840,
      "inct": 5841,
      "Ġà¤¨à¥ĭà¤Ł": 5842,
      "Ġnuc": 5843,
      "Ġà¤¸à¥ģà¤¬à¤¹": 5844,
      "ields": 5845,
      "Ġà¤¸à¥įà¤µà¤¯à¤Ĥ": 5846,
      "ira": 5847,
      "Ġstay": 5848,
      "Ġà¤ķà¤¥": 5849,
      "Ġà¤¹à¤¤à¥įà¤¯à¤¾": 5850,
      "Ġà¤²à¤Ĺà¤¤à¤¾": 5851,
      "à¤°à¥įà¤¬": 5852,
      "ĠAm": 5853,
      "ĠAnd": 5854,
      "Ġvalues": 5855,
      "Ġnorth": 5856,
      "time": 5857,
      "Can": 5858,
      "Ġà¤ķà¥ģà¤Łà¥ģà¤Ĥà¤¬": 5859,
      "Ġà¤²à¤µ": 5860,
      "Ġà¤ĳà¤¨à¤²": 5861,
      "Ġthinking": 5862,
      "Ġgame": 5863,
      "ĠGerman": 5864,
      "Ġà¤®à¤¿à¤²à¤¨à¥ĩ": 5865,
      "à¤¡à¤¼à¥ĭà¤Ĥ": 5866,
      "under": 5867,
      "Ġà¤¨à¤¦à¥Ģ": 5868,
      "Ġà¤ĩà¤¸à¤¸à¥ĩ": 5869,
      "Ġà¤®à¥ĩà¤¡": 5870,
      "Ġà¤ħà¤¤à¤¿à¤°à¤¿à¤ķà¥įà¤¤": 5871,
      "Ġfight": 5872,
      "Ġà¤ķà¤¿à¤¯à¥ĩ": 5873,
      "à¤Ĩà¤ªà¤£": 5874,
      "Ġà¤¤à¤¸à¥įà¤µà¥Ģà¤°": 5875,
      "Ġà¤¬à¤²à¥įà¤²": 5876,
      "Ġà¤¸à¤¹à¤¾à¤¯": 5877,
      "Ġfeatures": 5878,
      "Ġà¤ķà¤¾à¤°à¥įà¤¡": 5879,
      "izations": 5880,
      "à¤ªà¥įà¤°à¤¿à¤¯": 5881,
      "Ġà¤ıà¤¡": 5882,
      "Ġstri": 5883,
      "âĢĿ.": 5884,
      "Ġà¤µà¥ĥà¤¦à¥įà¤§": 5885,
      "Ġsustain": 5886,
      "Ġstrateg": 5887,
      "itis": 5888,
      "à¤«à¥įà¤°": 5889,
      "Ġà¤°à¥Ĥ": 5890,
      "ĠServ": 5891,
      "Ġprotein": 5892,
      "Ġà¤Ĺà¥ģà¤ľà¤°": 5893,
      "Ġinfluence": 5894,
      "à¤ªà¥įà¤°à¤®": 5895,
      "Ġà¤ľà¤°à¥Ĥà¤°à¤¤": 5896,
      "Ġemb": 5897,
      "Com": 5898,
      "Ġtransport": 5899,
      "ibrary": 5900,
      "Ġhot": 5901,
      "ashington": 5902,
      "Ġà¤ķà¤²à¥įà¤ª": 5903,
      "Ġà¤¸à¤¹à¥Ģ": 5904,
      "Ġà¤°à¥ĩ": 5905,
      "Ġà¤°à¤¾à¤ľà¤¾": 5906,
      "Ġaccur": 5907,
      "oke": 5908,
      "à¥ĭà¤¬à¤¤": 5909,
      "à¤¨à¥įà¤¤à¥ģ": 5910,
      "Ġpan": 5911,
      "Ġà¤²à¥Į": 5912,
      "à¤ıà¤ļ": 5913,
      "ham": 5914,
      "Ġdry": 5915,
      "Ġà¤ªà¥ģà¤·": 5916,
      "Ġà¤¬à¤ļà¥įà¤ļà¥ĩ": 5917,
      "Ġord": 5918,
      "Ġbirth": 5919,
      "inical": 5920,
      "Ġblock": 5921,
      "Ġà¤®à¤¶": 5922,
      "Ġà¤ķà¥īà¤²à¥ĩà¤ľ": 5923,
      "Des": 5924,
      "idents": 5925,
      "http": 5926,
      "Ġaim": 5927,
      "says": 5928,
      "aul": 5929,
      "Ġà¤ªà¤¡à¤¼à¤¾": 5930,
      "Ġdecision": 5931,
      "à¤µà¤¿à¤¶à¥ĩà¤·": 5932,
      "ctober": 5933,
      "Ġà¤ķà¤°à¤¤à¤¾à¤¤": 5934,
      "Ġgoal": 5935,
      "Ġprec": 5936,
      "cohol": 5937,
      "ĠCom": 5938,
      "Ġhundred": 5939,
      "US": 5940,
      "à¤¾à¤Ĺà¤¤": 5941,
      "Ġà¤ķà¥Ģà¤®à¤¤": 5942,
      "Ġà¤ľà¤¹à¤¾à¤Ĥ": 5943,
      "ey": 5944,
      "à¤¦à¤¿à¤²à¥įà¤²à¥Ģ": 5945,
      "arian": 5946,
      "load": 5947,
      "Ġà¤¸à¥ĭà¤¡": 5948,
      "Of": 5949,
      "Ġà¤ķà¤¾à¤³à¤¾à¤¤": 5950,
      "à¤ħà¤°à¥įà¤¥": 5951,
      "Ġà¤¦à¤°à¥įà¤¶à¤¨": 5952,
      "Ġgot": 5953,
      "Ġsection": 5954,
      "Ġcapital": 5955,
      "à¤Ĺà¥įà¤°à¥Ģ": 5956,
      "à¤®à¤¾à¤®": 5957,
      "Ġreach": 5958,
      "AM": 5959,
      "Ġà¤µà¥įà¤¯à¤µà¤¹à¤¾à¤°": 5960,
      "à¥īà¤¯": 5961,
      "à¤ĸà¤¾": 5962,
      "Ġà¤ĺà¤Łà¤¨": 5963,
      "Ġmount": 5964,
      "Ġà¤Ĺà¥ĩà¤Ĥà¤¦": 5965,
      "oud": 5966,
      "Ġcustom": 5967,
      "Ġanaly": 5968,
      "Ġcard": 5969,
      "à¥įà¤¤à¥ģ": 5970,
      "Ġà¤ħà¤§à¤¿à¤ķà¤¾à¤°à¤¿à¤¯à¥ĭà¤Ĥ": 5971,
      "also": 5972,
      "osition": 5973,
      "Ġà¤¦à¥ĩà¤¤": 5974,
      "Ġà¤¤à¤¾à¤ª": 5975,
      "Ġà¤µà¤¾à¤¤": 5976,
      "Ġimportance": 5977,
      "à¤¿à¤Ĥà¤¦à¥ĩ": 5978,
      "odies": 5979,
      "rote": 5980,
      "à¤¦à¤¾à¤°à¥Ģ": 5981,
      "Ġà¤ħà¤¸à¤Ĥ": 5982,
      "Ġà¤¸à¤¾à¤«": 5983,
      "Ġà¤¶à¥Ī": 5984,
      "à¤¤à¥įà¤¯à¤¾à¤Ĥà¤¨à¥Ģ": 5985,
      "Ġcapac": 5986,
      "Ġdescribed": 5987,
      "Ġà¤¸à¤Ĥà¤Ńà¤¾à¤µ": 5988,
      "Ġagree": 5989,
      "à¤¾à¤¸à¤¾": 5990,
      "ĠAfrica": 5991,
      "à¤Ĥà¤¦à¥Ģ": 5992,
      "à¤¤à¥Ģà¤¨": 5993,
      "Ġenjoy": 5994,
      "Ġà¤µà¤¿à¤²": 5995,
      "à¤¯à¤¾à¤µà¥ĩà¤³à¥Ģ": 5996,
      "Ġexact": 5997,
      "Ġquant": 5998,
      "Ġà¤µà¤¿à¤¦à¥ĩà¤¶": 5999,
      "Ġrates": 6000,
      "à¤¾à¤¯à¤£": 6001,
      "estic": 6002,
      "Ġà¤ķà¤¿à¤¨": 6003,
      "igr": 6004,
      "Ġà¤Ĩà¤ĸ": 6005,
      "Ġhands": 6006,
      "Ġà¤ļà¤²à¤¤à¥ĩ": 6007,
      "Ġadminist": 6008,
      "Ġà¤®à¤¾à¤²à¤¿à¤ķ": 6009,
      "Ġapplication": 6010,
      "Ġreceived": 6011,
      "Ġfast": 6012,
      "Ġà¤ķà¥ħ": 6013,
      "Ġà¤®à¤¾à¤£": 6014,
      "à¤¤à¥įà¤¤à¤¿": 6015,
      "Ġbrought": 6016,
      "Ġà¤®à¥Įà¤ķà¥ĩ": 6017,
      "making": 6018,
      "Ġà¤ªà¤¶à¥įà¤ļà¤¿à¤®": 6019,
      "May": 6020,
      "Ġà¤µà¥ĩà¤¬à¤¸à¤¾à¤ĩà¤Ł": 6021,
      "Ġà¤ªà¥įà¤°à¤£": 6022,
      "reek": 6023,
      "Ġà¤Ĺà¥įà¤°à¤¾à¤¹": 6024,
      "à¥ĭà¤§à¤¨": 6025,
      "Ġà¤¦à¥ĩà¤ĸà¤¤à¥ĩ": 6026,
      "à¤ªà¥ĭ": 6027,
      "Ġsearch": 6028,
      "Ġà¤µà¥įà¤¯à¤µà¤¸à¤¾à¤¯": 6029,
      "à¤¾à¤¹à¥ĩà¤¬": 6030,
      "Ġà¤¶à¥ĩà¤¤à¤ķà¤±": 6031,
      "aught": 6032,
      "Ġà¤ħà¤µà¤¸à¤°": 6033,
      "Ġimages": 6034,
      "Ġcontains": 6035,
      "Ġà¤¤à¥įà¤¯à¤¾à¤ļ": 6036,
      "orpor": 6037,
      "Ġwa": 6038,
      "Ġà¤¸à¥ĩà¤Ĥ": 6039,
      "ipment": 6040,
      "rael": 6041,
      "ĠRuss": 6042,
      "à¤ľà¤¾à¤¤": 6043,
      "entially": 6044,
      "Ġà¤¸à¤®à¥ĭà¤°": 6045,
      "Ġà¤°à¤£": 6046,
      "à¤µà¤¿à¤¶à¥įà¤µ": 6047,
      "ford": 6048,
      "à¥įà¤¯à¤¾à¤°": 6049,
      "resh": 6050,
      "à¤¨à¤Ī": 6051,
      "bur": 6052,
      "Ġlines": 6053,
      "Ġà¤¸à¤¦à¤¸": 6054,
      "many": 6055,
      "Ġwaste": 6056,
      "à¤¾à¤¯à¤ļà¥ĩ": 6057,
      "Ġà¤ĸà¤¾à¤¤": 6058,
      "Ġà¤ªà¤¤à¥įà¤°à¤ķà¤¾à¤°": 6059,
      "Ġà¤Ńà¤µà¤¿à¤·": 6060,
      "à¤¿à¤®à¥įà¤®": 6061,
      "resp": 6062,
      "Ġà¤Łà¥įà¤µ": 6063,
      "although": 6064,
      "Ġcosts": 6065,
      "Ġprivate": 6066,
      "à¤®à¥ĩà¤¦": 6067,
      "à¤¾à¤Łà¤¾": 6068,
      "Ġsoftware": 6069,
      "Ġcred": 6070,
      "Ġà¤°à¤¾à¤¯": 6071,
      "itect": 6072,
      "Ġappropriate": 6073,
      "ean": 6074,
      "Ġhimself": 6075,
      "ĠRiver": 6076,
      "Ġà¤¨à¤¿à¤°à¥įà¤§": 6077,
      "My": 6078,
      "Ġà¤¤à¥ģà¤®à¥įà¤¹à¤¾à¤²à¤¾": 6079,
      "Ġà¤¬à¥ģà¤§": 6080,
      "Ġadults": 6081,
      "Ġà¤¸à¤°à¥įà¤µà¤¾à¤¤": 6082,
      "Ġà¤¸à¤¿à¤°": 6083,
      "à¤Ĥà¤ķà¤¾": 6084,
      "Ġà¤ķà¥ĩà¤¸": 6085,
      "à¥ĩà¤¶à¤¾": 6086,
      "Ġà¤ķà¥ĭà¤£à¤¤": 6087,
      "Ġbeaut": 6088,
      "bi": 6089,
      "ĠDay": 6090,
      "Ġremains": 6091,
      "Ġjud": 6092,
      "Ġbasis": 6093,
      "Ġà¤Ĩà¤¯à¥ĭà¤Ĺ": 6094,
      "Ġcenter": 6095,
      "Ġà¤°à¤¿à¤ķ": 6096,
      "edia": 6097,
      "à¤¾à¤µà¤°à¤£": 6098,
      "Ġtests": 6099,
      "ĠAt": 6100,
      "Ġà¤®à¤¨à¥ģà¤·à¥įà¤¯": 6101,
      "Ġà¤ħà¤Ĥà¤¤à¤¿à¤®": 6102,
      "ĠChristian": 6103,
      "uments": 6104,
      "Ġà¤ħà¤¹à¤®": 6105,
      "riev": 6106,
      "Ġshall": 6107,
      "cember": 6108,
      "à¤ľà¤¿à¤¸à¤¸à¥ĩ": 6109,
      "Ġà¤®à¥ĥà¤¤à¥įà¤¯à¥Ĥ": 6110,
      "à¤¾à¤Ĥà¤¶": 6111,
      "Ġadop": 6112,
      "à¤®à¤¿à¤¨": 6113,
      "Ġà¤¦à¥ĩà¤¶à¥ĭà¤Ĥ": 6114,
      "Ġplaces": 6115,
      "Ġà¤¨à¤¿à¤¯à¤Ĥà¤¤à¥įà¤°à¤£": 6116,
      "Ġà¤¸à¤Ĺà¤³": 6117,
      "ĠII": 6118,
      "Ġdark": 6119,
      "ceed": 6120,
      "Ġmention": 6121,
      "Ġà¤¨à¤¿à¤¶à¥įà¤ļà¤¿à¤¤": 6122,
      "Ġrequires": 6123,
      "à¤µà¤²à¥ĩ": 6124,
      "ovember": 6125,
      "Ġà¤ķà¤°à¤£à¥įà¤¯à¤¾à¤ļà¤¾": 6126,
      "Ġà¤¹à¤Ł": 6127,
      "Ġdevices": 6128,
      "istor": 6129,
      "imin": 6130,
      "Ġà¤«à¤ķà¥įà¤¤": 6131,
      "Ġà¤®à¤¾à¤®à¤²à¤¾": 6132,
      "unch": 6133,
      "Ġà¤ĩà¤¸à¤®à¥ĩà¤Ĥ": 6134,
      "Ġà¤Ĩà¤¢à¤³": 6135,
      "Ġà¤ªà¥ģà¤¤à¥įà¤°": 6136,
      "Ġcarry": 6137,
      "à¤ĸà¤¨": 6138,
      "à¤¨à¤Ĥà¤¤à¤°": 6139,
      "à¤ķà¤°à¥įà¤®": 6140,
      "Ġveh": 6141,
      "Bl": 6142,
      "ĠEducation": 6143,
      "Ġefforts": 6144,
      "ara": 6145,
      "oses": 6146,
      "Ġestablish": 6147,
      "Ġfather": 6148,
      "Ġà¤¸à¤¹à¤¯à¥ĭà¤Ĺ": 6149,
      "Ġfinancial": 6150,
      "Ġspeed": 6151,
      "à¤Ńà¤¾à¤ľà¤ª": 6152,
      "Ġbecomes": 6153,
      "Te": 6154,
      "uild": 6155,
      "Ġà¤Ĺà¥įà¤°à¤¾à¤®à¥Ģà¤£": 6156,
      "Ġpack": 6157,
      "Ġà¤ªà¤¹à¤¿à¤²": 6158,
      "Ġstru": 6159,
      "Ġà¤īà¤²à¥įà¤²à¥ĩà¤ĸ": 6160,
      "Ġà¤Ĩà¤µà¤¾à¤ľ": 6161,
      "à¤ľà¤¿à¤¤": 6162,
      "Ġà¤ªà¤°à¥ĩà¤¶": 6163,
      "Ġvict": 6164,
      "à¤ķà¤¾à¤Ĥà¤¨à¤¾": 6165,
      "Ġdemand": 6166,
      "ĠAfrican": 6167,
      "Cont": 6168,
      "Ġproperty": 6169,
      "Ġfit": 6170,
      "Ġseason": 6171,
      "Ġà¤ĵà¤³": 6172,
      "Ġà¤ªà¤¸à¤Ĥà¤¦": 6173,
      "Ġà¤¦à¥ĭà¤ĺ": 6174,
      "à¤Ĺà¤¤": 6175,
      "à¥įà¤°à¥Ģà¤®": 6176,
      "izes": 6177,
      "Ġcool": 6178,
      "bal": 6179,
      "Ġwrite": 6180,
      "Ġsouth": 6181,
      "Ġforces": 6182,
      "Ġprojects": 6183,
      "à¥įà¤°à¥ĩ": 6184,
      "Ġà¤«à¤°": 6185,
      "Ġagricult": 6186,
      "Ġsolution": 6187,
      "Ġang": 6188,
      "icip": 6189,
      "Ġsurround": 6190,
      "à¤¿à¤Ĺà¥įà¤°à¥Ģ": 6191,
      "Ġsyn": 6192,
      "à¤ªà¥įà¤°à¤¤à¤¿à¤¶à¤¤": 6193,
      "Ġworkers": 6194,
      "ondon": 6195,
      "à¥įà¤µà¥ĩ": 6196,
      "ĠPress": 6197,
      "Ġtechniques": 6198,
      "Ġà¤¸à¤ļà¤¿à¤µ": 6199,
      "ĠCity": 6200,
      "Ġexc": 6201,
      "ĠâĢ¢": 6202,
      "ixed": 6203,
      "ustr": 6204,
      "Ġleaves": 6205,
      "Ġà¤ªà¤°à¤¿à¤¸à¥įà¤¥à¤¿à¤¤à¥Ģ": 6206,
      "à¤ķà¤¡à¥Ĥà¤¨": 6207,
      "à¤¾à¤¨à¥ĩà¤Ĥ": 6208,
      "pper": 6209,
      "Ret": 6210,
      "vis": 6211,
      "Ġtherapy": 6212,
      "ĠAssoci": 6213,
      "ocial": 6214,
      "Ġà¤¸à¤Ĥà¤ķà¥įà¤°à¤®": 6215,
      "fess": 6216,
      "Ġbacteria": 6217,
      "spec": 6218,
      "Ġpractices": 6219,
      "ests": 6220,
      "Ġà¤¶à¤ķà¤¤à¥ĭ": 6221,
      "Ġà¤ĸà¤¼": 6222,
      "à¤°à¥įà¤¯": 6223,
      "à¤¿à¤µà¤°à¥įà¤¸": 6224,
      "omy": 6225,
      "ĠYou": 6226,
      "ulated": 6227,
      "à¤ĸà¤¾à¤¦": 6228,
      "ca": 6229,
      "Ġdead": 6230,
      "à¤Ĳà¤¸à¤¾": 6231,
      "Ġà¤Ĺà¤Ł": 6232,
      "uff": 6233,
      "à¥Ģà¤ļà¥įà¤¯à¤¾": 6234,
      "à¤¾à¤ªà¤°à¥įà¤¯à¤Ĥà¤¤": 6235,
      "Ġà¤ķà¥ĭà¤²": 6236,
      "AL": 6237,
      "Ġmole": 6238,
      "lease": 6239,
      "à¥ĥà¤¦à¤¯": 6240,
      "Ġcompared": 6241,
      "ĠWest": 6242,
      "Ġà¤¤à¥Ģà¤¸": 6243,
      "Ġà¤²à¤¢": 6244,
      "Ġprocesses": 6245,
      "Ġà¤¸à¥įà¤ªà¤°à¥įà¤§": 6246,
      "à¤¾à¤¨à¤¦à¤¾à¤°": 6247,
      "Ġcoast": 6248,
      "Ġà¤¦à¤¿à¤ĸà¤¾à¤Ī": 6249,
      "udd": 6250,
      "Ġà¤¯à¤¾à¤Ĥà¤ļà¤¾": 6251,
      "à¤Ĥà¤Łà¥ĩ": 6252,
      "Ġà¤ķà¥ģà¤ł": 6253,
      "à¤īà¤¨à¥įà¤¹à¥ĩà¤Ĥ": 6254,
      "Ġanything": 6255,
      "Ġà¤¸à¥įà¤¨": 6256,
      "iar": 6257,
      "Ġsaw": 6258,
      "enge": 6259,
      "Ġà¤ıà¤ķà¤¤à¥įà¤°": 6260,
      "Ġà¤¹à¤¾à¤¸à¤¿à¤²": 6261,
      "rees": 6262,
      "Ġà¤¦à¥įà¤°": 6263,
      "Ġdevice": 6264,
      "Ġsites": 6265,
      "Ġà¤Ĺà¤¿à¤°à¤«à¥įà¤¤à¤¾à¤°": 6266,
      "anish": 6267,
      "Ġsummer": 6268,
      "Ġreligious": 6269,
      "ĠArt": 6270,
      "ĠRev": 6271,
      "Ġà¤¨à¥Ģà¤ļà¥ĩ": 6272,
      "Ġinstead": 6273,
      "ĠCO": 6274,
      "Ġteacher": 6275,
      "à¤µà¤¾à¤²à¥ĩ": 6276,
      "Ġep": 6277,
      "Ġrare": 6278,
      "Ġà¤¹à¤¿à¤¸à¥įà¤¸à¤¾": 6279,
      "à¤µà¤¿à¤Ń": 6280,
      "rab": 6281,
      "Ġà¤¤à¥įà¤¯à¤¾à¤ļà¤¾": 6282,
      "ĠInternational": 6283,
      "à¤ªà¥ģ": 6284,
      "ĠQu": 6285,
      "hest": 6286,
      "Ġrespond": 6287,
      "Ġeyes": 6288,
      "Ġà¤ªà¤°à¥įà¤¯": 6289,
      "Ġjo": 6290,
      "ocr": 6291,
      "chnology": 6292,
      "Ġtable": 6293,
      "Ġmis": 6294,
      "Ġà¤¶à¤ķà¥įà¤¯à¤¤à¤¾": 6295,
      "Ġà¤²à¥ĩà¤Ĥ": 6296,
      "Ġmemory": 6297,
      "Ġà¤¶à¥ģà¤°à¥ģà¤Ĩà¤¤": 6298,
      "Ġinterpre": 6299,
      "Ġà¤¡à¥ĭ": 6300,
      "stead": 6301,
      "Ġadvant": 6302,
      "Ġà¤¸à¥Ģà¤Ł": 6303,
      "à¤¨à¥ĩà¤¸": 6304,
      "Ġà¤µà¤¾à¤ľ": 6305,
      "Ġrapid": 6306,
      "Ġbenefit": 6307,
      "Each": 6308,
      "Ġà¤µà¤¿à¤¶à¥įà¤µà¤µà¤¿à¤¦à¥įà¤¯à¤¾à¤²à¤¯": 6309,
      "Ġà¤Ĺà¥įà¤°à¤¹": 6310,
      "ception": 6311,
      "à¤¸à¤°à¤ķà¤¾à¤°": 6312,
      "à¤£à¥įà¤¯à¤¾à¤ļà¥ĩ": 6313,
      "à¤§à¤¿": 6314,
      "ĠDepartment": 6315,
      "ogen": 6316,
      "Ġà¤¬à¤¤à¤¾": 6317,
      "Ġimag": 6318,
      "à¤¸à¥įà¤µà¥Ģ": 6319,
      "à¤¡à¤ķ": 6320,
      "velopment": 6321,
      "Ġà¤¸à¤®à¤¾à¤µà¥ĩà¤¶": 6322,
      "Ġcommunication": 6323,
      "Ġreasons": 6324,
      "ocol": 6325,
      "Ġà¤Łà¤¿à¤ķ": 6326,
      "apter": 6327,
      "Ġcitiz": 6328,
      "Ġà¤īà¤¸à¥Ģ": 6329,
      "EC": 6330,
      "ky": 6331,
      "à¤®à¤¹à¤¾à¤°à¤¾à¤·à¥įà¤Łà¥įà¤°": 6332,
      "Ġà¤ľà¤¿à¤¤": 6333,
      "à¤ªà¤¾à¤°": 6334,
      "vert": 6335,
      "Ġresponsible": 6336,
      "Ġapplications": 6337,
      "Ġspirit": 6338,
      "Ġà¤ªà¥ģà¤¸à¥įà¤¤à¤ķ": 6339,
      "Once": 6340,
      "ought": 6341,
      "Ġà¤¸à¥Ģà¤®à¤¾": 6342,
      "king": 6343,
      "mosp": 6344,
      "à¤ķà¤¾à¤¨": 6345,
      "Another": 6346,
      "Ġhope": 6347,
      "wide": 6348,
      "char": 6349,
      "à¤ĺà¤¾à¤¤": 6350,
      "Don": 6351,
      "Ġà¤¯à¤¾à¤Ĥà¤ļà¥ĩ": 6352,
      "Ġobjects": 6353,
      "à¤¡à¥įà¤¡": 6354,
      "Ġcommand": 6355,
      "aur": 6356,
      "Ġà¤¬à¤¯à¤¾à¤¨": 6357,
      "mitted": 6358,
      "à¤®à¥ģà¤ĸà¥įà¤¯à¤®à¤Ĥà¤¤à¥įà¤°à¥Ģ": 6359,
      "Ġfederal": 6360,
      "ellig": 6361,
      "Ġsugar": 6362,
      "à¤®à¥įà¤¹à¤£à¥Ĥà¤¨": 6363,
      "à¤Ĺà¥įà¤°à¤¾à¤®": 6364,
      "ĠStud": 6365,
      "à¤¸à¤¿à¤Ĥà¤¹": 6366,
      "Ġfinal": 6367,
      "ĠHistory": 6368,
      "à¤«à¥ĭà¤¨": 6369,
      "à¤°à¤¤": 6370,
      "Ġà¤¸à¥ģà¤°à¤ķà¥įà¤·à¤¿à¤¤": 6371,
      "à¤¤à¤¾à¤ĵà¤Ĥ": 6372,
      "à¥įà¤¯à¤¾à¤Ĺ": 6373,
      "à¤¬à¤¾": 6374,
      "Ġdigital": 6375,
      "Ġdepend": 6376,
      "eal": 6377,
      "Ġasked": 6378,
      "à¤Łà¥įà¤Ł": 6379,
      "Ġà¤ľà¤¿à¤²à¥įà¤¹à¤¾": 6380,
      "à¤ħà¤§à¤¿à¤ķ": 6381,
      "Ġà¤ªà¥įà¤°à¤¾à¤°": 6382,
      "Ġà¤ıà¤Ĥà¤¡": 6383,
      "à¤¾à¤ĩà¤ķ": 6384,
      "Ġtold": 6385,
      "à¤¿à¤Ŀ": 6386,
      "à¤ªà¤¨": 6387,
      "Ġtesting": 6388,
      "à¤§à¥ĩ": 6389,
      "Ġborn": 6390,
      "Ġà¤ªà¥Ĥà¤ľà¤¾": 6391,
      "Ġà¤¯à¤¹à¥Ģ": 6392,
      "car": 6393,
      "ĠAmericans": 6394,
      "Ġexpected": 6395,
      "Ġà¤ľà¤¾à¤£à¤¾à¤°": 6396,
      "Ġupd": 6397,
      "à¤ĩà¤¸à¤ķà¤¾": 6398,
      "Ġeating": 6399,
      "illing": 6400,
      "Ġult": 6401,
      "Ġà¤ĩà¤Ĥà¤Łà¤°": 6402,
      "Ġà¤ķà¤°à¤¤à¤¾à¤¨à¤¾": 6403,
      "à¥Ģà¤®": 6404,
      "à¤¸à¤¦": 6405,
      "Ġà¤¸à¤Ĥà¤ªà¤°à¥įà¤ķ": 6406,
      "Ġnearly": 6407,
      "Ġà¤®à¤¹à¤¿à¤²à¤¾à¤ĵà¤Ĥ": 6408,
      "Ġà¤ªà¤¾à¤¯à¤¾": 6409,
      "Ġà¤°à¤¹à¤¤à¥Ģ": 6410,
      "Ġbott": 6411,
      "ris": 6412,
      "ico": 6413,
      "Ġopportunity": 6414,
      "Ġder": 6415,
      "Ġà¤®à¥įà¤¹à¤Łà¤²à¥ĩ": 6416,
      "Ġbul": 6417,
      "Ġconstruction": 6418,
      "Ġbeyond": 6419,
      "ciples": 6420,
      "emy": 6421,
      "à¤®à¤§à¥Ĥà¤¨": 6422,
      "Mar": 6423,
      "Ġhous": 6424,
      "Ġolder": 6425,
      "ĠApp": 6426,
      "ocks": 6427,
      "à¤Ĺà¤£": 6428,
      "Ġà¤¤à¥ģ": 6429,
      "Ġroom": 6430,
      "Ġeverything": 6431,
      "Ġà¤ªà¥įà¤°à¤¤à¤¿à¤¬": 6432,
      "Ġlength": 6433,
      "Ġà¤¶à¤ķà¤¤à¤¾": 6434,
      "à¤łà¤¾": 6435,
      "cript": 6436,
      "Ġlegal": 6437,
      "Ġà¤ķà¥ĭà¤°à¥ĭà¤¨": 6438,
      "Ġnothing": 6439,
      "Ġ)": 6440,
      "iat": 6441,
      "à¥įà¤¯à¤¾à¤ľ": 6442,
      "Ġà¤°à¤¾à¤ľà¥įà¤¯à¥ĭà¤Ĥ": 6443,
      "ĠCalifornia": 6444,
      "Your": 6445,
      "Ġsn": 6446,
      "ĠDis": 6447,
      "Ġà¤¦à¥ĭà¤¨à¥įà¤¹à¥Ģ": 6448,
      "Ġà¤ķà¤°à¥įà¤®à¤ļà¤¾à¤°à¥Ģ": 6449,
      "roy": 6450,
      "Ġcele": 6451,
      "à¤°à¥ĭà¤ľ": 6452,
      "ula": 6453,
      "itable": 6454,
      "à¤¾à¤µà¤¤": 6455,
      "airs": 6456,
      "Ġà¤¦à¤¿à¤¸à¤¤": 6457,
      "à¤¹à¤¿": 6458,
      "Ġà¤¨à¤¿à¤¦": 6459,
      "Ġà¤¹à¥ĩà¤¤": 6460,
      "Ġyourself": 6461,
      "Ġà¤¸à¤®à¤°à¥įà¤¥à¤¨": 6462,
      "Ġà¤ªà¥ģà¤°à¤¸à¥įà¤ķà¤¾à¤°": 6463,
      "Ġà¤°à¥ģ": 6464,
      "Ġaffected": 6465,
      "ospital": 6466,
      "Ġà¤¬à¥ģà¤¦à¥įà¤§": 6467,
      "Ġà¤¤à¥įà¤¯à¤¾à¤Ĥà¤ļà¥Ģ": 6468,
      "Ġà¤ľà¤£": 6469,
      "Ġegg": 6470,
      "Ġorganization": 6471,
      "Ġà¤¸à¤®à¥įà¤¬à¤¨à¥įà¤§": 6472,
      "Ġà¤ľà¤®à¥Ģà¤¨": 6473,
      "Ġcam": 6474,
      "Ġà¤¹à¥ĭà¤Ĭà¤¨": 6475,
      "Ġplanet": 6476,
      "ĠAc": 6477,
      "Ġà¤¡à¤¿à¤¸": 6478,
      "Ġdied": 6479,
      "Ġcru": 6480,
      "Ġà¤ļà¤°à¤£": 6481,
      "ÙĦ": 6482,
      "Ġmonitor": 6483,
      "Ġlocated": 6484,
      "Ġadapt": 6485,
      "Ġexamples": 6486,
      "Ġmid": 6487,
      "Ġlaws": 6488,
      "Ġbehavi": 6489,
      "à¥įà¤¯à¤¾à¤Ĥà¤ļà¥ĩ": 6490,
      "Ġfriend": 6491,
      "Ġking": 6492,
      "Ġà¤µà¤°à¥įà¤·à¥ĭà¤Ĥ": 6493,
      "à¤¤à¤¾à¤¨": 6494,
      "rem": 6495,
      "Ġcou": 6496,
      "ste": 6497,
      "edom": 6498,
      "à¥įà¤¯à¤¾à¤®à¤§à¥įà¤¯à¥ĩ": 6499,
      "Ġstage": 6500,
      "à¤®à¥įà¤Ń": 6501,
      "Ġà¤ªà¤¾à¤¯": 6502,
      "Ġà¤¸à¥įà¤Łà¥ĩà¤¶à¤¨": 6503,
      "à¥ĥà¤¤à¤¿à¤ķ": 6504,
      "à¤¬à¤Ĥà¤§à¤¨": 6505,
      "Ġà¤ķà¤³": 6506,
      "ĠÂ": 6507,
      "icular": 6508,
      "Ġcode": 6509,
      "Ġcolon": 6510,
      "à¤µà¤²à¥Ģ": 6511,
      "Ġson": 6512,
      "Ġà¤¦à¥Ĥ": 6513,
      "à¤¤à¥ĩà¤µà¥įà¤¹": 6514,
      "lamm": 6515,
      "ĠâĢĺ": 6516,
      "Ġà¤ķà¤¿à¤¤à¥Ģ": 6517,
      "Ġà¤«à¥Īà¤¸à¤²à¤¾": 6518,
      "Ġà¤ªà¤¾à¤²à¤¨": 6519,
      "ongress": 6520,
      "Ġtypically": 6521,
      "Ġconstit": 6522,
      "pat": 6523,
      "Ġreceive": 6524,
      "à¤¬à¥ĩ": 6525,
      "Ġà¤¶à¤ķà¥įà¤¤à¤¿": 6526,
      "à¤¾à¤ļà¤Ĥ": 6527,
      "Ġrecently": 6528,
      "cious": 6529,
      "Ġà¤¬à¥ĩà¤¹à¤¤à¤°": 6530,
      "Ġgives": 6531,
      "Ġà¤¤à¥įà¤¯à¤¾à¤¨à¥ĩ": 6532,
      "Ġà¤ªà¥įà¤°à¤¶à¤¿à¤ķà¥įà¤·à¤£": 6533,
      "Ġà¤¶à¤¿à¤Ĥà¤¦à¥ĩ": 6534,
      "Ġà¤®à¥Īà¤¦à¤¾à¤¨": 6535,
      "Ġà¤¦à¥ĭà¤·": 6536,
      "ĠJesus": 6537,
      "Ġwoman": 6538,
      "Ġà¤¨à¤¿à¤¶": 6539,
      "Ġà¤°à¥ĭà¤¡": 6540,
      "Ġà¤¸à¤®à¥įà¤®à¤¾à¤¨": 6541,
      "à¤¾à¤¸à¥įà¤Ł": 6542,
      "Ġconsequ": 6543,
      "Ġà¤ªà¥įà¤°à¤®à¤¾à¤£à¤¾à¤¤": 6544,
      "App": 6545,
      "à¤®à¤²": 6546,
      "Ġà¤®à¥ĭà¤łà¤¾": 6547,
      "à¥Ĥà¤°à¥įà¤µà¥Ģ": 6548,
      "à¤ķà¥ģà¤²": 6549,
      "Ġà¤ľà¤µà¤¾à¤¬": 6550,
      "à¤¦à¥įà¤¯à¥ĭà¤Ĺ": 6551,
      "à¤ĸà¥ĩ": 6552,
      "Ġà¤¸à¥įà¤µà¤¤à¤Ĥà¤¤à¥įà¤°": 6553,
      "obile": 6554,
      "ĠWe": 6555,
      "Ġà¤¸à¤¾à¤°à¥įà¤µà¤ľà¤¨à¤¿à¤ķ": 6556,
      "AD": 6557,
      "Ġà¤¦à¤¶": 6558,
      "à¤¦à¥ĭà¤¨à¥ĭà¤Ĥ": 6559,
      "PS": 6560,
      "ica": 6561,
      "Ġà¤ļà¥Ģà¤ľ": 6562,
      "Ġà¤®à¤¾à¤¨à¤µ": 6563,
      "Ġà¤¬à¥įà¤°à¤¹à¥įà¤®": 6564,
      "ĠMon": 6565,
      "Ġà¤¶à¤¿à¤ķà¤¾à¤¯à¤¤": 6566,
      "Ġrules": 6567,
      "à¤Ĺà¤¡": 6568,
      "Ġstandards": 6569,
      "Ġdifferences": 6570,
      "Ġà¤Ńà¤¾à¤°à¥Ģ": 6571,
      "Ġà¤¬à¤²à¥įà¤²à¥ĩà¤¬": 6572,
      "hens": 6573,
      "Ġcommunic": 6574,
      "ET": 6575,
      "à¤¨à¤¿à¤ķ": 6576,
      "ĠCoun": 6577,
      "Ġinform": 6578,
      "Ġà¤¸à¤®à¤¾à¤§": 6579,
      "Ġice": 6580,
      "Ġà¤¬à¤ĺ": 6581,
      "à¤¹à¤°à¥Ģ": 6582,
      "Ġeffort": 6583,
      "à¤Ĥà¤ķà¤°": 6584,
      "Ġà¤ªà¤¡à¤¼à¥ĩ": 6585,
      "à¤¬à¤ľà¥ĩ": 6586,
      "Ġà¤ªà¤¹à¥ģà¤Ĥà¤ļà¥ĩ": 6587,
      "Ġmiddle": 6588,
      "Ġweb": 6589,
      "Ġhours": 6590,
      "Ġuser": 6591,
      "Ġdate": 6592,
      "Ġà¤¡à¥ĩ": 6593,
      "Ġcompletely": 6594,
      "à¤°à¥Ģà¤¤": 6595,
      "Ġà¤¸à¥ģà¤µà¤¿à¤§à¤¾": 6596,
      "Ġsmaller": 6597,
      "à¤ħà¤¸à¤²": 6598,
      "Ġscale": 6599,
      "ĠAg": 6600,
      "Ġhon": 6601,
      "Ġeconomy": 6602,
      "Ġchoose": 6603,
      "à¤Łà¤¨à¤¾": 6604,
      "Ġà¤ķà¤¦à¤®": 6605,
      "à¤¾à¤¹à¤¨": 6606,
      "à¤ĺà¤¡": 6607,
      "Ġconflic": 6608,
      "Ġbreat": 6609,
      "à¤¾à¤ķà¤¾": 6610,
      "ĠFran": 6611,
      "à¥ģà¤¨à¤¿à¤ķ": 6612,
      "Ġten": 6613,
      "ensity": 6614,
      "Ġanti": 6615,
      "ĠEngland": 6616,
      "à¥Ģà¤ª": 6617,
      "Ġà¤§à¤®": 6618,
      "Ġfile": 6619,
      "Ġtrade": 6620,
      "Ġgradu": 6621,
      "oming": 6622,
      "Ġgoes": 6623,
      "Ġà¤ĵà¤³à¤ĸ": 6624,
      "Ġexplain": 6625,
      "Ġà¤īà¤®à¥ĩà¤¦": 6626,
      "Ġinstru": 6627,
      "Ġà¤¸à¤²à¤¾à¤¹": 6628,
      "à¥ģà¤¦à¥įà¤§à¤¾": 6629,
      "Thus": 6630,
      "Ġsequ": 6631,
      "rical": 6632,
      "Ġcold": 6633,
      "Ġà¤¸à¤Ĥà¤¯à¥ģà¤ķà¥įà¤¤": 6634,
      "hemat": 6635,
      "Ġsuccessful": 6636,
      "à¥īà¤¸": 6637,
      "Let": 6638,
      "Ġcultural": 6639,
      "Ġà¤¬à¤Ĥà¤Ĺ": 6640,
      "Ġdeal": 6641,
      "à¤Ĺà¥Ģà¤¤": 6642,
      "à¥Ĥà¤ªà¥Ģ": 6643,
      "à¤¿à¤µà¥įà¤¹": 6644,
      "Ġautom": 6645,
      "Ġcontroll": 6646,
      "Ġà¤²à¤¾à¤Ĺà¤¤": 6647,
      "Ġtit": 6648,
      "Ġconnect": 6649,
      "Ġà¤¸à¤¤à¥įà¤¯": 6650,
      "Ġà¤¨à¤¿à¤ľ": 6651,
      "à¤¾à¤µà¤Ł": 6652,
      "Ġrecommend": 6653,
      "Ġearlier": 6654,
      "Ġà¤ķà¤¹à¥Ģà¤Ĥ": 6655,
      "Ġà¤¥à¤¾à¤¨à¤¾": 6656,
      "Ġcalcul": 6657,
      "Ġà¤īà¤¤à¤°": 6658,
      "Ġà¤ªà¤°à¤¿à¤¸à¤°": 6659,
      "related": 6660,
      "comm": 6661,
      "ĠChurch": 6662,
      "Ġsett": 6663,
      "Ġà¤Ĺà¤°à¤ľ": 6664,
      "Ġteeth": 6665,
      "Ġtherefore": 6666,
      "aled": 6667,
      "Ġà¤¨à¤¿à¤¯à¥ģà¤ķà¥įà¤¤": 6668,
      "Ġà¤ªà¥įà¤°à¤ķ": 6669,
      "Ġà¤µà¤¾à¤ªà¤¸": 6670,
      "Ġcollection": 6671,
      "Ġcontinu": 6672,
      "Ġgain": 6673,
      "Ġà¤ļà¤Ĥà¤¦à¥įà¤°": 6674,
      "à¤Ĩà¤ªà¤ķà¥ĭ": 6675,
      "Ġcurrently": 6676,
      "house": 6677,
      "ebru": 6678,
      "à¤ķà¥ģà¤®à¤¾à¤°": 6679,
      "bing": 6680,
      "pir": 6681,
      "Ġà¤¸à¤Ĥà¤ªà¥Ĥà¤°à¥įà¤£": 6682,
      "Ġshape": 6683,
      "lam": 6684,
      "Ġfuel": 6685,
      "Ġà¤¸à¤®à¥Ĥà¤¹": 6686,
      "Ġinteresting": 6687,
      "Pr": 6688,
      "Ġlocation": 6689,
      "Ġwon": 6690,
      "à¤¿à¤®à¤¾": 6691,
      "Ġequipment": 6692,
      "Ġà¤°à¤¾à¤ľà¤ķà¥Ģà¤¯": 6693,
      "à¤²à¥ĭà¤Ĺà¥ĭà¤Ĥ": 6694,
      "Ġà¤ħà¤Ńà¤¿à¤¯à¤¾à¤¨": 6695,
      "Ġà¤Ĺà¥ĩà¤²": 6696,
      "Ġà¤ªà¥ĭà¤²à¤¿à¤¸à¤¾à¤Ĥà¤¨à¥Ģ": 6697,
      "à¤¿à¤µà¤°à¥įà¤¸à¤¿à¤Łà¥Ģ": 6698,
      "Ġalone": 6699,
      "ebruary": 6700,
      "Ġbeg": 6701,
      "Ġà¤Ĺà¤¤": 6702,
      "Ġà¤®à¤¾à¤®à¤²à¥ĭà¤Ĥ": 6703,
      "Ġneigh": 6704,
      "à¥īà¤°": 6705,
      "à¤¸à¥ĩà¤µ": 6706,
      "Ġà¤¤à¥įà¤¯à¤¾à¤Ĥà¤ļà¥ĩ": 6707,
      "à¤ªà¥Ĥà¤°à¥įà¤µà¥Ģ": 6708,
      "First": 6709,
      "Ġexposure": 6710,
      "Ġvirus": 6711,
      "Ġà¤¸à¥ĭà¤ļ": 6712,
      "à¤¹à¤°à¤¾": 6713,
      "craft": 6714,
      "Ġmember": 6715,
      "Ġpurch": 6716,
      "Ġà¤Łà¥ĩ": 6717,
      "Ġà¤µà¤¾à¤²à¥ĭà¤Ĥ": 6718,
      "gl": 6719,
      "Ġwinter": 6720,
      "Ġà¤ªà¥įà¤°à¤ķà¤¾à¤¶à¤¿à¤¤": 6721,
      "à¤¾à¤Ĥà¤ªà¤¾à¤¸à¥Ĥà¤¨": 6722,
      "Ġ*": 6723,
      "ĠCounty": 6724,
      "Ġà¤ªà¥ĥà¤¥": 6725,
      "irection": 6726,
      "aters": 6727,
      "ingu": 6728,
      "Ġmodels": 6729,
      "ĠPark": 6730,
      "rep": 6731,
      "à¤£à¤Ĥ": 6732,
      "à¤¾à¤µà¤²à¥Ģ": 6733,
      "Int": 6734,
      "Ġprinc": 6735,
      "à¤ķà¥ĩà¤¤": 6736,
      "à¤¾à¤ĩà¤®": 6737,
      "Ġà¤¤à¤ķà¥įà¤°": 6738,
      "Ġà¤¤à¤¿à¤¥": 6739,
      "Ġà¤ķà¥įà¤µ": 6740,
      "Ġteach": 6741,
      "Ġà¤®à¤¾à¤°à¥įà¤ķ": 6742,
      "ibly": 6743,
      "Ġund": 6744,
      "Ġoccurs": 6745,
      "ximately": 6746,
      "à¤¾à¤¹à¥Ģà¤°": 6747,
      "Ġconstant": 6748,
      "ĠChinese": 6749,
      "Ġà¤ķà¤ªà¥Ĥà¤°": 6750,
      "à¤¿à¤³": 6751,
      "Per": 6752,
      "oe": 6753,
      "ternal": 6754,
      "ĠMus": 6755,
      "à¤¨à¤°": 6756,
      "ocal": 6757,
      "Ġtrying": 6758,
      "aste": 6759,
      "ii": 6760,
      "à¤ķà¥įà¤¤à¥Ģ": 6761,
      "Ġà¤Ľà¥ĭà¤Łà¥ĩ": 6762,
      "Ġleave": 6763,
      "Ġà¤®à¥ģà¤ķà¤¾à¤¬": 6764,
      "Ġà¤µà¥įà¤¹à¤¿à¤¡": 6765,
      "Ġà¤ľà¤¾à¤¤à¥ĭ": 6766,
      "Ġrise": 6767,
      "Ġà¤Ĩà¤ķà¤¾à¤°": 6768,
      "Ġmeasures": 6769,
      "Ġà¤¯à¥ģà¤µà¤ķ": 6770,
      "tained": 6771,
      "à¤µà¥ĭ": 6772,
      "Ġà¤°à¤¸": 6773,
      "Ġcontinued": 6774,
      "orge": 6775,
      "ĠSystem": 6776,
      "à¤¸à¥įà¤¤à¥įà¤°": 6777,
      "Ġwond": 6778,
      "ros": 6779,
      "Ġà¤¸à¥ģà¤®": 6780,
      "Ġallowed": 6781,
      "Ġà¤¨à¤¿à¤ķà¤¾à¤¯": 6782,
      "gypt": 6783,
      "Ġdrugs": 6784,
      "à¤®à¤Ĺ": 6785,
      "odes": 6786,
      "Ġà¤ķà¤¿à¤¸à¤¾à¤¨à¥ĭà¤Ĥ": 6787,
      "wood": 6788,
      "à¥ĩà¤ķà¥įà¤Ł": 6789,
      "rick": 6790,
      "Ġà¤ľà¤®à¤¾": 6791,
      "Ġoverall": 6792,
      "Ġà¤µà¤¿à¤®à¤¾à¤¨": 6793,
      "Ġfollows": 6794,
      "à¤ªà¤°à¥Ģ": 6795,
      "avid": 6796,
      "Ġà¤ļà¤°": 6797,
      "Ġeveryone": 6798,
      "à¤µà¤¿à¤¨": 6799,
      "que": 6800,
      "iny": 6801,
      "Ġà¤Ĩà¤ªà¤ķà¥Ģ": 6802,
      "à¤¾à¤¨à¥Ģà¤¯": 6803,
      "à¤£à¤¾à¤°à¤¾": 6804,
      "à¥ĩà¤¤à¤¨": 6805,
      "Ġprofessional": 6806,
      "Ġà¤¸à¥Ĥà¤¤à¥įà¤°": 6807,
      "enty": 6808,
      "Ġcontext": 6809,
      "à¤¾à¤¥à¤®à¤¿à¤ķ": 6810,
      "ĠNe": 6811,
      "Ġplaced": 6812,
      "à¤¾à¤īà¤Ĥà¤¡": 6813,
      "Ġcourt": 6814,
      "Ġà¤¤à¥įà¤¯à¤¾à¤ļà¥Ģ": 6815,
      "Ġà¤¨à¤¿à¤µà¤¾à¤¸à¥Ģ": 6816,
      "care": 6817,
      "Ġleading": 6818,
      "Ġà¤Ķà¤·": 6819,
      "Ġchurch": 6820,
      "Ġà¤ªà¤¾à¤ı": 6821,
      "ogle": 6822,
      "ĠPart": 6823,
      "had": 6824,
      "Ġà¤īà¤¦à¥įà¤§": 6825,
      "iful": 6826,
      "Ġrule": 6827,
      "ĠEd": 6828,
      "Ġà¤ħà¥ħ": 6829,
      "Ġhyp": 6830,
      "lin": 6831,
      "à¤°à¥įà¤ĺ": 6832,
      "Ġà¤¸à¤Ĥà¤ľà¤¯": 6833,
      "Ġà¤ĺà¤¾à¤¤": 6834,
      "Ġcateg": 6835,
      "Ġperfect": 6836,
      "à¤®à¤¾à¤Ŀ": 6837,
      "Ġmajority": 6838,
      "semb": 6839,
      "both": 6840,
      "ĠComp": 6841,
      "Ġdiscovered": 6842,
      "encies": 6843,
      "Ġpregn": 6844,
      "à¤¹à¤®à¥Ģ": 6845,
      "à¤µà¤¿à¤µ": 6846,
      "Ġoccup": 6847,
      "à¤ķà¥įà¤Łà¥įà¤°": 6848,
      "Ġpet": 6849,
      "ĠRoman": 6850,
      "à¥ģà¤²à¤¾à¤Ī": 6851,
      "Ġà¤µà¥įà¤¯à¤¾à¤ªà¤¾à¤°": 6852,
      "à¤¨à¥ĩà¤Ł": 6853,
      "iable": 6854,
      "phas": 6855,
      "Ġà¤²à¤¾à¤Ĺà¤²à¥ĩ": 6856,
      "Ġà¤µà¤¿à¤¤à¥įà¤¤": 6857,
      "Ġà¤¸à¤¿à¤¨à¥ĩà¤®": 6858,
      "Ġà¤¨à¤¿à¤µà¤¡à¤£à¥ģà¤ķà¥Ģ": 6859,
      "rieved": 6860,
      "Ġà¤ķà¤¾à¤¯à¤®": 6861,
      "igned": 6862,
      "Ġà¤ªà¥ī": 6863,
      "Ġdegree": 6864,
      "Ġà¤ĸà¤°à¥ĩà¤¦à¥Ģ": 6865,
      "Ġà¤®à¤Ĥà¤Ĺà¤²": 6866,
      "Ġà¤¸à¤°à¤ķà¤¾à¤°à¤¨à¥ĩ": 6867,
      "Ġpresence": 6868,
      "CO": 6869,
      "Ġthus": 6870,
      "à¥Ĥà¤°à¥įà¤£": 6871,
      "Ġà¤ħà¤ķà¥įà¤·": 6872,
      "Ġmiss": 6873,
      "à¥ĩà¤Ĥà¤¬à¤°": 6874,
      "Ġà¤Ĩà¤¯à¥ģà¤ķà¥įà¤¤": 6875,
      "à¤¾à¤¤à¥įà¤®à¤¾": 6876,
      "Ġà¤¹à¥ģ": 6877,
      "Ġà¤¶à¤¾à¤¸": 6878,
      "à¤®à¤¾à¤°à¥įà¤ļ": 6879,
      "à¥įà¤¯à¤¾à¤¶à¥Ģ": 6880,
      "à¤¶à¤¹à¤°": 6881,
      "Ġpowerful": 6882,
      "Ġà¤¸à¥įà¤¥à¤¾à¤ªà¤¿à¤¤": 6883,
      "à¤¾à¤ľà¤¾": 6884,
      "Ġà¤Ĺà¥ģà¤ª": 6885,
      "Ġapplied": 6886,
      "Ġà¤ķà¤°à¥ĩà¤Ĺà¤¾": 6887,
      "à¤°à¥Ģà¤¬": 6888,
      "à¤ķà¤°à¤£à¥Ģ": 6889,
      "Ġsteps": 6890,
      "Ġà¤¤à¥įà¤¯à¤¾à¤¤": 6891,
      "Ġvisual": 6892,
      "Ġà¤¯à¥ĩà¤¤à¥ĩ": 6893,
      "Ġà¤®à¤ľà¤¬à¥Ĥà¤¤": 6894,
      "Col": 6895,
      "Ġvill": 6896,
      "Ġà¤°à¥Ģ": 6897,
      "Ġcook": 6898,
      "à¤Ĥà¤ªà¤°": 6899,
      "oration": 6900,
      "Ġgenetic": 6901,
      "Ġà¤ķà¥įà¤·à¥ĩà¤¤à¥įà¤°à¥ĭà¤Ĥ": 6902,
      "à¤¾à¤īà¤¨": 6903,
      "Ġà¤ĩà¤ļà¥įà¤Ľà¤¾": 6904,
      "Ġà¤ĸà¤°à¥Ģà¤¦": 6905,
      "à¥ĩà¤Ĥà¤¸à¥Ģ": 6906,
      "Ġgir": 6907,
      "ero": 6908,
      "Ġmax": 6909,
      "à¤¿à¤µà¤¾à¤¯": 6910,
      "force": 6911,
      "Ġà¤ªà¤Ĥà¤ľà¤¾à¤¬": 6912,
      "vol": 6913,
      "gery": 6914,
      "à¤ªà¥Ģà¤ıà¤²": 6915,
      "Ġà¤°à¥ģà¤ªà¤ı": 6916,
      "ament": 6917,
      "EM": 6918,
      "Ġaccording": 6919,
      "Get": 6920,
      "Ġrock": 6921,
      "à¤¨à¤¾à¤Ĺ": 6922,
      "Ġà¤ħà¤®à¥ĩà¤°à¤¿à¤ķà¤¾": 6923,
      "ya": 6924,
      "à¤²à¥ĩà¤Ł": 6925,
      "Ġà¤¦à¤¿à¤µà¤¶à¥Ģ": 6926,
      "Ġmill": 6927,
      "mark": 6928,
      "reet": 6929,
      "Ġà¤¬à¥Ģà¤ľà¥ĩà¤ªà¥Ģ": 6930,
      "Ġguid": 6931,
      "Ġeight": 6932,
      "usion": 6933,
      "ilosop": 6934,
      "ĠGl": 6935,
      "era": 6936,
      "ees": 6937,
      "à¥įà¤°à¤¿à¤¯à¤¾": 6938,
      "Ġenter": 6939,
      "rid": 6940,
      "Ġà¤¸à¤¾à¤Ĥ": 6941,
      "Ġà¤¨à¤¿à¤ĺ": 6942,
      "Ġà¤ªà¤¤": 6943,
      "change": 6944,
      "à¤®à¥į": 6945,
      "ube": 6946,
      "à¤µà¥Ģà¤°": 6947,
      "Ġusers": 6948,
      "Ġroad": 6949,
      "Ġà¤ªà¥įà¤°à¤Ńà¤¾à¤µà¤¿à¤¤": 6950,
      "Ġà¤¡à¤¾à¤¯": 6951,
      "Ġidentified": 6952,
      "Ġbirds": 6953,
      "à¤²à¥įà¤²à¤¾": 6954,
      "Ġchoice": 6955,
      "Ġà¤ķà¥įà¤·à¤®à¤¤à¤¾": 6956,
      "Ġà¤ªà¤¡à¤¼à¤¤à¤¾": 6957,
      "li": 6958,
      "Ġà¤Ĺà¥ĭà¤·à¥įà¤Łà¥Ģ": 6959,
      "ĠIsrael": 6960,
      "à¥ĩà¤²à¤¾": 6961,
      "à¤¾à¤µà¥įà¤¯": 6962,
      "Ġcommonly": 6963,
      "Ġhappen": 6964,
      "Ġvirt": 6965,
      "Over": 6966,
      "Ġpredict": 6967,
      "Ġà¤ĸà¤¾à¤¦": 6968,
      "Ġà¤¸à¤®à¥įà¤ª": 6969,
      "ometimes": 6970,
      "Ġà¤īà¤²": 6971,
      "Ġvia": 6972,
      "Ġformed": 6973,
      "lege": 6974,
      "à¥ģà¤§": 6975,
      "ĠHar": 6976,
      "inated": 6977,
      "Ġà¤ķà¤¨": 6978,
      "Ġà¤ķà¤°à¥įà¤ľ": 6979,
      "Ġà¤¸à¤§à¥įà¤¯à¤¾": 6980,
      "Ġà¤µà¥ĥà¤¤à¥įà¤¤": 6981,
      "Ġpatterns": 6982,
      "Ġà¤Ĺà¥ĥà¤¹": 6983,
      "Ġlatest": 6984,
      "Ġdidn": 6985,
      "unction": 6986,
      "à¥ĩà¤ļà¥ĩ": 6987,
      "à¥ĭà¤®": 6988,
      "Ġà¤°à¤ķà¥įà¤¤": 6989,
      "à¤¸à¤¤": 6990,
      "Ġrich": 6991,
      "ĠSociety": 6992,
      "à¤¾à¤Īà¤¨": 6993,
      "Ġà¤¦à¥ĩà¤°": 6994,
      "Ġreduced": 6995,
      "oted": 6996,
      "well": 6997,
      "ĠCour": 6998,
      "Ġà¤¸à¥ģà¤°à¥ģà¤µà¤¾à¤¤": 6999,
      "Ġcoming": 7000,
      "à¤ķà¥ĭà¤²": 7001,
      "hi": 7002,
      "Ġsect": 7003,
      "à¤ľà¥Ģà¤µ": 7004,
      "Ġunit": 7005,
      "Ġweather": 7006,
      "Sim": 7007,
      "à¤¿à¤²à¥įà¤²": 7008,
      "being": 7009,
      "à¥įà¤¯à¤¾à¤Ĥà¤ļà¤¾": 7010,
      "your": 7011,
      "Ġstatus": 7012,
      "Ġpow": 7013,
      "Ġà¤ªà¤¥": 7014,
      "Ġisn": 7015,
      "à¤®à¤§à¥įà¤¯": 7016,
      "ĠInt": 7017,
      "à¤°à¥ĩà¤Ł": 7018,
      "gra": 7019,
      "han": 7020,
      "à¤¤à¥įà¤¯à¤¾à¤Ĥà¤¨à¤¾": 7021,
      "ĠChar": 7022,
      "Ġà¤¨à¤¿à¤°à¥Ģ": 7023,
      "Ġrepl": 7024,
      "Ġjoint": 7025,
      "Ġactions": 7026,
      "Ġfair": 7027,
      "à¤¸à¤Ĥà¤Ĺ": 7028,
      "à¤ĩà¤¸à¥ĩ": 7029,
      "ĠGreat": 7030,
      "Ġà¤īà¤¦à¥įà¤¦à¥ĩà¤¶à¥įà¤¯": 7031,
      "Ġà¤®à¥ĭà¤¹": 7032,
      "à¤µà¥Ģà¤¸": 7033,
      "Ġhistorical": 7034,
      "ST": 7035,
      "Ġdisplay": 7036,
      "Ġformer": 7037,
      "Ġà¤¯à¥Ĥà¤¨à¤¿à¤µà¤°à¥įà¤¸à¤¿à¤Łà¥Ģ": 7038,
      "à¤²à¥įà¤ª": 7039,
      "Ġillness": 7040,
      "Ġgold": 7041,
      "Ġà¤¬à¤¨à¥Ģ": 7042,
      "Ġà¤ªà¥įà¤°à¤ļà¤¾à¤°": 7043,
      "Ġfruit": 7044,
      "Ġnamed": 7045,
      "Ġà¤ªà¥įà¤°à¤ķà¤²à¥įà¤ª": 7046,
      "Ġà¤µà¤¿à¤§à¤¾à¤¯à¤ķ": 7047,
      "Ġmoment": 7048,
      "à¤¡à¥ĩà¤Ł": 7049,
      "Ġsch": 7050,
      "Ġrelatively": 7051,
      "à¤¾à¤Ĥà¤¦": 7052,
      "Ġà¤ķà¤°à¤¤à¥ĭ": 7053,
      "à¤¸à¥Ģà¤¸à¥Ģ": 7054,
      "Ġà¤µà¤¾": 7055,
      "à¤ħà¤®à¥ĩ": 7056,
      "Ġà¤¶à¥ĩà¤ħà¤°": 7057,
      "Ġden": 7058,
      "Ġà¤Łà¤ķà¥įà¤ķà¥ĩ": 7059,
      "Ġà¤Ĩà¤°à¥ĭà¤Ĺà¥įà¤¯": 7060,
      "Ġà¤¯à¤¾à¤¤": 7061,
      "comes": 7062,
      "Ġà¤ķà¥Įà¤¨": 7063,
      "Ġversion": 7064,
      "PM": 7065,
      "Ġtrack": 7066,
      "Ġà¤ªà¤¹à¤ļà¤¾à¤¨": 7067,
      "amb": 7068,
      "Ġsitu": 7069,
      "rupt": 7070,
      "dis": 7071,
      "their": 7072,
      "Ġacqu": 7073,
      "his": 7074,
      "à¤¬à¥ģà¤ķ": 7075,
      "Ġpoly": 7076,
      "à¤¶à¤¾à¤¸à¥įà¤¤à¥įà¤°": 7077,
      "Ġà¤ķà¥ĭà¤µà¤¿à¤¡": 7078,
      "Ġà¤ħà¤¨à¥ģà¤°": 7079,
      "Ġà¤µà¤¿à¤µà¤¾à¤¹": 7080,
      "Ġfully": 7081,
      "aign": 7082,
      "Ġà¤¬à¤¿à¤¹à¤¾à¤°": 7083,
      "Ġnutri": 7084,
      "rief": 7085,
      "ĠCanada": 7086,
      "Ġà¤¹à¤®à¥ĩà¤¶à¤¾": 7087,
      "Ġà¤°à¤¿à¤²à¥Ģ": 7088,
      "Ġà¤µà¤¾à¤¤à¤¾à¤µà¤°à¤£": 7089,
      "Ġà¤Ĩà¤ªà¤²à¥ĩ": 7090,
      "Ġà¤ķà¤¿à¤°": 7091,
      "ĠEast": 7092,
      "âĢĿ,": 7093,
      "Ġatmosp": 7094,
      "Ġproperties": 7095,
      "Ġà¤ķà¤Ĥà¤Ł": 7096,
      "à¤¯à¥ĭà¤Ĥ": 7097,
      "Ġlimit": 7098,
      "ĠThis": 7099,
      "Ġà¤°à¥ģà¤Ĺà¥įà¤£à¤¾à¤²à¤¯": 7100,
      "Ġà¤ªà¤¤à¤¿": 7101,
      "uls": 7102,
      "Ġbelief": 7103,
      "Ġelement": 7104,
      "Ġsigns": 7105,
      "à¤µà¤¿à¤§à¤¾à¤¨": 7106,
      "à¤¾à¤®à¤¾": 7107,
      "Ġsymbol": 7108,
      "Ġ:": 7109,
      "Ġà¤ľà¥ĩà¤²": 7110,
      "Ġà¤ķà¤°à¤¾à¤¯à¤¾": 7111,
      "Ġpiece": 7112,
      "Ġtox": 7113,
      "rows": 7114,
      "Ġcapacity": 7115,
      "through": 7116,
      "à¤Ĥà¤ļà¥Ģ": 7117,
      "Their": 7118,
      "roup": 7119,
      "à¤¾à¤ıà¤ģ": 7120,
      "Ġcities": 7121,
      "ĠCons": 7122,
      "abilities": 7123,
      "Ġà¤ªà¤Ĥà¤¤": 7124,
      "à¤ªà¤¤à¥Ģ": 7125,
      "Ġswe": 7126,
      "ille": 7127,
      "ĠNor": 7128,
      "Ġà¤¸à¤Ĥà¤°à¤ķà¥įà¤·à¤£": 7129,
      "à¤ªà¥įà¤°à¤¶": 7130,
      "Ġà¤Ńà¤µà¤¿à¤·à¥įà¤¯": 7131,
      "oice": 7132,
      "à¤µà¤¯": 7133,
      "à¤µà¤¾à¤¡": 7134,
      "DA": 7135,
      "à¤¶à¥įà¤ķ": 7136,
      "à¤²à¥ĩà¤ķà¥įà¤Łà¥įà¤°": 7137,
      "Ġchanged": 7138,
      "Ġnote": 7139,
      "Ġcommerc": 7140,
      "Ġintegr": 7141,
      "Ġexec": 7142,
      "Ġà¤²à¤ķà¥įà¤·à¥įà¤¯": 7143,
      "à¤īà¤¦": 7144,
      "Ġmouth": 7145,
      "à¤¸à¤Ń": 7146,
      "à¤£à¤¾à¤°à¥Ģ": 7147,
      "Ġà¤ªà¥ĭà¤¹à¥ĭ": 7148,
      "Ge": 7149,
      "ĠPer": 7150,
      "à¤ªà¥įà¤°à¤¦à¥ĩà¤¶": 7151,
      "Ġà¤¹à¥ĭà¤¤à¥įà¤¯à¤¾": 7152,
      "Ġforward": 7153,
      "Ġà¤Ĩà¤ªà¤²à¥įà¤¯à¤¾à¤²à¤¾": 7154,
      "Ġà¤µà¤¿à¤¶à¤¿à¤·à¥įà¤Ł": 7155,
      "Ġà¤ľà¤¾à¤¹à¥Ģà¤°": 7156,
      "aint": 7157,
      "ĠHouse": 7158,
      "à¥ĩà¤µà¤°": 7159,
      "à¤°à¤¾à¤¹": 7160,
      "Ġà¤¨à¥ĩà¤¤à¥ĩ": 7161,
      "Ġà¤²à¤ķà¥įà¤·à¤¾à¤¤": 7162,
      "Ġgave": 7163,
      "à¥Įà¤²": 7164,
      "Ġà¤¤à¤°à¥Ģà¤ķà¥ĩ": 7165,
      "aly": 7166,
      "ĠAssociation": 7167,
      "Le": 7168,
      "à¤¯à¤¾à¤®à¥ģà¤³à¥ĩ": 7169,
      "à¤¿à¤Ĺà¤¤": 7170,
      "Ġtou": 7171,
      "Ġriver": 7172,
      "Ġà¤ªà¤Ĥà¤ļà¤¾à¤¯à¤¤": 7173,
      "à¤¿à¤µà¤¾à¤°à¥Ģ": 7174,
      "à¤®à¥ģà¤Ŀà¥ĩ": 7175,
      "asion": 7176,
      "Ġnames": 7177,
      "àª": 7178,
      "Ġwrote": 7179,
      "Ġstra": 7180,
      "à¤«à¤²": 7181,
      "Ġà¤ļà¤²à¥ĩ": 7182,
      "à¤īà¤¨à¤ķà¥Ģ": 7183,
      "Ġstrugg": 7184,
      "Ġà¤µà¤¿à¤ķà¤¸à¤¿à¤¤": 7185,
      "Ġimmune": 7186,
      "Ġà¤ªà¤²": 7187,
      "since": 7188,
      "Ġà¤ķà¥ĥà¤·à¥įà¤£": 7189,
      "à¤Ĥà¤¬à¤Ĥà¤§": 7190,
      "Ġinstance": 7191,
      "Ġà¤Ńà¥Ĥà¤®à¤¿": 7192,
      "à¤¯à¤¾à¤ª": 7193,
      "ĠOn": 7194,
      "Ġfriends": 7195,
      "à¥ĩà¤Ĥà¤ļ": 7196,
      "olit": 7197,
      "Ġball": 7198,
      "Ġà¤«à¤¾à¤¯à¤¦à¤¾": 7199,
      "à¤ķà¤Ī": 7200,
      "hors": 7201,
      "à¤¹à¤²": 7202,
      "Ġà¤ªà¥įà¤°à¤¾à¤£": 7203,
      "Ġcreating": 7204,
      "Ġà¤¹à¥ī": 7205,
      "Ġstor": 7206,
      "Ġcry": 7207,
      "organ": 7208,
      "Ġexisting": 7209,
      "Ġfactor": 7210,
      "omas": 7211,
      "à¥įà¤²à¤¿à¤®": 7212,
      "iox": 7213,
      "HE": 7214,
      "inciples": 7215,
      "di": 7216,
      "Ġà¤ķà¤°à¤¾à¤µà¤¾": 7217,
      "Ġpeace": 7218,
      "pective": 7219,
      "Ġincreases": 7220,
      "People": 7221,
      "Ġà¤ĸà¤¾à¤²à¥Ģ": 7222,
      "Ġfunctions": 7223,
      "à¥įà¤°à¤¤": 7224,
      "Ġà¤²à¤Ĺà¤¾à¤¨à¥ĩ": 7225,
      "Ġmachine": 7226,
      "Ġconstruct": 7227,
      "may": 7228,
      "ĠTo": 7229,
      "RE": 7230,
      "Ġà¤Ĺà¥ĩà¤²à¥įà¤¯à¤¾": 7231,
      "?\"": 7232,
      "Ġstories": 7233,
      "Ġà¤®à¥īà¤¡": 7234,
      "Ġà¤®à¥ĩà¤°à¥Ģ": 7235,
      "Ġworked": 7236,
      "Ġà¤Ĩà¤¦à¤®à¥Ģ": 7237,
      "atin": 7238,
      "Ġà¤Ĺà¥Īà¤°": 7239,
      "ĠVal": 7240,
      "à¤¾à¤Ĥà¤¤à¤¿": 7241,
      "Ġrepe": 7242,
      "Ġà¤ķà¤¿à¤¸à¤¾à¤¨": 7243,
      "Ġespecially": 7244,
      "Ġbaby": 7245,
      "Ġà¤¤à¥ĩà¤µà¥įà¤¹à¤¾": 7246,
      "à¥ģà¤«": 7247,
      "Ġevolution": 7248,
      "Ġpolic": 7249,
      "à¥ĩà¤Łà¥įà¤°à¥ĭà¤²": 7250,
      "à¤¹à¤²à¥Ģ": 7251,
      "sm": 7252,
      "ken": 7253,
      "ĠReg": 7254,
      "Ġà¤Ĺà¥ĩà¤²à¤¾": 7255,
      "Ġworth": 7256,
      "Ġtransfer": 7257,
      "Ġà¤ĩà¤²à¤¾à¤ľ": 7258,
      "à¤®à¥Ĥ": 7259,
      "à¤Ĥà¤Łà¥Ģ": 7260,
      "à¤ªà¤¤": 7261,
      "à¤¤à¤¾à¤°": 7262,
      "Ġcorn": 7263,
      "Ġà¤¦à¥Ģà¤ª": 7264,
      "Ġà¤®à¤¿à¤¨": 7265,
      "à¤¾à¤µà¤°à¥Ĥà¤¨": 7266,
      "à¥įà¤¶à¤¨": 7267,
      "à¤ķà¥ī": 7268,
      "à¤µà¥ĥà¤¤à¥įà¤¤": 7269,
      "Ġà¤¶à¤¿à¤ķà¥įà¤·à¤ķ": 7270,
      "American": 7271,
      "Ġà¤®à¥ģà¤²à¥Ģ": 7272,
      "Ġstar": 7273,
      "à¤¾à¤Ĥà¤¤à¤°": 7274,
      "key": 7275,
      "à¤īà¤Ł": 7276,
      "inally": 7277,
      "Ġà¤ĩà¤Ĥà¤Ĺà¥įà¤²": 7278,
      "Ġà¤µà¤°à¤¿à¤·à¥įà¤ł": 7279,
      "Ġà¤²à¤Ĺà¥įà¤¨": 7280,
      "à¤ħà¤²à¤Ĺ": 7281,
      "ĠCouncil": 7282,
      "Ġdisorder": 7283,
      "Ġà¤¸à¤Ĥà¤ķà¤Ł": 7284,
      "Ġappears": 7285,
      "Ġà¤¸à¥ģà¤ªà¤°": 7286,
      "Ġcompar": 7287,
      "à¤¤à¥įà¤¯à¤¾à¤Ĥà¤ļà¥įà¤¯à¤¾": 7288,
      "à¤Ĥà¤ľà¥Ģ": 7289,
      "Ġwatch": 7290,
      "ped": 7291,
      "à¤¾à¤ķà¤¡à¥Ĥà¤¨": 7292,
      "cast": 7293,
      "xiety": 7294,
      "à¥ĩà¤¤à¥įà¤°à¥Ģ": 7295,
      "Ġà¤īà¤¸à¤¸à¥ĩ": 7296,
      "Ġwrong": 7297,
      "billion": 7298,
      "Ġà¤¡à¥ĩà¤Ł": 7299,
      "Ġregions": 7300,
      "Ġtissue": 7301,
      "ĠBar": 7302,
      "oper": 7303,
      "ĠLaw": 7304,
      "Ġà¤°à¤¹à¥ĩà¤Ĺà¤¾": 7305,
      "Ġà¤¶à¤ķà¤¤à¤¾à¤¤": 7306,
      "Ġdetails": 7307,
      "Ġopportunities": 7308,
      "pped": 7309,
      "erved": 7310,
      "Ġà¤Ĩà¤¤à¥ĩ": 7311,
      "Ġdirection": 7312,
      "edic": 7313,
      "Ġiniti": 7314,
      "Every": 7315,
      "à¤¾à¤¯à¤¦": 7316,
      "Ġà¤µà¤¿à¤¸à¥įà¤¤à¤¾à¤°": 7317,
      "Ġà¤Ĩà¤²à¥ĩà¤²à¥įà¤¯à¤¾": 7318,
      "ographic": 7319,
      "Ġpen": 7320,
      "à¤¾à¤¯à¥ģ": 7321,
      "Ġefficient": 7322,
      "Ġchallenges": 7323,
      "ifically": 7324,
      "Ġà¤ķà¥īà¤²": 7325,
      "Ġfindings": 7326,
      "trans": 7327,
      "à¤¨à¤¾à¤¹à¥Ģ": 7328,
      "enth": 7329,
      "Ġdistance": 7330,
      "only": 7331,
      "add": 7332,
      "Ġà¤µà¤¿à¤µà¤¾à¤¦": 7333,
      "days": 7334,
      "ĠTra": 7335,
      "Ġhydro": 7336,
      "Ġà¤¬à¥ģà¤²": 7337,
      "Ġà¤µà¤¿à¤ķà¥ĩà¤Ł": 7338,
      "Ġconvers": 7339,
      "Ġà¤ĳà¤¨à¤²à¤¾à¤ĩà¤¨": 7340,
      "Ġshowed": 7341,
      "à¤¾à¤ļà¥Ģà¤¨": 7342,
      "Ġantib": 7343,
      "ygen": 7344,
      "ĠPresident": 7345,
      "Ġprice": 7346,
      "Ġà¤¸à¤¤à¥įà¤¤": 7347,
      "Ġsurpr": 7348,
      "Ġà¤¬à¤Ĥà¤§": 7349,
      "Ġà¤¯à¤¹à¤¾à¤ģ": 7350,
      "Ġà¤®à¤¿à¤³à¤¤": 7351,
      "Ġà¤ķà¤¾à¤Ł": 7352,
      "Ġpicture": 7353,
      "Ġcomponents": 7354,
      "Ġmission": 7355,
      "à¤ļà¤¾à¤¨à¤ķ": 7356,
      "Ġing": 7357,
      "Ġhuge": 7358,
      "Ġà¤ħà¤Ĥà¤¤à¤°à¥įà¤Ĺà¤¤": 7359,
      "Ġrob": 7360,
      "Ġà¤µà¤¿à¤ľà¥įà¤ŀà¤¾à¤¨": 7361,
      "Ġà¤ħà¤Ĥà¤¦à¤¾à¤ľ": 7362,
      "Ġà¤®à¤¹à¤¾à¤ªà¤¾à¤²": 7363,
      "Ġà¤¨à¤¿à¤°à¥įà¤§à¤¾à¤°à¤¿à¤¤": 7364,
      "ĠJewish": 7365,
      "Ġà¤ħà¤Ĥà¤¦à¤°": 7366,
      "Ġà¤ħà¤Ĺà¥įà¤°": 7367,
      "Ġà¤¸à¤¡à¤¼à¤ķ": 7368,
      "Ġalcohol": 7369,
      "à¤ľà¤¿à¤¸à¥ĩ": 7370,
      "Ġexpand": 7371,
      "wards": 7372,
      "Ġdetect": 7373,
      "clusion": 7374,
      "dep": 7375,
      "Ġà¤¹à¥ĥà¤¦à¤¯": 7376,
      "à¤Ĥà¤ľà¤¨": 7377,
      "à¥įà¤¦à¥Ģ": 7378,
      "Ġà¤¸à¤Ĥà¤¬": 7379,
      "zz": 7380,
      "à¥ģà¤°à¤¾": 7381,
      "à¤¯à¤¾à¤¸": 7382,
      "ĠDNA": 7383,
      "Ġmoving": 7384,
      "Ġà¤Ĩà¤ĺ": 7385,
      "Ġà¤Ńà¤¾à¤µà¤¨à¤¾": 7386,
      "Ġfemale": 7387,
      "works": 7388,
      "Ġà¤ľà¤¾à¤ıà¤Ĥà¤Ĺà¥ĩ": 7389,
      "Ġlearned": 7390,
      "Ġà¤®à¥ĭà¤łà¥Ģ": 7391,
      "Ġcopy": 7392,
      "à¤ħà¤¨à¥ĩà¤ķ": 7393,
      "Ġà¤¸à¥įà¤¤à¥įà¤°à¥Ģ": 7394,
      "Ġà¤¸à¤¿à¤²": 7395,
      "Ġoffice": 7396,
      "Ġà¤¦à¥ĩà¤µà¥Ģ": 7397,
      "à¤¸à¤¾à¤§": 7398,
      "Ġà¤¸à¤¿à¤Ĥ": 7399,
      "Ġà¤¸à¤¹à¤¾à¤¯à¤¤à¤¾": 7400,
      "Ġsurvey": 7401,
      "Ġequal": 7402,
      "Ġà¤¹à¤µ": 7403,
      "Ġdat": 7404,
      "à¤¬à¥ī": 7405,
      "iant": 7406,
      "à¤¾à¤īà¤Ĥà¤Ł": 7407,
      "Ġbelieved": 7408,
      "Ġinsect": 7409,
      "omb": 7410,
      "oma": 7411,
      "Ġà¤¸à¤¹à¤Ńà¤¾à¤Ĺ": 7412,
      "à¤ľà¥įà¤ŀà¤¾à¤¨à¤¿à¤ķ": 7413,
      "Ġtask": 7414,
      "Ġà¤¨à¤¯à¤¾": 7415,
      "Ġremember": 7416,
      "Ġà¤¬à¤¾à¤°à¤¿à¤¶": 7417,
      "Ġà¤®à¤¤à¤¦à¤¾à¤¨": 7418,
      "Ġoptions": 7419,
      "ĠSan": 7420,
      "Ġà¤ĸà¤°à¤¾à¤¬": 7421,
      "tee": 7422,
      "Ġtruth": 7423,
      "rops": 7424,
      "Ġjournal": 7425,
      "ademic": 7426,
      "Ġà¤¦à¤¿à¤¶à¤¾": 7427,
      "Ġ&": 7428,
      "ĠSw": 7429,
      "ategy": 7430,
      "à¤¿à¤¶à¤¨": 7431,
      "Ġà¤µà¤°à¥įà¤£à¤¨": 7432,
      "Ġà¤ªà¤¾à¤¤à¥įà¤°": 7433,
      "à¤ķà¤¨": 7434,
      "Ġà¤®à¤¾à¤¤": 7435,
      "Ġbound": 7436,
      "Ġà¤¸à¤®à¤¾à¤ªà¥įà¤¤": 7437,
      "à¤®à¥ĭà¤°": 7438,
      "ĠMex": 7439,
      "à¤µà¤²à¤¾": 7440,
      "Ġà¤ªà¤¾à¤µà¤¸": 7441,
      "à¤¾à¤¨à¤Ĥà¤¤à¤°": 7442,
      "Ġattract": 7443,
      "Ġà¤ļà¤¾à¤¹à¤¿à¤¯à¥ĩ": 7444,
      "à¤ĸà¥įà¤¯": 7445,
      "Ġà¤ªà¤¹à¥ģà¤ģ": 7446,
      "à¤¡à¤°": 7447,
      "Ġà¤ĩà¤¤à¤¨à¤¾": 7448,
      "Ġà¤®à¤¾à¤¤à¤¾": 7449,
      "Ġà¤®à¥ģà¤ķà¥įà¤¤": 7450,
      "à¤ªà¤²": 7451,
      "Ġà¤¬à¤¾à¤³": 7452,
      "rew": 7453,
      "tical": 7454,
      "à¤®à¤¿à¤²": 7455,
      "Therefore": 7456,
      "igen": 7457,
      "Ġfigure": 7458,
      "Ġbreast": 7459,
      "Ġqual": 7460,
      "ĠUnion": 7461,
      "Ġà¤¬à¤¾à¤µ": 7462,
      "Use": 7463,
      "Ġà¤ĸà¤Ĥà¤¡": 7464,
      "à¥ģà¤ĥà¤ĸ": 7465,
      "called": 7466,
      "Ġà¤¹à¤¿à¤°": 7467,
      "Ġfresh": 7468,
      "Ġmut": 7469,
      "Ġà¤ľà¤¾à¤Īà¤²": 7470,
      "orial": 7471,
      "à¥ģà¤²à¥įà¤ķ": 7472,
      "Ġtechnologies": 7473,
      "ĠCommun": 7474,
      "Ġà¤ľà¤°à¥Ĥà¤°à¥Ģ": 7475,
      "Ġbalance": 7476,
      "Ġà¤µà¥ĥà¤¦à¥įà¤§à¤¿": 7477,
      "allow": 7478,
      "CC": 7479,
      "ilit": 7480,
      "à¤ªà¥įà¤°à¤®à¤¾à¤£à¥ĩ": 7481,
      "Retrieved": 7482,
      "Ġà¤®à¤¿à¤²à¤¤à¤¾": 7483,
      "Ġhighest": 7484,
      "Ġà¤¤à¤¾à¤¤": 7485,
      "ams": 7486,
      "à¤¬à¥ĭ": 7487,
      "à¤¶à¤¿à¤ª": 7488,
      "Ġcitizens": 7489,
      "Ġà¤¹à¤¾à¤Ī": 7490,
      "Ġassist": 7491,
      "Ġthousands": 7492,
      "ĠMe": 7493,
      "mal": 7494,
      "urance": 7495,
      "Ġà¤ľà¤¾à¤¤à¤¾à¤¤": 7496,
      "à¤Ńà¤¾à¤·": 7497,
      "Ġabsor": 7498,
      "Ġinnov": 7499,
      "Ġcontract": 7500,
      "Ġeducational": 7501,
      "hours": 7502,
      "à¤¾à¤¦à¤¨": 7503,
      "à¤«à¤¿à¤²à¥įà¤®": 7504,
      "Ġà¤²à¥ĩà¤¤à¥ĩ": 7505,
      "à¤¦à¤²": 7506,
      "Ġchance": 7507,
      "Ġà¤ĺà¥ĩà¤¤à¤²à¥ĩ": 7508,
      "Ġguide": 7509,
      "Ġà¤¦à¤¿à¤¸à¥Ĥà¤¨": 7510,
      "ĠAnt": 7511,
      "Ġà¤ħà¤²à¥Ģ": 7512,
      "Ġoffers": 7513,
      "Ġà¤¸à¤¤à¥įà¤¤à¤¾": 7514,
      "Ġà¤¸à¤¾à¤°à¥ĩ": 7515,
      "Ġresistance": 7516,
      "à¥Ģà¤¨à¥ĩ": 7517,
      "Ġstaff": 7518,
      "Ġà¤Ĺà¥ĩà¤²à¥Ģ": 7519,
      "Ġà¤®à¤¸": 7520,
      "Ġclassroom": 7521,
      "Ġà¤¤à¤¿à¤ļà¥įà¤¯à¤¾": 7522,
      "Ġrat": 7523,
      "à¤ķà¥ĥà¤·à¥įà¤£": 7524,
      "antic": 7525,
      "Ġà¤¤à¥įà¤¯à¤¾à¤ļà¥ĩ": 7526,
      "Ġà¤ķà¤°à¤¾à¤µà¥Ģ": 7527,
      "à¤°à¥įà¤ľà¤¾": 7528,
      "Ġà¤ªà¤°à¤¿à¤ļ": 7529,
      "Ġgoals": 7530,
      "ching": 7531,
      "inn": 7532,
      "à¤¾à¤°à¥ĭà¤Ĥ": 7533,
      "à¤®à¤¾à¤²": 7534,
      "Ġà¤²à¤µà¤ķà¤°": 7535,
      "Ġà¤Ĩà¤ķà¤°à¥įà¤·": 7536,
      "isation": 7537,
      "Ġstrategies": 7538,
      "à¤ªà¤°à¤¨à¥įà¤¤à¥ģ": 7539,
      "Ġfollowed": 7540,
      "prov": 7541,
      "Ġà¤ªà¥įà¤°à¤¾à¤¥à¤®à¤¿à¤ķ": 7542,
      "ĠMod": 7543,
      "MS": 7544,
      "Ġà¤ªà¥Īà¤¦à¤¾": 7545,
      "Ġbox": 7546,
      "à¤«à¥Ģà¤¸": 7547,
      "Ġà¤ķà¤°à¤£à¥įà¤¯à¤¾à¤¸": 7548,
      "à¤ķà¤¾à¤°à¤¾à¤¤à¥įà¤®à¤ķ": 7549,
      "Ġstim": 7550,
      "Ġrunning": 7551,
      "point": 7552,
      "à¤Ĥà¤¨à¥Ģ": 7553,
      "Ġà¤§à¤¾à¤µ": 7554,
      "Ġphen": 7555,
      "Ġforeign": 7556,
      "Ġweeks": 7557,
      "Ġà¤īà¤®à¥įà¤°": 7558,
      "Ġtreated": 7559,
      "Ġwhose": 7560,
      "Ġà¤ĺà¤°à¥Ģ": 7561,
      "AP": 7562,
      "ype": 7563,
      "mm": 7564,
      "à¤ªà¥įà¤²": 7565,
      "Ġevalu": 7566,
      "Ġconsumption": 7567,
      "Ġgarden": 7568,
      "Qu": 7569,
      "Ġarchitect": 7570,
      "à¤ķà¥Ī": 7571,
      "Ġà¤¬à¥ĩà¤¹à¤¦": 7572,
      "Ġà¤¸à¥Ĥà¤°à¥įà¤¯": 7573,
      "Ġà¤¹à¤¿à¤¤": 7574,
      "Ġnative": 7575,
      "ta": 7576,
      "Ġà¤µà¤¸": 7577,
      "Ġà¤¤à¥ĩà¤ľà¥Ģ": 7578,
      "Ġvision": 7579,
      "Ġà¤Ĳà¤ķ": 7580,
      "à¤¸à¤®à¤¯": 7581,
      "à¤§à¤¨": 7582,
      "Ġchallenge": 7583,
      "Ġdestroy": 7584,
      "Ġdefined": 7585,
      "Ġproviding": 7586,
      "Ġmap": 7587,
      "Ġapply": 7588,
      "Ġinstruct": 7589,
      "Ġà¤ķà¥ĥ": 7590,
      "Ġà¤ķà¤°à¤¾à¤¨à¥ĩ": 7591,
      "Ġsac": 7592,
      "ĠMarch": 7593,
      "à¤µà¤¿à¤²": 7594,
      "Ġà¤²à¤¹à¤¾à¤¨": 7595,
      "Ġà¤¦à¥ĩà¤ĸà¤ķà¤°": 7596,
      "Ġpassed": 7597,
      "Ġà¤¦à¥ĥà¤·à¥įà¤Łà¤¿": 7598,
      "à¥įà¤¯à¤¾à¤µà¤°à¤£": 7599,
      "standing": 7600,
      "Ġà¤¤à¤°à¥ģà¤£": 7601,
      "Ġà¤ªà¥ĭà¤¹à¥ĭà¤ļ": 7602,
      "Ġà¤Ńà¤°à¥įà¤¤à¥Ģ": 7603,
      "Ġà¤¦à¥ģà¤ĸ": 7604,
      "Ġincome": 7605,
      "Ġfavor": 7606,
      "Ġà¤Ĺà¥Į": 7607,
      "Ġstructures": 7608,
      "Ġà¤µà¤°à¥įà¤¤à¤®à¤¾à¤¨": 7609,
      "Ġstyle": 7610,
      "Ġexperim": 7611,
      "Ġà¤°à¤¾à¤¸à¥įà¤¤": 7612,
      "Ġseparate": 7613,
      "Ġà¤¯à¥ĭà¤ľà¤¨": 7614,
      "Ġà¤ĩà¤¸à¤²à¤¿à¤ı": 7615,
      "asc": 7616,
      "Ġà¤ļà¤¾à¤¹à¤¤à¤¾": 7617,
      "ares": 7618,
      "ologist": 7619,
      "Ġeffic": 7620,
      "Ġà¤ħà¤Ĥà¤ķ": 7621,
      "Ġà¤¸à¤Ĥà¤ļà¤¾à¤²à¤¨": 7622,
      "Ġdecades": 7623,
      "à¥ĭà¤ľà¤¨à¥ĩ": 7624,
      "Ġà¤ħà¤ªà¤°à¤¾à¤§": 7625,
      "à¤Ļ": 7626,
      "Ġà¤ĳà¤¸à¥įà¤Łà¥įà¤°à¥ĩà¤²": 7627,
      "Ġcarried": 7628,
      "à¤ľà¥Ī": 7629,
      "Ġà¤¤à¤¿à¤²à¤¾": 7630,
      "Ġà¤¶à¥įà¤°à¤¦à¥įà¤§": 7631,
      "Ġbra": 7632,
      "Ġà¤Ĺà¤¾à¤¯": 7633,
      "à¤°à¥įà¤¦à¥Ģ": 7634,
      "à¤°à¤¿à¤¤": 7635,
      "ructure": 7636,
      "Ġboard": 7637,
      "ĠAugust": 7638,
      "Ġobserved": 7639,
      "Ġà¤ľà¤¾à¤¨à¤¤à¥ĩ": 7640,
      "à¤°à¥įà¤Ńà¤¾à¤¤": 7641,
      "Ġexperiences": 7642,
      "Ġà¤Ĩà¤µà¥ĩà¤¦à¤¨": 7643,
      "Ġweak": 7644,
      "Ġà¤ľà¤¿à¤®à¥įà¤®": 7645,
      "Ġà¤°à¤¾à¤ľà¤§à¤¾à¤¨à¥Ģ": 7646,
      "à¥įà¤µà¥Ģà¤Ł": 7647,
      "Ġreference": 7648,
      "Ġà¤®à¥Īà¤Ĥà¤¨à¥ĩ": 7649,
      "Ġdisorders": 7650,
      "ĠProt": 7651,
      "ĠMedic": 7652,
      "Ġextremely": 7653,
      "rome": 7654,
      "Ġmuscle": 7655,
      "Ġreality": 7656,
      "Ġà¤¦à¥ĩà¤ķà¤°": 7657,
      "à¥įà¤°à¤®à¤¾à¤£à¥ĩ": 7658,
      "Ġà¤¸à¥įà¤¥à¤¾à¤ªà¤¨à¤¾": 7659,
      "Ġà¤¤à¥įà¤¯à¤¾à¤Ĥà¤ļà¤¾": 7660,
      "Ġseven": 7661,
      "otes": 7662,
      "Ġà¤¸à¥ģà¤Ĥà¤¦à¤°": 7663,
      "la": 7664,
      "anging": 7665,
      "Ġà¤®à¤¤à¤¦à¤¾à¤°": 7666,
      "oral": 7667,
      "à¤²à¥įà¤¯à¤¾à¤¨à¥ĩ": 7668,
      "Ġbodies": 7669,
      "Ġplans": 7670,
      "à¤¿à¤®à¥Ģ": 7671,
      "Ġà¤¸à¥ĭà¤®à¤µà¤¾à¤°": 7672,
      "rust": 7673,
      "Ġà¤«à¥ĩà¤¸": 7674,
      "ĠBi": 7675,
      "Ġtopic": 7676,
      "Ġà¤¸à¤¾à¤¬": 7677,
      "à¤¾à¤¨à¤Ĥ": 7678,
      "à¤¾à¤¯à¤ļà¥Ģ": 7679,
      "asks": 7680,
      "Ġà¤ªà¥įà¤°à¤¤à¥Ģ": 7681,
      "Ġà¤¹à¤®à¤¾à¤°à¥Ģ": 7682,
      "Ġexhib": 7683,
      "ĠJune": 7684,
      "Ġà¤¸à¤Ĥà¤Ĺà¤łà¤¨": 7685,
      "Ġà¤Ĩà¤£à¤ĸà¥Ģ": 7686,
      "Comm": 7687,
      "ĠWashington": 7688,
      "Ġimmediately": 7689,
      "Ġplanning": 7690,
      "Ġà¤°à¤ķà¥įà¤·à¤¾": 7691,
      "Ġsignificantly": 7692,
      "Ġà¤¦à¤¿à¤Ĺ": 7693,
      "à¤Ĥà¤¨à¤¾": 7694,
      "Ġà¤°à¤¾à¤ľà¤¨à¥Ģà¤¤à¤¿à¤ķ": 7695,
      "à¥įà¤¯à¤¾à¤µà¥ĩà¤³à¥Ģ": 7696,
      "à¤°à¤¾à¤·à¥įà¤Łà¥įà¤°": 7697,
      "ĠEgypt": 7698,
      "Ġdecisions": 7699,
      "Ed": 7700,
      "Ġà¤¶à¤¾à¤Ĥà¤¤": 7701,
      "ading": 7702,
      "Ġparty": 7703,
      "Ġassum": 7704,
      "à¤¤à¥įà¤ķà¤¾à¤²": 7705,
      "icularly": 7706,
      "Ġà¤¨à¤¾à¤¶": 7707,
      "Ġfaith": 7708,
      "Ġactual": 7709,
      "à¤ķà¥įà¤¤à¤¾": 7710,
      "Ġà¤ľà¤¾à¤Ĺà¤¾": 7711,
      "Ġà¤īà¤®à¥įà¤®à¥Ģà¤¦à¤µà¤¾à¤°": 7712,
      "Ġà¤Ĩà¤ªà¤²à¥Ģ": 7713,
      "Ġà¤Ńà¤¾à¤Ĺà¤¾à¤¤": 7714,
      "Ġà¤ķà¥ĩà¤²à¥įà¤¯à¤¾": 7715,
      "à¤ķà¤Ĥà¤ª": 7716,
      "Ġbank": 7717,
      "à¥īà¤ķà¤¡": 7718,
      "Ġcelebr": 7719,
      "Ġorganizations": 7720,
      "Ġdyn": 7721,
      "Ġà¤¸à¤¾à¤®à¤¨": 7722,
      "à¤ķà¤¿à¤¨à¥įà¤¤à¥ģ": 7723,
      "Ġfear": 7724,
      "à¥ĩà¤¦à¤¾à¤°à¥Ģ": 7725,
      "Ġaspects": 7726,
      "long": 7727,
      "Ġà¤ķà¤°à¥ģà¤¨": 7728,
      "Ġà¤ķà¤ªà¥įà¤¤": 7729,
      "à¤¦à¤°à¤ħà¤¸à¤²": 7730,
      "Ġfert": 7731,
      "Ġà¤¦à¥ĥ": 7732,
      "à¤¾à¤¨à¥ģà¤¸à¤¾à¤°": 7733,
      "tes": 7734,
      "ĠInternet": 7735,
      "ĠProgram": 7736,
      "Ġmilk": 7737,
      "à¤ķà¥ĭà¤£": 7738,
      "à¥Ģà¤ķà¤°à¤£": 7739,
      "ald": 7740,
      "ĠSch": 7741,
      "Ġpopulations": 7742,
      "Ġparticularly": 7743,
      "Ġà¤ħà¤§à¥įà¤¯à¤¯à¤¨": 7744,
      "ulum": 7745,
      "ference": 7746,
      "à¤¯à¤¾à¤ļ": 7747,
      "ĠVir": 7748,
      "Ġà¤®à¤¾à¤Ŀà¥įà¤¯à¤¾": 7749,
      "à¤ķà¥įà¤·à¤®": 7750,
      "Ġstrength": 7751,
      "IP": 7752,
      "à¤¡à¤¼à¤¨à¥ĩ": 7753,
      "Ġà¤®à¤¹à¤¾à¤¸": 7754,
      "Sm": 7755,
      "à¥Ģà¤µ": 7756,
      "Ġà¤ªà¥įà¤°à¥ĭà¤«": 7757,
      "Ġà¤¸à¤¾à¤¯": 7758,
      "Ġà¤°à¤¾à¤·à¥įà¤Łà¥įà¤°à¤µà¤¾à¤¦à¥Ģ": 7759,
      "respond": 7760,
      "state": 7761,
      "Ġà¤ķà¤°à¤µ": 7762,
      "Ġcand": 7763,
      "kin": 7764,
      "à¤¦à¥Ĥ": 7765,
      "ether": 7766,
      "Just": 7767,
      "Ġà¤ªà¥įà¤°à¤µà¤¾à¤¸": 7768,
      "Ġrequirements": 7769,
      "plications": 7770,
      "Ġà¤ħà¤®à¤¿à¤¤": 7771,
      "Today": 7772,
      "à¤°à¤µà¤°à¥Ģ": 7773,
      "urt": 7774,
      "ulf": 7775,
      "Ġspring": 7776,
      "stitution": 7777,
      "à¤¾à¤¦à¥ĩà¤¶": 7778,
      "Ġà¤ľà¥ģà¤¡à¤¼à¥ĩ": 7779,
      "ession": 7780,
      "Ġà¤¸à¤°à¥įà¤µà¥ĭ": 7781,
      "à¤īà¤¸à¥ĩ": 7782,
      "Ġdivid": 7783,
      "Ġà¤µà¤¿à¤¤": 7784,
      "minutes": 7785,
      "Ġà¤®à¤¾à¤ľà¥Ģ": 7786,
      "name": 7787,
      "à¤¬à¤¾à¤²": 7788,
      "Ġcontrast": 7789,
      "Ġeasier": 7790,
      "Ġcra": 7791,
      "Ġcompre": 7792,
      "Ġà¤°à¤¾à¤¤à¥įà¤°à¥Ģ": 7793,
      "Eng": 7794,
      "Ġà¤ķà¥ĭà¤ļ": 7795,
      "à¤ªà¥įà¤°à¤¤à¥įà¤¯à¥ĩà¤ķ": 7796,
      "à¤«à¥Ģ": 7797,
      "elines": 7798,
      "Ġfeature": 7799,
      "Ġà¤¶à¤¨": 7800,
      "Ġgeneration": 7801,
      "Ġà¤¸à¤Ńà¤¾": 7802,
      "à¥įà¤¦à¥įà¤°": 7803,
      "Ġsave": 7804,
      "Ġexplore": 7805,
      "Ġà¤ľà¤¾à¤ķà¤°": 7806,
      "à¤Ĥà¤ĺ": 7807,
      "Ġà¤¦à¤¾à¤°": 7808,
      "Ġspect": 7809,
      "à¤Ĩà¤ªà¤²à¥įà¤¯à¤¾": 7810,
      "Ġà¤ľà¥Īà¤¨": 7811,
      "ria": 7812,
      "ĠDes": 7813,
      "Ġà¤ªà¤¹à¤²": 7814,
      "ager": 7815,
      "Ġple": 7816,
      "Ġà¤ħà¤Łà¤ķ": 7817,
      "ports": 7818,
      "porary": 7819,
      "Ġà¤īà¤Ń": 7820,
      "iance": 7821,
      "à¥ĩà¤Ĥà¤ľ": 7822,
      "Ġpercent": 7823,
      "Ġcop": 7824,
      "Ġà¤ľà¤¬à¤¾à¤¬": 7825,
      "à¥ĩà¤¶à¤ķ": 7826,
      "Ġreports": 7827,
      "road": 7828,
      "Ġemissions": 7829,
      "Ġwhe": 7830,
      "à¤¹à¤®à¥įà¤®": 7831,
      "à¤¾à¤³à¤¾": 7832,
      "erences": 7833,
      "ognitive": 7834,
      "Ġmoved": 7835,
      "Ġà¤ĸà¥ĭà¤²": 7836,
      "Ġenh": 7837,
      "ĠEl": 7838,
      "Ġà¤¸à¤Ĥà¤ĺà¤°à¥įà¤·": 7839,
      "Ġà¤°à¤¿à¤²à¥Ģà¤ľ": 7840,
      "Ġfamous": 7841,
      "à¤ķà¤¿à¤Ĥ": 7842,
      "Ġà¤¹à¥ĩà¤²": 7843,
      "à¥Īà¤¨à¤¿à¤ķ": 7844,
      "à¤ıà¤µ": 7845,
      "à¤īà¤¸à¤¨à¥ĩ": 7846,
      "à¤«à¥īà¤°à¥įà¤®": 7847,
      "uit": 7848,
      "athi": 7849,
      "à¤¸à¤Ńà¥Ģ": 7850,
      "Cons": 7851,
      "ault": 7852,
      "à¤¾à¤Ĥà¤¡à¥ĩ": 7853,
      "Ġconnected": 7854,
      "à¤Łà¤ķà¤¾": 7855,
      "Ġà¤ªà¤¹à¤²à¤¾": 7856,
      "Ġà¤¤à¥ģà¤®à¥įà¤¹": 7857,
      "Ġà¤¸à¤¾à¤ª": 7858,
      "à¥įà¤°à¥Ģà¤¨": 7859,
      "Ġsuggests": 7860,
      "ĠSm": 7861,
      "Ġà¤¶à¥ĩà¤µ": 7862,
      "roid": 7863,
      "Ġopin": 7864,
      "ĠLord": 7865,
      "Ġcommercial": 7866,
      "Ġà¤ľà¥įà¤¯à¤¾": 7867,
      "Ġvary": 7868,
      "Ùİ": 7869,
      "Ġà¤°à¤¾à¤·à¥įà¤Łà¥įà¤°à¤ªà¤¤à¤¿": 7870,
      "Ġcollabor": 7871,
      "olid": 7872,
      "Ġà¤®à¤Ĥà¤Ĺ": 7873,
      "à¤ļà¤ķ": 7874,
      "Ġà¤łà¥ĩ": 7875,
      "Ġslight": 7876,
      "Ġà¤®à¤¾à¤¨à¥įà¤¯": 7877,
      "Ġdistribution": 7878,
      "Ġà¤ĸà¤¾à¤¦à¥įà¤¯": 7879,
      "Ġà¤¤à¤¾à¤°à¥Ģ": 7880,
      "erent": 7881,
      "Ġà¤¸à¤¾à¤ľ": 7882,
      "à¤¸à¤¿à¤¦à¥įà¤§": 7883,
      "Ġà¤ĩà¤®à¤¾à¤°": 7884,
      "Ġà¤¸à¤®à¤¿à¤¤à¤¿": 7885,
      "Ġdiscussion": 7886,
      "Ġà¤²à¥ĭà¤ķà¤ªà¥įà¤°à¤¿à¤¯": 7887,
      "imens": 7888,
      "Ġcombination": 7889,
      "lev": 7890,
      "ressed": 7891,
      "ishing": 7892,
      "Ġà¤ªà¥įà¤°à¤¿à¤¯": 7893,
      "Ġà¤Ĺà¥ģà¤Ĥà¤¤": 7894,
      "Ġà¤ªà¥įà¤°à¤£à¤¾à¤²à¥Ģ": 7895,
      "Ġà¤¨à¥ĩà¤¤à¤¾à¤ĵà¤Ĥ": 7896,
      "Ġresource": 7897,
      "Ġitems": 7898,
      "Ġoperations": 7899,
      "eared": 7900,
      "Ġeventually": 7901,
      "Ġà¤ªà¥įà¤°à¤¤à¥įà¤¯à¤ķà¥įà¤·": 7902,
      "à¤ħà¤®": 7903,
      "Ġà¤Ĺà¤°à¥įà¤®": 7904,
      "Further": 7905,
      "à¤¯à¤¹à¥Ģ": 7906,
      "Ġà¤¤à¥įà¤µ": 7907,
      "about": 7908,
      "à¤ķà¥įà¤¸à¤°": 7909,
      "Ġà¤¸à¥ģà¤ª": 7910,
      "Ġà¤īà¤¤à¥įà¤¤à¤®": 7911,
      "mat": 7912,
      "ras": 7913,
      "à¤Ĥà¤¡à¥ĩ": 7914,
      "Â°": 7915,
      "Ġmer": 7916,
      "à¥īà¤ľà¥Ģ": 7917,
      "ĠAustralia": 7918,
      "Ġà¤¤à¤¾à¤ªà¤®à¤¾à¤¨": 7919,
      "health": 7920,
      "Ġserve": 7921,
      "Ġà¤µà¤¾à¤¹à¤¤": 7922,
      "Ġà¤ªà¥ģà¤£": 7923,
      "Ġurban": 7924,
      "Under": 7925,
      "Ġhair": 7926,
      "à¤¶à¥įà¤®à¥Ģà¤°": 7927,
      "Ġà¤Ĺà¥ģà¤¨à¥įà¤¹à¤¾": 7928,
      "à¤¾à¤Ĺà¥įà¤°à¤¾à¤®": 7929,
      "à¥ĩà¤£à¥Ģ": 7930,
      "à¤ľà¤Ĺ": 7931,
      "Ġà¤¸à¤Ĥà¤¸à¥įà¤¥à¤¾à¤¨": 7932,
      "Ġà¤¸à¥įà¤µà¤ļà¥įà¤Ľ": 7933,
      "Ġplastic": 7934,
      "à¤°à¤¦": 7935,
      "Ġliqu": 7936,
      "apers": 7937,
      "vironmental": 7938,
      "à¤¾à¤ªà¤ķ": 7939,
      "Ġà¤ªà¥įà¤¯à¤¾à¤°": 7940,
      "Ġmal": 7941,
      "ĠCollege": 7942,
      "Ġestimated": 7943,
      "ressive": 7944,
      "Ġlegis": 7945,
      "Ġà¤ħà¤¨à¥ģà¤ª": 7946,
      "ĠItal": 7947,
      "Ġpresented": 7948,
      "Ġpick": 7949,
      "Ġnutrition": 7950,
      "Ġmedicine": 7951,
      "Part": 7952,
      "Ġpartners": 7953,
      "Ġletter": 7954,
      "Ġves": 7955,
      "oting": 7956,
      "Ġnuclear": 7957,
      "à¤¨à¤Ĥ": 7958,
      "à¤¿à¤ķà¥ĭ": 7959,
      "Ġalternative": 7960,
      "Ġà¤¸à¤¤à¥įà¤°": 7961,
      "Ġà¤¨à¤¿à¤¯à¤®à¥ĭà¤Ĥ": 7962,
      "Ġà¤°à¤¾à¤¹à¤¤": 7963,
      "Ġà¤ķà¤°à¥įà¤¤": 7964,
      "Ġà¤ħà¤¸à¤²à¥įà¤¯à¤¾à¤ļà¥Ģ": 7965,
      "Ġà¤ĸà¤¤à¥įà¤®": 7966,
      "Ġemphas": 7967,
      "Ġbatter": 7968,
      "à¤¾à¤¸à¤¾à¤¹à¥ĩà¤¬": 7969,
      "à¥ĭà¤Ĥà¤¡": 7970,
      "amental": 7971,
      "Ġtrust": 7972,
      "Ġbattle": 7973,
      "Ġwidely": 7974,
      "à¤ķà¤¹": 7975,
      "Car": 7976,
      "Ġà¤¦à¤¹": 7977,
      "BS": 7978,
      "Ġà¤ħà¤¤à¥įà¤¯à¤Ĥà¤¤": 7979,
      "atform": 7980,
      "ĠPre": 7981,
      "Ġheavy": 7982,
      "Ġà¤ªà¤°à¥įà¤µ": 7983,
      "Ġà¤Łà¥įà¤µà¥Ģà¤Ł": 7984,
      "ĠCongress": 7985,
      "icial": 7986,
      "ĠTrans": 7987,
      "Ġexcess": 7988,
      "ologists": 7989,
      "Ġà¤²à¤¾à¤Ĺà¤²à¥Ģ": 7990,
      "particularly": 7991,
      "iring": 7992,
      "à¤¾à¤ªà¥ģà¤°": 7993,
      "Ġfrequently": 7994,
      "à¤Ĥà¤ļà¥įà¤¯à¤¾": 7995,
      "Ġà¤«à¥ģà¤Ł": 7996,
      "Ġà¤®à¤¹à¤¸": 7997,
      "poses": 7998,
      "Ġindependent": 7999,
      "Ġà¤¦à¤°à¤µ": 8000,
      "à¤ļà¥Ģà¤¤": 8001,
      "à¤µà¤°à¥Ĥà¤¨": 8002,
      "à¤¼à¥Ģ": 8003,
      "Ġcycle": 8004,
      "och": 8005,
      "ĠJapanese": 8006,
      "Ġà¤®à¥ĭà¤¬à¤¾à¤ĩà¤²": 8007,
      "sis": 8008,
      "à¥ĩà¤Łà¥Ģ": 8009,
      "à¥ģà¤µà¤¾à¤°à¥Ģ": 8010,
      "à¥Īà¤Ĥà¤¸": 8011,
      "à¤¸à¤¾à¤¤": 8012,
      "à¥įà¤¯à¤¾à¤ĸ": 8013,
      "à¤ħà¤¨à¥įà¤¯": 8014,
      "Ġà¤Ńà¥ĩà¤¦": 8015,
      "Ġrisks": 8016,
      "Ġà¤¬à¤¾à¤ľà¥Ĥ": 8017,
      "Ġgames": 8018,
      "Lear": 8019,
      "Ġmale": 8020,
      "Ġrot": 8021,
      "ĠGeneral": 8022,
      "requ": 8023,
      "Ġgrass": 8024,
      "à¥ĭà¤¬": 8025,
      "à¥ĩà¤ļà¤¾": 8026,
      "à¥ĩà¤¦à¤¾à¤°": 8027,
      "Ġfeet": 8028,
      "à¤ľà¥Ĥ": 8029,
      "ĠWestern": 8030,
      "ios": 8031,
      "Ġbed": 8032,
      "Ġrelease": 8033,
      "Ġà¤®à¤¾à¤°à¥įà¤ļ": 8034,
      "Ġbran": 8035,
      "Ġà¤Ńà¥ĭà¤ľà¤¨": 8036,
      "Ġà¤Ĺà¥įà¤°à¤Ĥà¤¥": 8037,
      "à¤¾à¤Ĥà¤¶à¥Ģ": 8038,
      "à¤Ĥà¤¡à¤³": 8039,
      "Ġà¤¹à¤¿à¤¸à¥įà¤¸": 8040,
      "Ġfields": 8041,
      "ida": 8042,
      "Ġà¤²à¤¾à¤Ĺà¤²à¤¾": 8043,
      "Ġà¤Ĩà¤ĺà¤¾à¤¡à¥Ģ": 8044,
      "anted": 8045,
      "Ġà¤ªà¤°à¥įà¤¯à¤¾à¤¯": 8046,
      "Ġconnection": 8047,
      "Ġà¤®à¤¾à¤§à¥įà¤¯à¤®à¤¾à¤¤à¥Ĥà¤¨": 8048,
      "Ġà¤°à¤¿à¤¶": 8049,
      "Ġà¤ªà¤°à¤¿à¤µà¤°à¥įà¤¤à¤¨": 8050,
      "ander": 8051,
      "ĠSur": 8052,
      "Ġà¤¦à¥ĩà¤Ĭà¤¨": 8053,
      "Ġà¤ļà¤¿à¤ķà¤¿à¤¤à¥įà¤¸à¤¾": 8054,
      "à¤¸à¤Ĥà¤ĺ": 8055,
      "Ġà¤¹à¥ĩà¤¤à¥ģ": 8056,
      "à¤ĸà¤¨à¤Ĭ": 8057,
      "Ġbottom": 8058,
      "nes": 8059,
      "à¤ķà¥ĭà¤°à¥ĭà¤¨à¤¾": 8060,
      "Ġclearly": 8061,
      "Ġà¤®à¤Ĺ": 8062,
      "Ġglass": 8063,
      "Ġbone": 8064,
      "à¤¾à¤Ĥà¤¤à¥Ģà¤²": 8065,
      "Ġclinical": 8066,
      "à¥īà¤²à¤°": 8067,
      "Ġsample": 8068,
      "ĠBlack": 8069,
      "Ġwear": 8070,
      "Ġà¤¬à¤¨à¤¨à¥ĩ": 8071,
      "cure": 8072,
      "à¥įà¤¯à¤¾à¤ªà¥Ģ": 8073,
      "Ġà¤ıà¤ķà¥Ĥà¤£": 8074,
      "ago": 8075,
      "à¤ªà¥ģà¤£à¥ĩ": 8076,
      "ĠAng": 8077,
      "à¤¾à¤Ĥà¤ķà¤¡à¥Ĥà¤¨": 8078,
      "à¤¹à¤®à¥įà¤®à¤¦": 8079,
      "Ġà¤¯à¥ģà¤µà¤¾": 8080,
      "Pre": 8081,
      "Ġà¤¸à¤®à¤¾à¤§à¤¾à¤¨": 8082,
      "Ġhom": 8083,
      "Ġà¤®à¤¿à¤¸": 8084,
      "Ġà¤ħà¤¨à¥ģà¤¸": 8085,
      "à¤ħà¤¸": 8086,
      "Ġà¤¹à¤µà¤¾": 8087,
      "Ġrecommended": 8088,
      "ciences": 8089,
      "à¤īà¤¨à¤ķà¤¾": 8090,
      "Ġà¤¨à¤¿à¤µà¤¡": 8091,
      "Ġà¤¶à¤¾à¤¨à¤¦à¤¾à¤°": 8092,
      "Ġà¤¸à¥įà¤Łà¤¾à¤°": 8093,
      "Ġutil": 8094,
      "Ġconducted": 8095,
      "Ġà¤°à¤ĸà¤¤à¥ĩ": 8096,
      "Ġà¤¸à¤Ĥà¤µà¤¾à¤¦": 8097,
      "à¤¿à¤ħ": 8098,
      "Ġcompl": 8099,
      "à¤¦à¤¾à¤¸": 8100,
      "Ġhomes": 8101,
      "ĠJuly": 8102,
      "Ġmetal": 8103,
      "Ġign": 8104,
      "Ġgod": 8105,
      "Ġà¤ļà¤¿à¤¨": 8106,
      "à¤¬à¤¾à¤¦": 8107,
      "Ġà¤ľà¥Īà¤¸à¥Ģ": 8108,
      "à¤µà¥įà¤¯à¤¾": 8109,
      "Ġà¤ªà¥įà¤°à¤¸à¤¾à¤¦": 8110,
      "othes": 8111,
      "Ġstore": 8112,
      "Ġà¤ªà¥įà¤°à¤¤à¤¿à¤ķà¥įà¤°à¤¿à¤¯à¤¾": 8113,
      "Ġrecords": 8114,
      "à¤¾à¤ľà¤¨": 8115,
      "à¤®à¤ķ": 8116,
      "Ġalt": 8117,
      "Ġtechnique": 8118,
      "ĠGovernment": 8119,
      "Ġlayer": 8120,
      "ala": 8121,
      "Ġblue": 8122,
      "à¤Ĩà¤®à¥įà¤¹à¥Ģ": 8123,
      "Ġoutput": 8124,
      "Ġdoub": 8125,
      "à¥Ĥà¤¬à¤°": 8126,
      "à¥ĩà¤¦à¤¨": 8127,
      "Ġpolicies": 8128,
      "Ġà¤¨à¤¿à¤°à¥įà¤µ": 8129,
      "ĠMuseum": 8130,
      "Ġintroduced": 8131,
      "Ġstream": 8132,
      "Ġà¤Ĩà¤§à¤¾à¤°à¤¿à¤¤": 8133,
      "Ġturned": 8134,
      "amily": 8135,
      "Ġnovel": 8136,
      "à¤¾à¤°à¤ĸà¥ĩ": 8137,
      "iveness": 8138,
      "Ġà¤Ĺà¥ģà¤²": 8139,
      "Ġà¤µà¤¿à¤°à¥ĭà¤§à¥Ģ": 8140,
      "DC": 8141,
      "umn": 8142,
      "ĠApril": 8143,
      "ĠRepublic": 8144,
      "Ġà¤ľà¥Ĥà¤¨": 8145,
      "à¤¾à¤¡à¥ĩ": 8146,
      "Ġà¤µà¤¹à¥Ģ": 8147,
      "Ġperformed": 8148,
      "à¤¬à¤¾à¤¬": 8149,
      "à¤¯à¤¾à¤°à¥Ģ": 8150,
      "onic": 8151,
      "Ġà¤¨à¤¿à¤Ń": 8152,
      "Ġgets": 8153,
      "Ġà¤ĸà¤¿à¤²à¤¾à¤¡à¤¼à¥Ģ": 8154,
      "à¤ħà¤¶": 8155,
      "à¤ķà¥įà¤ķà¤¾": 8156,
      "Ġviolence": 8157,
      "Both": 8158,
      "Ġà¤ľà¤Ĺà¤¤": 8159,
      "à¤ªà¤¹à¤²à¥ĩ": 8160,
      "Ġà¤¸à¤®à¥ĩà¤¤": 8161,
      "à¤ķà¥ĭà¤°": 8162,
      "à¥ģà¤·à¥įà¤ķ": 8163,
      "Ġkilled": 8164,
      "Students": 8165,
      "Ġà¤¦à¥ĩà¤¤à¥Ģ": 8166,
      "Ġà¤¸à¤¦à¤¸à¥įà¤¯à¥ĭà¤Ĥ": 8167,
      "Ġà¤µà¥įà¤¯à¤¾à¤ªà¤ķ": 8168,
      "à¤µà¤£à¥Ĥà¤ķ": 8169,
      "Ġhousehold": 8170,
      "Ġâ": 8171,
      "à¤¿à¤ĥ": 8172,
      "Ġà¤ªà¤¾à¤Ĭ": 8173,
      "Ġà¤¶à¤¾à¤ĸ": 8174,
      "ĠYour": 8175,
      "à¤Ĥà¤¦à¤¨": 8176,
      "à¤«à¤¾": 8177,
      "Ġmo": 8178,
      "Ġassessment": 8179,
      "Ġà¤ļà¤¾à¤²à¥Ĥ": 8180,
      "Ġlived": 8181,
      "ĠCor": 8182,
      "Ġà¤¤à¤¤à¥įà¤µ": 8183,
      "Ġapproximately": 8184,
      "Ġà¤¤à¥Ĥ": 8185,
      "à¤ļà¥Į": 8186,
      "Ġdiabetes": 8187,
      "Ġà¤īà¤®à¥ĩà¤¦à¤µà¤¾à¤°": 8188,
      "à¤ķà¥ĭà¤Ī": 8189,
      "Ġà¤¸à¤ªà¥įà¤¤": 8190,
      "ĠEm": 8191,
      "Ġmessage": 8192,
      "Ġgene": 8193,
      "ĠRo": 8194,
      "Ġesc": 8195,
      "Ġfreedom": 8196,
      "Ġocean": 8197,
      "à¥įà¤¯à¥Ĥà¤¨": 8198,
      "Ġbuildings": 8199,
      "Ġà¤īà¤ĺà¤¡": 8200,
      "edu": 8201,
      "rum": 8202,
      "Ġà¤®à¤¾à¤¤à¥įà¤°à¤¾": 8203,
      "Cal": 8204,
      "Ġindustrial": 8205,
      "anguages": 8206,
      "Ġexpression": 8207,
      "RO": 8208,
      "Ġà¤ħà¤§à¤¿à¤ķà¤¾à¤±": 8209,
      "Ġbecoming": 8210,
      "Ġà¤®à¤¾à¤Ĥà¤¡": 8211,
      "Ġà¤łà¤¾à¤£": 8212,
      "Ġwanted": 8213,
      "Ġà¤¬à¤¾à¤¤à¤®": 8214,
      "aning": 8215,
      "riage": 8216,
      "Ġconcentr": 8217,
      "Ġà¤µà¤ľà¤¨": 8218,
      "Ġintellig": 8219,
      "Ġtemperatures": 8220,
      "Ġà¤¦à¥Ĥà¤¸à¤°à¤¾": 8221,
      "Ġnumerous": 8222,
      "Ġà¤Ńà¥Ģà¤¤à¤°": 8223,
      "Ġcreation": 8224,
      "ortunately": 8225,
      "Ġdrive": 8226,
      "à¤«à¥Ģà¤¸à¤¦à¥Ģ": 8227,
      "Ġà¤¤à¥ģà¤°": 8228,
      "Ġà¤ļà¥įà¤¯à¤¾": 8229,
      "Ġremove": 8230,
      "Ġà¤¤à¤Ĥà¤¤à¥įà¤°": 8231,
      "Ġisland": 8232,
      "Ġà¤īà¤¦à¤¾à¤¹à¤°à¤£": 8233,
      "Ġelectricity": 8234,
      "à¤łà¥ĩ": 8235,
      "aped": 8236,
      "Ġà¤¤à¤¨": 8237,
      "Ġà¤¨à¥ĩà¤¹à¤®à¥Ģ": 8238,
      "osystem": 8239,
      "Ġexperiment": 8240,
      "à¤¬à¥Ī": 8241,
      "olved": 8242,
      "Ġà¤ķà¤°à¤£à¤¾à¤±à¥įà¤¯à¤¾": 8243,
      "à¤¶à¥įà¤ķà¤¿à¤²": 8244,
      "Ġmag": 8245,
      "à¤¦à¥ģ": 8246,
      "Ġsexual": 8247,
      "Ġà¤¸à¥ĩà¤µà¤¨": 8248,
      "à¤¾à¤¦à¤¿": 8249,
      "board": 8250,
      "à¤ªà¥ģà¤¢": 8251,
      "ĠUK": 8252,
      "Ġdangerous": 8253,
      "Ġreleased": 8254,
      "Ġà¤ªà¥Į": 8255,
      "Ġanyone": 8256,
      "à¤µà¥įà¤¹à¥Ģ": 8257,
      "Ġà¤ķà¤²à¤¾à¤ķà¤¾à¤°": 8258,
      "cut": 8259,
      "cipl": 8260,
      "Ġcharacteristics": 8261,
      "Ġà¤ĺà¥ĭà¤·à¤¿à¤¤": 8262,
      "à¤ħà¤¤": 8263,
      "ias": 8264,
      "à¤¾à¤°à¤¿à¤ķ": 8265,
      "Ġà¤ķà¤°à¤¾à¤µà¥ĩ": 8266,
      "Ġà¤°à¤¾à¤ĸ": 8267,
      "Ġà¤ĸà¥ģà¤¶": 8268,
      "Ġà¤Ĩà¤¦à¥Ģ": 8269,
      "itz": 8270,
      "Ġà¤Ľà¤¹": 8271,
      "à¤¡à¤£à¤µà¥Ģà¤¸": 8272,
      "Ġcovered": 8273,
      "Ġhear": 8274,
      "Ġsetting": 8275,
      "Ġinitial": 8276,
      "high": 8277,
      "Ġà¤ķà¤°à¤£à¥įà¤¯à¤¾à¤ļà¥ĩ": 8278,
      "Ġtransl": 8279,
      "Ġliterature": 8280,
      "level": 8281,
      "Ġkid": 8282,
      "iverse": 8283,
      "van": 8284,
      "Ġà¤¶à¥ģà¤¦à¥įà¤§": 8285,
      "Ġship": 8286,
      "à¤ļà¤¿à¤¤à¥įà¤°": 8287,
      "à¤¾à¤µà¤£à¥Ģ": 8288,
      "Ġà¤¸à¥Ī": 8289,
      "Ġfig": 8290,
      "Ġà¤®à¤¾à¤¨à¤¸à¤¿à¤ķ": 8291,
      "inate": 8292,
      "Ġready": 8293,
      "Ġhappens": 8294,
      "Ġà¤¨à¤Ĥà¤¤à¤°": 8295,
      "Ġà¤¸à¥Īà¤¨à¤¿à¤ķ": 8296,
      "Ġà¤ħà¤ļà¥įà¤Ľà¥ĩ": 8297,
      "Ġà¤¯à¤¾à¤ļà¥Ģ": 8298,
      "Ġà¤īà¤¨à¤¸à¥ĩ": 8299,
      "Ġprinciples": 8300,
      "à¤®à¥Į": 8301,
      "ĠJournal": 8302,
      "Ġà¤ķà¥Īà¤²": 8303,
      "Ġà¤¸à¥ĩà¤Ĥà¤Łà¤°": 8304,
      "Ġà¤°à¤µà¤¿à¤µà¤¾à¤°": 8305,
      "Ġà¤²à¥ĩà¤¨à¤¾": 8306,
      "Ġà¤¸à¤Ĥà¤ķà¥ĩà¤¤": 8307,
      "Ġà¤¤à¥ģà¤²à¤¨à¤¾": 8308,
      "Ġà¤ľà¤¾à¤Ĭà¤¨": 8309,
      "Ġinternal": 8310,
      "à¤²à¤Ĥà¤¬": 8311,
      "Ġà¤¤à¤¾à¤¸": 8312,
      "ieties": 8313,
      "Ġà¤ķà¤°à¥ĭà¤¡à¤¼": 8314,
      "à¥ĥà¤·à¥įà¤ł": 8315,
      "à¤ķà¤Ńà¥Ģ": 8316,
      "à¥įà¤®à¥Ģ": 8317,
      "Ġà¤¬à¤¾à¤¯": 8318,
      "à¤Ĥà¤¦à¤¾": 8319,
      "Ġminor": 8320,
      "Ġà¤ķà¥ĭà¤¹à¤²à¥Ģ": 8321,
      "Ġrelationships": 8322,
      "Ġà¤¸à¤Ĥà¤Ńà¤µ": 8323,
      "Ġbuy": 8324,
      "Ġà¤Ĩà¤¹à¥ĭà¤¤": 8325,
      "Rec": 8326,
      "erate": 8327,
      "à¤°à¥įà¤ľà¤¨": 8328,
      "ifying": 8329,
      "Ġcircum": 8330,
      "gu": 8331,
      "atically": 8332,
      "à¥įà¤®à¤¾à¤¨": 8333,
      "à¤ķà¤¤": 8334,
      "roph": 8335,
      "Ġà¤ķà¤²à¥įà¤ªà¤¨à¤¾": 8336,
      "Ġà¤¬à¥įà¤°à¤¿à¤Ł": 8337,
      "Ġà¤¸à¤Ĥà¤§à¥Ģ": 8338,
      "Ġà¤¸à¤¾à¤®à¤Ĺà¥įà¤°à¥Ģ": 8339,
      "Ne": 8340,
      "ĠHigh": 8341,
      "Ġà¤Łà¥Ģà¤ķà¤¾": 8342,
      "indu": 8343,
      "Ġà¤¶à¥ģà¤ķà¥įà¤°à¤µà¤¾à¤°": 8344,
      "ĠEth": 8345,
      "à°": 8346,
      "nic": 8347,
      "à¤Ńà¥Ĥà¤®à¥Ģ": 8348,
      "Ġà¤ħà¤ªà¥ĩà¤ķà¥įà¤·à¤¾": 8349,
      "Ġcampaign": 8350,
      "Ġwin": 8351,
      "alle": 8352,
      "ĠDevelopment": 8353,
      "ample": 8354,
      "Ġà¤Ńà¤¿à¤¨à¥įà¤¨": 8355,
      "Ġà¤¬à¤²à¥įà¤ķà¤¿": 8356,
      "Ġtour": 8357,
      "km": 8358,
      "Ġà¤¶à¤µ": 8359,
      "Using": 8360,
      "Ġinterpret": 8361,
      "Ġvitamin": 8362,
      "Ġà¤ľà¥įà¤¯": 8363,
      "à¤¸à¤Ĥà¤ļ": 8364,
      "ĠMc": 8365,
      "ĠIsland": 8366,
      "Ġi": 8367,
      "rand": 8368,
      "à¤¾à¤²à¤¤": 8369,
      "Ġbeautiful": 8370,
      "ĠFound": 8371,
      "Ġà¤ħà¤¸à¥įà¤¤": 8372,
      "ails": 8373,
[...]
