{
  "version": "1.0",
  "truncation": null,
  "padding": null,
  "added_tokens": [
    {
      "id": 0,
      "content": "<pad>",
      "single_word": false,
      "lstrip": false,
      "rstrip": false,
      "normalized": false,
      "special": true
    },
    {
      "id": 1,
      "content": "<eos>",
      "single_word": false,
      "lstrip": false,
      "rstrip": false,
      "normalized": false,
      "special": true
    },
    {
      "id": 2,
      "content": "<bos>",
      "single_word": false,
      "lstrip": false,
      "rstrip": false,
      "normalized": false,
      "special": true
    },
    {
      "id": 3,
      "content": "<unk>",
      "single_word": false,
      "lstrip": false,
      "rstrip": false,
      "normalized": false,
      "special": true
    }
  ],
  "normalizer": {
    "type": "NFC"
  },
  "pre_tokenizer": {
    "type": "Sequence",
    "pretokenizers": [
      {
        "type": "Split",
        "pattern": {
          "Regex": " ?[^\\s\\d]+| ?\\d+|\\s+"
        },
        "behavior": "Isolated",
        "invert": false
      },
      {
        "type": "ByteLevel",
        "add_prefix_space": false,
        "trim_offsets": true,
        "use_regex": false
      }
    ]
  },
  "post_processor": null,
  "decoder": {
    "type": "ByteLevel",
    "add_prefix_space": true,
    "trim_offsets": true,
    "use_regex": true
  },
  "model": {
    "type": "BPE",
    "dropout": null,
    "unk_token": "<unk>",
    "continuing_subword_prefix": null,
    "end_of_word_suffix": null,
    "fuse_unk": false,
    "byte_fallback": false,
    "ignore_merges": false,
    "vocab": {
      "<pad>": 0,
      "<eos>": 1,
      "<bos>": 2,
      "<unk>": 3,
      "!": 4,
      "\"": 5,
      "#": 6,
      "$": 7,
      "%": 8,
      "&": 9,
      "'": 10,
      "(": 11,
      ")": 12,
      "*": 13,
      "+": 14,
      ",": 15,
      "-": 16,
      ".": 17,
      "/": 18,
      "0": 19,
      "1": 20,
      "2": 21,
      "3": 22,
      "4": 23,
      "5": 24,
      "6": 25,
      "7": 26,
      "8": 27,
      "9": 28,
      ":": 29,
      ";": 30,
      "<": 31,
      "=": 32,
      ">": 33,
      "?": 34,
      "@": 35,
      "A": 36,
      "B": 37,
      "C": 38,
      "D": 39,
      "E": 40,
      "F": 41,
      "G": 42,
      "H": 43,
      "I": 44,
      "J": 45,
      "K": 46,
      "L": 47,
      "M": 48,
      "N": 49,
      "O": 50,
      "P": 51,
      "Q": 52,
      "R": 53,
      "S": 54,
      "T": 55,
      "U": 56,
      "V": 57,
      "W": 58,
      "X": 59,
      "Y": 60,
      "Z": 61,
      "[": 62,
      "\\": 63,
      "]": 64,
      "^": 65,
      "_": 66,
      "`": 67,
      "a": 68,
      "b": 69,
      "c": 70,
      "d": 71,
      "e": 72,
      "f": 73,
      "g": 74,
      "h": 75,
      "i": 76,
      "j": 77,
      "k": 78,
      "l": 79,
      "m": 80,
      "n": 81,
      "o": 82,
      "p": 83,
      "q": 84,
      "r": 85,
      "s": 86,
      "t": 87,
      "u": 88,
      "v": 89,
      "w": 90,
      "x": 91,
      "y": 92,
      "z": 93,
      "{": 94,
      "|": 95,
      "}": 96,
      "~": 97,
      "¡": 98,
      "¢": 99,
      "£": 100,
      "¤": 101,
      "¥": 102,
      "¦": 103,
      "§": 104,
      "¨": 105,
      "©": 106,
      "ª": 107,
      "«": 108,
      "¬": 109,
      "®": 110,
      "¯": 111,
      "°": 112,
      "±": 113,
      "²": 114,
      "³": 115,
      "´": 116,
      "µ": 117,
      "¶": 118,
      "·": 119,
      "¸": 120,
      "¹": 121,
      "º": 122,
      "»": 123,
      "¼": 124,
      "½": 125,
      "¾": 126,
      "¿": 127,
      "À": 128,
      "Á": 129,
      "Â": 130,
      "Ã": 131,
      "Ä": 132,
      "Å": 133,
      "Æ": 134,
      "Ç": 135,
      "È": 136,
      "É": 137,
      "Ê": 138,
      "Ë": 139,
      "Ì": 140,
      "Í": 141,
      "Î": 142,
      "Ï": 143,
      "Ð": 144,
      "Ñ": 145,
      "Ò": 146,
      "Ó": 147,
      "Ô": 148,
      "Õ": 149,
      "Ö": 150,
      "×": 151,
      "Ø": 152,
      "Ù": 153,
      "Ú": 154,
      "Û": 155,
      "Ü": 156,
      "Ý": 157,
      "Þ": 158,
      "ß": 159,
      "à": 160,
      "á": 161,
      "â": 162,
      "ã": 163,
      "ä": 164,
      "å": 165,
      "æ": 166,
      "ç": 167,
      "è": 168,
      "é": 169,
      "ê": 170,
      "ë": 171,
      "ì": 172,
      "í": 173,
      "î": 174,
      "ï": 175,
      "ð": 176,
      "ñ": 177,
      "ò": 178,
      "ó": 179,
      "ô": 180,
      "õ": 181,
      "ö": 182,
      "÷": 183,
      "ø": 184,
      "ù": 185,
      "ú": 186,
      "û": 187,
      "ü": 188,
      "ý": 189,
      "þ": 190,
      "ÿ": 191,
      "Ā": 192,
      "ā": 193,
      "Ă": 194,
      "ă": 195,
      "Ą": 196,
      "ą": 197,
      "Ć": 198,
      "ć": 199,
      "Ĉ": 200,
      "ĉ": 201,
      "Ċ": 202,
      "ċ": 203,
      "Č": 204,
      "č": 205,
      "Ď": 206,
      "ď": 207,
      "Đ": 208,
      "đ": 209,
      "Ē": 210,
      "ē": 211,
      "Ĕ": 212,
      "ĕ": 213,
      "Ė": 214,
      "ė": 215,
      "Ę": 216,
      "ę": 217,
      "Ě": 218,
      "ě": 219,
      "Ĝ": 220,
      "ĝ": 221,
      "Ğ": 222,
      "ğ": 223,
      "Ġ": 224,
      "ġ": 225,
      "Ģ": 226,
      "ģ": 227,
      "Ĥ": 228,
      "ĥ": 229,
      "Ħ": 230,
      "ħ": 231,
      "Ĩ": 232,
      "ĩ": 233,
      "Ī": 234,
      "ī": 235,
      "Ĭ": 236,
      "ĭ": 237,
      "Į": 238,
      "į": 239,
      "İ": 240,
      "ı": 241,
      "Ĳ": 242,
      "ĳ": 243,
      "Ĵ": 244,
      "ĵ": 245,
      "Ķ": 246,
      "ķ": 247,
      "ĸ": 248,
      "Ĺ": 249,
      "ĺ": 250,
      "Ļ": 251,
      "ļ": 252,
      "Ľ": 253,
      "ľ": 254,
      "Ŀ": 255,
      "ŀ": 256,
      "Ł": 257,
      "ł": 258,
      "Ń": 259,
      "à¤": 260,
      "à¥": 261,
      "Ġà¤": 262,
      "à¤¾": 263,
      "à¤¾à¤": 264,
      "à¥ĩ": 265,
      "à¥į": 266,
      "à¥įà¤": 267,
      "à¥Ģ": 268,
      "Ġt": 269,
      "à¤¿": 270,
      "à¤°": 271,
      "Ġà¤ķ": 272,
      "Ġa": 273,
      "à¤¿à¤": 274,
      "he": 275,
      "in": 276,
      "à¤Ĥ": 277,
      "à¥ĭ": 278,
      "à¤¨": 279,
      "re": 280,
      "à¤¤": 281,
      "à¤ķ": 282,
      "Ġthe": 283,
      "on": 284,
      "Ġà¤¸": 285,
      "er": 286,
      "à¤²": 287,
      "à¥įà¤¯": 288,
      "at": 289,
      "Ġo": 290,
      "Ġs": 291,
      "Ġà¤¹": 292,
      "Ġà¤®": 293,
      "à¤¸": 294,
      "Ġà¤ª": 295,
      "en": 296,
      "à¥ģ": 297,
      "Ġc": 298,
      "à¤¹": 299,
      "es": 300,
      "Ġw": 301,
      "is": 302,
      "nd": 303,
      "it": 304,
      "or": 305,
      "à¥įà¤°": 306,
      "Ġp": 307,
      "à¤¾à¤°": 308,
      "al": 309,
      "à¤®": 310,
      "an": 311,
      "Ġb": 312,
      "ed": 313,
      "Ġof": 314,
      "Ġf": 315,
      "ing": 316,
      "à¥Ī": 317,
      "Ġin": 318,
      "ar": 319,
      "ou": 320,
      "à¤µ": 321,
      "Ġà¤Ĩ": 322,
      "Ġm": 323,
      "Ġand": 324,
      "Ġà¤µ": 325,
      "Ġà¤ħ": 326,
      "Ġto": 327,
      "ic": 328,
      "Ġà¤¨": 329,
      "à¤ª": 330,
      "à¥Ĥ": 331,
      "ion": 332,
      "Ġd": 333,
      "Ġà¤ľ": 334,
      "Ġà¤ķà¥ĩ": 335,
      "à¥ĩà¤": 336,
      "à¥ĩà¤Ĥ": 337,
      "Ġà¤¤": 338,
      "Ġà¤¬": 339,
      "Ġà¤¦": 340,
      "à¥¤": 341,
      "à¤¦": 342,
      "à¤Ĺ": 343,
      "le": 344,
      "ro": 345,
      "Ġà¤¹à¥Ī": 346,
      "à¤ļ": 347,
      "à¤£": 348,
      "as": 349,
      "à¥įà¤¯à¤¾à¤": 350,
      "Ġh": 351,
      "à¤°à¥įà¤": 352,
      "Ġà¤°": 353,
      "ent": 354,
      "Ġth": 355,
      "à¤¾à¤¨": 356,
      "Ġà¤²": 357,
      "à¤¯": 358,
      "ct": 359,
      "Ġà¤¯": 360,
      "Ġe": 361,
      "à¤¡": 362,
      "il": 363,
      "à¤¾à¤Ĥ": 364,
      "Ġre": 365,
      "ĠT": 366,
      "om": 367,
      "ve": 368,
      "à¤¾à¤¤": 369,
      "Ġl": 370,
      "Ġà¤®à¥ĩà¤Ĥ": 371,
      "st": 372,
      "Ġn": 373,
      "à¤ľ": 374,
      "à¤¾à¤²": 375,
      "à¥ĭà¤Ĥ": 376,
      "Ġà¤ķà¤°": 377,
      "Ġà¤Ĺ": 378,
      "à¤¿à¤ķ": 379,
      "à¥įà¤¯à¤¾": 380,
      "ly": 381,
      "à¤¿à¤¯": 382,
      "Ġà¤ī": 383,
      "Ġbe": 384,
      "âĢ": 385,
      "à¤¬": 386,
      "Ġis": 387,
      "à¤¨à¥ĩ": 388,
      "Ġà¤ķà¥Ģ": 389,
      "à¤Ł": 390,
      "Ġà¤Ń": 391,
      "à¥įà¤¤": 392,
      "Ġà¤ªà¥įà¤°": 393,
      "ĠA": 394,
      "ol": 395,
      "se": 396,
      "Ġà¤ķà¥ĭ": 397,
      "Ġg": 398,
      "Ġà¤¶": 399,
      "à¤§": 400,
      "ation": 401,
      "im": 402,
      "id": 403,
      "ĠS": 404,
      "et": 405,
      "ut": 406,
      "Ġà¤ĩ": 407,
      "à¤¿à¤¤": 408,
      "ur": 409,
      "ce": 410,
      "ot": 411,
      "ĠI": 412,
      "à¥ģà¤": 413,
      "ra": 414,
      "ch": 415,
      "ow": 416,
      "Ġà¤¹à¥ĭ": 417,
      "Ġ(": 418,
      "Ġfor": 419,
      "ĠC": 420,
      "ig": 421,
      "Ġà¤¸à¥ĩ": 422,
      "Ġà¤ı": 423,
      "Ġu": 424,
      "Ġon": 425,
      "Ġthat": 426,
      "Ġà¤ļ": 427,
      "à¤¿à¤²": 428,
      "Ġà¤Ķ": 429,
      "Ġst": 430,
      "à¤¾à¤µ": 431,
      "ver": 432,
      "Ġà¤ªà¤°": 433,
      "à¤¾à¤¹": 434,
      "Ġà¤Ķà¤°": 435,
      "à¤¾à¤®": 436,
      "ĠThe": 437,
      "ir": 438,
      "Ġy": 439,
      "Ġ1": 440,
      "à¤¶": 441,
      "à¥įà¤Ł": 442,
      "à¤¾à¤¸": 443,
      "ul": 444,
      "à¤¹à¥ĩ": 445,
      "ay": 446,
      "am": 447,
      "à¤¾à¤¯": 448,
      "à¤¤à¤¾": 449,
      "à¤¼": 450,
      "s,": 451,
      "à¥įà¤µ": 452,
      "el": 453,
      "Ġas": 454,
      "ith": 455,
      "à¤¨à¤¾": 456,
      "ad": 457,
      "à¤²à¥ĩ": 458,
      "ĠM": 459,
      "her": 460,
      "s.": 461,
      "Ġpro": 462,
      "Ġare": 463,
      "Ġcon": 464,
      "Ġà¤ķà¤¾": 465,
      "Ġan": 466,
      "à¤¿à¤¸": 467,
      "Ġwith": 468,
      "à¥įà¤¹": 469,
      "à¤¹à¥Ģ": 470,
      "ĠP": 471,
      "if": 472,
      "Ġwh": 473,
      "Ġyou": 474,
      "Ġà¤¹à¥Īà¥¤": 475,
      "Ġà¤Ĩà¤¹à¥ĩ": 476,
      "Ġor": 477,
      "Ġit": 478,
      "Ġal": 479,
      "à¥įà¤·": 480,
      "à¤¾à¤ľ": 481,
      "ter": 482,
      "od": 483,
      "ĠĠ": 484,
      "Ġ2": 485,
      "Ġà¤ıà¤ķ": 486,
      "ĠB": 487,
      "à¤Ń": 488,
      "Ġà¤µà¤¿à¤": 489,
      "à¤¿à¤¯à¤¾": 490,
      "Ġà¤¨à¥ĩ": 491,
      "ment": 492,
      "Ġ-": 493,
      "à¤¤à¥ĩ": 494,
      "à¥Ĥà¤¨": 495,
      "à¤¤à¥Ģ": 496,
      "ge": 497,
      "à¤¾à¤ļ": 498,
      "Ġà¤ĩà¤¸": 499,
      "th": 500,
      "Ġà¤ĸ": 501,
      "Ġà¤¹à¥Īà¤Ĥ": 502,
      "à¤¿à¤¨": 503,
      "Ġà¤«": 504,
      "op": 505,
      "ĠW": 506,
      "ate": 507,
      "ist": 508,
      "à¤¨à¥Ģ": 509,
      "ĠH": 510,
      "Ġde": 511,
      "à¤°à¥Ģ": 512,
      "à¤²à¤¾": 513,
      "Ġà¤¸à¤Ĥ": 514,
      "ies": 515,
      "ill": 516,
      "Ġà¤¥": 517,
      "ab": 518,
      "Ġhe": 519,
      "Ġex": 520,
      "à¤¾à¤¦": 521,
      "Ġsu": 522,
      "à¥ĩà¤¶": 523,
      "Ġà¤ħà¤¸": 524,
      "Ġwe": 525,
      "à¤²à¥Ģ": 526,
      "ore": 527,
      "Ġcom": 528,
      "ect": 529,
      "âĢĻ": 530,
      "ĠD": 531,
      "ity": 532,
      "est": 533,
      "à¤Ĥà¤¤": 534,
      "ive": 535,
      "ac": 536,
      "à¤¿à¤ı": 537,
      "Ġha": 538,
      "um": 539,
      "ess": 540,
      "us": 541,
      "ld": 542,
      "rom": 543,
      "ĠE": 544,
      "Ġv": 545,
      "ĠF": 546,
      "ĠR": 547,
      "à¤Ī": 548,
      "à¤¾à¤Ĺ": 549,
      "ke": 550,
      "à¥įà¤¥": 551,
      "ure": 552,
      "os": 553,
      "Ġby": 554,
      "ant": 555,
      "iv": 556,
      "em": 557,
      "ers": 558,
      "ain": 559,
      "qu": 560,
      "à¥ī": 561,
      "Ġà¤ķà¤¿": 562,
      "à¤ķà¥įà¤·": 563,
      "Ġà¤ĺ": 564,
      "Ġat": 565,
      "nt": 566,
      "pp": 567,
      "à¥ģà¤°": 568,
      "Ġà¤¸à¤®": 569,
      "à¤ķà¥ĩ": 570,
      "igh": 571,
      "à¤¿à¤µ": 572,
      "à¥Į": 573,
      "ĠâĢ": 574,
      "à¤¿à¤Ĥ": 575,
      "Ġwas": 576,
      "ĠN": 577,
      "ud": 578,
      "Ġcan": 579,
      "Ġà¤¤à¥įà¤¯à¤¾à¤": 580,
      "Ġfrom": 581,
      "Ġà¤Ĩà¤¹à¥ĩ.": 582,
      "oc": 583,
      "Ġà¤Ńà¥Ģ": 584,
      "Ġch": 585,
      "à¤¡à¤¼": 586,
      "and": 587,
      "Ġne": 588,
      "Ġr": 589,
      "ort": 590,
      "ĠG": 591,
      "Ġà¥": 592,
      "Ġà¤Ł": 593,
      "à¥ĥ": 594,
      "à¤¾à¤°à¥Ģ": 595,
      "ĠL": 596,
      "à¤¸à¥ĩ": 597,
      "Ġse": 598,
      "res": 599,
      "ial": 600,
      "à¤ĸ": 601,
      "00": 602,
      "à¥įà¤°à¥Ģ": 603,
      "à¥įà¤®": 604,
      "un": 605,
      "Ġà¥¤": 606,
      "Ġnot": 607,
      "à¤ı": 608,
      "art": 609,
      "ical": 610,
      "Ġle": 611,
      "à¤¾à¤ª": 612,
      "à¤¿à¤°": 613,
      "à¤ļà¥įà¤¯à¤¾": 614,
      "Ġhave": 615,
      "à¥ĭà¤Ĺ": 616,
      "ri": 617,
      "à¤¾à¤ķ": 618,
      "Ġà¤¡": 619,
      "à¤ķà¤°": 620,
      "og": 621,
      "à¤¹à¥Ģà¤Ĥ": 622,
      "à¥įà¤ķ": 623,
      "à¥įà¤¸": 624,
      "Ġà¤ħà¤ª": 625,
      "à¥ĩà¤¤": 626,
      "à¥įà¤²": 627,
      "Ġsh": 628,
      "Ġà¤īà¤¨": 629,
      "Ġen": 630,
      "Ġà¤¹à¥Ģ": 631,
      "Ġsp": 632,
      "ĠO": 633,
      "à¤¾à¤£": 634,
      "Ġthis": 635,
      "Ġà¤²à¤¿à¤ı": 636,
      "à¤³": 637,
      "ĠIn": 638,
      "à¥Ģà¤²": 639,
      "Ġà¤Ĩà¤£": 640,
      "ight": 641,
      "Ġà¤¯à¤¾": 642,
      "Ġab": 643,
      "à¤«": 644,
      "pt": 645,
      "rou": 646,
      "à¤Ĥà¤¦": 647,
      "Ġà¤ķà¤¾à¤°": 648,
      "ich": 649,
      "à¤¾à¤¨à¥ĩ": 650,
      "red": 651,
      "Ġà¤¸à¤¾à¤": 652,
      "à¥įà¤ª": 653,
      "Ġwor": 654,
      "all": 655,
      "Ġ\"": 656,
      "à¥ģà¤ķ": 657,
      "gh": 658,
      "ther": 659,
      "ould": 660,
      "ost": 661,
      "our": 662,
      "ome": 663,
      "Ġà¤®à¤¹": 664,
      "âĢĻs": 665,
      "à¤¾à¤¹à¥Ģ": 666,
      "Ġà¤Ĩà¤ª": 667,
      "Ġim": 668,
      "du": 669,
      "ated": 670,
      "à¥ģà¤²": 671,
      "à¤ķà¤¾à¤°": 672,
      "à¥ĩà¤²": 673,
      "à¥įà¤¯à¤¾à¤ļ": 674,
      "Ġà¤¨à¤¹à¥Ģà¤Ĥ": 675,
      "ine": 676,
      "Ġà¤Ĩà¤£à¤¿": 677,
      "per": 678,
      "ag": 679,
      "Ġà¤ħà¤¨": 680,
      "à¤·": 681,
      "ard": 682,
      "à¤¯à¤¾": 683,
      "out": 684,
      "à¤¹à¤¾": 685,
      "à¤¾à¤Ī": 686,
      "Ġpl": 687,
      "Ġtheir": 688,
      "ĠJ": 689,
      "ide": 690,
      "Ġus": 691,
      "ell": 692,
      "ĠU": 693,
      "ff": 694,
      "Ġà¤¯à¤¹": 695,
      "act": 696,
      "Ġà¤¹à¥Īà¤Ĥà¥¤": 697,
      "Ġà¤¤à¥ĭ": 698,
      "à¥ĩà¤Ł": 699,
      "Ġint": 700,
      "ak": 701,
      "à¥įà¤¯à¤¾à¤¤": 702,
      "ĠTh": 703,
      "ast": 704,
      "pl": 705,
      "à¤¥": 706,
      "ear": 707,
      "à¤¾à¤ł": 708,
      "Ġà¤§": 709,
      "à¤ł": 710,
      "age": 711,
      "Ġà¤Ŀ": 712,
      "ust": 713,
      "à¤°à¥įà¤µ": 714,
      "à¤ķà¥Ģ": 715,
      "à¤¾à¤¬": 716,
      "Ġk": 717,
      "Ġà¤ķà¤¿à¤¯à¤¾": 718,
      "Ġwhich": 719,
      "à¤Ĥà¤Ĺ": 720,
      "ec": 721,
      "Ġwhe": 722,
      "Ġyour": 723,
      "à¥įà¤¨": 724,
      "Ġthey": 725,
      "Ġà¤ħà¤§": 726,
      "à¤¾à¤Ĥà¤ļ": 727,
      "à¥įà¤§": 728,
      "iz": 729,
      "Ġall": 730,
      "Ġà¤¹à¥ģà¤": 731,
      "à¥įà¤¦": 732,
      "ood": 733,
      "ia": 734,
      "ew": 735,
      "ult": 736,
      "ib": 737,
      "Ġad": 738,
      "Ġcont": 739,
      "Ġwill": 740,
      "end": 741,
      "ous": 742,
      "Ġinc": 743,
      "ru": 744,
      "cc": 745,
      "Ġà¤°à¤¾à¤ľ": 746,
      "ans": 747,
      "à¥ģà¤¨": 748,
      "Ġdis": 749,
      "Ġ20": 750,
      "Ġmore": 751,
      "ip": 752,
      "ong": 753,
      "ap": 754,
      "âĢĿ": 755,
      "à¤°à¥įà¤®": 756,
      "Ġ'": 757,
      "à¤Ĥà¤¡": 758,
      "Ġcomp": 759,
      "ĠâĢľ": 760,
      "ions": 761,
      "Ġres": 762,
      "à¤¾à¤ĩ": 763,
      "vel": 764,
      "Ġhas": 765,
      "Ġà¤ªà¤¹": 766,
      "es,": 767,
      "e.": 768,
      "ere": 769,
      "so": 770,
      "à¥ĩà¤ķ": 771,
      "Ġdo": 772,
      "à¤¤à¥įà¤¤": 773,
      "orm": 774,
      "Ġà¤ľà¤¾à¤¤": 775,
      "e,": 776,
      "ater": 777,
      "ary": 778,
      "Ġ19": 779,
      "à¥Ģà¤¨": 780,
      "à¤ķà¤¾": 781,
      "Ġà¤¥à¤¾": 782,
      "Ġ3": 783,
      "Ġà¤īà¤¸": 784,
      "are": 785,
      "à¤¾à¤łà¥Ģ": 786,
      "ence": 787,
      "à¥ĩà¤µ": 788,
      "ild": 789,
      "able": 790,
      "es.": 791,
      "Ġman": 792,
      "Ġother": 793,
      "à¥Ĥà¤°": 794,
      "Ġà¤¸à¥įà¤µ": 795,
      "ual": 796,
      "à¤¾à¤²à¤¾": 797,
      "Ġcl": 798,
      "Ġà¤ľà¥ĭ": 799,
      "ind": 800,
      "Ġbut": 801,
      "Ġà¤Ĺà¤¯à¤¾": 802,
      "Ġà¤ķà¤°à¤¨à¥ĩ": 803,
      "ry": 804,
      "à¤¿à¤¶": 805,
      "Ġwere": 806,
      "à¤§à¥įà¤¯": 807,
      "à¥ģà¤®": 808,
      "Ġà¤īà¤ª": 809,
      "Ġà¤¤à¤°": 810,
      "à¥ĩà¤ļ": 811,
      "Ġà¤¦à¥ĭ": 812,
      "ok": 813,
      "à¤¸à¥įà¤¤": 814,
      "ep": 815,
      "ach": 816,
      "à¥ĩà¤ĸ": 817,
      "ance": 818,
      "Ġà¤¸à¤¾à¤¥": 819,
      "Ġper": 820,
      "Ġte": 821,
      "à¤ķà¥įà¤¤": 822,
      "Ġalso": 823,
      "ition": 824,
      "Ġimp": 825,
      "Ġà¤ķà¤°à¤£": 826,
      "à¥ĭà¤²": 827,
      "à¤¿à¤®": 828,
      "à¥ĩà¤¸": 829,
      "ction": 830,
      "'s": 831,
      "ose": 832,
      "ĠSt": 833,
      "reat": 834,
      "Ġme": 835,
      "av": 836,
      "ign": 837,
      "à¤¢": 838,
      "ake": 839,
      "ack": 840,
      "ĠK": 841,
      "Ġone": 842,
      "à¥ĭà¤ľ": 843,
      "à¤¿à¤¯à¥ĭà¤Ĥ": 844,
      "au": 845,
      "ber": 846,
      "Ġj": 847,
      "Ġà¤¸à¤ķ": 848,
      "Ġso": 849,
      "à¥įà¤¯à¤¾à¤Ĥ": 850,
      "Ġà¤²à¤Ĺ": 851,
      "Ġà¤¹à¥Ī,": 852,
      "à¥Ĥà¤ª": 853,
      "ĠIt": 854,
      "à¤¾à¤Ĥà¤¨à¥Ģ": 855,
      "à¥įà¤ļ": 856,
      "à¤¸à¥Ģ": 857,
      "Ġout": 858,
      "Ġun": 859,
      "Ġar": 860,
      "Ġapp": 861,
      "ass": 862,
      "à¥Ģà¤ļ": 863,
      "very": 864,
      "ations": 865,
      "Ġpart": 866,
      "à¤¾à¤ı": 867,
      "Ġtim": 868,
      "à¤¾à¤²à¥ĩ": 869,
      "à¥¦": 870,
      "Ġà¤µà¤°à¥įà¤": 871,
      "Ġabout": 872,
      "à¥įà¤¯à¤¾à¤¸": 873,
      "ord": 874,
      "ace": 875,
      "à¥ĭà¤ķ": 876,
      "à¥Ģà¤¤": 877,
      "ish": 878,
      ").": 879,
      "à¤¾à¤§": 880,
      "ire": 881,
      "à¤§à¥įà¤¯à¥ĩ": 882,
      "à¤¾à¤Ł": 883,
      "Ġà¤ł": 884,
      "Ġev": 885,
      "Ġstud": 886,
      "ĠThis": 887,
      "Ġà¤ªà¥įà¤°à¤¤": 888,
      "Ġwho": 889,
      "y,": 890,
      "à¥ĩà¤°": 891,
      "ress": 892,
      "à¥ģà¤¦": 893,
      "ount": 894,
      "à¥ģà¤ĸ": 895,
      "Ġà¤¸à¤°": 896,
      "à¤¾à¤¯à¤¾": 897,
      "à¤¸à¥įà¤¥": 898,
      "Ġà¤ħà¤§à¤¿à¤ķ": 899,
      "ub": 900,
      "Ġhis": 901,
      "Ġpe": 902,
      "à¤¾à¤²à¥Ģ": 903,
      "à¤²à¥įà¤¯à¤¾": 904,
      "Ġà¤¦à¤¿à¤²": 905,
      "Ġà¤¤à¥įà¤¯à¤¾à¤Ĥ": 906,
      "Ġinf": 907,
      "à¤¾à¤Ĥà¤Ĺ": 908,
      "ric": 909,
      "à¥įà¤¯à¤¾à¤¨": 910,
      "Ġà¤Ľ": 911,
      "à¤µà¤°": 912,
      "à¤¿à¤Ł": 913,
      "à¤¾à¤¨à¤¾": 914,
      "à¤¾à¤·": 915,
      "ĠCh": 916,
      "ents": 917,
      "Ġsy": 918,
      "Ġthem": 919,
      "Ġcomm": 920,
      "Ġà¤®à¥ĭ": 921,
      "à¤¾à¤¶": 922,
      "Ġsc": 923,
      "ang": 924,
      "à¤®à¥ĩà¤Ĥ": 925,
      "Ġwork": 926,
      "ens": 927,
      "à¤Ĥà¤¬": 928,
      "low": 929,
      "ike": 930,
      "Ġup": 931,
      "Ġà¤Ńà¤¾à¤°": 932,
      "à¥ģà¤ª": 933,
      "ound": 934,
      "olog": 935,
      "now": 936,
      "à¤¿à¤Ĥà¤Ĺ": 937,
      "à¤¾à¤³": 938,
      "à¤ĺ": 939,
      "Ġà¤ªà¥Ĥ": 940,
      "à¤¾à¤°à¤¾": 941,
      "ian": 942,
      "Ġà¤µà¤¹": 943,
      "Ġbec": 944,
      "ĠV": 945,
      "ame": 946,
      "Ġà¤®à¥įà¤¹": 947,
      "ory": 948,
      "à¤¤à¥įà¤°": 949,
      "one": 950,
      "Ġpre": 951,
      "Ġà¤īà¤¨à¥įà¤¹": 952,
      "Ġà¤¨à¤¾à¤¹à¥Ģ": 953,
      "Ġà¤¸à¥įà¤¥": 954,
      "ase": 955,
      "ile": 956,
      "Ġ5": 957,
      "Ġthan": 958,
      "rit": 959,
      "à¥ģà¤¸": 960,
      "ook": 961,
      "à¤Ĥà¤ļ": 962,
      "Ġmay": 963,
      "Ġà¤¨à¤¿": 964,
      "Ġ4": 965,
      "à¤°à¥ĭ": 966,
      "à¤¾à¤¡": 967,
      "Ġà¤µà¥įà¤¯": 968,
      "Ġqu": 969,
      "ree": 970,
      "Ġà¤¬à¤¨": 971,
      "iff": 972,
      "Ġsome": 973,
      "ople": 974,
      "ĠY": 975,
      "Ġà¤ķà¤¹à¤¾": 976,
      "Ġrec": 977,
      "à¤¿à¤·": 978,
      "ie": 979,
      "Ġyear": 980,
      "ail": 981,
      "à¤Ńà¥Ģ": 982,
      "Ġthere": 983,
      "nder": 984,
      "Ġà¤¸à¥ĭ": 985,
      "Ġà¤¦à¥ĩ": 986,
      "Ġwhen": 987,
      "Ġbeen": 988,
      "mer": 989,
      "Ġà¤¬à¤¾à¤¦": 990,
      "à¥įà¤°à¤®": 991,
      "à¥ģà¤³": 992,
      "ue": 993,
      "à¥ĩà¤Ĺ": 994,
      "à¤ĥ": 995,
      "Ġgo": 996,
      "Ġag": 997,
      "Ġà¤ħà¤ªà¤¨à¥ĩ": 998,
      "ough": 999,
      "à¥ĩà¤ľ": 1000,
      "Ġà¤¤à¤ķ": 1001,
      "ph": 1002,
      "Ġinto": 1003,
      "à¤Ĩ": 1004,
      "Ġits": 1005,
      "ice": 1006,
      "à¤µà¤¾": 1007,
      "Ġà¤¹à¥Ī.": 1008,
      "ren": 1009,
      "à¤ķà¥ĭ": 1010,
      "Ġà¤ķà¤®": 1011,
      "à¤¾à¤¨à¥Ģ": 1012,
      "ces": 1013,
      "Ġtra": 1014,
      "à¤°à¥ĩ": 1015,
      "Ġover": 1016,
      "à¤¾à¤°à¥ĩ": 1017,
      "erv": 1018,
      "à¥Ģà¥¤": 1019,
      "Ġà¤ķà¤¾à¤®": 1020,
      "Ġthese": 1021,
      "Ġà¤Ĩà¤¹à¥ĩà¤¤": 1022,
      "à¥ĥà¤¤": 1023,
      "Ġà¤ľà¤¿à¤¸": 1024,
      "),": 1025,
      "à¤¤à¥ĩ.": 1026,
      "Ġà¤Ĳ": 1027,
      "à¥ħ": 1028,
      "ally": 1029,
      "Ġpeople": 1030,
      "rough": 1031,
      "Ġà¤®à¥įà¤¹à¤£": 1032,
      "à¤°à¥įà¤£": 1033,
      "Ġdiff": 1034,
      "Ġà¤²à¥ĩ": 1035,
      "Ġ201": 1036,
      "Ġhow": 1037,
      "à¥ĩà¤£": 1038,
      "ing,": 1039,
      "à¤°à¤£": 1040,
      "iver": 1041,
      "à¥Ģà¤µ": 1042,
      "ite": 1043,
      "lud": 1044,
      "Ġà¤µà¤¿à¤¶": 1045,
      "Ġà¤®à¤¿à¤²": 1046,
      "à¤¾à¤ļà¥įà¤¯à¤¾": 1047,
      "ond": 1048,
      "à¤¾à¤ĸ": 1049,
      "ove": 1050,
      "ause": 1051,
      "Ġtr": 1052,
      "tern": 1053,
      "ll": 1054,
      "Ġour": 1055,
      "Ġcons": 1056,
      "Ġro": 1057,
      "Ġhad": 1058,
      "Ġà¤¹à¤®": 1059,
      "Ġà¤²à¥ĭà¤Ĺ": 1060,
      "Ġuse": 1061,
      "y.": 1062,
      "Ġcol": 1063,
      "à¥ģà¤¤": 1064,
      "Ġnew": 1065,
      "Ġra": 1066,
      "à¥ĭà¤Ł": 1067,
      "Ġà¤¸à¤°à¥įà¤µ": 1068,
      "Ġà¤®à¥Ī": 1069,
      "ific": 1070,
      "int": 1071,
      "ĵà¤Ĥ": 1072,
      "à¤¿à¤ľ": 1073,
      "Ġà¥§": 1074,
      "Ġà¤¦à¤¿à¤¯à¤¾": 1075,
      "Ġbet": 1076,
      "ors": 1077,
      "Ġà¤ĩà¤¨": 1078,
      "Ġà¤¹à¥ĩ": 1079,
      "Ġact": 1080,
      "Ġmost": 1081,
      "Ġà¤¸à¤¾à¤®": 1082,
      "ities": 1083,
      "we": 1084,
      "à¤¿à¤ª": 1085,
      "Ġunder": 1086,
      "lic": 1087,
      "Ġknow": 1088,
      "à¥ĩà¤¦": 1089,
      "Ġsa": 1090,
      "irst": 1091,
      "alth": 1092,
      "à¤¾à¤¤à¥įà¤°": 1093,
      "à¤Ĥà¤§": 1094,
      "Ġlike": 1095,
      "te": 1096,
      "à¥Ģà¤®": 1097,
      "Ġà¤¹à¥ĭà¤¤à¤¾": 1098,
      "Ġwould": 1099,
      "ed.": 1100,
      "à¥įà¤Łà¥įà¤°": 1101,
      "Ġbl": 1102,
      "Ġdes": 1103,
      "lect": 1104,
      "à¤¾,": 1105,
      "ject": 1106,
      "Ġacc": 1107,
      "erm": 1108,
      "row": 1109,
      "à¤ļà¥ĩ": 1110,
      "ient": 1111,
      "à¥ģà¤³à¥ĩ": 1112,
      "à¥ĭà¤°": 1113,
      "à¤¦à¥Ģ": 1114,
      "Ġà¤¦à¥ĩà¤ĸ": 1115,
      "velop": 1116,
      "à¤¢à¤¼": 1117,
      "Ġrel": 1118,
      "..": 1119,
      "à¤¿à¤¦": 1120,
      "ob": 1121,
      "stem": 1122,
      "Ġtw": 1123,
      "Ġà¤°à¤¹": 1124,
      "Ġà¤ķà¥ģà¤": 1125,
      "Ġsuch": 1126,
      "ning": 1127,
      "Ġà¤ķà¤¾à¤°à¥įà¤¯": 1128,
      "à¤ħ": 1129,
      "ark": 1130,
      "ational": 1131,
      "Ġif": 1132,
      "ys": 1133,
      "Ġrep": 1134,
      "Ġneed": 1135,
      "ons": 1136,
      "ious": 1137,
      "Ġà¤¹à¥ģà¤ı": 1138,
      "Ġà¤°à¤¹à¥ĩ": 1139,
      "ates": 1140,
      "à¤ļà¥Ģ": 1141,
      "à¥ĩ,": 1142,
      "ffect": 1143,
      "à¤·à¥įà¤Ł": 1144,
      "Ġà¤ķà¤¿à¤¸": 1145,
      "ram": 1146,
      "à¤¾à¤Ĥà¤¨à¤¾": 1147,
      "ays": 1148,
      "Ġà¤¸à¥ģà¤°": 1149,
      "à¤Ĥà¤¤à¤°": 1150,
      "à¥ĩà¥¤": 1151,
      "Ġchild": 1152,
      "Ġinclud": 1153,
      "Ġany": 1154,
      "ov": 1155,
      "à¥ĩà¤¡": 1156,
      "à¤Ĺà¤°": 1157,
      "à¥įà¤¡": 1158,
      "Ġhel": 1159,
      "ink": 1160,
      "Ġgen": 1161,
      "à¥Įà¤°": 1162,
      "à¤ªà¥Ģ": 1163,
      "ĠWh": 1164,
      "ative": 1165,
      "hed": 1166,
      "ĠUn": 1167,
      "à¤°à¥įà¤¥": 1168,
      "ath": 1169,
      "ple": 1170,
      "à¥įà¤ŀ": 1171,
      "Ġwhat": 1172,
      "Ġà¤ĳ": 1173,
      "à¤¶à¥Ģ": 1174,
      "ular": 1175,
      "à¤¦à¤¾à¤°": 1176,
      "Ġà¤Ĩà¤ľ": 1177,
      "à¤ļà¤¾": 1178,
      "Ġonly": 1179,
      "yp": 1180,
      "Ġhelp": 1181,
      "Ġph": 1182,
      "Ġà¤°à¤¹à¤¾": 1183,
      "à¤¾à¤ģ": 1184,
      "à¤¾à¤Ĥà¤¤": 1185,
      "ool": 1186,
      "Ġam": 1187,
      "Ġ200": 1188,
      "Ġno": 1189,
      "Ġprov": 1190,
      "ings": 1191,
      "Ġind": 1192,
      "Ġà¤µà¤°à¥įà¤·": 1193,
      "Ġà¤Ĺà¤Ī": 1194,
      "à¥ĭà¤Ĥà¤¨à¥ĩ": 1195,
      "Ġà¤ĵ": 1196,
      "Ġà¤¸à¤°à¤ķà¤¾à¤°": 1197,
      "Ġà¤¸à¥ģ": 1198,
      "Ġthrough": 1199,
      "Ġprodu": 1200,
      "à¤°à¥įà¤¤": 1201,
      "Ġoff": 1202,
      "Ġà¤¦à¥ĩà¤¶": 1203,
      "Ġà¤¸à¤¹": 1204,
      "ced": 1205,
      "Ġà¤¬à¤¹": 1206,
      "à¤Ĥà¤¤à¥įà¤°à¥Ģ": 1207,
      "Ġused": 1208,
      "ating": 1209,
      "Ġfirst": 1210,
      "Ġdevelop": 1211,
      "Ġmany": 1212,
      "Ġà¤ľà¤¾": 1213,
      "Ġspec": 1214,
      "à¤¾à¤µà¤°": 1215,
      "Ġà¤Ĩà¤¹à¥ĩà¤¤.": 1216,
      "Ġ6": 1217,
      "ck": 1218,
      "Ġà¤°à¥Ĥà¤ª": 1219,
      "à¤¾à¤ĵà¤Ĥ": 1220,
      "Ġà¤®à¤¨": 1221,
      "ĠAs": 1222,
      "à¤®à¤§à¥įà¤¯à¥ĩ": 1223,
      "à¥ĩà¤¨": 1224,
      "Ġà¤ľà¤¨": 1225,
      "Ġfe": 1226,
      "fter": 1227,
      "à¥Ģ,": 1228,
      "à¤Ĥà¤Ł": 1229,
      "Ġà¤Ĩà¤µ": 1230,
      "Ġà¤µà¤¿à¤ķ": 1231,
      "à¤¦à¥ĩà¤¶": 1232,
      "Ġà¤¹à¥ĭà¤¤à¥Ģ": 1233,
      "à¥ĩà¤³": 1234,
      "iet": 1235,
      "Ġà¤ķà¥įà¤·": 1236,
      "round": 1237,
      "à¤µà¤¾à¤°": 1238,
      "ĠHe": 1239,
      "Ġreg": 1240,
      "à¥Ģà¤°": 1241,
      "Ġpo": 1242,
      "Ġpr": 1243,
      "Ġem": 1244,
      "hen": 1245,
      "Ġexp": 1246,
      "ing.": 1247,
      "rib": 1248,
      "à¤ªà¥įà¤°": 1249,
      "à¤¾à¤Ĥà¤ļà¥įà¤¯à¤¾": 1250,
      "les": 1251,
      "à¤¾à¥¤": 1252,
      "à¥įà¤¯à¤¾à¤µ": 1253,
      "Ġà¤¤à¥ĩ": 1254,
      "Ġà¤Ĩà¤¯": 1255,
      "à¥Ĥà¤²": 1256,
      "ful": 1257,
      "à¤°à¥įà¤ľ": 1258,
      "Ġtwo": 1259,
      "old": 1260,
      "à¤¸à¤¾": 1261,
      "oth": 1262,
      "à¤¹à¤°": 1263,
      "cess": 1264,
      "iss": 1265,
      "à¤¾à¤ļà¤¾": 1266,
      "Ġsystem": 1267,
      "Ġà¤®à¤¾à¤¨": 1268,
      "Ġdiffere": 1269,
      "à¤Ĥà¤¤à¥įà¤°": 1270,
      "oss": 1271,
      "eth": 1272,
      "Ġà¤ľà¤¬": 1273,
      "uring": 1274,
      "Ġac": 1275,
      "Ġà¤Ĺà¥įà¤°": 1276,
      "à¤¾à¤«": 1277,
      "Ġà¤ķà¥ģà¤Ľ": 1278,
      "Ġtime": 1279,
      "Ġob": 1280,
      "Ġà¤¬à¤¾à¤¤": 1281,
      "Ġà¤¸à¤¬": 1282,
      "Ġà¤®à¤¾à¤°": 1283,
      "à¤¤à¤¾à¤¤": 1284,
      "à¤¿à¤ĸ": 1285,
      "à¤Ĥà¤ª": 1286,
      "Ġà¤¯à¤¾à¤Ĥà¤¨à¥Ģ": 1287,
      "ility": 1288,
      "Ġà¤¦à¥ĭà¤¨": 1289,
      "Ġass": 1290,
      "ert": 1291,
      "a,": 1292,
      "à¥ĭà¤§": 1293,
      "ne": 1294,
      "à¤¾à¤ļà¥Ģ": 1295,
      "ible": 1296,
      "ĠâĢĵ": 1297,
      "Ġà¤ļà¤¾à¤¹": 1298,
      "Ġà¤¦à¥įà¤µ": 1299,
      "Ġà¤īà¤¤": 1300,
      "Ġatt": 1301,
      "à¤¤à¥ĭ": 1302,
      "ed,": 1303,
      "à¤¿à¤§": 1304,
      "Ġà¤°à¤¹à¥Ģ": 1305,
      "dition": 1306,
      "ature": 1307,
      "à¥įà¤¯à¥Ĥ": 1308,
      "aw": 1309,
      "Ġdec": 1310,
      "à¥ĩà¤·": 1311,
      "rop": 1312,
      "ten": 1313,
      "Ġsur": 1314,
      "ments": 1315,
      "à¤°à¥įà¤Ł": 1316,
      "à¤¤à¤¿": 1317,
      "Ġform": 1318,
      "Ġà¤®à¤¿à¤": 1319,
      "à¤£à¥Ģ": 1320,
      "ower": 1321,
      "ange": 1322,
      "Ġà¤¸à¥Ģ": 1323,
      "Ġà¤ķà¤°à¤¤à¥ĩ": 1324,
      "Ġà¤ķà¥ĩà¤²à¥ĩ": 1325,
      "Ġshould": 1326,
      "Ġà¤²à¤¾à¤Ĺ": 1327,
      "ution": 1328,
      "ng": 1329,
      "Ġwater": 1330,
      "Ġfl": 1331,
      "fore": 1332,
      "Ġsupp": 1333,
      "à¤Ĥà¤ľ": 1334,
      "Ġwell": 1335,
      "Ġà¤¥à¤¾à¥¤": 1336,
      "ble": 1337,
      "ased": 1338,
      "ick": 1339,
      "à¤¡à¥ĩ": 1340,
      "Ġà¤ħà¤Ń": 1341,
      "arch": 1342,
      "ween": 1343,
      "à¥įà¤¯à¤®": 1344,
      "gan": 1345,
      "à¤°à¥įà¤¶": 1346,
      "Ġrem": 1347,
      "Ġà¤ªà¤¾à¤°": 1348,
      "own": 1349,
      "ract": 1350,
      "sel": 1351,
      "Ġinv": 1352,
      "Ġsub": 1353,
      "à¤¾à¤ļà¥ĩ": 1354,
      "Ġ18": 1355,
      "Ġà¤²à¥ĭà¤ķ": 1356,
      "Ġà¤¬à¥Ī": 1357,
      "Ġco": 1358,
      "ied": 1359,
      "xt": 1360,
      "à¥ģà¤·": 1361,
      "Ġà¤ķà¤¹": 1362,
      "à¤Łà¥Ģ": 1363,
      "ise": 1364,
      "à¥Ĥà¤¸": 1365,
      "Ġà¤īà¤¨à¥įà¤¹à¥ĭà¤Ĥà¤¨à¥ĩ": 1366,
      "à¥ģà¤£": 1367,
      "Ġà¥§à¥": 1368,
      "Ġ7": 1369,
      "ism": 1370,
      "Ġà¤Ńà¤¾à¤°à¤¤": 1371,
      "à¤¾à¤¥": 1372,
      "Ġà¤¯à¥ĩ": 1373,
      "à¤¿à¤£": 1374,
      "Ġsm": 1375,
      "Ġ:": 1376,
      "Ġà¤Ĩà¤®": 1377,
      "Ġ10": 1378,
      "Ġbetween": 1379,
      "à¤¾à¤¢": 1380,
      "Ġpres": 1381,
      "Ġà¤²à¥ĩà¤ķ": 1382,
      "ation.": 1383,
      "Ġà¤īà¤¦": 1384,
      "Ġcould": 1385,
      "Ġà¥¨": 1386,
      "Ġhealth": 1387,
      "à¤ģ": 1388,
      "Ġà¤ħà¤µ": 1389,
      "Ġwhere": 1390,
      "Ġà¤®à¥Ģ": 1391,
      "Ġà¤ªà¤¹à¤²à¥ĩ": 1392,
      "Ġà¤¦à¤¿à¤¨": 1393,
      "uc": 1394,
      "Ġà¤¹à¥ĭà¤¨à¥ĩ": 1395,
      "à¤ªà¤°": 1396,
      "Ġà¤ħà¤²": 1397,
      "à¥ĩà¤®": 1398,
      "Ġhigh": 1399,
      "Ġà¤ĩà¤¤": 1400,
      "ident": 1401,
      "Ġà¤²à¥ĩà¤ķà¤¿à¤¨": 1402,
      "à¥Ģà¤ľ": 1403,
      "à¤ļà¥įà¤ļ": 1404,
      "à¤ķà¥įà¤·à¤¾": 1405,
      "uch": 1406,
      "20": 1407,
      "Ġbu": 1408,
      "ever": 1409,
      "à¥įà¤Ľ": 1410,
      "à¤¯à¥ĩ": 1411,
      "à¤¾à¤¤à¥Ģà¤²": 1412,
      "Ġget": 1413,
      "Ġtrans": 1414,
      "wn": 1415,
      "à¤¿à¤Ĺ": 1416,
      "Ġà¤¤à¥ģà¤®": 1417,
      "Ġmake": 1418,
      "ĠIf": 1419,
      "Ġà¤®à¥ģà¤ĸ": 1420,
      "Ġlif": 1421,
      "Ġà¤ħà¤¬": 1422,
      "Ġà¤¹à¥ĭà¤Ĺ": 1423,
      "enc": 1424,
      "Ġher": 1425,
      "Ġà¤®à¥ģ": 1426,
      "Ġà¤ķà¤¾à¤°à¤£": 1427,
      "à¤¥à¤¾": 1428,
      "Ġà¤ľà¤¿à¤²": 1429,
      "ation,": 1430,
      "Ġpers": 1431,
      "ĠWe": 1432,
      "à¥įà¤¯à¤¾à¤¸à¤¾à¤łà¥Ģ": 1433,
      "Ġ.": 1434,
      "à¤¿à¤¤à¥Ģ": 1435,
      "chn": 1436,
      "Ġà¤®à¤¿à¤³": 1437,
      "Ġpol": 1438,
      "Ġà¤¹à¥Īà¤Ĥ,": 1439,
      "ork": 1440,
      "Ġimport": 1441,
      "à¤ķà¤¿": 1442,
      "ural": 1443,
      "form": 1444,
      "à¥įà¤¯à¤¾à¤ļà¥Ģ": 1445,
      "ict": 1446,
      "ience": 1447,
      "Ġà¤¨à¤µ": 1448,
      "Ġ8": 1449,
      "Ġà¤¸à¤®à¤¯": 1450,
      "à¤°à¥įà¤¸": 1451,
      "Ġà¤¦à¥Ģ": 1452,
      "à¤¿à¤ķà¥įà¤·": 1453,
      "chool": 1454,
      "Ġà¤µà¤¿à¤Ń": 1455,
      "Ġear": 1456,
      "Ġà¤¤à¥įà¤¯à¤¾à¤ļ": 1457,
      "Ġrese": 1458,
      "Ġà¤ľà¤¾à¤¤à¤¾": 1459,
      "ft": 1460,
      "ade": 1461,
      "à¤¾à¤¸à¥įà¤¤": 1462,
      "Ġinter": 1463,
      "ly,": 1464,
      "ĠAl": 1465,
      "Ġà¤ĺà¤°": 1466,
      "ĠRe": 1467,
      "Ġà¤¸à¥įà¤Ł": 1468,
      "meric": 1469,
      "Ġà¤¶à¤ķ": 1470,
      "ont": 1471,
      "Ġà¤ķà¥ĭà¤Ī": 1472,
      "Ġà¤ĩà¤¸à¤ķà¥ĩ": 1473,
      "Ġà¤ķà¥ĩà¤²à¥Ģ": 1474,
      "à¥įà¤¯à¤¾à¤²": 1475,
      "à¥įà¤¯à¤¾à¤ª": 1476,
      "Ġdisc": 1477,
      "Ġinst": 1478,
      "Ġnum": 1479,
      "à¤¿à¤¹": 1480,
      "Ġà¤°à¤¾à¤ľà¥įà¤¯": 1481,
      "à¤¿à¤ķà¤¾": 1482,
      "à¤ĩ": 1483,
      "ĠAn": 1484,
      "ivers": 1485,
      "land": 1486,
      "à¤Ĥà¤ķ": 1487,
      "à¤¡à¥Ģ": 1488,
      "Ġway": 1489,
      "Ġmod": 1490,
      "Ġexam": 1491,
      "Ġà¤ħà¤ªà¤¨à¥Ģ": 1492,
      "Ġà¤ªà¥įà¤°à¤¶": 1493,
      "ĠFor": 1494,
      "er,": 1495,
      "Ġà¤µà¤¿à¤¦": 1496,
      "Ġà¤ľà¤¾à¤ı": 1497,
      "ited": 1498,
      "âĢĻt": 1499,
      "Ġà¤ªà¥ĭ": 1500,
      "Ġà¤°à¤ĸ": 1501,
      "Ġà¤µà¥įà¤¯à¤ķà¥įà¤¤": 1502,
      "Ġà¤ªà¥Ģ": 1503,
      "à¥ĩà¤¬": 1504,
      "Ġfound": 1505,
      "à¥ĩ.": 1506,
      "ĠHow": 1507,
      "Ġà¤²à¥ĭà¤Ĺà¥ĭà¤Ĥ": 1508,
      "Ġlear": 1509,
      "Ġbecause": 1510,
      "Ġmed": 1511,
      "à¥Ĥà¤®": 1512,
      "Ġà¤¹à¤¾": 1513,
      "à¤ļà¥įà¤Ľ": 1514,
      "Ġà¤ķà¤¿à¤¸à¥Ģ": 1515,
      "ics": 1516,
      "Ġ9": 1517,
      "Ġafter": 1518,
      "Ġdifferent": 1519,
      "Ġthen": 1520,
      "Ġlar": 1521,
      "Ġà¤¯à¥ĩà¤": 1522,
      "Ġsim": 1523,
      "Ġà¤ľà¤¾à¤¨": 1524,
      "Ġà¤Ĺà¥ĭ": 1525,
      "urn": 1526,
      "à¤¾.": 1527,
      "à¤¬à¤°": 1528,
      "Ġworld": 1529,
      "Ġeven": 1530,
      "Ġà¤¦à¥įà¤µà¤¾à¤°à¤¾": 1531,
      "à¥įà¤¯à¤¾à¤ļà¥ĩ": 1532,
      "Ġjust": 1533,
      "Ġlong": 1534,
      "Ġà¤ªà¥įà¤°à¤ķ": 1535,
      "ollow": 1536,
      "Ġinform": 1537,
      "à¤¾à¤Ĥà¤¸": 1538,
      "Ġà¤ħà¤®": 1539,
      "Ġvery": 1540,
      "à¤°à¥įà¤ļ": 1541,
      "Ġcar": 1542,
      "Ġcent": 1543,
      "Ġexper": 1544,
      "à¥Īà¤¸à¥ĩ": 1545,
      "anc": 1546,
      "Ġeffect": 1547,
      "Ġà¤¨à¤¾à¤®": 1548,
      "arm": 1549,
      "Ġà¤ķà¤¾à¤¹à¥Ģ": 1550,
      "Ġdet": 1551,
      "à¥Ģà¤Ĥ": 1552,
      "à¥ģà¤ķà¥įà¤¤": 1553,
      "Ġhum": 1554,
      "oy": 1555,
      "Ġincre": 1556,
      "cept": 1557,
      "Ġà¤Ĺà¤ı": 1558,
      "à¥ĩà¤¶à¤¨": 1559,
      "à¥ĩà¤¤à¥įà¤°": 1560,
      "erg": 1561,
      "ĠAmeric": 1562,
      "a.": 1563,
      "à¤¸à¥įà¤Ł": 1564,
      "Ġtyp": 1565,
      "ting": 1566,
      "Ġà¤°à¥ģà¤ª": 1567,
      "ĠPro": 1568,
      "other": 1569,
      "Ġà¤°à¤¾à¤¹": 1570,
      "Ġà¤ķà¤²": 1571,
      "Ġà¤µà¤¾à¤²à¥ĩ": 1572,
      "Ġà¤¹à¥ģà¤Ĩ": 1573,
      "Ġcount": 1574,
      "à¤¯à¥ĭà¤Ĺ": 1575,
      "eral": 1576,
      "à¤¿à¤¤à¥įà¤°": 1577,
      "ines": 1578,
      "ily": 1579,
      "Ġref": 1580,
      "Ġà¤¬à¤¾à¤°": 1581,
      "get": 1582,
      "vent": 1583,
      "Ġresp": 1584,
      "à¤¦à¤¾": 1585,
      "hes": 1586,
      "Ġthose": 1587,
      "Ġke": 1588,
      "à¥īà¤²": 1589,
      "à¤°à¤¾": 1590,
      "ually": 1591,
      "ock": 1592,
      "à¥Īà¤¨": 1593,
      "Ġà¤ħà¤¸à¥ĩ": 1594,
      "Ġà¤¨à¤¿à¤µ": 1595,
      "à¤¾à¤·à¥įà¤Łà¥įà¤°": 1596,
      "Ġsign": 1597,
      "ĠNew": 1598,
      "aking": 1599,
      "Ġà¤®à¥Į": 1600,
      "Ġed": 1601,
      "à¤¾à¤Ĥà¤ļà¥Ģ": 1602,
      "Ġà¤¹à¥ĭà¤¤à¥ĩ.": 1603,
      "ĠCom": 1604,
      "Ġvar": 1605,
      "Ġà¤ªà¥ģà¤²": 1606,
      "Ġà¤¬à¤¤": 1607,
      "iew": 1608,
      "Ġsee": 1609,
      "à¥Ģ.": 1610,
      "Ġevery": 1611,
      "Ġprog": 1612,
      "Ġcall": 1613,
      "à¥ģà¤¦à¥įà¤§": 1614,
      "Ġsaid": 1615,
      "Ġà¤¦à¤¿à¤µ": 1616,
      "ef": 1617,
      "à¥Ģà¤¸": 1618,
      "à¤²à¥ĩ.": 1619,
      "Ġpub": 1620,
      "Ġà¤ħà¤¸à¤²": 1621,
      "à¤²à¤¾.": 1622,
      "Ġchildren": 1623,
      "its": 1624,
      "à¤Ŀ": 1625,
      "Ġà¤Ĩà¤§": 1626,
      "à¥ĭà¤¨": 1627,
      "Ġdat": 1628,
      "Ġpat": 1629,
      "Ġà¤ªà¥ģà¤°": 1630,
      "®à¥ģà¤³à¥ĩ": 1631,
      "Ġà¤®à¥ĩ": 1632,
      "à¤®à¤¾à¤¨": 1633,
      "Ġext": 1634,
      "000": 1635,
      "Ġà¤Ĩà¤¦": 1636,
      "à¤Ĺà¥įà¤°": 1637,
      "ros": 1638,
      "Ġsec": 1639,
      "Ġà¤īà¤¨à¤ķà¥ĩ": 1640,
      "Ġà¤ªà¥įà¤°à¤ķà¤¾à¤°": 1641,
      "à¥įà¤¹à¤¾": 1642,
      "Ġresult": 1643,
      "ĠThey": 1644,
      "Ġfact": 1645,
      "à¤¾à¤µà¤¾": 1646,
      "à¥įà¤¯à¤¾à¤¯": 1647,
      "Ġeach": 1648,
      "Ġfollow": 1649,
      "Ġà¤¨à¤¿à¤¯": 1650,
      "Ġbeing": 1651,
      "Ġà¤ķà¥įà¤·à¥ĩà¤¤à¥įà¤°": 1652,
      "à¥įà¤¬": 1653,
      "Ġà¤¨à¤¾à¤¹à¥Ģ.": 1654,
      "Ġpartic": 1655,
      "à¥įà¤¯à¥ĭà¤Ĥ": 1656,
      "à¥ģà¤µ": 1657,
      "io": 1658,
      "roup": 1659,
      "Ġà¤¤à¤°à¤¹": 1660,
      "als": 1661,
      "Ġart": 1662,
      "Ġà¤ıà¤µ": 1663,
      "Ġsoc": 1664,
      "tle": 1665,
      "ĠThere": 1666,
      "Ġà¤¸à¥Ĥ": 1667,
      "à¤ķà¤¾à¤°à¥Ģ": 1668,
      "à¥įà¤¯à¤ķà¥įà¤·": 1669,
      "à¥įà¤¯à¤¾à¤¨à¥ĩ": 1670,
      "Ġset": 1671,
      "à¥įà¤Ĺ": 1672,
      "vern": 1673,
      "à¥§": 1674,
      "iron": 1675,
      "à¤²à¤Ĥ": 1676,
      "Ġà¤¸à¤¿à¤Ĥ": 1677,
      "Ġà¤¬à¤¡à¤¼": 1678,
      "Ġà¤¸à¥įà¤ª": 1679,
      "à¥įà¤°à¥Ģà¤¯": 1680,
      "Ġca": 1681,
      "à¤¨à¥ĩà¤ķ": 1682,
      "ection": 1683,
      "Ġimportant": 1684,
      "à¤¦à¥įà¤§": 1685,
      "Ġtechn": 1686,
      "Ġà¤ķà¥įà¤°": 1687,
      "Ġmy": 1688,
      "Ġmuch": 1689,
      "Ġà¤ķà¤°à¤¨à¤¾": 1690,
      "Ġà¤µà¥ĩ": 1691,
      "à¤¬à¤Ĥà¤§": 1692,
      "Ġrequ": 1693,
      "19": 1694,
      "Ġà¤«à¤¿à¤°": 1695,
      "Ġcommun": 1696,
      "Ġdist": 1697,
      "Ġà¤ķà¤°à¤£à¥įà¤¯à¤¾à¤¤": 1698,
      "ruct": 1699,
      "à¥ĩà¤Ĥà¤Ĺ": 1700,
      "à¤¿à¤µà¤¾à¤°": 1701,
      "Ġà¤ļà¤²": 1702,
      "Ġà¤¹à¥ĭà¤¤": 1703,
      "à¤¾à¤±": 1704,
      "à¥įà¤£": 1705,
      "Ġfam": 1706,
      "Ġà¤ķà¤Ī": 1707,
      "Ġcre": 1708,
      "cent": 1709,
      "Ġloc": 1710,
      "Ġshe": 1711,
      "ather": 1712,
      "rain": 1713,
      "Ġent": 1714,
      "Ġdep": 1715,
      "Ġà¤ľà¥Ģà¤µ": 1716,
      "Ġend": 1717,
      "à¤¾à¤²à¤¯": 1718,
      "Ġà¤Ńà¤¾à¤Ĺ": 1719,
      "Ġmon": 1720,
      "led": 1721,
      "Ġdef": 1722,
      "ĠInd": 1723,
      "ants": 1724,
      "ward": 1725,
      "Ġread": 1726,
      "Ġright": 1727,
      "blem": 1728,
      "Ġà¤¹à¥ģà¤Ī": 1729,
      "Ġown": 1730,
      "Ġà¤¸à¤ķà¤¤à¤¾": 1731,
      "à¥įà¤Łà¤°": 1732,
      "Ġà¤Ĩà¤°": 1733,
      "ists": 1734,
      "à¥ģà¤¸à¤¾à¤°": 1735,
      "ĠAr": 1736,
      "Ġà¤ªà¥įà¤°à¤®": 1737,
      "à¤¤à¥Ģà¤¯": 1738,
      "à¤°à¥įà¤¦": 1739,
      "Ġduring": 1740,
      "ically": 1741,
      "à¤¿à¤ļ": 1742,
      "à¥įà¤ł": 1743,
      "Ġà¤ħà¤¶": 1744,
      "Ġlevel": 1745,
      "Ġà¤ªà¥ģà¤²à¤¿à¤¸": 1746,
      "à¤£à¤¾à¤°": 1747,
      "à¤¶à¥įà¤¯": 1748,
      "à¤¿à¤¯à¥ĩ": 1749,
      "Ġà¤¬à¤¢à¤¼": 1750,
      "gg": 1751,
      "Ġà¤ħà¤¤": 1752,
      "Ġà¤¬à¥įà¤°": 1753,
      "à¥ĭà¤¡à¤¼": 1754,
      "Ġfood": 1755,
      "er.": 1756,
      "à¤Ĥà¤¦à¥įà¤°": 1757,
      "ts": 1758,
      "à¥ĩà¤Ĥà¤¦": 1759,
      "Ġà¤¹à¤°": 1760,
      "Ġlead": 1761,
      "Ġà¤¸à¤¾à¤²": 1762,
      "Ġà¤¤à¤¥à¤¾": 1763,
      "à¤ķà¥įà¤ķ": 1764,
      "Ġà¤ĺà¤Ł": 1765,
      "Ġday": 1766,
      "hip": 1767,
      "à¤ªà¥Ĥ": 1768,
      "Ġà¤¬à¤¹à¥ģà¤¤": 1769,
      "Ġsk": 1770,
      "Ġadd": 1771,
      "à¥įà¤ľ": 1772,
      "Ġperson": 1773,
      "à¤°à¥įà¤Ĺ": 1774,
      "à¤¿à¤²à¤¾": 1775,
      "Ġà¤¸à¤¾à¤Ĥà¤Ĺ": 1776,
      "ĠSp": 1777,
      "Ġà¤¨à¤¿à¤ķ": 1778,
      "à¤¿à¤¡": 1779,
      "Ġmin": 1780,
      "Ġà¤ĺà¥ĩà¤¤": 1781,
      "Ġà¤Łà¥įà¤°": 1782,
      "à¤¤à¥Ģà¤²": 1783,
      "Ġà¤«à¤¿à¤²": 1784,
      "Ġbod": 1785,
      "ĠBut": 1786,
      "à¤¾à¤Ń": 1787,
      "à¥įà¤¯à¤¾à¤ļà¤¾": 1788,
      "Ġaut": 1789,
      "à¥įà¤¹à¥Ģ": 1790,
      "à¤²à¥įà¤²": 1791,
      "ever,": 1792,
      "Ġà¤µà¤¿à¤ļ": 1793,
      "Ġà¤¶à¥įà¤°à¥Ģ": 1794,
      "Ġyears": 1795,
      "ĠYou": 1796,
      "Ġà¤®à¤¾à¤®": 1797,
      "à¤¸à¥įà¤ķ": 1798,
      "Ġfind": 1799,
      "Ġà¤¸à¤Ńà¥Ģ": 1800,
      "Ġins": 1801,
      "Ġà¤®à¤¾à¤¹": 1802,
      "à¥ĩà¤¯": 1803,
      "Ġback": 1804,
      "Ġà¤ħà¤¨à¥įà¤¯": 1805,
      "à¤Ńà¤¾à¤µ": 1806,
      "Ġstr": 1807,
      "à¥įà¤¯à¤¾à¤¦": 1808,
      "Ġà¤Ŀà¤¾à¤²": 1809,
      "Ġgrow": 1810,
      "Ġcur": 1811,
      "Ġproblem": 1812,
      "und": 1813,
      "Ġdoes": 1814,
      "The": 1815,
      "ah": 1816,
      "à¥ģà¤Ń": 1817,
      "Ġsame": 1818,
      "ology": 1819,
      "Ġgood": 1820,
      "Ġà¤ķà¤°à¤¤à¤¾": 1821,
      "à¤¾à¤ªà¥įà¤¤": 1822,
      "à¤¾à¤¦à¥Ģ": 1823,
      "ern": 1824,
      "Ġav": 1825,
      "à¤ķà¥įà¤°à¤®": 1826,
      "ank": 1827,
      "Ġche": 1828,
      "Ġà¤īà¤¤à¥įà¤¤": 1829,
      "à¤®à¥Ģ": 1830,
      "Ġboth": 1831,
      "Ġpop": 1832,
      "Ġmade": 1833,
      "Ġ15": 1834,
      "onom": 1835,
      "Ġà¤ħà¤¨à¥ĩà¤ķ": 1836,
      "à¤¿à¤¸à¥įà¤¤": 1837,
      "à¤²à¥ĩà¤²à¥įà¤¯à¤¾": 1838,
      "ved": 1839,
      "Ĭà¤¨": 1840,
      "Ġà¤¤à¥Ģà¤¨": 1841,
      "iversity": 1842,
      "ized": 1843,
      "à¤¿à¤Ĥà¤¦": 1844,
      "à¤ľà¥Ģ": 1845,
      "Ġschool": 1846,
      "viron": 1847,
      "à¤ķà¥ĭà¤Ĥ": 1848,
      "Ġbefore": 1849,
      "Ġexpl": 1850,
      "à¥įà¤ŀà¤¾à¤¨": 1851,
      "Ġgra": 1852,
      "up": 1853,
      "à¥ģà¤Ĺ": 1854,
      "Ġà¤¦à¤°": 1855,
      "Ġà¤ªà¥įà¤°à¤µ": 1856,
      "Ġgroup": 1857,
      "Ġsmall": 1858,
      "à¤ªà¤¾à¤¸": 1859,
      "Ġà¤²à¥ĩà¤ķà¤°": 1860,
      "Ġ|": 1861,
      "à¤ľà¤°": 1862,
      "inal": 1863,
      "Ġà¤µà¤¿à¤§": 1864,
      "à¤ıà¤¸": 1865,
      "ĠSc": 1866,
      "Ġcomple": 1867,
      "Ġà¤ķà¥Ī": 1868,
      "stand": 1869,
      "Ġwrit": 1870,
      "Ġà¤®à¥Īà¤Ĥ": 1871,
      "Ġà¤¡à¥ī": 1872,
      "à¥ģà¤Ł": 1873,
      "Ġshow": 1874,
      "Ġusing": 1875,
      "à¤Ľ": 1876,
      "omen": 1877,
      "Ġagain": 1878,
      "Ġcor": 1879,
      "Ġhist": 1880,
      "à¥ĭà¤¡": 1881,
      "à¤Ĥà¤¸": 1882,
      "à¤£à¥ĩ": 1883,
      "Ġà¤¹à¥Īà¤Ĥ.": 1884,
      "Ġ)": 1885,
      "ince": 1886,
      "rol": 1887,
      "Ġà¤µà¤¿à¤°": 1888,
      "Ġlook": 1889,
      "Ġprot": 1890,
      "Ġà¤¸à¤ķà¤¤à¥ĩ": 1891,
      "Ġà¤īà¤¨à¥įà¤¹à¥ĩà¤Ĥ": 1892,
      "ivid": 1893,
      "ality": 1894,
      "Ġà¤¸à¤¦": 1895,
      "Ġà¤ķà¤¾à¤¯": 1896,
      "Ġnumber": 1897,
      "read": 1898,
      "Ġà¤µà¥Ī": 1899,
      "à¥įà¤Łà¥Ģ": 1900,
      "Ġprocess": 1901,
      "Ġgl": 1902,
      "Ġà¤ªà¤£": 1903,
      "eld": 1904,
      "Ġmain": 1905,
      "Ġà¤®à¤¾à¤¤à¥įà¤°": 1906,
      "Ġtreat": 1907,
      "ness": 1908,
      "ax": 1909,
      "Ġhuman": 1910,
      "à¤ķà¥įà¤¸": 1911,
      "Ġtest": 1912,
      "Ġà¤ªà¤¡à¤¼": 1913,
      "Ġà¤µà¤¿à¤¶à¥įà¤µ": 1914,
      "Ġà¤¤à¤¸": 1915,
      "Ġà¤¬à¤¦": 1916,
      "oh": 1917,
      "Ġoften": 1918,
      "Ġà¤¶à¥ģà¤°": 1919,
      "ives": 1920,
      "nce": 1921,
      "ĠAnd": 1922,
      "Ġà¤µà¤¿à¤ļà¤¾à¤°": 1923,
      "Ġà¤ªà¤¾à¤¹": 1924,
      "Ġà¤Ĩà¤¤": 1925,
      "ix": 1926,
      "à¤¾à¤°à¥įà¤¥": 1927,
      "à¤ªà¥ģà¤°": 1928,
      "Ġà¤µà¤¿à¤µ": 1929,
      "Ġà¤¸à¤¿à¤Ĥà¤¹": 1930,
      "à¤ľà¤¾à¤°": 1931,
      "Ġà¤ľà¤Ĺ": 1932,
      "Ġstudents": 1933,
      "Ġà¤Ńà¤¾à¤°à¤¤à¥Ģà¤¯": 1934,
      "Ġval": 1935,
      "Ġris": 1936,
      "Ġbr": 1937,
      "Ġà¤ªà¤¾à¤¸": 1938,
      "à¤°à¥įà¤¡": 1939,
      "à¤ľà¤¨": 1940,
      "Ġsol": 1941,
      "Ġposs": 1942,
      "Ġà¤µà¤¿à¤Ńà¤¾à¤Ĺ": 1943,
      "Ġwhile": 1944,
      "à¥¨": 1945,
      "ished": 1946,
      "vironment": 1947,
      "Ġà¤¨à¤¿à¤°à¥įà¤®": 1948,
      "cl": 1949,
      "ential": 1950,
      "ins": 1951,
      "Ġhim": 1952,
      "ted": 1953,
      "Ġorgan": 1954,
      "Ġà¤µà¥įà¤¯à¤µ": 1955,
      "Ġà¤¦à¥Ĥà¤¸": 1956,
      "à¤§à¥Ģ": 1957,
      "Ġtake": 1958,
      "ize": 1959,
      "Ġà¤ķà¥įà¤¯à¤¾": 1960,
      "ues": 1961,
      "Ġstate": 1962,
      "imate": 1963,
      "ral": 1964,
      "ash": 1965,
      "à¥ĩà¤Ĥà¤Ł": 1966,
      "Ġlit": 1967,
      "à¤¾à¤¸à¤¨": 1968,
      "Ġnow": 1969,
      "on,": 1970,
      "Ġserv": 1971,
      "à¤ķà¤°à¤£": 1972,
      "Ġpower": 1973,
      "Ġà¤Ĩà¤°à¥ĭ": 1974,
      "Ġdise": 1975,
      "aj": 1976,
      "Ġà¤Ŀà¤¾à¤²à¥ĩ": 1977,
      "Ġà¤ıà¤µà¤Ĥ": 1978,
      "Ġocc": 1979,
      "Ġinformation": 1980,
      "Ġà¤¶à¤¿à¤µ": 1981,
      "ures": 1982,
      "à¤¾à¤ī": 1983,
      "Ġprogram": 1984,
      "ĠWhat": 1985,
      "Ġless": 1986,
      "à¤ľà¥ĩ": 1987,
      "Ġà¤Ī": 1988,
      "ion.": 1989,
      "à¤¾à¤Ĥà¤ļà¤¾": 1990,
      "Ġdi": 1991,
      "Ġmem": 1992,
      "Ġ12": 1993,
      "Ġà¤¶à¤¿à¤ķà¥įà¤·": 1994,
      "vers": 1995,
      "Ġà¤¦à¥Įà¤°": 1996,
      "Ġà¤īà¤¸à¤ķà¥ĩ": 1997,
      "Ġà¤¹à¥ĭà¤¤à¥ĩ": 1998,
      "à¤¦à¤¾à¤¨": 1999,
      ".,": 2000,
      "Ġvis": 2001,
      "à¤ļà¤¾à¤°": 2002,
      "à¥įà¤¯à¤¾à¤µà¤°": 2003,
      "com": 2004,
      "Ġà¤¯à¥ĩà¤¥": 2005,
      "||": 2006,
      "Ġà¤ľà¤°": 2007,
      "à¤¤à¥įà¤¨": 2008,
      "Ġactiv": 2009,
      "Ġà¤«à¤¿à¤²à¥įà¤®": 2010,
      "ital": 2011,
      "à¤¾à¤ķà¤°": 2012,
      "air": 2013,
      "Ġprovid": 2014,
      "à¤¾à¤£à¥Ģ": 2015,
      "Ġà¤Ĩà¤Ĺ": 2016,
      "Ġcell": 2017,
      "Ġà¤®à¤¦": 2018,
      "ies,": 2019,
      "Ġfun": 2020,
      "any": 2021,
      "ered": 2022,
      "Ġsupport": 2023,
      "irect": 2024,
      "Ġà¤Ńà¤°": 2025,
      "Ġà¤®à¤¤": 2026,
      "Ġà¤ľà¤¾à¤¨à¥ĩ": 2027,
      "Ġchar": 2028,
      "iqu": 2029,
      "Ġresearch": 2030,
      "Ġà¤¬à¤¤à¤¾à¤¯à¤¾": 2031,
      "Ġà¤ªà¥Ĥà¤°à¥įà¤µ": 2032,
      "ĠWhen": 2033,
      "Ġbel": 2034,
      "Ġà¤µà¤¿à¤¶à¥ĩà¤·": 2035,
      "tt": 2036,
      "Ġdesign": 2037,
      "à¥Ģà¤¯": 2038,
      "ex": 2039,
      "Ġà¤¸à¥įà¤ķ": 2040,
      "Ġec": 2041,
      "Ġà¤¦à¥ĩà¤µ": 2042,
      "Ġà¤¦à¥ĩà¤£": 2043,
      "Ġà¤ªà¤¦": 2044,
      "Ġdown": 2045,
      "Ġaround": 2046,
      "Ġmust": 2047,
      "der": 2048,
      "ale": 2049,
      "Ġà¤Ĩà¤¤à¤¾": 2050,
      "ĠThese": 2051,
      "Ġà¤ķà¤¿à¤Ĥ": 2052,
      "ages": 2053,
      "Ġà¤¥à¥Ģà¥¤": 2054,
      "Ġplan": 2055,
      "uss": 2056,
      "à¤¿à¤¤à¤¾": 2057,
      "ven": 2058,
      "ĠIs": 2059,
      "Ġhand": 2060,
      "Ġstudy": 2061,
      "Ġest": 2062,
      "Ġdata": 2063,
      "Ġà¤ļà¥Į": 2064,
      "ion,": 2065,
      "day": 2066,
      "à¤¡à¥Ĥà¤¨": 2067,
      "Ġà¤ªà¥įà¤°à¤¦à¥ĩà¤¶": 2068,
      "à¤ıà¤®": 2069,
      "Ġà¤ļà¤¾à¤°": 2070,
      "ies.": 2071,
      "à¥įà¤¯à¤Ĥà¤¤": 2072,
      "Ġà¤ķà¤Ĥà¤ª": 2073,
      "à¤¾à¤ľà¤ª": 2074,
      "Ġgovern": 2075,
      "Ġredu": 2076,
      "Ġà¤²à¤ķà¥įà¤·": 2077,
      "Ġconf": 2078,
      "Ġà¤¶à¤¾à¤®": 2079,
      "Ġstart": 2080,
      "Ġà¤¸à¥įà¤¥à¤¿à¤¤": 2081,
      "Ġthree": 2082,
      "Ġà¤Ĩà¤Ī": 2083,
      "à¥Ĥà¤ķ": 2084,
      "ield": 2085,
      "à¥ĭà¤ª": 2086,
      "Ġà¤ľà¥Ģ": 2087,
      "à¤¬à¥Ģ": 2088,
      "Ġà¤¯à¥ĭà¤Ĺ": 2089,
      "à¤¨à¥įà¤¦": 2090,
      "Ġgreat": 2091,
      "Ġpoint": 2092,
      "à¤°à¥įà¤·": 2093,
      "ium": 2094,
      "way": 2095,
      "Ġdid": 2096,
      "à¤µà¤¾à¤¨": 2097,
      "akes": 2098,
      "Ġà¤ķà¤°à¥Ĥà¤¨": 2099,
      "à¤¤à¤¾à¤¤.": 2100,
      "Ġà¤¹à¤¾à¤²": 2101,
      "Ġà¤Łà¥Ģà¤®": 2102,
      "Ġà¤¥à¥ĩà¥¤": 2103,
      "Ġcommon": 2104,
      "à¥ĩà¤¹": 2105,
      "à¤°à¥įà¤ķ": 2106,
      "ave": 2107,
      "Ġà¤ľà¤¿à¤¨": 2108,
      "rent": 2109,
      "à¤¾à¤ľà¥Ģ": 2110,
      "ute": 2111,
      "Ġà¤ľà¤®": 2112,
      "Ġcle": 2113,
      "eg": 2114,
      "self": 2115,
      "ouse": 2116,
      "Ġword": 2117,
      "Ġà¤¤à¥įà¤¯à¤¾": 2118,
      "Ġland": 2119,
      "ĠTo": 2120,
      "Ġà¤ħà¤°à¥įà¤¥": 2121,
      "à¤¾à¤Ĥà¤ļà¥ĩ": 2122,
      "à¥ĭà¤ľà¤¨": 2123,
      "Ġser": 2124,
      "Ġelect": 2125,
      "Ġà¤¦à¤¿à¤²à¥įà¤²": 2126,
      "Ġà¤¸à¤Ĥà¤¬à¤Ĥà¤§": 2127,
      "Ġà¤ªà¤¹à¥ģ": 2128,
      "-b": 2129,
      "Ġcontin": 2130,
      "Ġ199": 2131,
      "à¤§à¤¾à¤¨": 2132,
      "the": 2133,
      "Ġlarge": 2134,
      "Ġà¤µà¤¾à¤¢": 2135,
      "ional": 2136,
      "Ġà¤ªà¥Ī": 2137,
      "Ġexample": 2138,
      "ars": 2139,
      "iving": 2140,
      "Ġà¤¹à¤ľà¤¾à¤°": 2141,
      "Ġà¤¶à¥įà¤°": 2142,
      "ron": 2143,
      "ĠSe": 2144,
      "Ġà¤īà¤®": 2145,
      "orn": 2146,
      "Ġà¤®à¥ģà¤": 2147,
      "à¤Ĥà¤¬à¤Ī": 2148,
      "Ġcare": 2149,
      "Ġà¤īà¤¤à¥įà¤ª": 2150,
      "\\n": 2151,
      "Ġreport": 2152,
      "Ġà¤ķà¤ª": 2153,
      "10": 2154,
      "ined": 2155,
      "Ġà¤ķà¤°à¤¤": 2156,
      "ier": 2157,
      "-s": 2158,
      "à¤¤à¥įà¤µ": 2159,
      "Ġà¤¸à¥įà¤¤": 2160,
      "ared": 2161,
      "ases": 2162,
      "Ġà¤¬à¥Īà¤ł": 2163,
      "à¤¶à¥įà¤¯à¤ķ": 2164,
      "Ġthough": 2165,
      "Ġà¤ªà¤¹à¥ģà¤Ĥà¤ļ": 2166,
      "à¤¾à¤¯à¤ķ": 2167,
      "Ġà¤²à¤¿à¤¯à¤¾": 2168,
      "Ġconst": 2169,
      "ving": 2170,
      "ull": 2171,
      "âĢĶ": 2172,
      "Ġop": 2173,
      "Ġà¤ªà¥įà¤°à¤¾à¤ªà¥įà¤¤": 2174,
      "Ġà¤²à¤¾à¤ĸ": 2175,
      "Ġà¤ľà¤¾à¤ıà¤Ĺ": 2176,
      "à¥ģà¤®à¤¾à¤°": 2177,
      "acter": 2178,
      "Ġincluding": 2179,
      "Ġà¤¤à¤°à¥Ģ": 2180,
      "Ġcour": 2181,
      "ices": 2182,
      "Ġallow": 2183,
      "ĠSh": 2184,
      "Ġret": 2185,
      "à¤²à¥Ģ.": 2186,
      "Ġunderstand": 2187,
      "ulation": 2188,
      "Ġà¤ªà¥įà¤°à¤¸": 2189,
      "o,": 2190,
      "Ġeduc": 2191,
      "à¤¾à¤ĩà¤¨": 2192,
      "Ġrisk": 2193,
      "Ġthink": 2194,
      "Ġà¤®à¥įà¤¹à¤£à¥Ĥà¤¨": 2195,
      "Ġà¤ķà¥ĩà¤µ": 2196,
      "ross": 2197,
      "à¤ī": 2198,
      "ergy": 2199,
      "ĠDe": 2200,
      "Ġà¤Ĺà¤¾à¤Ĥ": 2201,
      "Ġà¤¤à¥įà¤¯à¤¾à¤®à¥ģà¤³à¥ĩ": 2202,
      "Ġmet": 2203,
      "Ġsom": 2204,
      "eng": 2205,
      "à¤¾à¤¡à¤¼": 2206,
      "Ġgener": 2207,
      "à¤¾à¤Ĺà¤°": 2208,
      "ek": 2209,
      "Ġclass": 2210,
      "Ġà¤ĸà¤¿à¤²": 2211,
      "à¥įà¤¯à¤¾à¤ļà¥įà¤¯à¤¾": 2212,
      "Ġbuild": 2213,
      "Ġà¤¸à¤¬à¤¸à¥ĩ": 2214,
      "Ġà¤ļà¤¾à¤¹à¤¿à¤ı": 2215,
      "Ġà¤®à¥ĭà¤ł": 2216,
      "à¥ĭà¤¤": 2217,
      "Ġà¤¬à¥Ģà¤ļ": 2218,
      "Ġequ": 2219,
      "Ġà¤ķà¥įà¤¯à¥ĭà¤Ĥ": 2220,
      "Ġà¤ħà¤¸à¥Ĥà¤¨": 2221,
      "Ġà¤¦à¤¿à¤¸": 2222,
      "à¤¿à¤¦à¥įà¤§": 2223,
      "Ġadv": 2224,
      "Ġà¤¹à¥ĭà¤¤à¥Ģ.": 2225,
      "à¥įà¤¯à¤¾à¤²à¤¯": 2226,
      "ĠAd": 2227,
      "Ġlife": 2228,
      "Ġà¤ľà¤²": 2229,
      "à¥ĥà¤·": 2230,
      "à¤¯à¤¾à¤°": 2231,
      "à¤²à¤¬": 2232,
      "Ġà¤¸à¤Ĥà¤ĺ": 2233,
      "iven": 2234,
      "Ġà¤īà¤¸à¥ĩ": 2235,
      "Ġstill": 2236,
      "Ġà¤¦à¥ĭà¤¨à¥ĭà¤Ĥ": 2237,
      "Ġsit": 2238,
      "Ġcalled": 2239,
      "Ġà¤ªà¥įà¤°à¤¯": 2240,
      "Ġpublic": 2241,
      "Ġpract": 2242,
      "ĠâĢĺ": 2243,
      "alk": 2244,
      "à¤±": 2245,
      "Ġà¤¶à¤¹à¤°": 2246,
      "outh": 2247,
      "Ġbeh": 2248,
      "Ġà¤¬à¤¸": 2249,
      "Ġsay": 2250,
      "esp": 2251,
      "inc": 2252,
      "reen": 2253,
      "ividual": 2254,
      "Ġlearn": 2255,
      "Ġdon": 2256,
      "à¤Ńà¤¾": 2257,
      "à¥Ģà¤ķ": 2258,
      "ĠCon": 2259,
      "Ġ[": 2260,
      "Ġknown": 2261,
      "ior": 2262,
      "aterial": 2263,
      "Ġ17": 2264,
      "à¤¾à¤¸à¤¾à¤łà¥Ģ": 2265,
      "à¤¾à¤®à¥Ģ": 2266,
      "à¤°à¥įà¤¨": 2267,
      "Ġenvironment": 2268,
      "oci": 2269,
      "Ġquest": 2270,
      "Ġà¤®à¤¹à¤¾à¤°": 2271,
      "Ġdr": 2272,
      "à¤µà¤£": 2273,
      "Ġ?": 2274,
      "à¤¡à¤£": 2275,
      "à¥ĥà¤·à¥įà¤Ł": 2276,
      "Ġà¤¦à¥Įà¤°à¤¾à¤¨": 2277,
      "Ġeas": 2278,
      "à¤¤à¥ĭ.": 2279,
      "Ġà¤Ńà¤¾à¤ľà¤ª": 2280,
      "erest": 2281,
      "à¥ĩà¤²à¥įà¤¯à¤¾": 2282,
      "Ġà¤µà¤¾à¤ª": 2283,
      "à¤Łà¤°": 2284,
      "ik": 2285,
      "Ġide": 2286,
      "ired": 2287,
      "Ġà¤ķà¤°à¥įà¤®": 2288,
      "à¤¾à¤Ĭ": 2289,
      "Ġ&": 2290,
      "Ġà¤µà¤¿à¤ľ": 2291,
      "Ġplace": 2292,
      "à¥Ĥà¤Ĥ": 2293,
      "à¤¾à¤¯à¤°": 2294,
      "ially": 2295,
      "Ġà¤µà¥įà¤¹": 2296,
      "Ġà¤µà¤¿à¤·": 2297,
      "Ġà¤¤à¥įà¤¯à¤¾à¤Ĥà¤¨à¥Ģ": 2298,
      "Ġà¤¦à¤¿à¤µà¤¸": 2299,
      "Ġ0": 2300,
      "Ġgu": 2301,
      "à¤¾à¤¤à¤¾": 2302,
      "Ġappro": 2303,
      "Ġmat": 2304,
      "à¤¨à¥įà¤¤": 2305,
      "Ġà¤Ĩà¤µà¤¶à¥įà¤¯à¤ķ": 2306,
      "à¤°à¥įà¤¶à¤¨": 2307,
      "Ġfew": 2308,
      "lish": 2309,
      "itive": 2310,
      "iod": 2311,
      "Ġà¤¬à¥ĭà¤²": 2312,
      "à¥«": 2313,
      "ird": 2314,
      "ĠAmerican": 2315,
      "à¤¨à¥įà¤¨": 2316,
      "à¥įà¤¶": 2317,
      "ĠPh": 2318,
      "Ġà¤µà¤¿à¤ķà¤¾à¤¸": 2319,
      "ĠEng": 2320,
      "Ġà¤ħà¤Ĺ": 2321,
      "à¤¿à¤«": 2322,
      "ator": 2323,
      "ense": 2324,
      "Ġmight": 2325,
      "Ġà¤Ĩà¤ªà¤²à¥įà¤¯à¤¾": 2326,
      "Ġstand": 2327,
      "oun": 2328,
      "Ġà¤ļà¥ģà¤¨": 2329,
      "ĠEx": 2330,
      "hers": 2331,
      "Ġdem": 2332,
      "Ġà¤ķà¤°à¥ĩà¤Ĥ": 2333,
      "Ġà¤¬à¤¾à¤¹": 2334,
      "à¤¸à¤°": 2335,
      "Ġà¤īà¤¨à¤ķà¥Ģ": 2336,
      "à¤¿à¤¬": 2337,
      "à¤ĸà¥įà¤¯à¤¾": 2338,
      "ĠUniversity": 2339,
      "Ġà¥¥": 2340,
      "Ġbo": 2341,
      "à¤¾à¤¸à¥įà¤¥": 2342,
      "Ġwant": 2343,
      "Ġà¤Ĩà¤²à¥ĩ": 2344,
      "Ġà¤¯à¥ĩà¤¤": 2345,
      "Ġà¤Ĳà¤¸à¥ĩ": 2346,
      "Ġbook": 2347,
      "raph": 2348,
      "ertain": 2349,
      "Ġpresent": 2350,
      "à¥ĭà¤·": 2351,
      "Ġwithout": 2352,
      "à¤µà¥Ģ": 2353,
      "Ġchang": 2354,
      "Ġcaus": 2355,
      "ains": 2356,
      "Ġsym": 2357,
      "à¤¾à¤·à¥įà¤Ł": 2358,
      "ty": 2359,
      "Ġà¤Ĺà¥ģ": 2360,
      "Ġà¤¹à¥ĭà¤¤à¤¾.": 2361,
      "str": 2362,
      "à¥ĩà¤³à¥Ģ": 2363,
      "Ġà¤Ŀà¤¾à¤²à¥Ģ": 2364,
      "Ġà¤īà¤¤à¥įà¤¤à¤°": 2365,
      "Ġà¤Ĺà¤¯à¤¾à¥¤": 2366,
      "Ġwithin": 2367,
      "ffic": 2368,
      "Ġindividual": 2369,
      "amp": 2370,
      "ason": 2371,
      "Ġ202": 2372,
      "Ġiss": 2373,
      "Ġplay": 2374,
      "Ġ11": 2375,
      "Ġà¤®à¤¾à¤Ĺ": 2376,
      "Ġà¤¸à¥ģà¤¨": 2377,
      "Ġà¤ķà¥ĭà¤°à¥ĭ": 2378,
      "Ġà¤ķà¥ĭà¤£": 2379,
      "ethod": 2380,
      "Ġà¤®à¤¾à¤²": 2381,
      "Ġtem": 2382,
      "Ġbre": 2383,
      "à¤¸à¥įà¤¥à¤¾": 2384,
      "Ġphys": 2385,
      "man": 2386,
      "à¤µà¤¾à¤²": 2387,
      "line": 2388,
      "Ġchange": 2389,
      "à¥ĩà¤Ĥà¤¦à¥įà¤°": 2390,
      "Ġpur": 2391,
      "Ġà¤Ńà¤¾à¤µ": 2392,
      "ording": 2393,
      "Ġbas": 2394,
      "Ġ16": 2395,
      "Ġpos": 2396,
      "ger": 2397,
      "Ġdevelopment": 2398,
      "Ġà¤ľà¥Ģà¤µà¤¨": 2399,
      "Ġà¤¸à¤¾à¤§": 2400,
      "à¤°à¥įà¤§": 2401,
      "Ġident": 2402,
      "Ġmark": 2403,
      "Ġà¤°à¤¾à¤®": 2404,
      "Ġà¤¸à¥ģà¤°à¥Ĥ": 2405,
      "ug": 2406,
      "Ġterm": 2407,
      "Ġproduct": 2408,
      "Ġà¤ħà¤§à¥įà¤¯à¤ķà¥įà¤·": 2409,
      "Ġà¤®à¤°": 2410,
      "ĠRes": 2411,
      "Ġà¤¤à¥Ģ": 2412,
      "Ġà¤ķà¥ĩà¤²à¤¾": 2413,
      "Ġimm": 2414,
      "à¥ĩà¤¸à¥įà¤Ł": 2415,
      "ĠAt": 2416,
      "Ġà¤ªà¤ķà¥įà¤·": 2417,
      "Ġà¤¬à¤ļà¥įà¤ļ": 2418,
      "Ġà¤¶à¥ģà¤°à¥Ĥ": 2419,
      "Ġà¤«à¥Ī": 2420,
      "az": 2421,
      "atic": 2422,
      "Ġmaterial": 2423,
      "ĠHowever,": 2424,
      "Ġcap": 2425,
      ".âĢĿ": 2426,
      "Ġà¤¸à¥įà¤¥à¤¾à¤¨": 2427,
      "ves": 2428,
      "Ġlaw": 2429,
      "à¤°à¥įà¤Ń": 2430,
      "Ġà¤¶à¤¾à¤®à¤¿à¤²": 2431,
      "ris": 2432,
      "à¤¤à¤°": 2433,
      "Ġà¤Ŀà¤¾à¤²à¤¾": 2434,
      "agn": 2435,
      "Ġà¤¤à¥įà¤¯à¤¾à¤¨": 2436,
      "Ġsocial": 2437,
      "erc": 2438,
      "angu": 2439,
      "Ġimpro": 2440,
      "ĠOn": 2441,
      "orth": 2442,
      "Ġben": 2443,
      "Ġwomen": 2444,
      "à¥įà¤°à¥ĩà¤¸": 2445,
      "Ġspe": 2446,
      "Ġà¤¬à¥ĭ": 2447,
      "Ġair": 2448,
      "Ġpot": 2449,
      "à¤¿à¤¸à¥įà¤Ł": 2450,
      "âĢĵ": 2451,
      "Ġconc": 2452,
      "Ġanother": 2453,
      "à¤µà¤¾à¤Ī": 2454,
      "Ġà¥©": 2455,
      "arent": 2456,
      "ers,": 2457,
      "oid": 2458,
      "me": 2459,
      "Ġprof": 2460,
      "Ġve": 2461,
      "Ġproject": 2462,
      "Ġpass": 2463,
      "Ġà¤°à¥ĭ": 2464,
      "-c": 2465,
      "iety": 2466,
      "à¤£à¤¾": 2467,
      "osed": 2468,
      "Ġà¤®à¤Ĥà¤¤à¥įà¤°à¥Ģ": 2469,
      "à¤¾à¤¤à¥įà¤®": 2470,
      "à¥Ĥà¤¤": 2471,
      "Ġdirect": 2472,
      "à¤ļà¤¨à¤¾": 2473,
      "Ġsl": 2474,
      "ological": 2475,
      "à¤¹à¤¾à¤°": 2476,
      "Ġant": 2477,
      "Ġà¤®à¥ģà¤²": 2478,
      "à¤¾à¤·à¥įà¤Łà¥įà¤°à¥Ģà¤¯": 2479,
      "à¤¾à¤§à¤¿à¤ķ": 2480,
      "Ġbelie": 2481,
      "Ġbody": 2482,
      "Ġlight": 2483,
      "à¥įà¤µà¤°": 2484,
      "Ġhome": 2485,
      "à¥ģà¤¢": 2486,
      "Ġà¤ªà¥Ĥà¤°": 2487,
      "ability": 2488,
      "'t": 2489,
      "ency": 2490,
      "Ġà¤¬à¤Ĥà¤¦": 2491,
      "Ġà¤°à¥ģà¤ªà¤¯à¥ĩ": 2492,
      "Ġà¤ľà¤¾à¤£": 2493,
      "pect": 2494,
      "Ġmus": 2495,
      "à¤ķà¥įà¤·à¤£": 2496,
      "à¥įà¤¯à¤®à¤Ĥà¤¤à¥įà¤°à¥Ģ": 2497,
      "Ġà¤¦à¤¿à¤²à¥įà¤²à¥Ģ": 2498,
      "Ġmill": 2499,
      "à¤¾à¤Ĥà¤¡": 2500,
      "ĠCl": 2501,
      "ider": 2502,
      "Ġinterest": 2503,
      "ia,": 2504,
      "Ġà¤ľà¤¹": 2505,
      "à¤¿à¤¯à¥ĭ": 2506,
      "Ġà¤ķà¤¿à¤Ĥà¤µà¤¾": 2507,
      "ived": 2508,
      "Ġet": 2509,
      "ajor": 2510,
      "Ġà¤ªà¤¡": 2511,
      "Ġcult": 2512,
      "Ġgovernment": 2513,
      "ental": 2514,
      "S.": 2515,
      "Ġà¤ĳà¤«": 2516,
      "à¤Ĺà¥Ģ": 2517,
      "gin": 2518,
      "à¥Ĥà¤Ł": 2519,
      "à¥Ģà¤ļà¥ĩ": 2520,
      "à¥īà¤¨": 2521,
      "Ġbest": 2522,
      "Ġdesc": 2523,
      "Ġrest": 2524,
      "Ġà¤¦à¤¿à¤ĸ": 2525,
      "ĠPl": 2526,
      "Ġinclude": 2527,
      "à¤¹à¤®": 2528,
      "Ġ30": 2529,
      "bs": 2530,
      "à¤Ĥ.": 2531,
      "Ġtre": 2532,
      "Ġà¤ķà¥ĩà¤Ĥà¤¦à¥įà¤°": 2533,
      "ters": 2534,
      "Ġà¤Ĩà¤ªà¤ķà¥ĭ": 2535,
      "Ġmeas": 2536,
      "Ġà¤ªà¥ģ": 2537,
      "Ġcontrol": 2538,
      "Ġà¤ĵà¤°": 2539,
      "Ġà¤ªà¤¤à¥įà¤°": 2540,
      "Ġà¤Ĭ": 2541,
      "arc": 2542,
      "Ġplant": 2543,
      "Ġà¤ļà¤¾à¤²": 2544,
      "Ġpain": 2545,
      "Ġ14": 2546,
      "Ġblood": 2547,
      "rap": 2548,
      "Ġà¤§à¤°à¥įà¤®": 2549,
      "rist": 2550,
      "à¤¸à¤Ĥ": 2551,
      "à¤¾à¤Ĥà¤ķ": 2552,
      "Ġele": 2553,
      "Ġà¤¬à¤¾à¤°à¥ĩ": 2554,
      "Ġanim": 2555,
      "atural": 2556,
      "Ġbecome": 2557,
      "Ġeng": 2558,
      "Ġà¤¤à¤¬": 2559,
      "Ġopp": 2560,
      "work": 2561,
      "Ġà¤ªà¤°à¤¿à¤µà¤¾à¤°": 2562,
      "hor": 2563,
      "Ġà¤¬à¤¾à¤ľ": 2564,
      "à¤¾à¤«à¥Ģ": 2565,
      "à¤¨à¥ĭà¤Ĥ": 2566,
      "Ġmil": 2567,
      "ĠQ": 2568,
      "Ġold": 2569,
      "Ġà¤ħà¤¶à¥Ģ": 2570,
      "Ġà¤µà¤¾à¤²à¥Ģ": 2571,
      "-f": 2572,
      "à¤Ĥà¤¬à¤°": 2573,
      "Ġmethod": 2574,
      "Ġagainst": 2575,
      "Ġanal": 2576,
      "Ġsever": 2577,
      "Ġà¤łà¥ĩà¤µ": 2578,
      "rodu": 2579,
      "ption": 2580,
      "Ġwar": 2581,
      "à¤¤à¤ĥ": 2582,
      "lished": 2583,
      "Ġà¤µà¤¾à¤Ł": 2584,
      "de": 2585,
      "Ġà¤¨à¤¿à¤°à¥įà¤®à¤¾à¤£": 2586,
      "Ġà¤ħà¤ļà¥įà¤Ľ": 2587,
      "Ġleg": 2588,
      "Ġlow": 2589,
      "ify": 2590,
      "Ġhere": 2591,
      "ĠZ": 2592,
      "Ġproper": 2593,
      "Ġsour": 2594,
      "à¥ĭà¤¬": 2595,
      "Ġmove": 2596,
      "Ġà¤¦à¥ĩà¤¨à¥ĩ": 2597,
      "à¤¿à¤¯à¤¾à¤Ĥ": 2598,
      "nâĢĻt": 2599,
      "Ġà¤ªà¥ĭà¤²": 2600,
      "à¥©": 2601,
      "Ġbetter": 2602,
      "ers.": 2603,
      "Ġà¤ķà¤®à¥Ģ": 2604,
      "Ġà¤ıà¤¸": 2605,
      "ĠCol": 2606,
      "Ġà¤¨à¥įà¤¯à¤¾à¤¯": 2607,
      "à¤¾à¤Ŀ": 2608,
      "Ġ!": 2609,
      "à¤®à¤¤": 2610,
      "Ġà¤²à¤¿à¤ĸ": 2611,
      "Ġeconom": 2612,
      "Ġà¤¬à¤¦à¤²": 2613,
      "à¥ª": 2614,
      "Ġmean": 2615,
      "Ġà¤Ńà¥Ĥà¤®": 2616,
      "Ġà¤Ĩà¤¹à¥ĩ,": 2617,
      "Ġà¤¦à¤¾à¤ĸ": 2618,
      "ly.": 2619,
      "Ġà¤®à¤ľ": 2620,
      "Ġà¤ľà¤¾à¤°à¥Ģ": 2621,
      "-t": 2622,
      "...": 2623,
      "à¥ĩà¤ļà¥įà¤¯à¤¾": 2624,
      "à¤¾à¤¸à¥įà¤¥à¥įà¤¯": 2625,
      "ination": 2626,
      "ĠBe": 2627,
      "à¤¾à¤±à¥įà¤¯à¤¾": 2628,
      "Ġà¤¯à¤¹à¤¾à¤Ĥ": 2629,
      "Ġ13": 2630,
      "ĠâĢĶ": 2631,
      "ization": 2632,
      "Ġà¤¥à¥Ģ": 2633,
      "Ġà¤¥à¥ĩ": 2634,
      "els": 2635,
      "à¥ģà¤¶": 2636,
      "here": 2637,
      "à¤¾à¤¤à¥Ĥà¤¨": 2638,
      "Ġà¤ªà¥įà¤²": 2639,
      "Ġà¤ļà¤¿à¤¤à¥įà¤°": 2640,
      "Ġà¤Ĳà¤¸à¤¾": 2641,
      "Ġà¤µà¤¾à¤¹": 2642,
      "Ġreal": 2643,
      "à¤¸à¤®": 2644,
      "Ġà¤Ńà¤¾à¤·": 2645,
      "Ġkeep": 2646,
      "Ġsecond": 2647,
      "Ġà¤ħà¤ľ": 2648,
      "Ġfore": 2649,
      "Ġà¤Ĩà¤ªà¤£": 2650,
      "Ġà¤ıà¤ķà¤¾": 2651,
      "Ġlast": 2652,
      "s:": 2653,
      "Ġà¤°à¤¾à¤·à¥įà¤Łà¥įà¤°": 2654,
      "Ġ,": 2655,
      "Ġà¤¸à¤®à¤¾à¤ľ": 2656,
      "rim": 2657,
      "Ġoper": 2658,
      "Ġprovide": 2659,
      "Ġà¤µà¤°": 2660,
      "Ġà¤ķà¤¿à¤¯à¤¾à¥¤": 2661,
      "Ġtop": 2662,
      "ĠEn": 2663,
      "ead": 2664,
      "Ġà¤¸à¤Ĥà¤ª": 2665,
      "icle": 2666,
      "ret": 2667,
      "Ġà¤¬à¤²": 2668,
      "à¤ªà¥Ĥà¤°à¥įà¤£": 2669,
      "Ġà¤¸à¥įà¤µà¤¾à¤¸à¥įà¤¥à¥įà¤¯": 2670,
      "à¥įà¤¯à¤¾à¤¦à¤¾": 2671,
      "Ġcause": 2672,
      "Ġearly": 2673,
      "Ġà¤®à¥ģà¤Ĥà¤¬à¤Ī": 2674,
      "Ġà¤Ĩà¤¶": 2675,
      "use": 2676,
      "ĠComm": 2677,
      "à¥Ģà¤¡": 2678,
      "ision": 2679,
      "à¤¾à¤¤à¥ĩ": 2680,
      "ĠUnited": 2681,
      "Ġparticular": 2682,
      "Ġmajor": 2683,
      "Ġunt": 2684,
      "ity.": 2685,
      "bers": 2686,
      "Ġà¤¦à¥ģ": 2687,
      "Ġà¤Ĺà¥ĩ": 2688,
      "ware": 2689,
      "Ġoccur": 2690,
      "Ġdev": 2691,
      "ww": 2692,
      "Ġà¤ªà¤°à¤¿à¤¸": 2693,
      "ified": 2694,
      "Ġavail": 2695,
      "Ġfre": 2696,
      "Ġpossible": 2697,
      "ĠAll": 2698,
      "Ġenergy": 2699,
      "lu": 2700,
      "ccess": 2701,
      "Ġfin": 2702,
      "Ġpar": 2703,
      "ner": 2704,
      "Ġà¤ķà¤¾à¤³": 2705,
      "à¤Ĩà¤Ī": 2706,
      "à¤¿à¤¯à¤¨": 2707,
      "à¥ĭà¤°à¥įà¤Ł": 2708,
      "ity,": 2709,
      "Ġhapp": 2710,
      "Ġà¤®à¤¾à¤®à¤²à¥ĩ": 2711,
      "Ġà¤ħà¤Ĥà¤¤": 2712,
      "Ġcurrent": 2713,
      "Ġà¤®à¤¾à¤¹à¤¿à¤¤à¥Ģ": 2714,
      "Ġà¤Ĩà¤°à¥ĭà¤ª": 2715,
      "à¥¬": 2716,
      "ury": 2717,
      "à¤µà¤¾à¤¦": 2718,
      "ained": 2719,
      "Ġ25": 2720,
      "Ġpercent": 2721,
      "Ġseveral": 2722,
      "Ġaddition": 2723,
      "ected": 2724,
      "view": 2725,
      "Ġsaf": 2726,
      "Ġà¤īà¤ł": 2727,
      "Ġindu": 2728,
      "Ġà¤¸à¤¾à¤¹": 2729,
      "ĠTe": 2730,
      "Ġà¤ļà¤°à¥įà¤ļ": 2731,
      "Ġnear": 2732,
      "18": 2733,
      "ograph": 2734,
      "ration": 2735,
      "Ġtreatment": 2736,
      "à¤¾à¤ıà¤Ĥ": 2737,
      "Ġinvol": 2738,
      "ways": 2739,
      "Ġà¤ķà¤¾à¤²": 2740,
      "Ġable": 2741,
      "ission": 2742,
      "Ġà¤ªà¥įà¤°à¤¤à¥įà¤¯": 2743,
      "Ġà¤ħà¤Ĺà¤°": 2744,
      "Ġperform": 2745,
      "Ġà¤ľà¤¾à¤¤à¥Ģ": 2746,
      "Ġà¤ħà¤¨à¥ģà¤¸à¤¾à¤°": 2747,
      "à¤°à¤µ": 2748,
      "Ġorig": 2749,
      "Ġbus": 2750,
      "à¥Ĥà¤¦": 2751,
      "Ġorder": 2752,
      "Ġà¤ľà¥Īà¤¸à¥ĩ": 2753,
      "Ġperiod": 2754,
      "Ġà¤¯à¤¾à¤Ĥà¤ļà¥įà¤¯à¤¾": 2755,
      "Ġà¤ħà¤ªà¤¨à¤¾": 2756,
      "Ġà¤ªà¥ģà¤¨": 2757,
      "Ġà¤®à¤¾à¤§": 2758,
      "Ġà¤¸à¤¤": 2759,
      "Ġbenef": 2760,
      "Ġà¤Ĺà¤¿à¤°": 2761,
      "less": 2762,
      "Ġhig": 2763,
      "ogn": 2764,
      "par": 2765,
      "ĠGod": 2766,
      "Ġmeans": 2767,
      "Ġà¤ħà¤§à¤¿à¤ķà¤¾à¤°à¥Ģ": 2768,
      "itions": 2769,
      "idence": 2770,
      "Ġlim": 2771,
      "à¤¦à¥įà¤¦": 2772,
      "ateg": 2773,
      "Ġà¤ķà¤¿à¤ı": 2774,
      "sy": 2775,
      "Ġà¤¤à¤¸à¥ĩà¤ļ": 2776,
      "Ġsince": 2777,
      "Ġà¤¨à¤¸": 2778,
      "Ġà¤ĩà¤Ĥà¤¡": 2779,
      "à¤¾à¤°à¤£": 2780,
      "Ġà¤ªà¥Ĥà¤°à¥įà¤£": 2781,
      "Ġà¤¸à¤®à¤Ŀ": 2782,
      "à¤¶à¤²": 2783,
      "Ġà¤ªà¤¾à¤²": 2784,
      "Ġà¤¤à¥įà¤¯à¤¾à¤Ĥà¤¨à¤¾": 2785,
      "Ġprom": 2786,
      "irc": 2787,
      "Ġnon": 2788,
      "à¤¦à¤¿": 2789,
      "Ġopen": 2790,
      "à¤¡à¤¼à¥ĩ": 2791,
      "Ġlangu": 2792,
      "Ġcal": 2793,
      "Ġmen": 2794,
      "Ġ/": 2795,
      "Ġel": 2796,
      "Ġfeel": 2797,
      "Ġà¤°à¥ĭà¤ľ": 2798,
      "à¥ĥà¤¤à¥įà¤¤": 2799,
      "ering": 2800,
      "à¤¹à¤¤": 2801,
      "Ġtoo": 2802,
      "Ġà¤ķà¥įà¤²": 2803,
      "ole": 2804,
      "à¤ªà¤Ł": 2805,
      "oms": 2806,
      "iness": 2807,
      "Ġà¤¸à¤¦à¤¸": 2808,
      "Ġà¤¤à¥Ī": 2809,
      "à¤¾à¤ĩà¤Ł": 2810,
      "Ġà¤Ĩà¤§à¤¾à¤°": 2811,
      "à¥įà¤¯à¤¾à¤¤à¥Ģà¤²": 2812,
      "à¤¸à¥įà¤¥à¤¿à¤¤": 2813,
      "Ġareas": 2814,
      "Ġaffect": 2815,
      "Ġà¤®à¥ģà¤ĸà¥įà¤¯": 2816,
      "Ġà¤ķà¤Ĥà¤ªà¤¨à¥Ģ": 2817,
      "Ġà¤ļà¥ģà¤ķ": 2818,
      "Ġamong": 2819,
      "osp": 2820,
      "-p": 2821,
      "Ġà¤ħà¤¸à¤¾": 2822,
      "though": 2823,
      "à¤¿à¤Łà¥Ģ": 2824,
      "ĠOne": 2825,
      "Ġà¤ĩà¤¸à¥Ģ": 2826,
      "ote": 2827,
      "Ġà¤®à¥Ģà¤¡": 2828,
      "à¤¿à¤¤à¥įà¤¯": 2829,
      "Ġà¤ªà¥įà¤°à¤®à¤¾à¤£": 2830,
      "Ġscient": 2831,
      "à¥įà¤«": 2832,
      "à¤ķà¤²": 2833,
      "à¥ĭà¤ľà¤¨à¤¾": 2834,
      "Ġà¤ħà¤¶à¤¾": 2835,
      "Ġà¤µà¤¿à¤°à¥ĭà¤§": 2836,
      "à¤®à¤§": 2837,
      "Ġà¤¸à¤¾à¤Ĥà¤Ĺà¤¿à¤¤": 2838,
      "Ġsignific": 2839,
      "à¤¿à¤¨à¥įà¤¨": 2840,
      "ilar": 2841,
      "Ġà¤®à¥ĥà¤¤": 2842,
      "Ġà¤ļà¥ģà¤¨à¤¾à¤µ": 2843,
      "Ġcost": 2844,
      "ĠOr": 2845,
      "à¤µà¥įà¤¯": 2846,
      "ining": 2847,
      "Ġà¤ķà¤¾à¤«à¥Ģ": 2848,
      "Ġà¤µà¤¹à¥Ģà¤Ĥ": 2849,
      "Ġà¤®à¥ĭà¤¦à¥Ģ": 2850,
      "Ġà¤¸à¤Ĥà¤Ĺ": 2851,
      "Ġhead": 2852,
      "elf": 2853,
      "aper": 2854,
      "Ġcountry": 2855,
      "urop": 2856,
      "Ġà¤ľà¤¿à¤¸à¤®à¥ĩà¤Ĥ": 2857,
      "Ġà¤ħà¤§à¤¿à¤ķà¤¾à¤°": 2858,
      "port": 2859,
      "Ġavailable": 2860,
      "Ġà¤ªà¥įà¤°à¤Ńà¤¾à¤µ": 2861,
      "Ġà¤®à¤Ĥà¤¤à¥įà¤°": 2862,
      "Ġlearning": 2863,
      "Ġcertain": 2864,
      "Ġà¤¯à¤¾à¤¦": 2865,
      "Ġfollowing": 2866,
      "Ġà¤Ĩà¤²": 2867,
      "ention": 2868,
      "Ġà¤¤à¥įà¤¯à¤¾à¤Ĥà¤ļà¥įà¤¯à¤¾": 2869,
      "à¤µà¤¨": 2870,
      "Ġlocal": 2871,
      "à¤¬à¥įà¤¦": 2872,
      "Ġfac": 2873,
      "à¥®": 2874,
      "à¥įà¤¯à¤¾à¤ķ": 2875,
      "Ġbased": 2876,
      "Ġfour": 2877,
      "à¥įà¤¯à¤¾à¤Ĥà¤¨à¤¾": 2878,
      "Ġobject": 2879,
      "Ġà¤ĩà¤¸à¥ĩ": 2880,
      "ĠCent": 2881,
      "Ġà¤¨à¤¿à¤°à¥įà¤£": 2882,
      "à¤¶à¤¨": 2883,
      "Ġprevent": 2884,
      "Ġgr": 2885,
      "Ġà¤ķà¥ģà¤®à¤¾à¤°": 2886,
      "Ġà¤ľà¤¾à¤¨à¤ķà¤¾à¤°à¥Ģ": 2887,
      "Ġà¤®à¤¾à¤°à¥įà¤Ĺ": 2888,
      "Ġà¤¸à¤¾à¤®à¤¨à¥ĩ": 2889,
      "Ġà¤µà¥ĭ": 2890,
      "ton": 2891,
      "ĠU.": 2892,
      "Ġà¤ªà¥ĭà¤²à¤¿à¤¸": 2893,
      "ploy": 2894,
      "à¤°à¥įà¤«": 2895,
      "Ġà¤īà¤ªà¤¯à¥ĭà¤Ĺ": 2896,
      "Ġdel": 2897,
      "Ġpost": 2898,
      "ĠNational": 2899,
      "Ġconn": 2900,
      "ians": 2901,
      "Ġà¤ªà¤¿à¤": 2902,
      "à¤¾à¤Ĥà¤Ĺà¥įà¤°à¥ĩà¤¸": 2903,
      "à¤Ĭ": 2904,
      "Ġà¤ķà¤¾à¤°à¥įà¤¯à¤ķà¥įà¤°à¤®": 2905,
      "Ġrun": 2906,
      "Ġà¤ªà¤¾à¤°à¥įà¤Łà¥Ģ": 2907,
      "ĠSome": 2908,
      "ĠWith": 2909,
      "Ġà¤®à¥ģà¤ĸà¥įà¤¯à¤®à¤Ĥà¤¤à¥įà¤°à¥Ģ": 2910,
      "Ġlist": 2911,
      "urther": 2912,
      "stit": 2913,
      "ĠChrist": 2914,
      "à¤¾à¤¤à¥Ģ": 2915,
      "à¥Ń": 2916,
      "__": 2917,
      "Ġage": 2918,
      "Ġview": 2919,
      "Ġà¤ħà¤¸à¤¤": 2920,
      "Ġstruct": 2921,
      "Ġà¤Ĺà¥ģà¤°": 2922,
      "Ġà¤®à¤¾à¤Ŀ": 2923,
      "Ġweek": 2924,
      "ĠMar": 2925,
      "gen": 2926,
      "Ġà¤ªà¥ģà¤¢": 2927,
      "Ġà¤®à¥ĩà¤°": 2928,
      "Ġit.": 2929,
      "Ġà¤¨à¤Ĺà¤°": 2930,
      "Ġà¤ħà¤¨à¥ģà¤Ń": 2931,
      "à¤¿à¤¯à¤®": 2932,
      "Ġ50": 2933,
      "Ġà¤¨à¤¿à¤¯à¤®": 2934,
      "Ġà¤®à¤¹à¤¿à¤²à¤¾": 2935,
      "12": 2936,
      "à¤ĵ": 2937,
      "ĠCan": 2938,
      "-d": 2939,
      "à¤³à¥Ģ": 2940,
      "Ġfunction": 2941,
      "à¤ľà¤¾": 2942,
      "Ġà¤¨à¤¿à¤°": 2943,
      "Ġà¤¯à¥ĩà¤£": 2944,
      "Ġbi": 2945,
      "Ġbro": 2946,
      "Ġà¤ĩà¤¸à¤²": 2947,
      "Ġà¥¨à¥¦": 2948,
      "à¤¸à¤Ńà¤¾": 2949,
      "Ġmar": 2950,
      "Ġà¤µà¤¿à¤·à¤¯": 2951,
      "Ġhard": 2952,
      "Ġà¤ľà¤¾à¤¯": 2953,
      "Ġà¤²à¤¡à¤¼": 2954,
      "r.": 2955,
      "Ġlab": 2956,
      "Ġmonth": 2957,
      "oint": 2958,
      "Ġvol": 2959,
      "ean": 2960,
      "Ġput": 2961,
      "resent": 2962,
      "Ġintern": 2963,
      "Ġà¤¬à¤°": 2964,
      "olution": 2965,
      "Ġaccess": 2966,
      "Ġà¤¥à¤¾,": 2967,
      "ien": 2968,
      "Ġà¤¨à¤¿à¤°à¥įà¤£à¤¯": 2969,
      "Ġà¤ªà¤°à¥Ģ": 2970,
      "Ġrece": 2971,
      "Ġà¤¸à¤ķà¤¤à¥Ģ": 2972,
      "Ġpolit": 2973,
      "Ġcreat": 2974,
      "Ġà¤ķà¥Ģ,": 2975,
      "ocus": 2976,
      "à¤²à¥ĭà¤Ĥ": 2977,
      "une": 2978,
      "ently": 2979,
      "Ġhistory": 2980,
      "br": 2981,
      "Ġ(S": 2982,
      "Ġà¤Ĩà¤¤à¥įà¤®": 2983,
      "Ġà¤Ĩà¤¸": 2984,
      "Ġlittle": 2985,
      "Ġnatural": 2986,
      "Ġà¤ªà¥įà¤°à¤¶à¥įà¤¨": 2987,
      "50": 2988,
      "Ġresour": 2989,
      "icult": 2990,
      "Ġà¤¢": 2991,
      "Ġà¤ľà¥įà¤¯à¤¾à¤¦à¤¾": 2992,
      "à¤°à¥Ģà¤°": 2993,
      "Ġà¤¶à¤¬à¥įà¤¦": 2994,
      "por": 2995,
      "Ġyoung": 2996,
      "Ġà¤ķà¥įà¤¯à¥ĭà¤Ĥà¤ķà¤¿": 2997,
      "hem": 2998,
      "Ġ$": 2999,
      "ggest": 3000,
      "ym": 3001,
      "à¤¡à¤¼à¥Ģ": 3002,
      "ids": 3003,
      "à¤¡à¤¼à¤¾": 3004,
      "Ġassoci": 3005,
      "à¤¿à¤¸à¥įà¤¤à¤¾à¤¨": 3006,
      "Ġà¤¨à¤¾à¤µ": 3007,
      "Ġà¤µà¥ĩà¤³": 3008,
      "Ġà¤¬à¥Ģ": 3009,
      "à¥įà¤°à¤¿à¤¯à¤¾": 3010,
      "Ġà¤¨à¥ĩà¤¤": 3011,
      "Ġpress": 3012,
      "ended": 3013,
      "orld": 3014,
      "Ġlet": 3015,
      "i,": 3016,
      "à¤¿à¤¤à¥įà¤¤": 3017,
      "Ġlater": 3018,
      "Ġà¤¨à¥įà¤¯à¥Ĥ": 3019,
      "Ġuntil": 3020,
      "ĠGo": 3021,
      "ĠMed": 3022,
      "à¥įà¤µà¥Ģ": 3023,
      "Ġà¤ªà¥įà¤°à¤¦": 3024,
      "à¥¯": 3025,
      "Ġarea": 3026,
      "etic": 3027,
      "Ġà¤Ĩà¤²à¥Ģ": 3028,
      "Ġà¤®à¥ģà¤Ŀ": 3029,
      "Ġà¤ľà¤¾à¤Ĺ": 3030,
      "Ġamount": 3031,
      "ĠLe": 3032,
      "Ġbrain": 3033,
      "Ġà¤ĺà¥ĩà¤£": 3034,
      "ples": 3035,
      "à¤§à¤¾à¤°": 3036,
      "ĠFr": 3037,
      "ĠSo": 3038,
      "Ġheart": 3039,
      "ĠAf": 3040,
      "Ġgiven": 3041,
      "ets": 3042,
      "Ġà¤ķà¤¾à¤Ĥà¤Ĺà¥įà¤°à¥ĩà¤¸": 3043,
      "not": 3044,
      "Ġcome": 3045,
      "ats": 3046,
      "over": 3047,
      "Ġcanc": 3048,
      "ledge": 3049,
      "Ġà¤®à¤¾à¤§à¥įà¤¯à¤®": 3050,
      "nes": 3051,
      "Ġflow": 3052,
      "ortun": 3053,
      "uture": 3054,
      "Ġess": 3055,
      "Ġà¤ªà¤¾à¤ł": 3056,
      "ling": 3057,
      "ither": 3058,
      "à¥įà¤¯à¤¾à¤Ĥà¤¨à¥Ģ": 3059,
      "Ġà¤®à¥įà¤¹à¤£à¤ľà¥ĩ": 3060,
      "à¤°à¤¾à¤ľ": 3061,
      "ĠBy": 3062,
      "à¤¾à¤¯à¤¤": 3063,
      "Ġcho": 3064,
      "Ġseem": 3065,
      "Ġà¤¶à¥ĩà¤¤": 3066,
      "à¤²,": 3067,
      "Ġà¤ķà¥ģ": 3068,
      "agement": 3069,
      "Ġmult": 3070,
      "Ġà¤®à¤§à¥įà¤¯à¥ĩ": 3071,
      "à¤ķà¥įà¤Łà¤°": 3072,
      "Ġsw": 3073,
      "yd": 3074,
      "Ġturn": 3075,
      "Ġsuggest": 3076,
      "Ġà¤ĩà¤¸à¤¸à¥ĩ": 3077,
      "à¤¸à¥įà¤¥à¤¾à¤¨": 3078,
      "Ġcomput": 3079,
      "Ġà¤µà¤¾à¤°": 3080,
      "Ġfree": 3081,
      "à¥įà¤®à¥Ģ": 3082,
      "Ġà¤²à¥ĩà¤ĸ": 3083,
      "Ġà¤²à¤¿à¤¯à¥ĩ": 3084,
      "Ġimpact": 3085,
      "Ġfamily": 3086,
      "à¤µà¤¾à¤°à¥Ģ": 3087,
      "Ġà¤ķà¥ĩà¤²": 3088,
      "Ġà¥ª": 3089,
      "Ġobs": 3090,
      "-m": 3091,
      "Ġdeterm": 3092,
      "ients": 3093,
      "à¤¾à¤¸à¥Ģ": 3094,
      "Ġà¤µà¤¨": 3095,
      "ably": 3096,
      "à¥įà¤¯à¤¾à¤²à¤¾": 3097,
      "Ġà¤¸à¤ª": 3098,
      "à¤¤à¤¿à¤ķ": 3099,
      "Ġshort": 3100,
      "ured": 3101,
      "ĠEurop": 3102,
      "Ġà¤ĸà¤°": 3103,
      "à¤¿à¤Ń": 3104,
      "Ġsignificant": 3105,
      "à¤µà¥įà¤¹": 3106,
      "à¤¾à¤®à¥ģà¤³à¥ĩ": 3107,
      "Ġà¤¦à¤°à¥įà¤ľ": 3108,
      "à¤¤à¥įà¤¤à¥įà¤µ": 3109,
      "à¤ľà¤¼": 3110,
      "Ġfield": 3111,
      "Ġsometh": 3112,
      "Ġà¤ķà¥ĭà¤°à¥ĭà¤¨à¤¾": 3113,
      "Ġbehav": 3114,
      "Ġà¤Ĩà¤¦à¤¿": 3115,
      "Ġtype": 3116,
      "Ġà¤ĸà¤¿à¤²à¤¾à¤«": 3117,
      "omm": 3118,
      "ĠUS": 3119,
      "à¥įà¤¶à¤¨": 3120,
      "aster": 3121,
      "aken": 3122,
      "Ġà¤ªà¤¶": 3123,
      "à¥ĩà¤Ĭà¤¨": 3124,
      "à¥ĩà¤ª": 3125,
      "à¤Ĩà¤°": 3126,
      "Ġà¤¤à¥ģà¤®à¥įà¤¹": 3127,
      "Ġà¤ķà¥ĩà¤µà¤²": 3128,
      "Ġcondition": 3129,
      "Ġà¤ªà¥įà¤°à¤ķà¤¾à¤¶": 3130,
      "i.": 3131,
      "Ġà¤ľà¥ģ": 3132,
      "ries": 3133,
      "à¤²à¤¬à¥įà¤§": 3134,
      "Ġà¤®à¤¹à¤¿à¤²": 3135,
      "oad": 3136,
      "Ġthings": 3137,
      "ask": 3138,
      "Ġmaking": 3139,
      "ĠBl": 3140,
      "mit": 3141,
      "Ġà¤Ńà¤Ĺ": 3142,
      "ised": 3143,
      "Ġdue": 3144,
      "Ġcourse": 3145,
      "Ġalong": 3146,
      "Ġexample,": 3147,
      "Ġinvest": 3148,
      "Ġà¤µà¤¿à¤¨": 3149,
      "Ġà¤¯à¤¦à¤¿": 3150,
      "Ġfar": 3151,
      "Ġà¤Łà¥Ģ": 3152,
      "Ġà¤Ĩà¤ķ": 3153,
      "Ġcomb": 3154,
      "ĠEar": 3155,
      "Ġ(C": 3156,
      "Ġà¤¸à¤«": 3157,
      "Ġ198": 3158,
      "Ġà¤µà¤¿à¤¦à¥įà¤¯": 3159,
      "Ġà¤¨à¤¿à¤¶": 3160,
      "Ġask": 3161,
      "Ġstudent": 3162,
      "Ġà¤īà¤¸à¤ķà¥Ģ": 3163,
      "à¤µà¤³": 3164,
      "Ġà¤ĸà¤¾à¤¸": 3165,
      "Ġfil": 3166,
      "Ġà¤īà¤¤à¥įà¤ªà¤¾à¤¦": 3167,
      "Ġ100": 3168,
      "Ġà¤īà¤ªà¤²à¤¬à¥įà¤§": 3169,
      "Ġvir": 3170,
      "à¤ķà¥Ģà¤¯": 3171,
      "à¤¸à¤¾à¤łà¥Ģ": 3172,
      "à¥ģà¤Ĺà¥įà¤£": 3173,
      "ends": 3174,
      "11": 3175,
      "Ġexist": 3176,
      "Ġà¤®à¤¹à¤¾à¤°à¤¾à¤·à¥įà¤Łà¥įà¤°": 3177,
      "Ġpotential": 3178,
      "oph": 3179,
      "Ġà¤ķà¤¾à¤¢": 3180,
      "Ġà¤ªà¥Ĥà¤°à¥Ģ": 3181,
      "à¤¿à¤·à¥įà¤ł": 3182,
      "à¤ªà¤¾à¤²": 3183,
      "Ġfocus": 3184,
      "Ġname": 3185,
      "Ġà¤µà¤¿à¤§à¤¾à¤¨": 3186,
      "Ġà¤ľà¤¾à¤¤à¥ĩ": 3187,
      "Ġteac": 3188,
      "à¥įà¤¯à¤¾à¤¨à¤Ĥà¤¤à¤°": 3189,
      "Ġdeath": 3190,
      "Ġenc": 3191,
      "Ġà¤¹à¥ĭà¤Ĥ": 3192,
      "Ġclear": 3193,
      "Ġà¤¶à¤¿à¤ķ": 3194,
      "istic": 3195,
      "isc": 3196,
      "Ġrad": 3197,
      "Ġsing": 3198,
      "cle": 3199,
      "à¤¾à¤¯à¤²à¤¾": 3200,
      "Ġà¤īà¤¨à¤ķà¤¾": 3201,
      "Ġappear": 3202,
      "Ġà¤¦à¥Ĥà¤°": 3203,
      "Ġlikely": 3204,
      "ia.": 3205,
      "à¤¿à¤·à¥įà¤Ł": 3206,
      "ruction": 3207,
      "atch": 3208,
      "ann": 3209,
      "Ġcirc": 3210,
      "oot": 3211,
      "ohn": 3212,
      "Ġà¤°à¤¾à¤¤": 3213,
      "Ġà¤µà¥įà¤¯à¤¾à¤ª": 3214,
      "Ġauthor": 3215,
      "Ġpast": 3216,
      "Ġà¤¶à¤°à¥Ģà¤°": 3217,
      "ication": 3218,
      "Ġà¤ªà¥įà¤°à¤¤à¥įà¤¯à¥ĩà¤ķ": 3219,
      "Ġ(A": 3220,
      "Ġline": 3221,
      "Ġà¥«": 3222,
      "à¤ķà¥įà¤Ł": 3223,
      "à¤¾à¤ĩà¤²": 3224,
      "Ġskill": 3225,
      "Ġà¤°à¥ģà¤Ĺà¥įà¤£": 3226,
      "us,": 3227,
      "let": 3228,
      "à¤ĩà¤¸": 3229,
      "Ġà¤ľà¤¿à¤²à¥įà¤¹": 3230,
      "ĠU.S.": 3231,
      "-à¤¸": 3232,
      "à¥ĩà¤¯à¤°": 3233,
      "Ġsuccess": 3234,
      "Ġstat": 3235,
      "Ġà¤¸à¤Ĥà¤ĸà¥įà¤¯à¤¾": 3236,
      "Ġà¤¦à¥ģà¤¸": 3237,
      "à¤¿à¤¯à¤°": 3238,
      "Ġconsider": 3239,
      "Ġà¤°à¤Ĥà¤Ĺ": 3240,
      "ĠThat": 3241,
      "ember": 3242,
      "Ġgive": 3243,
      "Ġà¤ķà¥ĩà¤²à¥Ģ.": 3244,
      "vious": 3245,
      "Ġalways": 3246,
      "Ġà¤ªà¤¾à¤ķ": 3247,
      "Ġà¤ħà¤®à¥ĩà¤°": 3248,
      "ox": 3249,
      "Ġdifficult": 3250,
      "face": 3251,
      "Ġusually": 3252,
      "à¤¯à¥Ģ": 3253,
      "Ġcreate": 3254,
      "Ġabove": 3255,
      "Ġtoday": 3256,
      "Ġà¤¨à¤¾à¤Ĺà¤°": 3257,
      "Ġà¤ªà¤Ł": 3258,
      "à¤¨à¤²": 3259,
      "Ġà¤¬à¥ī": 3260,
      "ames": 3261,
      "atory": 3262,
      "o.": 3263,
      "ope": 3264,
      "Ġà¤¡à¥ī.": 3265,
      "Ġrele": 3266,
      "Ġà¤ªà¤°à¤Ĥà¤¤": 3267,
      "Ġà¤ķà¥ĥà¤·": 3268,
      "à¤Ńà¤¾à¤°": 3269,
      "ecially": 3270,
      "Ġlanguage": 3271,
      "Ġexperience": 3272,
      "à¤®à¥ĩà¤Ĥà¤Ł": 3273,
      "à¤ªà¤¾à¤¸à¥Ĥà¤¨": 3274,
      "ĠIm": 3275,
      "Ġspecific": 3276,
      "Ġà¤ĩà¤¸à¤²à¤¿à¤ı": 3277,
      "Ġà¤ķà¥Į": 3278,
      "Ġfamil": 3279,
      "Ġconsum": 3280,
      "Ġdescrib": 3281,
      "Ġà¤ıà¤®": 3282,
      "à¤¿à¤·à¤¦": 3283,
      "Ġà¤¸à¤¾à¤°": 3284,
      "Ġspace": 3285,
      "ument": 3286,
      "à¥įà¤¯à¤¤à¤¾": 3287,
      "put": 3288,
      "Ġà¤¬à¤¾à¤¬": 3289,
      "Ġsimilar": 3290,
      "Ġà¤ľà¥Ī": 3291,
      "app": 3292,
      "Ġspecies": 3293,
      "à¤¨,": 3294,
      "Ġà¤®à¤§à¥įà¤¯": 3295,
      "Ġbegin": 3296,
      "Ġsomething": 3297,
      "Ġlot": 3298,
      "à¤².": 3299,
      "idd": 3300,
      "à¤¾à¤¨à¥įà¤¯": 3301,
      "Ġey": 3302,
      "Ġà¤Ĺà¥ģà¤£": 3303,
      "à¤¿à¤°à¥Ģ": 3304,
      "Ġà¤¬à¤¾à¤²": 3305,
      "etim": 3306,
      "30": 3307,
      "à¤¿à¤¥": 3308,
      "Ġà¤¦à¥ĩà¤Ĥ": 3309,
      "af": 3310,
      "ribut": 3311,
      "à¤Ĥà¤¦à¤°": 3312,
      "Ġrecord": 3313,
      "Ġdra": 3314,
      "Ġill": 3315,
      "à¤Ńà¤°": 3316,
      "Ġspecial": 3317,
      "Ġà¤ħà¤Ńà¥Ģ": 3318,
      ".\"": 3319,
      "ored": 3320,
      "itor": 3321,
      "Ġfuture": 3322,
      "Ġà¤ĸà¤¾à¤¨": 3323,
      "Ġà¤¯à¤¾à¤Ĥà¤ļ": 3324,
      "ending": 3325,
      "Ġ24": 3326,
      "tain": 3327,
      "Ġtext": 3328,
      "Ġeffective": 3329,
      "obal": 3330,
      "ring": 3331,
      "ĠAm": 3332,
      "Ġnext": 3333,
      "Ġà¤µà¥įà¤¯à¤ķà¥įà¤¤à¤¿": 3334,
      "Ġà¤¸à¤²": 3335,
      "à¤¾à¤£à¥ĩ": 3336,
      "Ġmov": 3337,
      "à¤¸à¤¾à¤¯": 3338,
      "Ġdiscuss": 3339,
      "Ġà¤¸à¤®à¤¸": 3340,
      "Ġà¤¹à¤¾à¤¥": 3341,
      "ged": 3342,
      "Ġà¤ħà¤¸à¤Ĥ": 3343,
      "of": 3344,
      "Ġà¤µà¤¾à¤ªà¤°": 3345,
      "Ġparent": 3346,
      "ĠitâĢĻs": 3347,
      "Ġprim": 3348,
      "Ġà¤Ĩà¤ł": 3349,
      "Ġà¤¬à¥ģ": 3350,
      "à¤µà¤¿à¤§": 3351,
      "aim": 3352,
      "Ġà¤¹à¥ĭà¤£": 3353,
      "Ġtemper": 3354,
      "Ġà¤ħà¤¨à¥ģà¤Ńà¤µ": 3355,
      "Ġà¤®à¥Ĥà¤²": 3356,
      "ĠBrit": 3357,
      "Ġà¤¦à¤¿à¤¯à¤¾à¥¤": 3358,
      "à¤¿à¤ķà¥ĩà¤Ł": 3359,
      "Ġà¤ĩà¤¸à¤ķà¤¾": 3360,
      "Ġer": 3361,
      "nal": 3362,
      "Ġsympt": 3363,
      "Ġà¤¯à¤¾à¤µ": 3364,
      "Ġnecess": 3365,
      "Ġincrease": 3366,
      "Ġhistor": 3367,
      "Ġestab": 3368,
      "Ġà¤ªà¤¿à¤Ľ": 3369,
      "Ġà¤Ĩà¤¨à¥ĩ": 3370,
      "ried": 3371,
      "à¥ĩà¤ļà¥ĩ": 3372,
      "Ġprop": 3373,
      "Ġesp": 3374,
      "Ġstandard": 3375,
      "Ġà¤®à¥Īà¤ļ": 3376,
      "Ġà¤Ľà¥ĭà¤Ł": 3377,
      "Ġcrit": 3378,
      "à¥ĩà¤Ĺà¤¾à¥¤": 3379,
      "ina": 3380,
      "ĠGen": 3381,
      "ane": 3382,
      "Ġà¤ĩà¤¸à¤®à¥ĩà¤Ĥ": 3383,
      "Ġà¤¯à¥ĭà¤ľà¤¨à¤¾": 3384,
      "Ġà¤¸à¥Į": 3385,
      "oman": 3386,
      "Ġà¤ªà¤°à¤Ĥà¤¤à¥ģ": 3387,
      "Ġà¤¤à¤¿à¤ļ": 3388,
      "Ġà¤¯à¥ĩà¤¥à¥ĩ": 3389,
      "Ġà¤¨à¤¾à¤Ĺà¤°à¤¿à¤ķ": 3390,
      "Ġà¤ªà¥įà¤°à¤§à¤¾à¤¨": 3391,
      "Ġvarious": 3392,
      "Ġà¤®à¥ģà¤¦": 3393,
      "ott": 3394,
      "Ġapplic": 3395,
      "Ġgre": 3396,
      "Ġà¤Ĩà¤ı": 3397,
      "Ġcharacter": 3398,
      "Ġstrong": 3399,
      "Ġdam": 3400,
      "Ġà¤¤à¥ĩà¤ľ": 3401,
      "min": 3402,
      "Ġhigher": 3403,
      "Ġtry": 3404,
      "rug": 3405,
      "ĠWorld": 3406,
      "Ġside": 3407,
      "Ġà¤ķà¥ī": 3408,
      "Ġrespons": 3409,
      "asing": 3410,
      "Ġnever": 3411,
      "Ġkind": 3412,
      "iate": 3413,
      "Ġà¤¸à¤ļ": 3414,
      "most": 3415,
      ",âĢĿ": 3416,
      "Ġà¤ĺà¤Łà¤¨à¤¾": 3417,
      "ĠAb": 3418,
      "à¤¾à¤¨à¥ĭà¤Ĥ": 3419,
      "Ġtoget": 3420,
      "Ġtogether": 3421,
      "à¤®à¤¨": 3422,
      "aps": 3423,
      "ĠAfric": 3424,
      "Ġleast": 3425,
      "Ġwhy": 3426,
      "à¤¿à¤²à¥ĩ": 3427,
      "Ġevent": 3428,
      "ĠWhile": 3429,
      "Ġà¤®à¤Ĥà¤¦": 3430,
      "Ġoffic": 3431,
      "Ġà¤ĩà¤²": 3432,
      "Ġà¤®à¥Ģà¤¡à¤¿à¤¯à¤¾": 3433,
      "Ġà¤¬à¤ļ": 3434,
      "Ġà¤Ĩà¤Ĺà¥ĩ": 3435,
      "lement": 3436,
      "Ġà¤µà¤¸à¥įà¤¤": 3437,
      "ilities": 3438,
      "Ġleft": 3439,
      "Ġà¤ķà¤°à¤¤à¥Ģ": 3440,
      "à¥ĭà¤¦": 3441,
      "-l": 3442,
      "Ġà¤¸à¥įà¤®": 3443,
      "Ġà¤¸à¤¾à¤¤": 3444,
      "Ġnews": 3445,
      "Ġaway": 3446,
      "à¥ĩà¤Ĥà¤¡": 3447,
      "Ġcolle": 3448,
      "Ġmillion": 3449,
      "in,": 3450,
      "Ġà¤¦à¥Ĥà¤¸à¤°à¥ĩ": 3451,
      "Ġlive": 3452,
      "ĠJohn": 3453,
      "Ġà¤²à¤¾à¤Ń": 3454,
      "Ġacross": 3455,
      "Ġà¤īà¤ªà¤¸à¥įà¤¥à¤¿à¤¤": 3456,
      "Ġprofess": 3457,
      "Ġdisease": 3458,
      "ĠWar": 3459,
      "Ġtru": 3460,
      "ilt": 3461,
      "ĠGerm": 3462,
      "Ġrequire": 3463,
      "Ġà¤ķà¤°à¤ķà¥ĩ": 3464,
      "Ġà¤ĺà¥ĭà¤·": 3465,
      "Ġà¤¹à¥ĭà¤Ĺà¤¾à¥¤": 3466,
      "Ġà¤¨à¤¿à¤°à¥įà¤¦": 3467,
      "à¤ľà¥įà¤ŀ": 3468,
      "à¥ĩà¤Ĥà¤Ĺà¥ĩà¥¤": 3469,
      "Ġnet": 3470,
      "Ġà¤ħà¤¦": 3471,
      "sc": 3472,
      "15": 3473,
      "Ġà¤®à¥ĩà¤Ĥ,": 3474,
      "à¤¯à¤¨": 3475,
      "ode": 3476,
      "Ġresearc": 3477,
      "Ġlink": 3478,
      "à¤¸à¥įà¤ª": 3479,
      "Ġà¤¸à¤¿à¤¦à¥įà¤§": 3480,
      "Ġenough": 3481,
      "à¤ķà¤°à¥įà¤¤": 3482,
      "Ġà¤ıà¤¨": 3483,
      "Ġgeneral": 3484,
      "ush": 3485,
      "sw": 3486,
      "Ġ=": 3487,
      "yl": 3488,
      "à¤¤à¥įà¤¯à¤¾": 3489,
      "duct": 3490,
      "Ġhour": 3491,
      "ĠAfter": 3492,
      "Ġà¤¤à¥ĩà¤µ": 3493,
      "Ġmic": 3494,
      "à¤²à¥Ģà¤¸": 3495,
      "Ġimprove": 3496,
      "Ġà¤¸à¥ĭà¤¶à¤²": 3497,
      "Ġtool": 3498,
      "Ġà¤ħà¤²à¤Ĺ": 3499,
      "Ġà¤ªà¥įà¤°à¤¯à¤¤à¥įà¤¨": 3500,
      "Ġà¤¸à¥įà¤ªà¤·à¥įà¤Ł": 3501,
      "ĠNe": 3502,
      "Ġà¤ħà¤¸à¥ĩà¤²": 3503,
      "ung": 3504,
      "à¤¾à¤µà¥ĩ": 3505,
      "Ġà¤ªà¤°à¤¿à¤£": 3506,
      "Ġchem": 3507,
      "Ġà¤ªà¥įà¤°à¤®à¥ģà¤ĸ": 3508,
      "Ġà¤®à¤¹à¤¤à¥įà¤µ": 3509,
      "Ġà¤§à¤¨": 3510,
      "Ġmot": 3511,
      "à¥ĭà¤¸": 3512,
      "alf": 3513,
      "à¤¾à¤Ĥà¤¬": 3514,
      "Ġà¤°à¤¿à¤ª": 3515,
      "âĢĻre": 3516,
      "à¤¤à¥įà¤¤à¤¾": 3517,
      "NA": 3518,
      "Ġà¤ªà¥įà¤°à¥ĩà¤®": 3519,
      "ories": 3520,
      "Ġespecially": 3521,
      "sh": 3522,
      "Ġà¤®à¥ģà¤Ŀà¥ĩ": 3523,
      "Ġplac": 3524,
      "amm": 3525,
      "is,": 3526,
      "à¤°à¤®": 3527,
      "Ġà¤ķà¥ģà¤²": 3528,
      "Ġhaving": 3529,
      "pr": 3530,
      "à¤¾à¤Ĥà¤®à¤§à¥įà¤¯à¥ĩ": 3531,
      "Ġà¤ļà¤°à¥įà¤ļà¤¾": 3532,
      "Ġà¤ķà¤°à¤£à¥įà¤¯à¤¾à¤¸à¤¾à¤łà¥Ģ": 3533,
      "à¥ĩà¤ķà¥įà¤·à¤¾": 3534,
      "à¥įà¤Ń": 3535,
      "Ġà¤Ĩà¤²à¤¾": 3536,
      "yn": 3537,
      "Ġà¤¤à¤¾à¤²": 3538,
      "à¥įà¤¯à¤¾à¤£": 3539,
      "ttp": 3540,
      "à¥īà¤ķ": 3541,
      "à¤°à¥Ģà¤²": 3542,
      "à¥Ģà¤ļà¤¾": 3543,
      "Ġà¤ħà¤Ńà¤¿à¤¨": 3544,
      "Ġreason": 3545,
      "Ġà¤°à¤¾à¤·à¥įà¤Łà¥įà¤°à¥Ģà¤¯": 3546,
      "Ġà¤°à¤µ": 3547,
      "Ġà¤¬à¥ĩà¤¹": 3548,
      "Ġà¤ļà¤¾à¤Ĥà¤Ĺ": 3549,
      "à¤¾à¤¬à¤¾à¤¦": 3550,
      "Ġà¤¬à¤¡à¤¼à¥Ģ": 3551,
      "ĠPol": 3552,
      "Ġà¤ħà¤¸à¤²à¥ĩà¤²à¥įà¤¯à¤¾": 3553,
      "Ġà¤ķà¥ĩà¤²à¥ĩ.": 3554,
      "à¤¾à¤¬à¤¤": 3555,
      "ĠEnglish": 3556,
      "ray": 3557,
      "ĠStud": 3558,
      "Ġà¤®à¥Ĥ": 3559,
      "à¤¹à¤¨": 3560,
      "à¤¾à¤Ĥà¤µà¤°": 3561,
      "Ġà¤§à¥įà¤¯à¤¾à¤¨": 3562,
      "ance,": 3563,
      "Ġmodel": 3564,
      "à¤¾à¤®à¤§à¥įà¤¯à¥ĩ": 3565,
      "à¤¾à¤¤à¥įà¤®à¤ķ": 3566,
      "Ġpolic": 3567,
      "Ġtimes": 3568,
      "16": 3569,
      "à¤Łà¤ķ": 3570,
      "ipp": 3571,
      "Ġ(P": 3572,
      "200": 3573,
      "Ġsens": 3574,
      "//": 3575,
      "Ġà¤ķà¤Ńà¥Ģ": 3576,
      "Ġprotect": 3577,
      "Ġà¤īà¤ļà¥įà¤ļ": 3578,
      "Ġworking": 3579,
      "Ġfull": 3580,
      "Ġsubject": 3581,
      "ĠCar": 3582,
      "à¤¿à¤¨à¤¾": 3583,
      "Ġà¤ķà¥Ģà¥¤": 3584,
      "Ġknowledge": 3585,
      "Ġz": 3586,
      "Ġà¤ľà¤¹à¤¾à¤Ĥ": 3587,
      "Ġtemperature": 3588,
      "Ġà¤ķà¤°à¥ĭà¤¡à¤¼": 3589,
      "aut": 3590,
      "Ġphysical": 3591,
      "ĠIntern": 3592,
      "Ġcomplete": 3593,
      "Ġteam": 3594,
      "Ġà¤ķà¤¾à¤¨": 3595,
      "Ġrepresent": 3596,
      "ĠShe": 3597,
      "ĠHealth": 3598,
      "Ġà¤¦à¥ĥà¤·à¥įà¤Ł": 3599,
      "Ġà¤ľà¤¨à¥įà¤®": 3600,
      "Ġaccount": 3601,
      "Ġà¤Ĩà¤¨": 3602,
      "à¤®à¤Ĥà¤¤à¥įà¤°à¥Ģ": 3603,
      "Ġà¤²à¥Ģ": 3604,
      "Ġà¤¤à¥įà¤¯à¤¾à¤¤": 3605,
      "Ġhouse": 3606,
      "Ġà¤¤à¥įà¤¯à¤¾à¤²": 3607,
      "Ġwhether": 3608,
      "Ġbecame": 3609,
      "Ġà¤®à¤¾à¤Ĥà¤Ĺ": 3610,
      "Ġà¤ªà¤¾à¤Ł": 3611,
      "Ġ197": 3612,
      "Ġà¤ľà¥įà¤ŀà¤¾à¤¨": 3613,
      "Ġmind": 3614,
      "Ġà¤¸à¤Ĥà¤¸": 3615,
      "Ġpopulation": 3616,
      "-à¤ª": 3617,
      "sych": 3618,
      "Ġcase": 3619,
      "à¤¾à¤Ĥà¤ķà¤¿": 3620,
      "ĠPres": 3621,
      "Ġstep": 3622,
      "Ġnorm": 3623,
      "à¤°,": 3624,
      "à¤µà¥ĩ": 3625,
      "ĠTr": 3626,
      "Ġkey": 3627,
      "Ġà¤¬à¤¨à¤¾": 3628,
      "ment,": 3629,
      "apt": 3630,
      "Ġsum": 3631,
      "à¤¿à¤¹à¤¾à¤¸": 3632,
      "Ġsal": 3633,
      "à¤ļà¤¾à¤²": 3634,
      "Ġà¤¬à¤¾à¤Ĥ": 3635,
      "Ġself": 3636,
      "Ġà¤¦à¥ĩà¤ĸà¥Ģà¤²": 3637,
      "Ġfund": 3638,
      "ances": 3639,
      "Ġquestion": 3640,
      "Ġground": 3641,
      "Ġà¤¹à¤¿à¤¸": 3642,
      "Ġà¤ªà¥įà¤°à¤¸à¥įà¤¤": 3643,
      "side": 3644,
      "Ġmakes": 3645,
      "-à¤ķ": 3646,
      "à¤°à¥Ĥà¤ª": 3647,
      "ĠAg": 3648,
      "ment.": 3649,
      "ression": 3650,
      "Ġprob": 3651,
      "ĠdonâĢĻt": 3652,
      "à¤ķà¥įà¤·à¤ķ": 3653,
      "Ġà¤ªà¤°à¤¿à¤·à¤¦": 3654,
      "Ġà¤¸à¥įà¤¥à¤¾à¤ª": 3655,
      "Ġà¤²à¤¾à¤µ": 3656,
      "Ġà¤ľà¤¨à¤¤à¤¾": 3657,
      "Ġlower": 3658,
      "ream": 3659,
      "13": 3660,
      "erence": 3661,
      "Ġinflu": 3662,
      "à¤¾à¤¨à¥įà¤¤": 3663,
      "à¤ķà¥įà¤·à¤¿à¤¤": 3664,
      "amin": 3665,
      "Ġà¤ľà¤¾à¤Ĥà¤ļ": 3666,
      "à¤®à¤¾à¤°": 3667,
      "à¥įà¤¯à¥ĭà¤Ĺ": 3668,
      "Ġlevels": 3669,
      "ife": 3670,
      "à¥įà¤¯à¤¾à¤®à¥ģà¤³à¥ĩ": 3671,
      "chie": 3672,
      "an,": 3673,
      "à¤°à¥įà¤¥à¤¿à¤ķ": 3674,
      "Ġfurther": 3675,
      "à¤ªà¤°à¥įà¤¯à¤Ĥà¤¤": 3676,
      "Ġparticip": 3677,
      "cing": 3678,
      "Ġbig": 3679,
      "à¥ģà¤Ĩ": 3680,
      "Ġà¤Ĺà¤¾à¤µ": 3681,
      "acc": 3682,
      "Ġrole": 3683,
      "à¥Īà¤Ĥà¤¡": 3684,
      "à¤µà¤¿à¤£": 3685,
      "à¤Ĥà¤Ĺà¤²": 3686,
      "17": 3687,
      "à¥ĩà¤Ĥà¤¸": 3688,
      "à¤¿à¤ķà¤²": 3689,
      "Ġà¤¤à¥įà¤°": 3690,
      "Ġà¤ªà¤¾à¤¨à¥Ģ": 3691,
      "Ġnut": 3692,
      "unt": 3693,
      "Ġchall": 3694,
      "ĠGe": 3695,
      "Ġà¤¤à¥įà¤¯à¤¾à¤²à¤¾": 3696,
      "Ġgoing": 3697,
      "ĠÂ": 3698,
      "Ġrelations": 3699,
      "ump": 3700,
      "Ġà¤Ĺà¤Īà¥¤": 3701,
      "Ġà¤¬à¤¨à¤¾à¤¨à¥ĩ": 3702,
      "ler": 3703,
      "ique": 3704,
      "Ġscience": 3705,
      "à¤ķà¥įà¤¤à¤¿": 3706,
      "Ġà¤¬à¤¾à¤ľà¤¾à¤°": 3707,
      "Ġtradition": 3708,
      "ure,": 3709,
      "Ġà¤¨à¤ľà¤°": 3710,
      "Ġsure": 3711,
      "à¥Ģà¤ļà¥įà¤¯à¤¾": 3712,
      "Ġactivities": 3713,
      "aching": 3714,
      "Ġdig": 3715,
      "Ġà¤ĸà¥ĩà¤³": 3716,
      "Ġà¤ªà¥ĭà¤²à¥Ģà¤¸": 3717,
      "iation": 3718,
      "Ġà¤®à¥ģà¤ķ": 3719,
      "à¤¤à¤¾à¤²": 3720,
      "Ġà¤¶à¥ĩà¤¤à¤ķ": 3721,
      "iol": 3722,
      "Ġà¤ķà¤°à¥Ĥ": 3723,
      "mber": 3724,
      "ĠCal": 3725,
      "à¤«à¥įà¤¤": 3726,
      "Ġà¤µà¤¿à¤¦à¥įà¤¯à¤¾à¤°à¥įà¤¥": 3727,
      "Ġeff": 3728,
      "Ġà¤®à¤²à¤¾": 3729,
      "ĠDo": 3730,
      "à¤Ńà¤¾à¤Ĺ": 3731,
      "Ġindic": 3732,
      "augh": 3733,
      "à¥Ģà¤¬": 3734,
      "Ġà¤ĸà¥ĩà¤²": 3735,
      "à¤ķà¥įà¤°": 3736,
      "Ġcontain": 3737,
      "Ġcontinu": 3738,
      "Ġcond": 3739,
      "Ġ22": 3740,
      "Ġà¤ķà¥įà¤°à¤¿à¤ķà¥ĩà¤Ł": 3741,
      "Ġbelow": 3742,
      "Ġpred": 3743,
      "Ġà¤¨à¤°": 3744,
      "Ġthem.": 3745,
      "Ġsays": 3746,
      "Ġà¤¤à¥Īà¤¯à¤¾à¤°": 3747,
      "ER": 3748,
      "Ġà¤¸à¥ĩà¤µà¤¾": 3749,
      "Ġtoward": 3750,
      "Ġà¤łà¤¿à¤ķ": 3751,
      "ready": 3752,
      "Ġà¤Ĩà¤¦à¥ĩà¤¶": 3753,
      "à¥ĥà¤¹": 3754,
      "Ġà¤Ĳà¤¸à¥Ģ": 3755,
      "ibility": 3756,
      "Ġà¤Ĩà¤°à¥įà¤¥à¤¿à¤ķ": 3757,
      "Ġà¤ħà¤²à¤¾à¤µà¤¾": 3758,
      "à¤¿à¤¨à¥įà¤¦": 3759,
      "ĠResear": 3760,
      "Ġopt": 3761,
      "Ġemploy": 3762,
      "Ġà¤ļà¥ģ": 3763,
      "Ġclose": 3764,
      "Ġens": 3765,
      "Ġarm": 3766,
      "Ġseen": 3767,
      "rel": 3768,
      "à¤µà¤¾à¤¦à¥Ģ": 3769,
      "bon": 3770,
      "or,": 3771,
      "Ġà¤¯à¥ĩà¤¥à¥Ģà¤²": 3772,
      "rict": 3773,
      "Ġà¤µà¥ĩà¤Ĺ": 3774,
      "Ġà¤ĩà¤¤à¤°": 3775,
      "14": 3776,
      "Th": 3777,
      "Ġà¤īà¤¸à¤ķà¤¾": 3778,
      "Ġà¤¨à¤¿à¤µà¤¡à¤£": 3779,
      "Ġrather": 3780,
      "cul": 3781,
      "Ġ40": 3782,
      "Ġà¤ķà¤²à¥įà¤¯à¤¾à¤£": 3783,
      "Ġrange": 3784,
      "urch": 3785,
      "à¥Ģà¤ļà¥Ģ": 3786,
      "ides": 3787,
      "Ġgrowth": 3788,
      "Ġneg": 3789,
      "oura": 3790,
      "ĠX": 3791,
      "Ġpaper": 3792,
      "à¥įà¤¸à¤¾": 3793,
      "Ġchanges": 3794,
      "Ġtypes": 3795,
      "Ġà¤ªà¤°à¤®": 3796,
      "Ġà¤¬à¤¾à¤¹à¤°": 3797,
      "à¤¾à¤ļà¤¾à¤°": 3798,
      "Ġà¤īà¤¸à¤¨à¥ĩ": 3799,
      "Ġbat": 3800,
      "Ġcy": 3801,
      "Ġcells": 3802,
      "ĠMay": 3803,
      "à¤ľà¥Ĥà¤¦": 3804,
      "Ġreally": 3805,
      "Ġà¤ľà¤¿à¤¸à¤ķà¥ĩ": 3806,
      "Ġà¤ķà¥īà¤²": 3807,
      "ĠSoc": 3808,
      "à¤Ĺà¤¾à¤°": 3809,
      "ĠRep": 3810,
      "Ġthought": 3811,
      "Ġà¤¯à¤¾à¤Ĥà¤¨à¤¾": 3812,
      "thing": 3813,
      "Ġdeg": 3814,
      "à¤ıà¤²": 3815,
      "Ġà¤¸à¥įà¤¥à¤¿à¤¤à¤¿": 3816,
      "Ġsitu": 3817,
      "Ġresults": 3818,
      "Ġà¤Ĺà¤£": 3819,
      "Ġrecogn": 3820,
      "à¤µà¤¤": 3821,
      "aring": 3822,
      "à¤¾à¤¸à¥Ĥà¤¨": 3823,
      "Ġflu": 3824,
      "Ġur": 3825,
      "Ġfr": 3826,
      "à¥Īà¤°": 3827,
      "ones": 3828,
      "ublic": 3829,
      "Ġeither": 3830,
      "irm": 3831,
      "verage": 3832,
      "à¥Ĥà¤°à¥Ģ": 3833,
      "ĠAss": 3834,
      "Ġà¤Ľà¥ĭà¤¡à¤¼": 3835,
      "à¤Łà¤¨": 3836,
      "Ġà¤°à¥ĩà¤²": 3837,
      "val": 3838,
      "Ġquality": 3839,
      "Ġproduction": 3840,
      "Ġsingle": 3841,
      "ĠMan": 3842,
      "ĠStates": 3843,
      "à¤¯à¥ģà¤ķà¥įà¤¤": 3844,
      "ival": 3845,
      "ĠAcc": 3846,
      "Ġbusiness": 3847,
      "ysis": 3848,
      "Ġwind": 3849,
      "Ġà¤¬à¤¡à¤¼à¥ĩ": 3850,
      "Ġalready": 3851,
      "Ġà¤¥à¤¾.": 3852,
      "ape": 3853,
      "à¤²à¥ĩà¤²à¥ĩ": 3854,
      "Ġà¤ªà¤¢à¤¼": 3855,
      "Ġ(M": 3856,
      "Ġà¤ªà¥įà¤°à¤¶à¤¾à¤¸à¤¨": 3857,
      "overed": 3858,
      "Ġà¤®à¤Ĥà¤¦à¤¿à¤°": 3859,
      "Ġà¤¸à¥ģà¤ª": 3860,
      "Ġdiet": 3861,
      "ure.": 3862,
      "Ġà¤ıà¤ķà¥įà¤¸": 3863,
      "Ġneeds": 3864,
      "Ġà¤ħà¤Ĥà¤¤à¤°": 3865,
      "Ġeffort": 3866,
      "Ġphot": 3867,
      "Ġà¤Łà¤ķà¥įà¤ķ": 3868,
      "Ġà¤¨à¤µà¥įà¤¹": 3869,
      "Ġevidence": 3870,
      "Ġà¤¯à¥ģà¤µ": 3871,
      "ĠNorth": 3872,
      "à¥ģà¤¡": 3873,
      "iple": 3874,
      "Ġarticle": 3875,
      "Ġà¤ľà¤¯": 3876,
      "Ġoil": 3877,
      "Ġà¤¸à¤Ĥà¤¸à¥įà¤ķ": 3878,
      "ournal": 3879,
      "ĠCont": 3880,
      "ai": 3881,
      "Ġà¤ªà¤¤à¤¾": 3882,
      "iting": 3883,
      "Ġcas": 3884,
      "Ġfall": 3885,
      "--": 3886,
      "iam": 3887,
      "à¥ĩà¤¦à¤¨": 3888,
      "à¤¨à¤¾à¤¥": 3889,
      "Ġfive": 3890,
      "Ġreturn": 3891,
      "Ġothers": 3892,
      "Ġà¤®à¤¦à¤¦": 3893,
      "):": 3894,
      "Ġdom": 3895,
      "Ġà¤ªà¥įà¤°à¤¤à¤¿": 3896,
      "ule": 3897,
      "org": 3898,
      "Ġmarket": 3899,
      "Ġà¤¹à¤¾à¤²à¤¾à¤Ĥà¤ķà¤¿": 3900,
      "Ġà¤µà¤¾à¤²à¤¾": 3901,
      "wh": 3902,
      "eb": 3903,
      "Ġà¤ľà¤¾à¤¨à¤¾": 3904,
      "à¥ĥà¤¤à¤¿": 3905,
      "Ġà¤Ĺà¤¾à¤Ĥà¤µ": 3906,
      "rad": 3907,
      "esc": 3908,
      "Ġà¥¬": 3909,
      "Ġaccording": 3910,
      "Ġonce": 3911,
      "Ġmeet": 3912,
      "Ġnature": 3913,
      "Ġachie": 3914,
      "à¤¾à¤³à¥Ģ": 3915,
      "Ġnational": 3916,
      "Ġà¤ħà¤Ĥà¤Ĺ": 3917,
      "Ġmedical": 3918,
      "Ġà¤ħà¤°": 3919,
      "idered": 3920,
      "à¤£à¥įà¤¯à¤¾à¤¤": 3921,
      "ations.": 3922,
      "Ġà¤¯à¤¾à¤ļ": 3923,
      "ee": 3924,
      "for": 3925,
      "Ġcommunity": 3926,
      "Ġabs": 3927,
      "omes": 3928,
      "Ġà¤¤à¤¯à¤¾à¤°": 3929,
      "ĠSouth": 3930,
      "Ġà¤¹à¥ĭà¤£à¤¾à¤°": 3931,
      "Ġblack": 3932,
      "Ġà¤¦à¤¿à¤¨à¥ĭà¤Ĥ": 3933,
      "Ġwhole": 3934,
      "Ġcollect": 3935,
      "à¤ľà¤¹": 3936,
      "ivil": 3937,
      "à¥įà¤°à¤¿à¤¯": 3938,
      "Ġsun": 3939,
      "Ġà¤¹à¤®à¤¾à¤°à¥ĩ": 3940,
      "Ġfrequ": 3941,
      "Ġ196": 3942,
      "Ġà¤¤à¥įà¤¯à¤¾à¤ļà¥įà¤¯à¤¾": 3943,
      "Ġtaken": 3944,
      "Ġà¤ªà¤°à¤¿à¤£à¤¾à¤®": 3945,
      "à¤¾à¤ķà¤¾à¤°": 3946,
      "ĠAct": 3947,
      "Ġreduce": 3948,
      "Ġinit": 3949,
      "Ġrate": 3950,
      "à¤¨à¥įà¤§": 3951,
      "Ġtime.": 3952,
      "Ġà¤ľà¥ĩ": 3953,
      "à¥Ĥà¤ģ": 3954,
      "Ġsam": 3955,
      "Ġtime,": 3956,
      "enn": 3957,
      "à¤ļà¤¿à¤¤": 3958,
      "Ġà¤ĩà¤Ĥà¤Ł": 3959,
      "Ġtechnology": 3960,
      "Ġsource": 3961,
      "Ġà¤Ńà¤¾à¤ľà¤ªà¤¾": 3962,
      "à¤¾à¤°à¤ĸ": 3963,
      "Ġsurface": 3964,
      "Ġdetail": 3965,
      "Ġbuilding": 3966,
      "Ġà¤ħà¤¸à¤²à¥įà¤¯à¤¾à¤ļà¥ĩ": 3967,
      "Ġà¤µà¥Ģà¤¡": 3968,
      "Ġeducation": 3969,
      "Ġrelig": 3970,
      "ĠAust": 3971,
      "ibr": 3972,
      "fact": 3973,
      "ĠDep": 3974,
      "Ġred": 3975,
      "Ġà¤ªà¤¿à¤Ľà¤²à¥ĩ": 3976,
      "Ġcut": 3977,
      "Ġstory": 3978,
      "Ġà¤¨à¥ģà¤ķ": 3979,
      "Ġconcept": 3980,
      "Ġà¤¦à¥ĩà¤¤à¥ĩ": 3981,
      "Ġdoct": 3982,
      "Ġà¤Ĺà¥ĭà¤·à¥įà¤Ł": 3983,
      "à¤¡à¤¾": 3984,
      "Ġclimate": 3985,
      "Ġupon": 3986,
      "Ġsent": 3987,
      "Ġanimal": 3988,
      "Ġà¤°à¤¿à¤ªà¥ĭà¤°à¥įà¤Ł": 3989,
      "Ġattack": 3990,
      "à¥ĩà¤Ĺà¤¾": 3991,
      "Ġà¤łà¤¾à¤ķ": 3992,
      "rect": 3993,
      "Ġà¤ĺà¤¡": 3994,
      "Ġdrug": 3995,
      "Ġhold": 3996,
      "Ġann": 3997,
      "ime": 3998,
      "Ġà¤µà¥ĥ": 3999,
      "à¥Īà¤²": 4000,
      "Ġpolitical": 4001,
      "leep": 4002,
      "ĠYork": 4003,
      "-à¤¬": 4004,
      "Ġthemsel": 4005,
      "à¥ĭà¤®": 4006,
      "Ġconsidered": 4007,
      "Ġà¤°à¤¹à¤¨à¥ĩ": 4008,
      "Ġà¤®à¤Ĥà¤¡": 4009,
      "Ġfri": 4010,
      "Ġdest": 4011,
      "Ġtot": 4012,
      "Ġà¤¬à¥ĩà¤Ł": 4013,
      "Ġà¤¬à¤¿à¤²": 4014,
      "à¥įà¤°à¤¾à¤®": 4015,
      "Ġcannot": 4016,
      "Ġfat": 4017,
      "Ġcreated": 4018,
      "Ġà¤ªà¤Ĥà¤ļ": 4019,
      "Ġà¤¬à¥Īà¤łà¤ķ": 4020,
      "Ġà¤²à¤Ĺà¤¾": 4021,
      "Ġà¤ľà¤Ĺà¤¹": 4022,
      "à¤Ĺà¥įà¤°à¥ĩà¤¸": 4023,
      "à¤£à¥įà¤¯à¤¾à¤¸à¤¾à¤łà¥Ģ": 4024,
      "à¥įà¤ļà¤¿à¤¤": 4025,
      "Ġobserv": 4026,
      "Ġwide": 4027,
      "Ġà¤¦à¤ķà¥įà¤·": 4028,
      "Ġà¤ķà¤°à¤¾à¤µ": 4029,
      "Ġà¤ķà¥ĩà¤²à¤¾.": 4030,
      "Ġhappen": 4031,
      "Ġproblems": 4032,
      "à¤°à¥ĭà¤Ĥ": 4033,
      "Ġdiseas": 4034,
      "Ġà¤µà¤¿à¤µà¤¿à¤§": 4035,
      "fficient": 4036,
      "à¤²à¥įà¤ª": 4037,
      "roll": 4038,
      "Ġà¤ľà¤¼": 4039,
      "Ġ21": 4040,
      "Ġà¤¸à¥įà¤µà¤¤à¤ĥ": 4041,
      "Ġsoil": 4042,
      "Ġrecomm": 4043,
      "oney": 4044,
      "Ġà¤¸à¥Ĥà¤°": 4045,
      "etimes": 4046,
      "Ġà¤ħà¤¡": 4047,
      "fer": 4048,
      "Ġfeature": 4049,
      "Ġà¤¸à¥Ģà¤®": 4050,
      "Ġà¤¶à¤°à¥įà¤®": 4051,
      "Ġhttp": 4052,
      "Ġà¤łà¤°": 4053,
      "Ġfail": 4054,
      "Ġassociated": 4055,
      "Ġà¤«à¥įà¤°": 4056,
      "Ġaction": 4057,
      "Ġà¤ķà¤µ": 4058,
      "acy": 4059,
      "à¤®à¥ģ": 4060,
      "à¤Ńà¤Ĺ": 4061,
      "Ġà¤ļà¤¾à¤¹à¤¿à¤ıà¥¤": 4062,
      "Ġver": 4063,
      "Ġintrodu": 4064,
      "Ġtell": 4065,
      "Ġrelated": 4066,
      "Ġà¤ķà¤¾à¤ģ": 4067,
      "Ġnetwork": 4068,
      "à¥ĭ.": 4069,
      "ae": 4070,
      "à¥įà¤¯à¤¾à¤Ĥà¤ļà¥įà¤¯à¤¾": 4071,
      "Ġhowever,": 4072,
      "Ġà¤Ĺà¤Ĥ": 4073,
      "Ġcame": 4074,
      "Ġà¤¶à¥ģà¤ķ": 4075,
      "à¥¦à¥¦": 4076,
      "Ġà¤¹à¥ĭà¤Ī": 4077,
      "Ġmass": 4078,
      "Ġlay": 4079,
      "ĠHist": 4080,
      "à¥ĭà¤¹": 4081,
      "Ġà¤Ĩà¤¯à¤¾": 4082,
      "Ġà¤µà¥Ģà¤¡à¤¿à¤¯à¥ĭ": 4083,
      "ensive": 4084,
      "reme": 4085,
      "Ġà¤ķà¤¿à¤¨": 4086,
      "Ġà¤Ĺà¤°": 4087,
      "Ġà¤ħà¤ĸ": 4088,
      "Ġà¤°à¤¾à¤¶": 4089,
      "à¤¾à¤ķà¥įà¤·": 4090,
      "Ġà¤®à¤Ĥà¤¤à¥įà¤°à¤¾à¤²à¤¯": 4091,
      "à¤µà¥Ĥà¤¨": 4092,
      "ĠSu": 4093,
      "ires": 4094,
      "Ġ(I": 4095,
      "Ġà¤ªà¤¶à¥įà¤ļ": 4096,
      "à¥ĭà¤°à¥Ģ": 4097,
      "ħà¤°": 4098,
      "Ġport": 4099,
      "ators": 4100,
      "c.": 4101,
      "Ġeconomic": 4102,
      "\".": 4103,
      "Ġpay": 4104,
      "Ġarg": 4105,
      "à¥ĩà¤ļà¤¾": 4106,
      "Ġà¤¸à¤¦à¤¸à¥įà¤¯": 4107,
      "Ġà¤ľà¤¾à¤ıà¤Ĺà¤¾à¥¤": 4108,
      "Ġà¤Ĩà¤ªà¤ķà¥ĩ": 4109,
      "Ġà¤®à¤¾à¤¸": 4110,
      "Ġà¤®à¤¹à¥Ģ": 4111,
      "Ġweight": 4112,
      "ĠGu": 4113,
      "Ġcat": 4114,
      "Ġà¤¦à¥ģà¤¨": 4115,
      "Ġà¤¦à¤¿à¤²à¥Ģ": 4116,
      "Ġadult": 4117,
      "Ġà¤ªà¥Ĥà¤°à¤¾": 4118,
      "Ġà¤¸à¥ģà¤°à¤ķà¥įà¤·à¤¾": 4119,
      "ĠEarth": 4120,
      "Ġà¤ªà¤¾à¤ķà¤¿à¤¸à¥įà¤¤à¤¾à¤¨": 4121,
      "Ġà¤¸à¥įà¤ķà¥Ĥà¤²": 4122,
      "Ġways": 4123,
      "rown": 4124,
      "Ġà¤ľà¥Ģà¤¤": 4125,
      "Ġsound": 4126,
      "Ġsimple": 4127,
      "ister": 4128,
      "Ġdeveloped": 4129,
      "à¥Ĥà¤¬": 4130,
      "Ġà¤¨à¤¿à¤°à¥įà¤¦à¥ĩà¤¶": 4131,
      "epend": 4132,
      "à¤¤à¤®": 4133,
      "eter": 4134,
      "reg": 4135,
      "ĠMany": 4136,
      "à¥ĩà¤Ĥà¥¤": 4137,
      "à¤ªà¤£à¥ĩ": 4138,
      "Ġà¤ľà¤¬à¤ķà¤¿": 4139,
      "Ġitself": 4140,
      "ĠPe": 4141,
      "Ġthing": 4142,
      "ally,": 4143,
      "Ġà¤¨à¥Į": 4144,
      "Ġà¤®à¥ģà¤¸": 4145,
      "abit": 4146,
      "ober": 4147,
      "à¤¿à¤ķà¥Ģ": 4148,
      "à¤¨à¥įà¤¦à¥įà¤°": 4149,
      "sp": 4150,
      "à¤¥à¤®": 4151,
      "Ġrequired": 4152,
      "Ġà¤®à¤¹à¤¿à¤¨": 4153,
      "Ġeffects": 4154,
      "Ġconcern": 4155,
      "Ġpatients": 4156,
      "Ġà¤¤à¤¹à¤¤": 4157,
      "Ġopportun": 4158,
      "Ġactually": 4159,
      "Ġà¤ħà¤«": 4160,
      "Ġà¤¨à¤¾à¤°": 4161,
      "à¤¿à¤ķà¥įà¤¤": 4162,
      "à¤ļà¤¨": 4163,
      "Ġrepl": 4164,
      "Ġà¤¸à¥Ĥà¤ļà¤¨à¤¾": 4165,
      "ĠHis": 4166,
      "SA": 4167,
      "Ġstudies": 4168,
      "Ġdays": 4169,
      "ĠEm": 4170,
      "ification": 4171,
      "Ġà¤ĺà¥ĩà¤Ĭà¤¨": 4172,
      "Ġrelationship": 4173,
      "sequ": 4174,
      "Ġentire": 4175,
      "à¤Ĥà¤Ń": 4176,
      "Ġpublished": 4177,
      "Ġà¤ªà¥ģà¤£": 4178,
      "Ġaddress": 4179,
      "aves": 4180,
      "Ġcomplex": 4181,
      "à¤ªà¥Ĥà¤°": 4182,
      "Ġà¤¬à¤¡à¤¼à¤¾": 4183,
      "Ġability": 4184,
      "Ġà¤ªà¤ķ": 4185,
      "à¤¦à¤®": 4186,
      "Ġtalk": 4187,
      "à¤¾à¤¡à¤¼à¥Ģ": 4188,
      "Ġà¤¦à¥ĩà¤¤": 4189,
      "Ġà¤ĸà¥ģà¤¦": 4190,
      "Ġà¤¸à¤¨": 4191,
      "Ġà¤¹à¤¿à¤Ĥà¤¦": 4192,
      "itud": 4193,
      "Ġavoid": 4194,
      "ison": 4195,
      "à¥īà¤Ł": 4196,
      "Ġà¤°à¤¨": 4197,
      "Ġà¤ĩà¤¸à¤ķà¥Ģ": 4198,
      "Ġà¤¶à¤¿à¤ķà¥įà¤·à¤¾": 4199,
      "à¤µà¤¿à¤·": 4200,
      "Ġà¤Ĺà¥įà¤°à¤¾à¤®": 4201,
      "-à¤ħ": 4202,
      "Ġà¤¯à¤¾à¤¤à¥įà¤°": 4203,
      "Ġà¤¸à¥Īà¤¨": 4204,
      "Ġà¤ľà¤°à¥Ĥà¤°": 4205,
      ",\"": 4206,
      "Ġà¤µà¤¿à¤Ńà¤¿à¤¨à¥įà¤¨": 4207,
      "Ġstrateg": 4208,
      "Ġà¤¸à¤®à¥įà¤®": 4209,
      "à¤°à¥įà¤¤à¥Ģ": 4210,
      "Ġglobal": 4211,
      "Ġà¤Ĩà¤®à¥įà¤¹à¥Ģ": 4212,
      "Ġà¥§à¥¯": 4213,
      "âĢ¦": 4214,
      "Ġalmost": 4215,
      "Ġrecent": 4216,
      "Ġquick": 4217,
      "ystem": 4218,
      "Ġà¤¬à¤ľ": 4219,
      "Ġregard": 4220,
      "ĠState": 4221,
      "Ġà¤¦à¤¿à¤ı": 4222,
      "or.": 4223,
      "Ġà¤§à¥ĭ": 4224,
      "Ġmanagement": 4225,
      "o-": 4226,
      "à¥ĩà¤²à¤¾": 4227,
      "Ġexerc": 4228,
      "Ġà¤ķà¤¿à¤²": 4229,
      "Ġà¤Ńà¥ĩà¤ľ": 4230,
      "erve": 4231,
      "Ġà¤µà¤°à¥įà¤Ĺ": 4232,
      "Ġà¤«à¥ĭà¤Ł": 4233,
      "à¤¾à¤¸à¥įà¤¤à¥įà¤°": 4234,
      "Ġà¤¬à¥įà¤²": 4235,
      "ance.": 4236,
      "à¤¹à¤¾à¤¨": 4237,
      "Ġfarm": 4238,
      "Ġliving": 4239,
      "à¤£à¥įà¤¡": 4240,
      "à¥įà¤®à¥Ģà¤¦": 4241,
      "hib": 4242,
      "à¤ªà¥Ĥà¤°à¥įà¤µ": 4243,
      "Ġfish": 4244,
      "Ġgas": 4245,
      "à¤¾à¤ľà¤¿à¤ķ": 4246,
      "Ġà¤¬à¤¾à¤Ĥà¤§": 4247,
      "Ġà¤µà¤¿à¤¶à¥įà¤µà¤¾à¤¸": 4248,
      "Ġresearchers": 4249,
      "uel": 4250,
      "Ġcentur": 4251,
      "Ġkill": 4252,
      "Ġà¤¹à¥ĭà¤¨à¤¾": 4253,
      "à¥ĭà¤µ": 4254,
      "à¤¸à¥įà¤µ": 4255,
      "Ġà¤ļà¤¿à¤¤à¥įà¤°à¤ªà¤Ł": 4256,
      "Ġà¤ķà¤¿à¤¤": 4257,
      "Ġdoc": 4258,
      "Ġà¤«à¤¾à¤¯": 4259,
      "Ġfire": 4260,
      "Ġà¤¸à¤Ĥà¤¬à¤Ĥà¤§à¤¿à¤¤": 4261,
      "Ġà¤ªà¤¾à¤µ": 4262,
      "à¤°à¥Ģà¤ľ": 4263,
      "à¤¿à¤¨à¥Ģ": 4264,
      "Ġpurp": 4265,
      "ĠâĢľI": 4266,
      "yle": 4267,
      "en,": 4268,
      "itary": 4269,
      "Ġtook": 4270,
      "Ġcomes": 4271,
      "Ġprovides": 4272,
      "Ġà¤ªà¥ģà¤°à¥ģà¤·": 4273,
      "Ġvalue": 4274,
      "à¤Ńà¥Ģà¤°": 4275,
      "Ġhalf": 4276,
      "Ġà¤¨à¥įà¤¯à¤¾à¤¯à¤¾à¤²à¤¯": 4277,
      "Ġengine": 4278,
      "Ġansw": 4279,
      "Ġsuper": 4280,
      "Ġà¤Ľà¤¾à¤¤à¥įà¤°": 4281,
      "à¤ļà¤Ĥ": 4282,
      "Ġter": 4283,
      "ands": 4284,
      "Ġjob": 4285,
      "stry": 4286,
      "t,": 4287,
      "Ġprote": 4288,
      "Ġpriv": 4289,
      "Ġcity": 4290,
      "Ġvers": 4291,
      "Ġbar": 4292,
      "Ġbehavior": 4293,
      "Ġà¤ªà¤¾à¤Ĥà¤ļ": 4294,
      "Ġnecessary": 4295,
      "Ġmodern": 4296,
      "Ġmeasure": 4297,
      "son": 4298,
      "Ġà¤¯à¥ĭà¤Ĺà¥įà¤¯": 4299,
      "Ġà¤¶à¤¾à¤¸à¤¨": 4300,
      "à¥įà¤¹à¥ĭà¤Ĥà¤¨à¥ĩ": 4301,
      "Ġclaim": 4302,
      "gest": 4303,
      "Ġà¤®à¥įà¤¹à¤£à¤¾à¤²à¥ĩ": 4304,
      "Ġsystems": 4305,
      "al,": 4306,
      "ĠMore": 4307,
      "Ġà¤¸à¤Ĥà¤¸à¥įà¤¥": 4308,
      "Ġà¤ľà¤¾à¤¸à¥įà¤¤": 4309,
      "by": 4310,
      "Ġincreased": 4311,
      "Ġà¤Ĩà¤ªà¤²": 4312,
      "Ġà¤¦à¤¾à¤ĸà¤²": 4313,
      "à¤°à¥įà¤Ĺà¤¤": 4314,
      "chan": 4315,
      "à¤ľà¥įà¤ŀà¤¾à¤¨": 4316,
      "Ġà¤ªà¥įà¤°à¤µà¥ĩà¤¶": 4317,
      "ript": 4318,
      "vere": 4319,
      "Ġà¤µà¤ľà¤¹": 4320,
      "umb": 4321,
      "Ġwebs": 4322,
      "Ġmor": 4323,
      "Ġgreen": 4324,
      "Ġà¤¦à¤²": 4325,
      "Ġà¤«à¤¾à¤°": 4326,
      "Ġcheck": 4327,
      "light": 4328,
      "gar": 4329,
      "Ġbill": 4330,
      "Ġà¤ķà¤°à¥ĩà¤Ĥà¥¤": 4331,
      "Ġà¤īà¤®à¥įà¤®à¥Ģà¤¦": 4332,
      "Ġcancer": 4333,
      "artment": 4334,
      "ĠMost": 4335,
      "Ġà¤ķà¤¾à¤°à¥įà¤¯à¤¾à¤²à¤¯": 4336,
      "à¤¾à¤¡à¥Ģ": 4337,
      "Ġà¤ķà¤¾à¤ģà¤Ĺà¥įà¤°à¥ĩà¤¸": 4338,
      "Ġcoll": 4339,
      "ĠâĢ¢": 4340,
      "à¤®à¤§à¥Ģà¤²": 4341,
      "Ġà¤Ĩà¤°à¥ĭà¤ªà¥Ģ": 4342,
      "Ġdone": 4343,
      "oon": 4344,
      "Ġsuff": 4345,
      "Ġà¤ħà¤¥": 4346,
      "Ġever": 4347,
      "Ġpatient": 4348,
      "ĠInstit": 4349,
      "Ġ194": 4350,
      "Ġbegan": 4351,
      "Ġcompan": 4352,
      "Ġà¤Ĩà¤²à¥ĩ.": 4353,
      "à¤³à¥ĩ": 4354,
      "Ġessential": 4355,
      "Ġwhite": 4356,
      "Ġarch": 4357,
      "urity": 4358,
      "Ġà¤µà¤¿à¤®": 4359,
      "inter": 4360,
      "Ġà¤ªà¥ĭà¤¸à¥įà¤Ł": 4361,
      "à¥Ĥà¤¹": 4362,
      "Ġunderstanding": 4363,
      "Ġpath": 4364,
      "Ġà¤¸à¤®à¤¾à¤¨": 4365,
      "Ġmatter": 4366,
      "osis": 4367,
      "oll": 4368,
      "Ġreact": 4369,
      "à¤ľà¥įà¤ľ": 4370,
      "Ġà¤ķà¤°à¥įà¤®à¤ļ": 4371,
      "Ġarr": 4372,
      "Ġ23": 4373,
      "à¤ļà¤¾à¤¨": 4374,
      "Ġcop": 4375,
      "Ġapproach": 4376,
      "Ġà¤ķà¥ĭà¤°à¥įà¤Ł": 4377,
      "Ġà¤®à¤¿à¤¶": 4378,
      "ĠApp": 4379,
      "Ġconduct": 4380,
      "Ġassess": 4381,
      "à¥Ģà¤¤à¤¿": 4382,
      "i-": 4383,
      "Ġà¤¨à¤¹à¥Ģ": 4384,
      "Ġà¤ªà¥Ĥà¤Ľ": 4385,
      "Ġpattern": 4386,
      "Ġposition": 4387,
      "age.": 4388,
      "ĠJew": 4389,
      "Ġà¤¸à¥ĭà¤®": 4390,
      "Ġ--": 4391,
      "Ġà¤ķà¤¹à¤¤à¥ĩ": 4392,
      "Ġà¤ªà¥ĩà¤¶": 4393,
      "Ġà¤¦à¥ĩà¤£à¥įà¤¯à¤¾à¤¤": 4394,
      "Ġnam": 4395,
      "Ġlat": 4396,
      "Ġà¤®à¥ĩà¤°à¥ĩ": 4397,
      "ĠII": 4398,
      "Ġà¤¬à¤¤à¤¾": 4399,
      "ots": 4400,
      "ĠAlthough": 4401,
      "Ġà¤¦à¤ķà¥įà¤·à¤¿à¤£": 4402,
      "Ġloss": 4403,
      "Ġproduce": 4404,
      "Ġà¤«à¤¼": 4405,
      "à¤¿à¤¤à¥įà¤µ": 4406,
      "Ġà¤µà¤¾à¤¸à¥įà¤¤": 4407,
      "n't": 4408,
      "Ġà¤¸à¤®à¤¿à¤¤": 4409,
      "Ġà¤µà¥įà¤¯à¤µà¤¸à¥įà¤¥à¤¾": 4410,
      "à¥īà¤ª": 4411,
      "Ġà¤ħà¤¸à¥įà¤ª": 4412,
      "Ġmembers": 4413,
      "Ġtherap": 4414,
      "à¥įà¤¯à¤¾à¤®": 4415,
      "Ġà¤¨à¥ĩà¤¤à¤¾": 4416,
      "Ġà¤¸à¤§": 4417,
      "Ġyet": 4418,
      "ID": 4419,
      "Ġwords": 4420,
      "ĠResearch": 4421,
      "Ġanc": 4422,
      "ĠHere": 4423,
      "à¤¿à¤¨à¤¿à¤§": 4424,
      "Ġà¤Ĺà¤¾à¤Ĥà¤§à¥Ģ": 4425,
      "à¤µà¤¿à¤¦": 4426,
      "Ġà¤¹à¥Ĥà¤Ĥ": 4427,
      "Ġà¤®à¤¹à¤¤à¥įà¤¤à¥įà¤µ": 4428,
      "Ġsense": 4429,
      "Ġà¤ĸà¤°à¥įà¤ļ": 4430,
      "à¤®à¥įà¤¬": 4431,
      "empt": 4432,
      "be": 4433,
      "Ġprinc": 4434,
      "Ġà¤¹à¥ĭà¤Ĺà¤¾": 4435,
      "ery": 4436,
      "Ġà¤¸à¤®à¤°à¥įà¤¥": 4437,
      "Ġà¤Łà¤¾à¤ķ": 4438,
      "ply": 4439,
      "Ġchemical": 4440,
      "Ġà¤«à¥ĭà¤¨": 4441,
      "Ġsymptoms": 4442,
      "Ġà¤¬à¥Īà¤Ĥà¤ķ": 4443,
      "ĠCo": 4444,
      "Ġà¤²à¥ĩà¤¨à¥ĩ": 4445,
      "Ġà¤ķà¤¹à¤¾,": 4446,
      "Ġstop": 4447,
      "Ġà¤ķà¤°à¥Ģà¤¬": 4448,
      "Ġà¤ªà¤¤à¥įà¤¨": 4449,
      "à¤°à¤²": 4450,
      "Ġge": 4451,
      "Ġcontent": 4452,
      "Ġplants": 4453,
      "Ġà¤ªà¤¾à¤£à¥Ģ": 4454,
      "Ġthroughout": 4455,
      "duc": 4456,
      "Ġpopular": 4457,
      "Ġà¤¸à¥ģà¤ĸ": 4458,
      "iment": 4459,
      "ĠBritish": 4460,
      "Ġcamp": 4461,
      "ĠSec": 4462,
      "à¤¬à¤¹": 4463,
      "Ġà¤¨à¤¾à¤¹à¥Ģ,": 4464,
      "à¥ĭà¤ľà¤¿à¤¤": 4465,
      "Ġà¤ĩà¤¸à¥įà¤¤": 4466,
      "Ġrul": 4467,
      "à¤¸à¤¾à¤¨": 4468,
      "à¥ĩà¤¥": 4469,
      "Ġà¤¸à¤¾à¤®à¤¾à¤¨à¥įà¤¯": 4470,
      "Ġà¤¹à¤¾à¤¤": 4471,
      "Ġà¤ľà¤¿à¤¸à¤¸à¥ĩ": 4472,
      "Ġmedic": 4473,
      "Ġà¤¦à¥ģà¤¨à¤¿à¤¯à¤¾": 4474,
      "Ġworks": 4475,
      "à¤¾à¤°à¥įà¤Ł": 4476,
      "Ġsepar": 4477,
      "à¤¯à¤¾à¤¨": 4478,
      "Ġliter": 4479,
      "à¤¾à¤ĩà¤¡": 4480,
      "Ġà¤¯à¥Ĥ": 4481,
      "cy": 4482,
      "lying": 4483,
      "Ġà¤¨à¤µà¥Ģà¤¨": 4484,
      "Ġdog": 4485,
      "Ġà¤®à¤¹à¤¾à¤ª": 4486,
      "Ġà¤īà¤²à¥įà¤²": 4487,
      "ĠPr": 4488,
      "Ġà¤¤à¤°à¤«": 4489,
      "ĠMin": 4490,
      "à¤ıà¤¨": 4491,
      "Ġà¤¸à¤Ĥà¤ļà¤¾à¤²": 4492,
      "Ġà¤ĩà¤ļà¥įà¤Ľ": 4493,
      "Ġà¤¸à¤¾à¤®à¤¾à¤ľà¤¿à¤ķ": 4494,
      "Ġà¤ĸà¤°à¥Ģ": 4495,
      "Ġà¤®à¥ģà¤¤": 4496,
      "ĠSchool": 4497,
      "Ġà¤ķà¤¹à¤¨à¤¾": 4498,
      "Ġskin": 4499,
      "AT": 4500,
      "het": 4501,
      "Ġà¤¶à¥ĭ": 4502,
      "hold": 4503,
      "Ġtar": 4504,
      "Ġsoft": 4505,
      "Ġà¤¬à¥ĭà¤°à¥įà¤¡": 4506,
      "Ġut": 4507,
      "à¤ķà¤Ł": 4508,
      "Ġà¤ªà¥įà¤°à¤¦à¤¾à¤¨": 4509,
      "ine,": 4510,
      "ĠCanad": 4511,
      "Ġà¤µà¤¹à¤¾à¤Ĥ": 4512,
      "ks": 4513,
      "Ġà¤¯à¤¾à¤¦à¤µ": 4514,
      "Ġà¤²à¤Ĺà¤Ńà¤Ĺ": 4515,
      "Ġà¤®à¥įà¤¹à¤Ł": 4516,
      "Ġemer": 4517,
      "à¤¾à¤¯à¤²": 4518,
      "Ġà¤²à¤¾à¤²": 4519,
      "Ġconditions": 4520,
      "Ġà¤¤à¥įà¤¯à¤¾à¤¨à¤Ĥà¤¤à¤°": 4521,
      "Ġà¤¸à¥įà¤¤à¤°": 4522,
      "Ġonline": 4523,
      "Ġà¤¯à¤¹à¥Ģ": 4524,
      "Ġà¤§à¤¾à¤°": 4525,
      "à¤ªà¥įà¤ª": 4526,
      "igure": 4527,
      "à¤°à¤¨": 4528,
      "Ġà¤Ńà¤Ĺà¤µà¤¾à¤¨": 4529,
      "emic": 4530,
      "Ġfeed": 4531,
      "à¤ķ,": 4532,
      "iddle": 4533,
      "urs": 4534,
      "Ġà¤¤à¥ģà¤®à¥įà¤¹à¥Ģ": 4535,
      "ĠJap": 4536,
      "à¤¯à¤Ĥ": 4537,
      "ronic": 4538,
      "ĠPre": 4539,
      "Ġà¤¸à¤Ĥà¤°": 4540,
      "Ġprevious": 4541,
      "Ġà¤¤à¤¾à¤ķ": 4542,
      "Ġà¤¡à¥īà¤ķà¥įà¤Łà¤°": 4543,
      "ations,": 4544,
      "Ġà¤¯à¥Ĥà¤¨": 4545,
      "Ġà¤Ńà¥Ĥà¤®à¤¿à¤ķà¤¾": 4546,
      "à¥ĭà¤¬à¤¤": 4547,
      "Ġtaking": 4548,
      "Ġà¤¸à¤¾à¤ĩ": 4549,
      "à¤¦à¥įà¤¦à¤²": 4550,
      "Ġà¤Ĩà¤¹": 4551,
      "Ġà¤¸à¤¾à¤Ĥà¤¸": 4552,
      "ney": 4553,
      "Ġà¤®à¥Įà¤¤": 4554,
      "ederal": 4555,
      "Ġà¤¤à¥ĩà¤²": 4556,
      "Ġà¤µà¤¿à¤ľà¤¯": 4557,
      "Ġpersonal": 4558,
      "to": 4559,
      "Ġà¤¸à¤Ĥà¤Ń": 4560,
      "t.": 4561,
      "Ġà¤Ĩà¤¨à¤Ĥà¤¦": 4562,
      "Ġcountries": 4563,
      "Ġremain": 4564,
      "à¤Łà¤¾": 4565,
      "Ġà¤ļà¤¿à¤ķ": 4566,
      "Ġheat": 4567,
      "ĠDr.": 4568,
      "estern": 4569,
      "à¥ģà¤Ŀ": 4570,
      "ricult": 4571,
      "Ġà¤¹à¤¿à¤Ĥ": 4572,
      "Ġà¤ķà¥ĭà¤¶": 4573,
      "Ġà¤ªà¥ĩà¤Ł": 4574,
      "Ġp.": 4575,
      "à¥ģà¤·à¥įà¤¯": 4576,
      "ges": 4577,
      "Ġà¤ķà¤¬": 4578,
      "onse": 4579,
      "Ġà¤ĭ": 4580,
      "Ġà¤ªà¤¾à¤Łà¥Ģà¤²": 4581,
      "Ġà¤ĩà¤Ĥà¤Ĺ": 4582,
      "Ġà¤¤à¥įà¤¯à¤¾à¤µ": 4583,
      "Ġ26": 4584,
      "Ġsix": 4585,
      "Ġà¤¨à¤ı": 4586,
      "pid": 4587,
      "ĠOther": 4588,
      "à¥ĩà¤ļà¥Ģ": 4589,
      "à¥įà¤¯à¤¾à¤¹": 4590,
      "Ġà¤ľà¤¿à¤²à¥ĩ": 4591,
      "Ġla": 4592,
      "à¤ķà¤¾à¤²": 4593,
      "Ġà¤Ĺà¥ģà¤¨": 4594,
      "aged": 4595,
      "abor": 4596,
      "Ġà¤ªà¤¹à¤²à¥Ģ": 4597,
      "Ġà¤¦à¤¿à¤²à¥ĩ": 4598,
      "Ġà¤°à¥ĭà¤Ĺ": 4599,
      "à¤¿à¤¹à¤¾à¤°": 4600,
      "Ġ28": 4601,
      "Ġà¤Ĺà¤Ĥà¤Ńà¥Ģà¤°": 4602,
      "ĠInt": 4603,
      "Ġdisord": 4604,
      "minist": 4605,
      "Ġincreasing": 4606,
      "à¥ĭà¤Ĥ,": 4607,
      "Ġà¤¸à¥ģà¤µà¤¿à¤§": 4608,
      "ĠPer": 4609,
      "Ġindustry": 4610,
      "ES": 4611,
      "Ã©": 4612,
      "Ġà¤°à¥ĭà¤ķ": 4613,
      "Ġà¤µà¤¿à¤§à¤¾à¤¨à¤¸à¤Ńà¤¾": 4614,
      "astic": 4615,
      "Ġà¤ªà¥įà¤°à¤¦à¤°à¥įà¤¶à¤¨": 4616,
      "go": 4617,
      "à¤¤à¥Ģà¤¨à¥ĩ": 4618,
      "ards": 4619,
      "ĠNews": 4620,
      "Ġà¤¸à¤Ĺ": 4621,
      "Ġinteract": 4622,
      "ley": 4623,
      "izing": 4624,
      "à¤¾à¤¤à¥į": 4625,
      "ĠYour": 4626,
      "Ġà¥Ń": 4627,
      "Ġà¤ªà¤¹à¤¿à¤²": 4628,
      "Ġidea": 4629,
      "abet": 4630,
      "Ġà¤µà¥ĩà¤¬": 4631,
      "mb": 4632,
      "ran": 4633,
      "Ġà¤®à¤§": 4634,
      "Ġà¤ħà¤°à¥įà¤ľ": 4635,
      "ĠFl": 4636,
      "Ġbuilt": 4637,
      "Ġbur": 4638,
      "ety": 4639,
      "Ġimag": 4640,
      "Ġvide": 4641,
      "Ġà¤ªà¤°à¥Ģà¤ķà¥įà¤·à¤¾": 4642,
      "à¤¹à¤¿à¤¤": 4643,
      "PA": 4644,
      "Ġà¤¸à¤®à¥ģà¤¦": 4645,
      "Ġbreak": 4646,
      "à¤°à¥įà¤ª": 4647,
      "à¥įà¤¯à¤¾.": 4648,
      "Ġheav": 4649,
      "à¥ĩà¤¦à¤¾à¤°": 4650,
      "Ġà¤®à¥ģà¤¤à¤¾à¤¬": 4651,
      "Ġà¤ªà¤µà¤¾à¤°": 4652,
      "Ġà¤ªà¤Ĥà¤ľ": 4653,
      "Ġbring": 4654,
      "Ġà¤¸à¤Ĥà¤ľ": 4655,
      "Ġà¤µà¤°à¥įà¤¤": 4656,
      "Ġà¤ªà¤¦à¤¾à¤°": 4657,
      "Ġinj": 4658,
      "à¤¨à¥Ģà¤¯": 4659,
      "ĠQu": 4660,
      "ĠGerman": 4661,
      "Ġà¤¯à¤¾à¤¤": 4662,
      "Ġà¤¯à¤¶": 4663,
      "Ġà¤°à¤¸à¥įà¤¤": 4664,
      "aff": 4665,
      "Ġ(N": 4666,
      "oor": 4667,
      "à¥ĩà¤Ĥà¤Ĺà¥ĩ": 4668,
      "Ġà¤®à¥ģà¤¤à¤¾à¤¬à¤¿à¤ķ": 4669,
      "Ġdeb": 4670,
      "Ġà¤¶à¤¿à¤µà¤¸à¥ĩ": 4671,
      "ĠâĢľThe": 4672,
      "inary": 4673,
      "ables": 4674,
      "ging": 4675,
      "Ġà¤«à¤²": 4676,
      "Ġhealthy": 4677,
      "lt": 4678,
      "Ġà¤ķà¥ĩà¤Ĥà¤¦": 4679,
      "Ġà¤¨à¤¿à¤®": 4680,
      "raft": 4681,
      "ĠAccording": 4682,
      "Ġà¤ªà¥įà¤°à¤ķà¥įà¤°à¤¿à¤¯à¤¾": 4683,
      "Ġà¤¬à¤¿à¤¨à¤¾": 4684,
      "Ġà¤¬à¤ļà¥įà¤ļà¥ĭà¤Ĥ": 4685,
      "Ġà¤ªà¤¾à¤ļ": 4686,
      "Ġà¤ħà¤ķ": 4687,
      "Ġsex": 4688,
      "à¤®à¤°": 4689,
      "Ġexc": 4690,
      "Ġcontact": 4691,
      "reng": 4692,
      "Ġà¤ªà¤°à¤¿à¤¸à¥įà¤¥": 4693,
      "Ġsurv": 4694,
      "à¥ģà¤°à¥Ģ": 4695,
      "irth": 4696,
      "Ġsleep": 4697,
      "Ġà¤¶à¤°": 4698,
      "Ġà¤®à¤²": 4699,
      "Ġsite": 4700,
      "Ġenvironmental": 4701,
      "Ġà¤¸à¤¿à¤¨": 4702,
      "Ġà¤ªà¤°à¤¿à¤¸à¤°": 4703,
      "plic": 4704,
      "à¥ĭà¤²à¤¨": 4705,
      "Ġaccept": 4706,
      "Ġà¤ľà¤¿à¤²à¤¾": 4707,
      "Ġtotal": 4708,
      "Ġce": 4709,
      "ropri": 4710,
      "à¥ĭ,": 4711,
      "-based": 4712,
      "Ġà¤®à¤°à¤¾à¤łà¥Ģ": 4713,
      "ites": 4714,
      "Ġà¤¬à¥Ģà¤ľ": 4715,
      "Ġà¤ħà¤¸à¥įà¤ªà¤¤à¤¾à¤²": 4716,
      "à¤Ĥ,": 4717,
      "Ġeat": 4718,
      "Ġ27": 4719,
      "Ġviol": 4720,
      "Ġcaused": 4721,
      "Ġà¤¯à¥ģ": 4722,
      "Ġbird": 4723,
      "Ġquestions": 4724,
      "Ġà¤®à¤¾à¤°à¥įà¤ļ": 4725,
      "Ġà¤ķà¥Īà¤¸à¥ĩ": 4726,
      "Ġà¤¦à¥Ĥà¤¸à¤°à¥Ģ": 4727,
      "hing": 4728,
      "Ġlove": 4729,
      "Ġà¤°à¤¾à¤¹à¥ģà¤²": 4730,
      "Ġblock": 4731,
      "Ġà¤¤à¥įà¤¯à¤¾à¤Ĥà¤ļ": 4732,
      "Ġrev": 4733,
      "osition": 4734,
      "à¥Ĥà¤°à¥įà¤µ": 4735,
      "à¤®à¥ĩ": 4736,
      "ume": 4737,
      "ĠComp": 4738,
      "Ġactivity": 4739,
      "Ġpric": 4740,
      "Ġà¤¸à¤°à¤ķà¤¾à¤°à¥Ģ": 4741,
      "Ġà¤¨à¤¾à¤¹à¥Ģà¤¤": 4742,
      "Ġà¤ªà¤°à¤¿à¤µ": 4743,
      "ĠRec": 4744,
      "à¤¤à¥Ģà¤¤": 4745,
      "Ġà¤¡à¥Ģ": 4746,
      "à¥ĩà¤¶à¥įà¤µà¤°": 4747,
      "Ġshown": 4748,
      "Ġgroups": 4749,
      "ĠPart": 4750,
      "à¥ĩà¤Ĺà¥Ģà¥¤": 4751,
      "à¥ħà¤¨": 4752,
      "irit": 4753,
      "ĠStat": 4754,
      "uck": 4755,
      "Ġà¤¹à¤²": 4756,
      "mon": 4757,
      "25": 4758,
      "ched": 4759,
      "Ġstress": 4760,
      "ĠEd": 4761,
      "ips": 4762,
      "Ġtravel": 4763,
      "Ġmusic": 4764,
      "Ġà¤°à¤¾à¤ľà¤¨à¥Ģ": 4765,
      "anced": 4766,
      "Ġpositive": 4767,
      "à¥įà¤®à¤¿à¤ķ": 4768,
      "Ġdiagn": 4769,
      "Ġsat": 4770,
      "Ġincludes": 4771,
      "Ġà¤¹à¤®à¥ĩà¤Ĥ": 4772,
      "Ġsaid.": 4773,
      "Ġà¤¨à¥įà¤¯à¥Ĥà¤ľ": 4774,
      "Ġà¤ĸà¥Ĥà¤ª": 4775,
      "w.": 4776,
      "Ġà¤ªà¥įà¤°à¤¯à¥ĭà¤Ĺ": 4777,
      "Ġshows": 4778,
      "Ġà¥¤à¥¤": 4779,
      "Ġresources": 4780,
      "Ġà¤¡à¥įà¤°": 4781,
      "ĠWill": 4782,
      "Ġvari": 4783,
      "Ġbelieve": 4784,
      "Ġà¤ľà¤²à¥įà¤¦": 4785,
      "Ġà¤ªà¥ģà¤¨à¥įà¤¹à¤¾": 4786,
      "Ġà¤ľà¥Ĥà¤¨": 4787,
      "Ġà¤ĩà¤¤à¤¿à¤¹à¤¾à¤¸": 4788,
      "à¥ĩà¤¤à¤¾": 4789,
      "ediate": 4790,
      "Ġà¤®à¥ĭà¤łà¥įà¤¯à¤¾": 4791,
      "Ġlack": 4792,
      "ate,": 4793,
      "Ġà¤ķà¤¾à¤Ĥ": 4794,
      "ruit": 4795,
      "hood": 4796,
      "Ġà¤Ŀà¤¾à¤²à¥ĩà¤²à¥įà¤¯à¤¾": 4797,
      "Ġoriginal": 4798,
      "Ġà¤ĸà¤¤": 4799,
      "Ġà¤µà¤¾à¤ļ": 4800,
      "Ġà¤µà¤¾à¤¯à¤°": 4801,
      "erous": 4802,
      "Ġà¤ªà¥įà¤°à¤¥à¤®": 4803,
      "Ġà¤¹à¥ĭà¤Ĺà¥Ģà¥¤": 4804,
      "AR": 4805,
      "Ġrelative": 4806,
      "Ġdesigned": 4807,
      "ĠCons": 4808,
      "Ġà¤¶à¤¾à¤¹": 4809,
      "ucle": 4810,
      "ĠNot": 4811,
      "Ġà¤ªà¥įà¤°à¤§à¤¾à¤¨à¤®à¤Ĥà¤¤à¥įà¤°à¥Ģ": 4812,
      "Ġà¤®à¥ģà¤¦à¥įà¤¦": 4813,
      "Ġà¤¹à¥ĭà¤ķà¤°": 4814,
      "Ġà¤¸à¤®à¤ľ": 4815,
      "à¥ĩà¤ħà¤°": 4816,
      "Ġthreat": 4817,
      "Ġà¤īà¤¸à¥Ģ": 4818,
      "Ġà¤ķà¥ĩà¤Ĥà¤¦à¥įà¤°à¥Ģà¤¯": 4819,
      "ban": 4820,
      "room": 4821,
      "Ġà¤¨à¤Ī": 4822,
      "à¥įà¤¯à¤¾à¤¶": 4823,
      "Ġearth": 4824,
      "Ġà¤¹à¥ĭà¤Ĥà¤Ĺ": 4825,
      "à¤¿à¤°à¤¿à¤ķà¥įà¤¤": 4826,
      "Ġà¤®à¤¾à¤Ĥ": 4827,
      "Ġà¤īà¤¤à¥įà¤¸": 4828,
      "Ġregular": 4829,
      "Ġple": 4830,
      "Ġà¤¶à¥ĭà¤§": 4831,
      "à¤²à¥ĩà¤²à¥Ģ": 4832,
      "aving": 4833,
      "Ġà¤Ĺà¥ģà¤°à¥ģ": 4834,
      "Ġà¤ªà¥įà¤°à¤Ń": 4835,
      "Ġmach": 4836,
      "Ġà¤ĸà¤¬à¤°": 4837,
      "ĠFrom": 4838,
      "Ġà¤īà¤¦à¥įà¤¦": 4839,
      "Ġà¤łà¥Ģà¤ķ": 4840,
      "Ġpressure": 4841,
      "Ġfem": 4842,
      "Ġà¤Ńà¥ĩà¤Ł": 4843,
      "Ġste": 4844,
      "Ġtechnolog": 4845,
      "Ġà¤²à¤¿à¤¹": 4846,
      "Ġprovided": 4847,
      "Ġparts": 4848,
      "Ġpoll": 4849,
      "Ġled": 4850,
      "Ġspread": 4851,
      "à¤¿à¤ĺ": 4852,
      "Ġprec": 4853,
      "Ġà¤¤à¤²": 4854,
      "Ġclean": 4855,
      "Ġà¤¸à¤®à¤¸à¥įà¤¯à¤¾": 4856,
      "Ġrights": 4857,
      "Ġgreater": 4858,
      "ĠEduc": 4859,
      "rior": 4860,
      "à¤¤à¤Ĥà¤¤à¥įà¤°": 4861,
      "ĠScience": 4862,
      "Ġà¤¨à¤¾": 4863,
      "Ġà¤ħà¤Ńà¤¿à¤¯": 4864,
      "à¤¾à¤Ĥà¤¸à¤¾à¤łà¥Ģ": 4865,
      "Ġcolor": 4866,
      "à¥ĩà¤².": 4867,
      "Ġà¤¹à¤¿à¤¨à¥įà¤¦": 4868,
      "Ġsubst": 4869,
      "ĠAustral": 4870,
      "ĠOf": 4871,
      "Ġà¤ļà¥Ģà¤¨": 4872,
      "Ġà¤¯à¥ģà¤¦à¥įà¤§": 4873,
      "Ġà¤ķà¥įà¤°à¤®": 4874,
      "Ġslow": 4875,
      "Ġ(B": 4876,
      "Ġ60": 4877,
      "à¤¾à¤ĺ": 4878,
      "à¤²à¥ĩà¤²à¤¾": 4879,
      "Ġà¤¤à¤¾à¤²à¥ģà¤ķ": 4880,
      "://": 4881,
      "Ġmicro": 4882,
      "Ġrespect": 4883,
      "Ġbacter": 4884,
      "Ġà¤µà¤¾à¤¦": 4885,
      "new": 4886,
      "Ġactive": 4887,
      "Ġanalysis": 4888,
      "Ġà¤²à¤¾à¤ĩ": 4889,
      "-w": 4890,
      "à¤¸à¥įà¤Łà¥įà¤°": 4891,
      "Ġà¤ķà¥ĭà¤Łà¥Ģ": 4892,
      "ay,": 4893,
      "Ġà¤ħà¤¨à¥ģà¤®": 4894,
      "Ġaverage": 4895,
      "Ġtarget": 4896,
      "à¤ķà¤¡à¥ĩ": 4897,
      "Ġmeaning": 4898,
      "Ġà¤®à¤¿à¤¨": 4899,
      "à¤Ĥà¤¤à¥įà¤°à¤£": 4900,
      "ief": 4901,
      "à¤µà¤¿à¤ķ": 4902,
      "rast": 4903,
      "Ġà¤¯à¥ĩà¤£à¤¾à¤°": 4904,
      "ĠJapan": 4905,
      "ĠCO": 4906,
      "iction": 4907,
      "Ġà¤Ĺà¤¯à¥ĩ": 4908,
      "ma": 4909,
      "à¤®à¤¤à¤¾": 4910,
      "Ġsize": 4911,
      "à¥īà¤¡": 4912,
      "Ġà¤«à¥Īà¤¸": 4913,
      "alu": 4914,
      "Ġ2012": 4915,
      "Ġà¤ªà¥Ĥà¤°à¥ĩ": 4916,
      "Ġ2010": 4917,
      "Ġà¤¹à¤¾à¤°": 4918,
      "rought": 4919,
      "ufact": 4920,
      "à¤Ĩà¤¯": 4921,
      "Ġdeep": 4922,
      "Ġà¤Ĺà¤ıà¥¤": 4923,
      "à¤¦à¥ĩà¤µ": 4924,
      "Ġsimply": 4925,
      "onstr": 4926,
      "olic": 4927,
      "eds": 4928,
      "à¤°à¥ĭà¤¬à¤°": 4929,
      "ising": 4930,
      "Ġà¤Łà¥ĩà¤¸à¥įà¤Ł": 4931,
      "Ġcit": 4932,
      "rench": 4933,
      "Ġà¤¡à¤¾à¤²": 4934,
      "Ġà¤ħà¤¸à¤¤à¥ĩ.": 4935,
      "Ġwild": 4936,
      "lex": 4937,
      "Ġà¤°à¥ĭà¤ľà¥Ģ": 4938,
      "Ġà¤¥à¥Ģà¤Ĥ": 4939,
      "Ġà¤¦à¥ĩà¤ĸà¤¨à¥ĩ": 4940,
      "Ġà¤¸à¤¿": 4941,
      "Ġà¤ªà¤¾à¤¹à¤¿à¤ľ": 4942,
      "age,": 4943,
      "à¥ģà¤Ĥà¤¬": 4944,
      "Ġnight": 4945,
      "Ġà¤ķà¤¾à¤°à¥įà¤¯à¤ķà¤°à¥įà¤¤": 4946,
      "Ġà¤®à¤¾à¤Ĺà¤£à¥Ģ": 4947,
      "Ġcomputer": 4948,
      "ĠJan": 4949,
      "à¤¾à¤¶à¥Ģ": 4950,
      "Ġproducts": 4951,
      "Ġwritten": 4952,
      "Ġvariety": 4953,
      "Ġà¤ªà¤¾à¤£": 4954,
      "à¥Īà¤ķ": 4955,
      "Ġà¤°à¤¸": 4956,
      "Ġà¤ħà¤ļà¥įà¤Ľà¤¾": 4957,
      "Ġit,": 4958,
      "Ġshare": 4959,
      "à¤Ĥà¤¥": 4960,
      "ese": 4961,
      "à¥ĩà¤¨à¥ĩ": 4962,
      "à¥ħà¤Ł": 4963,
      "à¤¤à¤ķ": 4964,
      "Ġmechan": 4965,
      "à¥ģà¤ĵà¤Ĥ": 4966,
      "Ġà¤¸à¤¾à¤¹à¤¿à¤¤à¥įà¤¯": 4967,
      "Ġface": 4968,
      "à¤Ĺà¤¾à¤µ": 4969,
      "ĠPar": 4970,
      "Ġà¤ķà¥ģà¤Ł": 4971,
      "uge": 4972,
      "à¤ĸà¥Ģ": 4973,
      "Ġpsych": 4974,
      "Ġà¤ªà¤¤à¥įà¤¨à¥Ģ": 4975,
      "IN": 4976,
      "Ġà¤¥à¥ĩ,": 4977,
      "as,": 4978,
      "Ġà¤¨à¤®": 4979,
      "Ġbasic": 4980,
      "Ġà¤ªà¥ĥ": 4981,
      "Ġstructure": 4982,
      "à¤¾à¤¯à¥Ģ": 4983,
      "Ġinteg": 4984,
      "Ġneeded": 4985,
      "Ġlonger": 4986,
      "à¥Ĥà¤·": 4987,
      "Ġencoura": 4988,
      "Ġà¤ħà¤¨à¥įà¤¤": 4989,
      "à¤¸à¥įà¤ķà¤¾à¤°": 4990,
      "Ġà¤ķà¤Ł": 4991,
      "Ġà¤¸à¤«à¤²": 4992,
      "ĠItâĢĻs": 4993,
      "Ġ2022": 4994,
      "Ġà¤°à¥ģà¤ªà¤¯": 4995,
      "Ġissues": 4996,
      "rand": 4997,
      "Ġà¤¤à¥ģà¤²": 4998,
      "Ġexpress": 4999,
      "Ġà¤¸à¤µà¤¾à¤²": 5000,
      "ĠUs": 5001,
      "Ġsometimes": 5002,
      "vey": 5003,
      "ĠAug": 5004,
      "Ġà¤¶à¤¾à¤¦à¥Ģ": 5005,
      "Ġà¤¶à¤¿à¤ķà¥įà¤·à¤£": 5006,
      "Ġpict": 5007,
      "ĠHar": 5008,
      "Ġà¤ıà¤²": 5009,
      "à¤łà¤¨": 5010,
      "à¤¾à¤¤à¤¾à¤°": 5011,
      "',": 5012,
      "Ġemb": 5013,
      "ster": 5014,
      "Ġà¤ķà¤°à¥Ģà¤¤": 5015,
      "asc": 5016,
      "Ġà¥®": 5017,
      "Ġdrink": 5018,
      "Ġharm": 5019,
      "idge": 5020,
      "Ġà¤ªà¥įà¤°à¤¸à¤¿à¤¦à¥įà¤§": 5021,
      "à¤¾à¤¤.": 5022,
      "Ġinfection": 5023,
      "Ġà¤ªà¤¦à¤¾à¤°à¥įà¤¥": 5024,
      "Ġimplement": 5025,
      "Ġyears.": 5026,
      "Ġrefer": 5027,
      "Ġorigin": 5028,
      "Ġà¤ªà¤¦à¥įà¤§": 5029,
      "Ġà¤ļà¤¿à¤Ĥ": 5030,
      "hel": 5031,
      "Ġà¤¦à¥ĩà¤ĸà¤¾": 5032,
      "Ġ*": 5033,
      "Ġstreng": 5034,
      "Ġà¤ªà¥ģà¤¢à¥ĩ": 5035,
      "Ġà¤µà¤¸": 5036,
      "Ġà¤¦à¥ĩà¤¤à¤¾": 5037,
      "Ġà¤Ĺà¥ĭà¤²": 5038,
      "ĠAc": 5039,
      "Ġà¤Ĩà¤Ĥà¤¦": 5040,
      "à¤¾à¤ķà¥Ģ": 5041,
      "à¥įà¤¯à¤¾à¤Ĥà¤ļà¥Ģ": 5042,
      "Ġreading": 5043,
      "Ġà¤¸à¤¿à¤°à¥įà¤«": 5044,
      "-à¤®": 5045,
      "à¥ĩà¤µà¤°": 5046,
      "ĠNow": 5047,
      "Ġà¤¸à¤Ĥà¤¶": 5048,
      "Ġà¤ķà¤ł": 5049,
      "Ġappl": 5050,
      "ales": 5051,
      "Ġà¤²à¤¾à¤Ĺà¥Ĥ": 5052,
      "Ġoutside": 5053,
      "Ġidentify": 5054,
      "Ġà¤ħà¤¥à¤µà¤¾": 5055,
      "Ġà¤ľà¥ĭà¤°": 5056,
      "Ġcarbon": 5057,
      "à¥ĥà¤¤à¥įà¤µ": 5058,
      "nces": 5059,
      "ĠIndian": 5060,
      "Ġà¤¸à¤Ń": 5061,
      "ze": 5062,
      "Ġà¤ĺà¤Łà¤¨": 5063,
      "Ġà¤Ĺà¥ģà¤ľà¤°": 5064,
      "Ġtax": 5065,
      "ength": 5066,
      "Ġà¤¬à¤¿à¤ľ": 5067,
      "Ġsqu": 5068,
      "Ġhelps": 5069,
      "Ġà¤Ĺà¥ĩà¤Ĥà¤¦": 5070,
      "Ġà¤ªà¥ģà¤¸à¥įà¤¤": 5071,
      "Ġà¤®à¤Ĺ": 5072,
      "Ġpractice": 5073,
      "Ġà¤ªà¥Ģà¤Ľ": 5074,
      "Ġà¤¶à¥ģà¤Ń": 5075,
      "Ġà¤¡à¤¿à¤ľ": 5076,
      "Ġvisit": 5077,
      "Ġà¤ļà¥ģà¤ķà¥ĩ": 5078,
      "Ġlog": 5079,
      "Ġcompet": 5080,
      "utions": 5081,
      "ĠIndia": 5082,
      "Ġstates": 5083,
      "à¤®à¤¾": 5084,
      "à¤Ĥà¤¶": 5085,
      "Ġà¤Łà¥įà¤µ": 5086,
      "ribution": 5087,
      "Ġbal": 5088,
      "Ġà¤¦à¤¿à¤¶": 5089,
      "Ġresponse": 5090,
      "Ġ(R": 5091,
      "s)": 5092,
      "Ġà¤¨à¥ĭà¤Ł": 5093,
      "22": 5094,
      "Ġà¤µà¤¿à¤ª": 5095,
      "ĠKing": 5096,
      "Ġensure": 5097,
      "à¤³à¤¾": 5098,
      "Ġà¤®à¤¾à¤¨à¤¾": 5099,
      "Ġreview": 5100,
      "Ġcases": 5101,
      "Ġforce": 5102,
      "Ġà¤Ńà¤¾à¤·à¤¾": 5103,
      "Ġà¤¤à¥ĩà¤µà¥įà¤¹à¤¾": 5104,
      "Ġà¤ķà¥ĭà¤²": 5105,
      "Ġlate": 5106,
      "ellow": 5107,
      "Ġattempt": 5108,
      "ĠFirst": 5109,
      "Ġcauses": 5110,
      "aily": 5111,
      "à¤µà¤¡": 5112,
      "à¤ļà¤²": 5113,
      "Ġparticularly": 5114,
      "Ġà¤¸à¥ĭà¤¨": 5115,
      "ached": 5116,
      "Ġà¤¨à¥ģà¤ķà¤¸à¤¾à¤¨": 5117,
      "usion": 5118,
      "à¥īà¤°à¥įà¤®": 5119,
      "Ġà¤ªà¤¸": 5120,
      "Ġà¤ľà¥ģà¤²": 5121,
      "Ġresist": 5122,
      "Ġissu": 5123,
      "Ġà¤Ĩà¤¯à¥ĭà¤ľà¤¿à¤¤": 5124,
      "Ġà¤¥à¥Ģ,": 5125,
      "Ġà¤ĺà¤¾à¤²": 5126,
      "ata": 5127,
      "rated": 5128,
      "Ġ2011": 5129,
      "à¤²à¥ĩà¤ķ": 5130,
      "à¤¿à¤Ĥà¤ķ": 5131,
      "ĠMy": 5132,
      "Ġà¤īà¤¤à¥įà¤ªà¤¨à¥įà¤¨": 5133,
      "Ġthemselves": 5134,
      "à¤ıà¤ķ": 5135,
      "Ġà¤¶à¥Ģ": 5136,
      "Ġap": 5137,
      "Ġà¤¸à¤Ĥà¤¤": 5138,
      "Ġsuccessful": 5139,
      "Ġà¤ªà¤°à¤¤": 5140,
      "Ġà¤¯à¤¾à¤µà¥ĩà¤³à¥Ģ": 5141,
      "Ġà¤¸à¤¹à¤¿à¤¤": 5142,
      "ĠSm": 5143,
      "Ġà¤ªà¥įà¤°à¤ķà¤°à¤£": 5144,
      "Ġà¤¶à¤¨": 5145,
      "Ġeasy": 5146,
      "ĠA.": 5147,
      "Ġà¤®à¤¹à¥Ģà¤¨à¥ĩ": 5148,
      "uth": 5149,
      "Ġà¤Ĺà¤°à¤ľ": 5150,
      "à¤¿à¤ķà¥įà¤¸": 5151,
      "à¤Ĥà¤¦à¤¾à¤ľ": 5152,
      "Ġà¤¹à¤µ": 5153,
      "Ġregion": 5154,
      "à¤¾à¤Łà¤ķ": 5155,
      "Ġà¤ªà¤¶à¥įà¤ļà¤¿à¤®": 5156,
      "Ġsust": 5157,
      "Ġà¤¸à¤§à¥įà¤¯à¤¾": 5158,
      "à¥ĩà¤Ĥ.": 5159,
      "Ġ(D": 5160,
      "ĠKe": 5161,
      "Ġtask": 5162,
      "Ġdeal": 5163,
      "Ġà¤łà¤¿à¤ķà¤¾à¤£à¥Ģ": 5164,
      "ĠGl": 5165,
      "à¤¹à¥įà¤®": 5166,
      "ĠJu": 5167,
      "Ġà¤ķà¤°à¤£à¥ĩ": 5168,
      "Ġà¤µà¤ķà¥įà¤¤": 5169,
      "Ġdefin": 5170,
      "Ġdemonstr": 5171,
      "fect": 5172,
      "Ġà¤¨à¤¿à¤§": 5173,
      "Ġremov": 5174,
      "Ġà¤īà¤ªà¤ļà¤¾à¤°": 5175,
      "ha": 5176,
      "Ġcompon": 5177,
      "ĠBec": 5178,
      "ustom": 5179,
      "Ġaff": 5180,
      "Ġtend": 5181,
      "Ġconnect": 5182,
      "Ġà¤ľà¤¿à¤¸à¥ĩ": 5183,
      "Ġspeak": 5184,
      "rip": 5185,
      "Ġà¤µà¤°à¥įà¤£": 5186,
      "Ġcoun": 5187,
      "Ġà¤¨à¤¾à¤Ĺ": 5188,
      "à¥ĭà¤Ĥà¤¦": 5189,
      "ĠEl": 5190,
      "ĠCount": 5191,
      "ivity": 5192,
      "Ġà¤¶à¥ģà¤ķà¥įà¤°": 5193,
      "Ġà¤īà¤¤à¥įà¤ªà¤¾à¤¦à¤¨": 5194,
      "ership": 5195,
      "Ġdeveloping": 5196,
      "ĠJes": 5197,
      "Ġuses": 5198,
      "oud": 5199,
      "Ġà¤ħà¤¹": 5200,
      "ĠNo": 5201,
      "à¥ĩà¤ªà¥Ģ": 5202,
      "Ġparents": 5203,
      "ĠOur": 5204,
      "Ġsou": 5205,
      "Ġà¤ĩà¤Ĥà¤¡à¤¿à¤¯à¤¾": 5206,
      "dom": 5207,
      "Ġwood": 5208,
      "Ġà¤¬à¤ģ": 5209,
      "Ġà¤¤à¤¯": 5210,
      "ĠReg": 5211,
      "Ġà¤ħà¤¸à¤²à¥įà¤¯à¤¾à¤¨à¥ĩ": 5212,
      "à¥Ĥà¤¡": 5213,
      "This": 5214,
      "Ġà¤ªà¥įà¤°à¤¸à¥įà¤¤à¤¾à¤µ": 5215,
      "Ġà¤µà¤¿à¤¸à¥įà¤¤": 5216,
      "Ġchalleng": 5217,
      "Ġà¤®à¤¹à¤¾à¤®": 5218,
      "Ġà¤¨à¤Ĥà¤¬à¤°": 5219,
      "Ġà¤¸à¤¾à¤µ": 5220,
      "Ġskills": 5221,
      "Ġà¤²à¥ĭ": 5222,
      "Ġmaintain": 5223,
      "Ġà¤¨à¤¿à¤ķà¤¾à¤²": 5224,
      "Ġà¤¸à¥Ģà¤Ł": 5225,
      "Ġà¤¹à¥Ĥà¤ģ": 5226,
      "à¤²à¥Ģà¤µ": 5227,
      "Ġemot": 5228,
      "ores": 5229,
      "Ġà¤¨à¤¿à¤Ĺ": 5230,
      "ĠTw": 5231,
      "à¤¤à¤¾,": 5232,
      "Ġord": 5233,
      "imately": 5234,
      "Ġindepend": 5235,
      "imum": 5236,
      "Ġà¤²à¤Ĺà¤¾à¤¤à¤¾à¤°": 5237,
      "Ġnon-": 5238,
      "Ġà¤®à¤ľà¤¬": 5239,
      "Ġà¤¦à¤°à¤®": 5240,
      "Ġnormal": 5241,
      "ĠArt": 5242,
      "Ġconsist": 5243,
      "à¤¾à¤§à¥įà¤¯à¤ķà¥įà¤·": 5244,
      "Ġà¤ıà¤¡": 5245,
      "on.": 5246,
      "Ġà¤¬à¤ľà¥ĩ": 5247,
      "Ġcentury": 5248,
      "Ġà¤¦à¥ģà¤ķ": 5249,
      "Ġ(F": 5250,
      "ĠDuring": 5251,
      "Ġà¤¸à¤°à¥įà¤µà¤¾à¤¤": 5252,
      "Ġfactors": 5253,
      "Ġreported": 5254,
      "ropriate": 5255,
      "Ġbit": 5256,
      "Ġà¤¸à¥ĩà¤²": 5257,
      "à¤£à¥įà¤¯à¤¾à¤ļà¥Ģ": 5258,
      "Ġà¤Ĩà¤ĸ": 5259,
      "Ġà¤¬à¤¨à¤¾à¤¯à¤¾": 5260,
      "Ġvalu": 5261,
      "Ġmoney": 5262,
      "arily": 5263,
      "Ġà¤¸à¥įà¤µà¥Ģ": 5264,
      "Ġmess": 5265,
      "Ġfeet": 5266,
      "ĠJ.": 5267,
      "ice.": 5268,
      "Ġà¤ªà¥įà¤°à¤¶à¤¿à¤ķà¥įà¤·": 5269,
      "Ġà¤®à¤¹à¤¾à¤¨": 5270,
      "Ġà¤Ŀà¤¾à¤²à¤¾.": 5271,
      "Ġà¤Ĩà¤µà¤¶à¥įà¤¯à¤ķà¤¤à¤¾": 5272,
      "Ġà¤¸à¥ĩà¤µ": 5273,
      "Ġdraw": 5274,
      "à¤ªà¤¤à¤¿": 5275,
      "Ġà¤īà¤¦à¥įà¤¯à¥ĭà¤Ĺ": 5276,
      "Ġprep": 5277,
      "Ġ2020": 5278,
      "Ġà¤Ĩà¤°à¥ĭà¤Ĺ": 5279,
      "uary": 5280,
      "right": 5281,
      "à¤¦à¤°": 5282,
      "Ġir": 5283,
      "à¤ªà¤¤à¥įà¤°": 5284,
      "à¥Ĥà¤£": 5285,
      "Ġveget": 5286,
      "Ġà¤ħà¤¸à¤¤à¤¾à¤¨à¤¾": 5287,
      "oard": 5288,
      "Ġcorrect": 5289,
      "Ġà¤¤à¥įà¤¯à¤¾à¤ļà¤¾": 5290,
      "iat": 5291,
      "Ġdocument": 5292,
      "Ġà¤®à¤¹à¤¾à¤µ": 5293,
      "Ġaware": 5294,
      "Ġà¤ļà¤¾à¤¹à¤¤à¥ĩ": 5295,
      "à¤ıà¤«": 5296,
      "Ġcommit": 5297,
      "40": 5298,
      "Ġwriting": 5299,
      "Ġextreme": 5300,
      "Ġfa": 5301,
      "Ġassist": 5302,
      "Ġmother": 5303,
      "Ġgenerally": 5304,
      "Ġinternational": 5305,
      "Ġà¤µà¤¾à¤¹à¤¨": 5306,
      "Ġforest": 5307,
      "ine.": 5308,
      "Ġteacher": 5309,
      "Ġpopul": 5310,
      "à¤¤à¤¾à¤¨à¤¾": 5311,
      "Ġà¤ļà¥įà¤¯à¤¾": 5312,
      "Ġyears,": 5313,
      "Ġcover": 5314,
      "à¥ĥà¤¤à¥Ģ": 5315,
      "Ġà¤¨à¥Ģ": 5316,
      "Ġà¤ªà¥įà¤°à¥ĭ": 5317,
      "ĠChild": 5318,
      "Ġanimals": 5319,
      "Ġox": 5320,
      "Ġselect": 5321,
      "Ġà¤«à¥įà¤²": 5322,
      "Ġserious": 5323,
      "Ġà¤Ĺà¥ĩà¤²à¥įà¤¯à¤¾": 5324,
      "Ġhabit": 5325,
      "Ġelectric": 5326,
      "Ġà¤µà¤¾à¤²": 5327,
      "Ġacid": 5328,
      "Ġfinanc": 5329,
      "Ġà¤®à¥Įà¤ľà¥Ĥà¤¦": 5330,
      "à¤¾à¤£à¤¾": 5331,
      "Ġtherefore": 5332,
      "iot": 5333,
      "à¤®à¥ģà¤³à¥ĩ": 5334,
      "Ġà¤ªà¥įà¤°à¤¤à¤¿à¤¨à¤¿à¤§": 5335,
      "Ġà¤«à¥ĭà¤Łà¥ĭ": 5336,
      "Ġmagn": 5337,
      "Ġà¤ķà¥ĩà¤µà¤³": 5338,
      "à¥ĩà¤Ĥ,": 5339,
      "à¤®à¥ģà¤ĸ": 5340,
      "Ġà¤¤à¥Įà¤°": 5341,
      "Ġà¤Ĩà¤®à¤¦à¤¾à¤°": 5342,
      "Ġdispl": 5343,
      "Ġà¤¸à¤¾à¤®à¤¨à¤¾": 5344,
      "Ġ29": 5345,
      "à¤¦à¤¯": 5346,
      "Ġprobably": 5347,
      "Ġgetting": 5348,
      "att": 5349,
      "Ġbenefit": 5350,
      "oly": 5351,
      "Ġlo": 5352,
      "ienc": 5353,
      "Ġà¤ħà¤ªà¥įà¤°": 5354,
      "Ġcontinue": 5355,
      "à¤²à¤Ĺ": 5356,
      "Wh": 5357,
      "Ġà¤¶à¤¾à¤³": 5358,
      "Ġà¤ĺà¥ĭà¤·à¤£à¤¾": 5359,
      "Ġdiv": 5360,
      "à¥įà¤ķà¤¾à¤°": 5361,
      "à¤±à¥įà¤¯à¤¾": 5362,
      "Ġà¤ĺà¤Ĥà¤Ł": 5363,
      "à¥įà¤°à¤¾": 5364,
      "Ġà¤Ĺà¤¿à¤°à¤«à¥įà¤¤": 5365,
      "Ġrock": 5366,
      "www.": 5367,
      "aging": 5368,
      "Ġdoing": 5369,
      "Ġthird": 5370,
      "Ġà¤¸à¥ģà¤§à¤¾à¤°": 5371,
      "Ġà¤ħà¤ªà¤°": 5372,
      "à¤¤à¤¾.": 5373,
      "Ġà¤Ĭà¤ªà¤°": 5374,
      "Ġà¤ķà¥ĭà¤£à¤¤": 5375,
      "Ġmanufact": 5376,
      "à¥įà¤ķà¤¿": 5377,
      "ene": 5378,
      "Ġdou": 5379,
      "Ġà¤µà¤¿à¤²": 5380,
      "Ġà¤ľà¤µ": 5381,
      "ST": 5382,
      "à¤Ĺà¤¾": 5383,
      "à¥ĩà¤®à¤¾à¤²": 5384,
      "à¤ķà¤°à¥Ģ": 5385,
      "à¤¾à¤®à¥Ģà¤£": 5386,
      "à¤¾à¤ĵ": 5387,
      "Ġtakes": 5388,
      "à¤Ĺà¥įà¤°à¤¹": 5389,
      "Ġindividuals": 5390,
      "Ġlife.": 5391,
      "à¤¦à¥įà¤¯": 5392,
      "lection": 5393,
      "Ġà¤°à¤¿à¤²": 5394,
      "Ġà¤¤à¥įà¤¯à¤¾à¤¨à¥ĩ": 5395,
      "Ġà¤¬à¥ģà¤§": 5396,
      "Ġà¤īà¤ªà¤¾à¤¯": 5397,
      "OR": 5398,
      "Ġà¤®à¤¦à¤¤": 5399,
      "Ġcompany": 5400,
      "overy": 5401,
      "Ġgoal": 5402,
      "à¤ªà¤£": 5403,
      "Ġ2019": 5404,
      "à¤Ĥà¤ĸ": 5405,
      "Ġà¤¤à¤ªà¤¾à¤¸": 5406,
      "Ġinstead": 5407,
      "Ġà¤¨à¤¿à¤·": 5408,
      "Ġhyd": 5409,
      "Ġwalk": 5410,
      "ground": 5411,
      "à¤¾à¤ªà¤°": 5412,
      "Ġwall": 5413,
      "ences": 5414,
      "à¥ĭà¤ļ": 5415,
      "Ġà¤¹à¥ĭà¤Ĭ": 5416,
      "Ġproduced": 5417,
      "Ġà¥§à¥¦": 5418,
      "à¤Łà¤²": 5419,
      "Ġeth": 5420,
      "Ġconcent": 5421,
      "à¤¾à¤ķà¥ĩ": 5422,
      "Ġà¤¯à¤¹à¤¾à¤ģ": 5423,
      "à¤¸à¤¨": 5424,
      "ĠTra": 5425,
      "utes": 5426,
      "Ġà¤Łà¥įà¤°à¥ĩà¤¨": 5427,
      "Ġcross": 5428,
      "oles": 5429,
      "arden": 5430,
      "ĠCalif": 5431,
      "Ġfront": 5432,
      "Ġregul": 5433,
      "à¤¡à¤¼à¤ķ": 5434,
      "Ġà¤®à¥ĭà¤¬": 5435,
      "Ġtraining": 5436,
      "à¥įà¤µà¥Ģà¤°": 5437,
      "Ġà¤Ĩà¤¢": 5438,
      "osing": 5439,
      "Ġprint": 5440,
      "Ġà¤¶à¤°à¥įà¤®à¤¾": 5441,
      "Ġà¤ķà¥ĭà¤¶à¤¿à¤¶": 5442,
      "Ġterms": 5443,
      "à¤¾à¤ªà¤¨": 5444,
      "23": 5445,
      "Ġmaterials": 5446,
      "à¤¾à¤§à¤¿à¤ķà¤¾à¤°à¥Ģ": 5447,
      "ĠCor": 5448,
      "Ġservice": 5449,
      "Ġà¤¤à¤¤": 5450,
      "Ġcommunities": 5451,
      "Ġgrowing": 5452,
      "bor": 5453,
      "ice,": 5454,
      "Ġ2013": 5455,
      "Ġful": 5456,
      "Ġà¤ļà¥Ģ": 5457,
      "Ġà¤²à¤Ĥà¤¬": 5458,
      "Ġearl": 5459,
      "Ġà¤¥à¥Ģ.": 5460,
      "Ġà¤µà¤°à¥įà¤·à¥ĭà¤Ĥ": 5461,
      "Ġà¤°à¤¾à¤ľà¤¾": 5462,
      "à¥įà¤¯à¤¾à¤¹à¥Ģ": 5463,
      "Ġà¤ļà¥Įà¤ķ": 5464,
      "Ġtrue": 5465,
      "Ġdang": 5466,
      "Ġà¤®à¤¾à¤²à¤¿à¤ķ": 5467,
      "Ġlooking": 5468,
      "Ġà¤ªà¥Īà¤¸à¥ĩ": 5469,
      "rie": 5470,
      "Ġsafe": 5471,
      "Ġà¤µà¤¿à¤ķà¥ĩà¤Ł": 5472,
      "Ġestablished": 5473,
      "Ġinstit": 5474,
      "cil": 5475,
      "Ġà¤²à¤µ": 5476,
      "ashing": 5477,
      "ate.": 5478,
      "Ġà¤ķà¤¾à¤¨à¥Ĥà¤¨": 5479,
      "Ġà¤¦à¤°à¤®à¥įà¤¯à¤¾à¤¨": 5480,
      "\",": 5481,
      "Ġà¤ħà¤Ńà¥įà¤¯à¤¾à¤¸": 5482,
      "Ġestim": 5483,
      "Ġvit": 5484,
      "Ġscientists": 5485,
      "Ġà¤ľà¥ĩà¤µ": 5486,
      "Ġà¤®à¥Īà¤Ĥà¤¨à¥ĩ": 5487,
      "cell": 5488,
      "Ġworld.": 5489,
      "à¥įà¤°à¤®à¤¾à¤£à¥ĩ": 5490,
      "à¤¦à¤¾à¤°à¥Ģ": 5491,
      "Ġinvestig": 5492,
      "AN": 5493,
      "Ġà¤¦à¤¶": 5494,
      "Ġà¤¬à¤²à¥įà¤ķà¤¿": 5495,
      "ĠChar": 5496,
      "Ġquite": 5497,
      "Ġwarm": 5498,
      "Ġà¤¸à¥ģà¤¬à¤¹": 5499,
      "Ġcr": 5500,
      "ĠEuropean": 5501,
      "Ġdetermine": 5502,
      "Ġà¤ķà¤¥": 5503,
      "Ġcard": 5504,
      "ided": 5505,
      "Ġheld": 5506,
      "is.": 5507,
      "Ġà¤ľà¤µà¤³": 5508,
      "Ġcompared": 5509,
      "Ġà¤¯à¤¾à¤Ĥà¤ļà¥Ģ": 5510,
      "Ġdifference": 5511,
      "us.": 5512,
      "Ġà¤¨à¤¿à¤µà¤¡à¤£à¥ģà¤ķ": 5513,
      "Ġà¤®à¤¾à¤¨à¤µ": 5514,
      "Ġà¤®à¤¹à¤¾à¤°à¤¾à¤ľ": 5515,
      "à¥ĩà¤Ĥà¤¬à¤°": 5516,
      "Ġtown": 5517,
      "useum": 5518,
      "ĠEven": 5519,
      "ĠRuss": 5520,
      "Ġsomeone": 5521,
      "ror": 5522,
      "Ġà¤łà¤¾à¤ķà¤°à¥ĩ": 5523,
      "ext": 5524,
      "set": 5525,
      "Ġà¤¶à¤¾à¤Ĥà¤¤": 5526,
      "Ġmilitary": 5527,
      "ĠFrench": 5528,
      "Ġtraditional": 5529,
      "à¤¿à¤¶à¤¤": 5530,
      "Ġà¤¸à¤¾à¤°à¥įà¤µ": 5531,
      "Ġà¤¨à¥Ģà¤¤à¤¿": 5532,
      "à¤¾à¤ªà¤¾à¤¸à¥Ĥà¤¨": 5533,
      "Ġbab": 5534,
      "oses": 5535,
      "à¤¾à¤Ĭà¤¨": 5536,
      "ĠInternational": 5537,
      "à¤¿à¤¯à¤²": 5538,
      "We": 5539,
      "Ġthous": 5540,
      "Ġà¤Ĩà¤²à¥Ģ.": 5541,
      "Ġhours": 5542,
      "Ġà¤¹à¤¸à¥įà¤¤": 5543,
      "Ġà¤¸à¥įà¤µà¥Ģà¤ķà¤¾à¤°": 5544,
      "Ġà¤¸à¤Ĥà¤¦": 5545,
      "Ġvacc": 5546,
      "Ġà¤ħà¤ļà¥įà¤Ľà¥Ģ": 5547,
      "Ġexpect": 5548,
      "ĠRead": 5549,
      "Ġà¤īà¤¦à¥įà¤¦à¥ĩà¤¶": 5550,
      "ervation": 5551,
      "Ġreve": 5552,
      "ĠBar": 5553,
      "Ġà¤ľà¤¿à¤²à¥įà¤¹à¤¾": 5554,
      "Ġprimary": 5555,
      "Ġà¤°à¤¹à¤¤à¥ĩ": 5556,
      "à¤¾à¤¹à¤°à¤£": 5557,
      "à¤ªà¤¦": 5558,
      "Ġcapt": 5559,
      "Ġà¤¶à¥ģà¤°à¥ģà¤Ĩ": 5560,
      "Ġà¤¦à¤¿à¤²à¤¾": 5561,
      "Ġà¤ķà¥ĭà¤°à¥ĭà¤¨": 5562,
      "Ġà¤®à¤¿à¤¤à¥įà¤°": 5563,
      "Ġà¤µà¤¿à¤¦à¥ĩà¤¶": 5564,
      "uk": 5565,
      "Ġà¤¸à¤®à¥įà¤¬": 5566,
      "Ġallows": 5567,
      "Ġà¤¨à¤¸à¤²": 5568,
      "Ġà¤µà¥ĩà¤¬à¤¸": 5569,
      "Ġinside": 5570,
      "Ġpoor": 5571,
      "Ġà¤Ĺà¥įà¤°à¤¾à¤®à¥Ģà¤£": 5572,
      "book": 5573,
      "ĠChristian": 5574,
      "Ġà¤°à¥ģà¤ªà¤ı": 5575,
      "rew": 5576,
      "Ġexperien": 5577,
      "à¤°à¥įà¤²": 5578,
      "Ġreflect": 5579,
      "à¤¿à¤Łà¤²": 5580,
      "à¤¦à¥Ģà¤ª": 5581,
      "Ġà¤¨à¤°à¥ĩà¤Ĥà¤¦à¥įà¤°": 5582,
      "Ġà¤ļà¥Ģà¤ľ": 5583,
      "à¤²à¤Ĥ.": 5584,
      "Ġà¤¤à¥ģà¤®à¥įà¤¹à¤¾à¤²à¤¾": 5585,
      "che": 5586,
      "Ġà¤¹à¥Ī?": 5587,
      "60": 5588,
      "Ġà¤ªà¥įà¤°à¤¤à¤¿à¤ķ": 5589,
      "Ġinvolved": 5590,
      "à¤µà¤¿à¤²": 5591,
      "Ġfav": 5592,
      "Ġâ": 5593,
      "ĠSince": 5594,
      "Ġsolar": 5595,
      "Ġmovement": 5596,
      "Ġà¤ĩà¤¸à¥įà¤¤à¥ĩà¤®à¤¾à¤²": 5597,
      "Ġà¤°à¤ĸà¤¾": 5598,
      "Ġà¤Ĩà¤Ĥà¤¦à¥ĭà¤²à¤¨": 5599,
      "Ġà¤¹à¤¾à¤¸": 5600,
      "à¥įà¤¹à¥ĩà¤Ĥ": 5601,
      "Ġbenefits": 5602,
      "ĠCaliforn": 5603,
      "Ġà¤°à¤ĸà¤¨à¥ĩ": 5604,
      "Ġà¤®à¤¹à¤¤à¥įà¤µà¤ªà¥Ĥà¤°à¥įà¤£": 5605,
      "Ġimmediate": 5606,
      "Ġtur": 5607,
      "Ġcivil": 5608,
      "Ġetc.": 5609,
      "Ġdecre": 5610,
      "Ġà¤²à¤¿à¤ĸà¤¾": 5611,
      "Ġ'à¤®": 5612,
      "Ġà¤Ńà¤¾à¤Ī": 5613,
      "Ġà¤®à¥ĩà¤¡": 5614,
      "à¤®à¥įà¤ª": 5615,
      "Ġà¤¦à¤¿à¤²à¥Ģ.": 5616,
      "Ġhy": 5617,
      "à¥ĩà¤¶à¤¨à¤²": 5618,
      "ille": 5619,
      "à¤¿,": 5620,
      "Ġà¤ªà¥įà¤°à¤¯à¤¾à¤¸": 5621,
      "where": 5622,
      "Ġà¤®à¤Ĥà¤ľ": 5623,
      "ĠHer": 5624,
      "ĠOct": 5625,
      "ĠMe": 5626,
      "Ġsold": 5627,
      "irl": 5628,
      "Ġà¤Łà¤ķà¥įà¤ķà¥ĩ": 5629,
      "Ġà¤¸à¥ģà¤°à¥ģà¤µ": 5630,
      "à¤¾à¤ķà¤¡à¥ĩ": 5631,
      "Ġmental": 5632,
      "Ġà¤°à¤£": 5633,
      "elling": 5634,
      "Ġà¤¡à¤¿à¤¸": 5635,
      "à¤¾à¤®à¤¾": 5636,
      "Ġà¤¸à¤®à¤¾à¤µ": 5637,
      "Ġevalu": 5638,
      "Ġà¤ķà¤°à¤£à¥įà¤¯à¤¾à¤ļà¥Ģ": 5639,
      "à¤¾à¤¬à¤¾à¤¬à¤¤": 5640,
      "Ġà¤¯à¥ĩà¤Ī": 5641,
      "Ġmultiple": 5642,
      "Ġaltern": 5643,
      "Ġà¤ıà¤ľ": 5644,
      "à¥ĩà¤ķà¥įà¤Ł": 5645,
      "Ġà¤Ŀà¤¾à¤²à¥Ģ.": 5646,
      "Ġideas": 5647,
      "Ġscientific": 5648,
      "à¥įà¤¤à¤¾": 5649,
      "ches": 5650,
      "elt": 5651,
      "Ġachieve": 5652,
      "Ġincluded": 5653,
      "Ġà¤«à¤ķà¥įà¤¤": 5654,
      "Ġà¤®à¤¨à¥ģà¤·à¥įà¤¯": 5655,
      "ift": 5656,
      "undred": 5657,
      "haps": 5658,
      "ĠMon": 5659,
      "Ġà¤ļà¤¿à¤ķà¤¿à¤¤": 5660,
      "Ġmember": 5661,
      "Ġ2009": 5662,
      "Ġà¤ĳà¤¨à¤²": 5663,
      "Ġmedia": 5664,
      "Ġsil": 5665,
      "Ġà¤ľà¤¿à¤¤": 5666,
      "Ġsection": 5667,
      "ĠMarch": 5668,
      "Ġà¤¯à¤¾à¤¤à¥įà¤°à¤¾": 5669,
      "omp": 5670,
      "Ġtiss": 5671,
      "Ġà¤¨à¤¿à¤ķà¤²": 5672,
      "Ġà¤ļà¤²à¤¾": 5673,
      "à¥īà¤°à¥įà¤¡": 5674,
      "ON": 5675,
      "24": 5676,
      "à¥įà¤°à¥ĭà¤²": 5677,
      "Ġfoot": 5678,
      "Ġà¤µà¤¿à¤¸": 5679,
      "Ġà¤ªà¥Ģà¤Ľà¥ĩ": 5680,
      "____": 5681,
      "Ġà¤Łà¥įà¤µà¤¿à¤Ł": 5682,
      "ned": 5683,
      "Ġroad": 5684,
      "Ġnegative": 5685,
      "hern": 5686,
      "Ġà¤¤à¥Ģà¤¸": 5687,
      "Ġà¤ªà¤¤": 5688,
      "Ġaspect": 5689,
      "ĠAmerica": 5690,
      "à¥įà¤®à¤£": 5691,
      "-à¤¦": 5692,
      "à¤¾à¤Ĥà¤µ": 5693,
      "à¤¿à¤ĵ": 5694,
      "Ġà¤°à¥Ĥ": 5695,
      "à¤¾à¤ĥ": 5696,
      "Ġhost": 5697,
      "à¤°à¤¿à¤¤": 5698,
      "Ġservices": 5699,
      "Ġà¤ķà¥ĩà¤²à¥ĩà¤²à¥įà¤¯à¤¾": 5700,
      "à¤¤à¥ĩ,": 5701,
      "Ġwent": 5702,
      "Ġà¤µà¤¾à¤ľ": 5703,
      "Ġrout": 5704,
      "Ġhttp://": 5705,
      "à¤µà¤¿à¤¡": 5706,
      "Ġbirth": 5707,
      "Ġbehind": 5708,
      "Ġmiss": 5709,
      "Ġadditional": 5710,
      "Ġx": 5711,
      "icles": 5712,
      "à¥Īà¤ķà¥Ģ": 5713,
      "à¤°à¤¿à¤ķ": 5714,
      "Ġcolon": 5715,
      "Ġà¤ªà¥įà¤°à¤¤à¤¿à¤¶à¤¤": 5716,
      "-h": 5717,
      "Ġà¤°à¤¾à¤¯": 5718,
      "Ġà¤ĸà¥ģà¤²": 5719,
      "pril": 5720,
      "ilos": 5721,
      "ana": 5722,
      "Ġhor": 5723,
      "Ġhighly": 5724,
      "Ġ\"The": 5725,
      "Ġhot": 5726,
      "Ġthus": 5727,
      "Ġà¤¤à¥įà¤¯à¤¾à¤Ĥà¤ļà¥Ģ": 5728,
      "à¥įà¤¯à¤¾à¤ķà¤¡à¥ĩ": 5729,
      "Ġà¤¬à¤¾à¤¹à¥ĩà¤°": 5730,
      "à¤°à¤¾à¤µ": 5731,
      "Ġà¤ķà¤Ĥà¤ªà¤¨": 5732,
      "IC": 5733,
      "Ġà¤¦à¥Ģà¥¤": 5734,
      "thern": 5735,
      "Ġsolution": 5736,
      "ĠAnt": 5737,
      "uman": 5738,
      "Ġofficial": 5739,
      "Ġalthough": 5740,
      "ĠAugust": 5741,
      "Ġà¤ªà¤¿à¤¤à¤¾": 5742,
      "ics,": 5743,
      "Ġà¤¦à¤°à¥įà¤¶": 5744,
      "Ġà¤¬à¤ļà¥įà¤ļà¥ĩ": 5745,
      "ĠDepartment": 5746,
      "ĠWest": 5747,
      "à¥ĩà¤¦à¥Ģ": 5748,
      "-in": 5749,
      "Ġà¤ªà¥ģà¤·": 5750,
      "Ġà¤®à¤¾à¤£": 5751,
      "Ġaud": 5752,
      "à¥įà¤¯à¤¾à¤ļà¤Ĥ": 5753,
      "Ġà¤®à¤¶": 5754,
      "Ġà¤ªà¤¾à¤¯": 5755,
      "Ġà¤ĸà¥ĭ": 5756,
      "Ġexplain": 5757,
      "les,": 5758,
      "ying": 5759,
      "Ġà¤¦à¥ĭà¤ĺ": 5760,
      "80": 5761,
      "nov": 5762,
      "Ġproced": 5763,
      "Ġà¤ķà¤¸": 5764,
      "Ġsevere": 5765,
      "Ġà¤Ŀà¤¾à¤²à¥ĩ.": 5766,
      "Ġà¤¸à¤ķà¥ĩ": 5767,
      "erson": 5768,
      "Ġà¤¶à¥Ī": 5769,
      "Ġang": 5770,
      "Ġ2017": 5771,
      "Ġà¤ħà¤¹à¤®": 5772,
      "Ġà¤®à¤¿à¤²à¥Ģ": 5773,
      "Ġà¤¨à¥ĩà¤¤à¥ĥà¤¤à¥įà¤µ": 5774,
      "Ġà¤ķà¤¿à¤®": 5775,
      "à¥įà¤¯à¤¾à¤°": 5776,
      "Ġà¤ķà¥ģà¤Łà¥ģà¤Ĥà¤¬": 5777,
      "ĠDav": 5778,
      "Ġà¤ħà¤¤à¤¿à¤°à¤¿à¤ķà¥įà¤¤": 5779,
      "rition": 5780,
      "Ġà¤ªà¤Ĥà¤ľà¤¾à¤¬": 5781,
      "Ġfill": 5782,
      "Ġà¤¸à¥ĩà¤¨à¤¾": 5783,
      "Ġà¤¶à¥ĩà¤¤à¤ķà¤±": 5784,
      "Ġdry": 5785,
      "like": 5786,
      "osure": 5787,
      "Ġà¤µà¥įà¤¯à¤µà¤¸à¤¾à¤¯": 5788,
      "Ġà¤¦à¤°à¥įà¤¶à¤¨": 5789,
      "Ġcritical": 5790,
      "Ġà¤¸à¤¿à¤°": 5791,
      "Ġstor": 5792,
      "iar": 5793,
      "Ġà¤¸à¥įà¤µà¤°à¥Ĥà¤ª": 5794,
      "Ġextra": 5795,
      "ĠLear": 5796,
      "à¤°à¥įà¤¤à¤¨": 5797,
      "Ġà¤¦à¥Ģà¤ª": 5798,
      "ĠGovern": 5799,
      "Ġprotein": 5800,
      "Ġforms": 5801,
      "Ġà¤¸à¤Ĥà¤ľà¤¯": 5802,
      "p.": 5803,
      "Ġà¤ķà¥īà¤²à¥ĩà¤ľ": 5804,
      "Ġà¤¦à¥Į": 5805,
      "Ġimage": 5806,
      "Ġà¤Ńà¤µà¤¿à¤·": 5807,
      "à¤¨à¤Ĺà¤°": 5808,
      "Ġfight": 5809,
      "Ġà¤ħà¤§à¤¿à¤ķà¤¾à¤°à¤¿à¤¯à¥ĭà¤Ĥ": 5810,
      "Ġà¤¬à¥Ģà¤®": 5811,
      "Ġà¤¬à¤¿à¤¹à¤¾à¤°": 5812,
      "Ġà¤ķà¤¾à¤°à¥įà¤°": 5813,
      "Ġà¤°à¤¹à¤¤à¤¾": 5814,
      "Ġà¤Ĺà¥įà¤°à¤¾à¤¹": 5815,
      "Ġsect": 5816,
      "Ġenj": 5817,
      "Ġfram": 5818,
      "à¤¾à¤¨à¤Ĥà¤¤à¤°": 5819,
      "ĠM.": 5820,
      "Ġ2021": 5821,
      "Ġà¤ĸà¥ģà¤¶": 5822,
      "Ġtransport": 5823,
      "Ġnucle": 5824,
      "ĠServ": 5825,
      "term": 5826,
      "Ġà¤ļà¤Ĥà¤¦à¥įà¤°": 5827,
      "amb": 5828,
      "à¥ĩà¤·à¥įà¤ł": 5829,
      "Ġà¤¤à¤¿à¤¥": 5830,
      "ceed": 5831,
      "Ġà¤¬à¤¨à¤¾à¤ı": 5832,
      "à¥įà¤¯à¤¾,": 5833,
      "eration": 5834,
      "Ġà¤ķà¤²à¥įà¤ª": 5835,
      "yond": 5836,
      "Ġà¤¸à¥įà¤¨": 5837,
      "Ġjo": 5838,
      "Ġà¤¶à¥ĩà¤¯à¤°": 5839,
      "Ġdecision": 5840,
      "à¤¾à¤Ĥà¤¦": 5841,
      "âĢĻve": 5842,
      "istics": 5843,
      "Ġtechniqu": 5844,
      "Ġà¤¸à¥ģà¤°à¥ģ": 5845,
      "Ġà¤ħà¤Ĥà¤ķ": 5846,
      "cean": 5847,
      "ĠSept": 5848,
      "sect": 5849,
      "ipl": 5850,
      "Ġà¤¦à¥įà¤°": 5851,
      "ĠMus": 5852,
      "Ġà¤¦à¤¬": 5853,
      "Ġ2015": 5854,
      "Ġà¤ķà¤¨": 5855,
      "Ġcentral": 5856,
      "Ġà¤¤à¥įà¤¯à¤¾à¤ļà¥Ģ": 5857,
      "Ġà¤®à¥Įà¤ķà¥ĩ": 5858,
      "Ġunique": 5859,
      "à¤²à¥ĩ,": 5860,
      "Ġà¤¬à¥įà¤°à¤¹à¥įà¤®": 5861,
      "Ġthat,": 5862,
      "Ġspirit": 5863,
      "Ġfactor": 5864,
      "Ġà¤ķà¥ĩà¤¸": 5865,
      "ino": 5866,
      "Ġuseful": 5867,
      "coh": 5868,
      "Ġseries": 5869,
      "Ġinterp": 5870,
      "Ġà¤ľà¤¾à¤¤à¥ĩ.": 5871,
      "Ġ2014": 5872,
      "Ġà¤¦à¥ĩà¤¨à¤¾": 5873,
      "Ġà¤ļà¥ģà¤ķà¥Ģ": 5874,
      "Ġà¤²à¤Ĺà¤¾à¤¯à¤¾": 5875,
      "Ġà¤¯à¤¾à¤ª": 5876,
      "Ġmethods": 5877,
      "Ġà¤¤à¤¾à¤ª": 5878,
      "Ġseems": 5879,
      "omet": 5880,
      "Ġà¤ĸà¤¾à¤¤": 5881,
      "Ġcustom": 5882,
      "Ġbroad": 5883,
      "Ġà¤¸à¥įà¤µà¤¯à¤Ĥ": 5884,
      "ĠAfrican": 5885,
      "Ġà¤ªà¥ĭà¤¹": 5886,
      "à¤¿à¤¯à¤¾à¤ģ": 5887,
      "gram": 5888,
      "eal": 5889,
      "Ø§": 5890,
      "Ġà¤¸à¥ĩà¤Ĥà¤Ł": 5891,
      "ĠBecause": 5892,
      "ĠSw": 5893,
      "Ġà¤ľà¥įà¤¯": 5894,
      "Ġà¤ķà¤¾à¤°à¤µà¤¾à¤Ī": 5895,
      "Ġà¤¤à¥įà¤¯à¤¾à¤Ĥà¤ļà¥ĩ": 5896,
      "Ġà¤°à¤¾à¤¶à¤¿": 5897,
      "ĠRet": 5898,
      "orthern": 5899,
      "Ġlarger": 5900,
      "Ġsustain": 5901,
      "à¤¾à¤µà¥Ģ": 5902,
      "na": 5903,
      "Ġà¤ĩà¤Ĥ": 5904,
      "inct": 5905,
      "Ġà¤µà¥ĥà¤¦à¥įà¤§": 5906,
      "Ġcontribut": 5907,
      "Ġeasily": 5908,
      "Ġwhose": 5909,
      "Ġà¤®à¤¾à¤¨à¤¸": 5910,
      "vention": 5911,
      "à¥ģà¤°à¥ģ": 5912,
      "Ġbad": 5913,
      "ĠWork": 5914,
      "Ġoffer": 5915,
      "Ġà¥¯": 5916,
      "Ġanaly": 5917,
      "Ġdaily": 5918,
      "Ġbeginning": 5919,
      "Ġtowards": 5920,
      "Ġà¤ķà¤¾à¤°à¥įà¤°à¤µà¤¾à¤Ī": 5921,
      "Ġprior": 5922,
      "vant": 5923,
      "âĢĻll": 5924,
      "Ġancient": 5925,
      "Ġà¤ªà¥įà¤°à¤£": 5926,
      "à¤®à¤¿à¤ķ": 5927,
      "Ġculture": 5928,
      "Ġà¤īà¤¦à¤¾à¤¹à¤°à¤£": 5929,
      "Ġhar": 5930,
      "Ġà¤¤à¤®": 5931,
      "Ġà¤µà¤¾à¤¤": 5932,
      "Ġnorth": 5933,
      "Ġà¤®à¤¾à¤¤à¥įà¤°,": 5934,
      "Ġlimit": 5935,
      "Ġcommunic": 5936,
      "Ġ2008": 5937,
      "Ġà¤ªà¤°à¥įà¤¯": 5938,
      "Ġà¤®à¥ģà¤ķà¥įà¤¤": 5939,
      "olar": 5940,
      "à¤¾à¤ªà¥Ĥà¤°": 5941,
      "Ġà¤ªà¤¤à¥įà¤°à¤ķà¤¾à¤°": 5942,
      "Ġà¤§à¤°": 5943,
      "ming": 5944,
      "Ġà¤ķà¤¾à¤°à¥įà¤¡": 5945,
      "Ġ+": 5946,
      "Ġà¤¸à¥Ĥà¤¤à¥įà¤°": 5947,
      "Ġdirectly": 5948,
      "Ġprotection": 5949,
      "istry": 5950,
      "Ġà¤ķà¥ħ": 5951,
      "Ġà¤¤à¤¸à¥įà¤µà¥Ģà¤°": 5952,
      "Ġà¤Ĩà¤¯à¥ĭà¤ľà¤¨": 5953,
      "Ġà¤²à¥Į": 5954,
      "Ġbank": 5955,
      "Ġpack": 5956,
      "Ġà¤¸à¤¹à¥Ģ": 5957,
      "Ġà¤¸à¤¾à¤Ĥà¤Ĺà¤¿à¤¤à¤²à¥ĩ.": 5958,
      "Ġlost": 5959,
      "à¥Ģà¤µà¥Ģ": 5960,
      "rogen": 5961,
      "eed": 5962,
      "Ġappropriate": 5963,
      "ĠSch": 5964,
      "Ġleading": 5965,
      "Ġà¤¹à¤Ł": 5966,
      "Ġà¤ľà¤£": 5967,
      "arian": 5968,
      "Ġ2016": 5969,
      "à¤°à¥įà¤¯": 5970,
      "Ġ(E": 5971,
      "Ġà¤µà¥įà¤¯à¤µà¤¹à¤¾à¤°": 5972,
      "Ġà¤¹à¤¤à¥įà¤¯à¤¾": 5973,
      "Ġà¤¨à¥ĭà¤Ĥà¤¦": 5974,
      "Ġaim": 5975,
      "ĠMod": 5976,
      "21": 5977,
      "à¤¬à¥įà¤²": 5978,
      "Ġ(s": 5979,
      "Ġstarted": 5980,
      "Ġ80": 5981,
      "vert": 5982,
      "able.": 5983,
      "Ġstay": 5984,
      "à¤¹à¤¾à¤²": 5985,
      "à¤Ĥà¤Ĺà¤¾": 5986,
      "ension": 5987,
      "nam": 5988,
      "Ġà¤ļà¥ģà¤ķà¤¾": 5989,
      "Ġà¤¬à¥ģà¤¦à¥įà¤§": 5990,
      "iverse": 5991,
      "ĠAlso": 5992,
      "udd": 5993,
      "Ġà¤ĩà¤¤à¤¨à¤¾": 5994,
      "Ġpurpose": 5995,
      "aches": 5996,
      "Ġpage": 5997,
      "Ġprivate": 5998,
      "Ġà¤¬à¤²à¥įà¤²": 5999,
      "Ġit's": 6000,
      "Ġà¤ķà¥ģà¤ł": 6001,
      "Ġelse": 6002,
      "In": 6003,
      "Ġdecl": 6004,
      "à¤µà¤¾à¤¹": 6005,
      "Ġclin": 6006,
      "Ġà¤ķà¤¿à¤²à¥ĭ": 6007,
      "Ġ2018": 6008,
      "Ġà¤¸à¤¹à¤¾à¤¯": 6009,
      "Ġissue": 6010,
      "à¤®à¥ģà¤Ĥà¤¬à¤Ī": 6011,
      "ĠThen": 6012,
      "ius": 6013,
      "Ġindustr": 6014,
      "Ġà¤Ĺà¤Ł": 6015,
      "Ġmom": 6016,
      "Ġà¤ªà¥ģà¤¤à¥įà¤°": 6017,
      "Ġaccur": 6018,
      "Ġà¤ĸà¥ģ": 6019,
      "à¥ģà¤ĥ": 6020,
      "Ġà¤¹à¥ĭ,": 6021,
      "ows": 6022,
      "ĠWhy": 6023,
      "Ġproces": 6024,
      "dd": 6025,
      "ises": 6026,
      "pro": 6027,
      "Ġis,": 6028,
      "Ġ#": 6029,
      "Ġpropert": 6030,
      "Ġà¤ªà¥ĭà¤²à¤¿à¤¸à¤¾à¤Ĥà¤¨à¥Ģ": 6031,
      "Ġmount": 6032,
      "ism,": 6033,
      "Ġà¤ħà¤Ĥà¤¤à¤¿à¤®": 6034,
      "Ġ35": 6035,
      "à¥ĭà¤¤à¥įà¤¸": 6036,
      "ĠSim": 6037,
      "à¤¿à¤ķà¤¾à¤°": 6038,
      "Ġdark": 6039,
      "à¤ľà¤¨à¤¿à¤ķ": 6040,
      "Ġà¤¤à¤¥": 6041,
      "à¤Ĺà¤¢à¤¼": 6042,
      "Ġorganiz": 6043,
      ".)": 6044,
      "à¤¾à¤°à¤¿à¤¤": 6045,
      "Ġcapital": 6046,
      "Ġà¤¸à¤Ĥà¤¯à¥ģà¤ķà¥įà¤¤": 6047,
      "ĠPark": 6048,
      "Ġà¤ĩà¤Ĥà¤ľ": 6049,
      "Ġdemand": 6050,
      "Ġfast": 6051,
      "à¥įà¤¯à¤¾à¤¬": 6052,
      "ĠCong": 6053,
      "bol": 6054,
      "Ġmonths": 6055,
      "à¤Ĥà¤ļà¥Ģ": 6056,
      "ĠGree": 6057,
      "ĠAssoci": 6058,
      "Ġà¤ªà¥ĥà¤¥": 6059,
      "Ġ(H": 6060,
      "Ġattention": 6061,
      "Ġvideo": 6062,
      "Ġhundred": 6063,
      "Ġsea": 6064,
      "à¥įà¤°à¥Ģà¤®": 6065,
      "Ġsafety": 6066,
      "Ġadminist": 6067,
      "à¥Īà¤¸": 6068,
      "ĠApril": 6069,
      "bit": 6070,
      "Ġlargest": 6071,
      ".com": 6072,
      "Ġà¤¦à¥ĩà¤¶à¥ĭà¤Ĥ": 6073,
      "Ġà¤Ĺà¤²": 6074,
      "ening": 6075,
      "Ġà¤²à¤Ĺà¤¤à¤¾": 6076,
      "Ġà¤īà¤²à¥įà¤²à¥ĩà¤ĸ": 6077,
      "Ġà¤¨à¤¿à¤¶à¥įà¤ļà¤¿à¤¤": 6078,
      "fort": 6079,
      "Ġ2007": 6080,
      "Ġ(G": 6081,
      "Ġà¤ħà¤ķà¥įà¤·": 6082,
      "Ġshall": 6083,
      "gn": 6084,
      "aid": 6085,
      "Ġà¤¸à¤Ĥà¤Ńà¤¾à¤µ": 6086,
      "Ġbrought": 6087,
      "a)": 6088,
      "Ġkids": 6089,
      "à¤¨à¥įà¤¸": 6090,
      "Ġà¤Ĩà¤²à¤¾.": 6091,
      "Ġà¤¸à¤¾à¤«": 6092,
      "Ġà¤Ĩà¤¯à¥ĭà¤Ĺ": 6093,
      "Ġà¤ķà¤°à¤£à¤¾à¤°": 6094,
      "Ġà¤®à¤¾à¤®à¤²à¤¾": 6095,
      "Ġà¤¦à¤¾à¤µà¤¾": 6096,
      "à¤²à¥Ģ,": 6097,
      "Ġà¤¸à¤ļà¤¿à¤µ": 6098,
      "Ġfinancial": 6099,
      "Ġà¤¶à¤¿à¤Ĥà¤¦": 6100,
      "rag": 6101,
      "à¥įà¤¯à¤¾à¤Ĥà¤¤": 6102,
      "Ġà¤ľà¤°à¥Ĥà¤°à¤¤": 6103,
      "Ġà¤¨à¤¯à¥ĩ": 6104,
      "Ġrat": 6105,
      "Ġquant": 6106,
      "Ġagricult": 6107,
      "à¥ĩà¤«": 6108,
      "Ġsearch": 6109,
      "à¤¬à¤²": 6110,
      "ĠMc": 6111,
      "come": 6112,
      "Ġà¤¤à¥įà¤¯à¤¾à¤¸": 6113,
      "et,": 6114,
      "Ġà¤¯à¥ĭà¤ľà¤¨": 6115,
      "Ġà¤µà¥ĩà¤¬à¤¸à¤¾à¤ĩà¤Ł": 6116,
      "Ġgot": 6117,
      "Ġcred": 6118,
      "Ġinfluence": 6119,
      "Ġcontains": 6120,
      "à¤ħà¤ª": 6121,
      "Ġ(L": 6122,
      "alt": 6123,
      "Ġà¤¸à¤®à¥ĭà¤°": 6124,
      "Ġfriend": 6125,
      "-g": 6126,
      "ĠArm": 6127,
      "Ġà¤®à¤¿à¤²à¤¨à¥ĩ": 6128,
      "Ġsugar": 6129,
      "à¥ĩà¤¡à¤¼": 6130,
      "Ġand,": 6131,
      "Ġà¤ķà¥Ģà¤®à¤¤": 6132,
      "à¥ĩà¤¤à¥Ģ": 6133,
      "Ġexact": 6134,
      "ED": 6135,
      "ham": 6136,
      "load": 6137,
      "Ġjud": 6138,
      "ĠHistory": 6139,
      "Ġcrim": 6140,
      "Ġsoftware": 6141,
      "Ġà¤µà¤¹à¥Ģ": 6142,
      "à¤²à¥Ģà¤µà¥ģà¤¡": 6143,
      "ĠTrans": 6144,
      "ened": 6145,
      "Ġsystem.": 6146,
      "Ġà¤®à¤¹à¤¿à¤²à¤¾à¤ĵà¤Ĥ": 6147,
      "ĠInstitute": 6148,
      "itch": 6149,
      "Ġwebsite": 6150,
      "Ġà¤ªà¥ģà¤¸à¥įà¤¤à¤ķ": 6151,
      "à¤ªà¥įà¤°à¤§à¤¾à¤¨": 6152,
      "Ġitem": 6153,
      "à¥įà¤¯à¥ģ": 6154,
      "Ġprograms": 6155,
      "ĠFin": 6156,
      "ĠRiver": 6157,
      "ĠDis": 6158,
      "ĠJune": 6159,
      "199": 6160,
      "Ġcapac": 6161,
      "ira": 6162,
      "hest": 6163,
      "ops": 6164,
      "Ġ195": 6165,
      "à¥īà¤¯": 6166,
      "Ġdoctor": 6167,
      "oming": 6168,
      "Ġà¤¯à¤¾à¤¸à¤¾à¤łà¥Ģ": 6169,
      "Ġà¤ªà¥įà¤°à¤¾à¤°": 6170,
      "Ġà¤ľà¥įà¤¯à¤¾": 6171,
      "à¤ķà¤°,": 6172,
      "back": 6173,
      "à¤¸à¤²": 6174,
      "à¤£à¤¾à¤±à¥įà¤¯à¤¾": 6175,
      "Ġreach": 6176,
      "à¥įà¤¤à¥ģ": 6177,
      "arr": 6178,
      "ights": 6179,
      "Ġlength": 6180,
      "Ġà¤¦à¥ĭà¤¨à¥įà¤¹à¥Ģ": 6181,
      "Ġwa": 6182,
      "Ġà¤¸à¤Ĥà¤ķà¥įà¤°à¤®": 6183,
      "à¤§à¤¾à¤¨à¥Ģ": 6184,
      "Ġà¤¥à¥ĩ.": 6185,
      "Ġcarry": 6186,
      "ĠInst": 6187,
      "à¤¸à¥įà¤Łà¥įà¤°à¥ĩà¤²": 6188,
      "Ġà¤¦à¥ĩà¤ĸà¤¤à¥ĩ": 6189,
      "Ġà¤¸à¤¾à¤°à¥įà¤µà¤ľà¤¨à¤¿à¤ķ": 6190,
      "à¤¾à¤Ĥà¤¶": 6191,
      "à¤°à¥įà¤¬": 6192,
      "Ġà¤¸à¥ģà¤®": 6193,
      "imal": 6194,
      "âĢĿ.": 6195,
      "Ġcommand": 6196,
      "Ġadop": 6197,
      "Ġbeaut": 6198,
      "à¤°à¥įà¤¤à¤¿": 6199,
      "Ġà¤¸à¥įà¤ªà¤°à¥įà¤§": 6200,
      "Ġà¤¬à¥ģà¤²": 6201,
      "Ġestablish": 6202,
      "à¤¨à¥įà¤¤à¥ģ": 6203,
      "Ġà¤²à¤¿à¤ı,": 6204,
      "ĠPresident": 6205,
      "Ġsoon": 6206,
      "ibrary": 6207,
      "Ġlocated": 6208,
      "Ġdamage": 6209,
      "Ġvirus": 6210,
      "à¤¸à¤¹": 6211,
      "Ġà¤¨à¤¿à¤°à¥įà¤§": 6212,
      "ĠEc": 6213,
      "ĠyouâĢĻre": 6214,
      "Ġegg": 6215,
      "à¥ĩà¤°à¥Ģ": 6216,
      "à¤¿à¤µà¤¾à¤°à¥Ģ": 6217,
      "ĠHigh": 6218,
      "Ġà¤ĸà¤¼": 6219,
      "Ġexcept": 6220,
      "Ġà¤Łà¤¿à¤ķ": 6221,
      "Ġà¤ľà¤¿à¤¸à¤ķà¤¾": 6222,
      "Ġrequires": 6223,
      "Ġteachers": 6224,
      "Ġtrack": 6225,
      "Ġà¤®à¥ĩà¤°à¥Ģ": 6226,
      "gy": 6227,
      "Ġep": 6228,
      "Ġsouth": 6229,
      "à¤Ńà¥Ĥà¤®": 6230,
      "ĠTechn": 6231,
      "Ġà¤¬à¤Ĥà¤Ĺ": 6232,
      "IV": 6233,
      "Ġà¤ĵà¤³": 6234,
      "à¤µà¤¿à¤¦à¥įà¤¯à¤¾à¤²à¤¯": 6235,
      "à¤ķà¤¾à¤®": 6236,
      "Ġtold": 6237,
      "ĠCenter": 6238,
      "à¤¾à¤¸à¤¾": 6239,
      "Ġyear.": 6240,
      "Ġnearly": 6241,
      "Ġ(T": 6242,
      "Ġprogress": 6243,
      "à¤¤à¥ģ": 6244,
      "à¤¿à¤°à¥ĭà¤§": 6245,
      "Ġdisp": 6246,
      "cial": 6247,
      "Ġcool": 6248,
      "Ġà¤ķà¤¾à¤³à¤¾à¤¤": 6249,
      "Ġtheory": 6250,
      "Ġà¤®à¤Ĥà¤Ĺà¤²": 6251,
      "Ġà¤¨à¤Ĥà¤¤à¤°": 6252,
      "ĠPat": 6253,
      "Ġà¤®à¥ĭà¤¹": 6254,
      "à¤¿à¤¨à¥ĩ": 6255,
      "ody": 6256,
      "Ġtransl": 6257,
      "ĠChines": 6258,
      "à¤¾à¤¯à¤£": 6259,
      "Ġà¤ķà¤°à¥įà¤®à¤ļà¤¾à¤°à¥Ģ": 6260,
      "Ġà¤ķà¥įà¤µ": 6261,
      "Ġteaching": 6262,
      "Ġà¤ķà¤§à¥Ģ": 6263,
      "cohol": 6264,
      "aul": 6265,
      "ĠPeople": 6266,
      "Ġà¤ļà¤²à¤¤à¥ĩ": 6267,
      "Ġà¤¯à¤¾à¤Ĥà¤ļà¤¾": 6268,
      "Ġ70": 6269,
      "Ġisland": 6270,
      "Ġ(the": 6271,
      "Ġà¤Ĺà¥įà¤°à¤¹": 6272,
      "uit": 6273,
      "vest": 6274,
      "Ġà¤¶à¥ĩà¤ħà¤°": 6275,
      "Ġ193": 6276,
      "Ġfit": 6277,
      "Ġveh": 6278,
      "head": 6279,
      "Ġà¤¸à¤¤à¥įà¤¯": 6280,
      "Ġbecomes": 6281,
      "Ġà¤¸à¥ĭà¤¡": 6282,
      "à¤³à¥įà¤¯à¤¾": 6283,
      "Ġà¤ħà¤µà¤¸à¤°": 6284,
      "Ġschools": 6285,
      "Ġà¤¤à¥ģ": 6286,
      "ĠJust": 6287,
      "Ġsurround": 6288,
      "Ġfather": 6289,
      "Ġfruit": 6290,
      "estic": 6291,
      "Ġà¤®à¥ĥà¤¤à¥įà¤¯à¥Ĥ": 6292,
      ");": 6293,
      "à¤°à¤¾à¤®": 6294,
      "ĠBi": 6295,
      "à¤¾à¤Ĺà¤¤": 6296,
      "ĠEngland": 6297,
      "-y": 6298,
      "Ġà¤¤à¤¾à¤ľ": 6299,
      "Ġà¤īà¤²": 6300,
      "Ġdead": 6301,
      "à¥Ģà¤ª": 6302,
      "Ġult": 6303,
      "equ": 6304,
      "Ġhimself": 6305,
      "Ġsn": 6306,
      "mar": 6307,
      "....": 6308,
      "Ġrare": 6309,
      "Ġà¤ķà¤¹à¥Ģà¤Ĥ": 6310,
      "Ġà¤¨à¥Ģà¤ļà¥ĩ": 6311,
      "atur": 6312,
      "Ġenjoy": 6313,
      "Ġcitiz": 6314,
      "Ġagree": 6315,
      "Ġunc": 6316,
      "Ġdescribed": 6317,
      "Ġà¤¨à¤¿à¤¯à¤Ĥà¤¤à¥įà¤°à¤£": 6318,
      "rig": 6319,
      "Ġà¤¤à¥ĩà¤¥": 6320,
      "70": 6321,
      "ender": 6322,
      "Ġà¤¸à¤µ": 6323,
      "Ġ2005": 6324,
      "oke": 6325,
      "ĠDevelop": 6326,
      "à¤²à¤¾,": 6327,
      "Ġunit": 6328,
      "Ġvict": 6329,
      "Ġà¤Ĩà¤µà¤¾à¤ľ": 6330,
      "ĠRed": 6331,
      "Ġà¤®à¤¾à¤°à¥įà¤ķ": 6332,
      "Ġmole": 6333,
      "ics.": 6334,
      "à¤¯à¤°": 6335,
      "Ġà¤¨à¤¿à¤¦": 6336,
      "Ġà¤ıà¤Ĥà¤¡": 6337,
      "Ġstru": 6338,
      "Ġà¤¸à¤Ĥà¤ªà¥Ĥà¤°à¥įà¤£": 6339,
      "EN": 6340,
      "isions": 6341,
      "Ġà¤§à¤®": 6342,
      "IS": 6343,
      "Ġà¤ªà¤°à¥ĩà¤¶": 6344,
      "Ġrespond": 6345,
      "Ġà¤ħà¥ħ": 6346,
      "Ġfuel": 6347,
      "Ġlabor": 6348,
      "Ġadded": 6349,
      "Ġpolicy": 6350,
      "ogen": 6351,
      "ent,": 6352,
      "Ġà¤¸à¥Ĥà¤°à¥įà¤¯": 6353,
      "à¤Ĥà¤ķà¤¾": 6354,
      "Ġà¤¸à¤¹à¤¯à¥ĭà¤Ĺ": 6355,
      "Ġroom": 6356,
      "Ġà¤¡à¤¿à¤Ĺ": 6357,
      "Ġà¤ªà¥Ĥà¤ľà¤¾": 6358,
      "à¤¾à¤Ĥà¤ª": 6359,
      "Ġevents": 6360,
      "Ġà¤Ĺà¤¤": 6361,
      "ĠWilliam": 6362,
      "itation": 6363,
      "Ġcontext": 6364,
      "ss": 6365,
      "rael": 6366,
      "Ġreceived": 6367,
      "ĠDay": 6368,
      "Ġà¤µà¤¿à¤¶à¥įà¤µà¤µà¤¿à¤¦à¥įà¤¯à¤¾à¤²à¤¯": 6369,
      "ĠWashing": 6370,
      "Ġfoods": 6371,
      "Ġsummer": 6372,
      "resh": 6373,
      "Ġtypically": 6374,
      "Ġborn": 6375,
      "Ġà¤īà¤¸à¤¸à¥ĩ": 6376,
      "i)": 6377,
      "Ġmention": 6378,
      "Ġà¤§à¤¾à¤µ": 6379,
      "Ġà¤¨à¤¿à¤ľ": 6380,
      "Ġhous": 6381,
      "ĠAre": 6382,
      "Ġà¤ľà¤¿à¤®": 6383,
      "igr": 6384,
      "Ġà¤«à¤°": 6385,
      "Ġà¤¹à¤¿à¤®": 6386,
      "Ġà¤µà¤°à¥įà¤¤à¤®à¤¾à¤¨": 6387,
      "IT": 6388,
      "ĠFeb": 6389,
      "Ġast": 6390,
      "ospital": 6391,
      "Ġpan": 6392,
      "itude": 6393,
      "ĠOver": 6394,
      "Ġà¤°à¤¾à¤ľà¥įà¤¯à¥ĭà¤Ĥ": 6395,
      "'re": 6396,
      "Ġdigital": 6397,
      "Ġà¤¹à¤®à¤¾à¤°à¥Ģ": 6398,
      "Ġsaw": 6399,
      "Ġdiabet": 6400,
      "itect": 6401,
      "Ġrapid": 6402,
      "Ġà¤Ĩà¤¢à¤³": 6403,
      "Ġà¤¦à¤¿à¤¸à¤¤": 6404,
      "Ġà¤¸à¥ģà¤°à¤ķà¥įà¤·à¤¿à¤¤": 6405,
      "Ġà¤ķà¥ĥà¤·à¥įà¤£": 6406,
      "Ġprofessional": 6407,
      "Ġà¤ķà¥ĥ": 6408,
      "Ġteach": 6409,
      "Ġà¤¸à¤¿à¤¨à¥ĩà¤®": 6410,
      "iter": 6411,
      "Ġà¤Ĩà¤ªà¤ķà¥Ģ": 6412,
      "à¤¤à¥įà¤¤à¤°": 6413,
      "à¤¶à¥įà¤µà¤°": 6414,
      "Ġà¤µà¥įà¤¯à¤¾à¤ªà¤¾à¤°": 6415,
      "ĠLet": 6416,
      "Ġà¤°à¤ľ": 6417,
      "Ġà¤¸à¥Ģà¤®à¤¾": 6418,
      "Ġà¤¬à¥Ģà¤ľà¥ĩà¤ªà¥Ģ": 6419,
      "-à¤µ": 6420,
      "Ġà¤ªà¤Ĥà¤¤": 6421,
      "ĠJanuary": 6422,
      "al.": 6423,
      "à¤¾à¤µà¤°à¤£": 6424,
      "Ġà¤¨à¤¦à¥Ģ": 6425,
      "Ġnumbers": 6426,
      "iece": 6427,
      "à¤¾à¤¨à¥ĩà¤Ĥ": 6428,
      "à¥ĥà¤¦à¤¯": 6429,
      "Ġ31": 6430,
      "cember": 6431,
      "ology,": 6432,
      "Ġà¤Ĺà¤¿à¤°à¤«à¥įà¤¤à¤¾à¤°": 6433,
      "à¥ĩà¤¶à¤¾": 6434,
      "Ġrecommend": 6435,
      "Ġà¤¤à¥įà¤¯à¤¾à¤ļà¥ĩ": 6436,
      "Ġà¤ªà¤¸à¤Ĥà¤¦": 6437,
      "Ġà¤ķà¤°à¤£à¥įà¤¯à¤¾à¤ļà¤¾": 6438,
      "raw": 6439,
      "Ġsources": 6440,
      "orts": 6441,
      "Ġfederal": 6442,
      "à¥įà¤°à¥ĭ": 6443,
      "Ġdon't": 6444,
      "Ġcoast": 6445,
      "à¤¾à¤¯à¤ļà¥ĩ": 6446,
      "rick": 6447,
      "rong": 6448,
      "Ġreligious": 6449,
      "Ġà¤ľà¤®à¥Ģà¤¨": 6450,
      "Ġà¤µà¤¿à¤®à¤¾à¤¨": 6451,
      "ovember": 6452,
      "Ġpoints": 6453,
      "Ġconstruction": 6454,
      "aur": 6455,
      "Ġà¤ıà¤ķà¤¤à¥įà¤°": 6456,
      "Ġà¤µà¤¿à¤¤à¥įà¤¤": 6457,
      "ic,": 6458,
      "Ġlimited": 6459,
      "Ġà¤°à¤¾à¤ľà¤ķà¥Ģà¤¯": 6460,
      "à¥ĭà¤§à¤¨": 6461,
      "Ġà¤¶à¥ģà¤°à¥ģà¤Ĩà¤¤": 6462,
      "apter": 6463,
      "Ġà¤ªà¤°à¤¨à¥įà¤¤à¥ģ": 6464,
      "rab": 6465,
      "ence,": 6466,
      "à¤¨à¥ĩà¤¸": 6467,
      "ĠBlack": 6468,
      "Ġà¤²à¤¢": 6469,
      "Ġà¤ķà¤¿à¤¸à¤¾à¤¨à¥ĭà¤Ĥ": 6470,
      "ĠVir": 6471,
      "Ġà¤¸à¥įà¤µà¤¤à¤Ĥà¤¤à¥įà¤°": 6472,
      "à¤¨à¤¿": 6473,
      "à¤¿à¤µà¤¾à¤¯": 6474,
      "ĠRoman": 6475,
      "à¤¾à¤¹à¥ĩà¤¬": 6476,
      "Ġcold": 6477,
      "pper": 6478,
      "Ġmonitor": 6479,
      "Ġà¥¨à¥¦à¥§": 6480,
      "ĠAnother": 6481,
      "ĠJournal": 6482,
      "26": 6483,
      "Ġdepend": 6484,
      "ĠUse": 6485,
      "Ġà¤Ĩà¤§à¥Ģ": 6486,
      "unch": 6487,
      "Ġà¤ķà¥Īà¤²": 6488,
      "Ġà¤¯à¤¾à¤ļà¥Ģ": 6489,
      "ĠJuly": 6490,
      "Ġsecurity": 6491,
      "Ġcultural": 6492,
      "ĠGreat": 6493,
      "ĠSeptember": 6494,
      "Ġà¤ĩà¤Ĥà¤Ĺà¥įà¤²": 6495,
      "à¤°à¤¾à¤·à¥įà¤Łà¥įà¤°à¥Ģà¤¯": 6496,
      "Ġà¤ķà¤³": 6497,
      "Ġder": 6498,
      "Ġfib": 6499,
      "ĠEach": 6500,
      "Ġà¤ªà¥ģà¤°à¤¸à¥įà¤ķà¤¾à¤°": 6501,
      "27": 6502,
      "Ġpet": 6503,
      "Ġpredict": 6504,
      "Ġguid": 6505,
      "Ġà¤ķà¤¶": 6506,
      "Ġstar": 6507,
      "Ġinfl": 6508,
      "à¤¤à¥įà¤¤à¤¿": 6509,
      "Ġcou": 6510,
      "Ġà¤²à¤¾à¤Ĺà¤¤": 6511,
      "ades": 6512,
      "Ġà¤¯à¥ģà¤µà¤ķ": 6513,
      "hens": 6514,
      "Ġà¤®à¤¾à¤¤": 6515,
      "Ġremains": 6516,
      "Ġresponsible": 6517,
      "Ġinstall": 6518,
      "Ġà¤ķà¤¿à¤¯à¥ĩ": 6519,
      "Ġanswer": 6520,
      "Ġà¤Ĺà¤¯à¥Ģ": 6521,
      "Ġadapt": 6522,
      "Ġbul": 6523,
      "ĠSur": 6524,
      "à¥įà¤®à¥Ģà¤°": 6525,
      "ĠCour": 6526,
      "à¤¾à¤īà¤Ĥà¤Ł": 6527,
      "Ġgives": 6528,
      "Ġadj": 6529,
      "à¥ĭà¤³": 6530,
      "à¤ªà¤Ĥà¤ļ": 6531,
      "Ġà¤°à¤ķà¥įà¤¤": 6532,
      "Ġà¤²à¤Ĺà¥ĩ": 6533,
      "Ġà¤ķà¤¿à¤¨à¥įà¤¤à¥ģ": 6534,
      "Ġcompanies": 6535,
      "Ġà¤¯à¤¾à¤Ĥà¤ļà¥ĩ": 6536,
      "Ġà¤¸à¤®à¤¾à¤§": 6537,
      "à¤Łà¥įà¤Ł": 6538,
      "irection": 6539,
      "Ġupd": 6540,
      "à¤µà¥Ģà¤Ĥ": 6541,
      "Ġà¤¦à¤¿à¤ĸà¤¾à¤Ī": 6542,
      "lim": 6543,
      "à¤¶à¥Ģà¤²": 6544,
      "ford": 6545,
      "Ġcreating": 6546,
      "à¥Ģà¤µà¤°": 6547,
      "Ġà¤ľà¤µà¤¾à¤¬": 6548,
      "ĠCoun": 6549,
      "ĠCommun": 6550,
      "Ġ2000": 6551,
      "ĠWater": 6552,
      "ps": 6553,
      "Ġà¤®à¤¸": 6554,
      "formation": 6555,
      "ription": 6556,
      "Ġà¤¹à¤¾à¤¸à¤¿à¤²": 6557,
      "Ġfinal": 6558,
      "Ġà¤¯à¤¾à¤®à¥ģà¤³à¥ĩ": 6559,
      "omb": 6560,
      "Ġscreen": 6561,
      "Ġà¤Ĺà¥ĥà¤¹": 6562,
      "à¤¿à¤µà¤°à¥įà¤¸": 6563,
      "Ġà¤ħà¤¨à¥ģ": 6564,
      "ĠOnce": 6565,
      "à¤Ĩà¤ª": 6566,
      "Ġà¥§à¥«": 6567,
      "Ġ2023": 6568,
      "Ġfilm": 6569,
      "Ġbeyond": 6570,
      "Ġwrite": 6571,
      "Ġà¤¸à¥įà¤Łà¥ĩà¤¶à¤¨": 6572,
      "Ġcele": 6573,
      "ated.": 6574,
      "Ġelement": 6575,
      "à¤¾à¤ªà¤°à¥įà¤¯à¤Ĥà¤¤": 6576,
      "ĠLaw": 6577,
      "Ġà¤¡à¤¿à¤Ĺà¥įà¤°à¥Ģ": 6578,
      "Ġà¤¬à¤¯à¤¾à¤¨": 6579,
      "Ġmix": 6580,
      "Ġà¤īà¤®à¥ĩà¤¦": 6581,
      "à¤¾à¤¨à¤¦à¤¾à¤°": 6582,
      "Ġà¥§à¥®": 6583,
      "ĠChinese": 6584,
      "Ġadvant": 6585,
      "Ġseason": 6586,
      "Ġà¤¸à¤®à¤¾à¤µà¥ĩà¤¶": 6587,
      "Ġà¤¶à¤ķà¥įà¤¤à¤¿": 6588,
      "Ġequip": 6589,
      "enge": 6590,
      "Ġà¤Ĩà¤°à¥ĭà¤Ĺà¥įà¤¯": 6591,
      "Ġlives": 6592,
      "ĠSan": 6593,
      "ĠIS": 6594,
      "Ġà¤ļà¤°à¤£": 6595,
      "ĠJesus": 6596,
      "rote": 6597,
      "Ġà¤ªà¥įà¤°à¤¶à¤¿à¤ķà¥įà¤·à¤£": 6598,
      "Ġtit": 6599,
      "Ġà¤Ľà¥ĭà¤Łà¥ĩ": 6600,
      "Ġà¤¦à¥ĭà¤·": 6601,
      "Ġà¤ıà¤ĸ": 6602,
      "Ġseek": 6603,
      "Ġà¤ħà¤¸à¤¤à¤¾à¤¤.": 6604,
      "Ġ'à¤¸": 6605,
      "à¤¤à¥Ģà¤².": 6606,
      "Ġcrop": 6607,
      "Ġ90": 6608,
      "Ġi": 6609,
      "Ġà¤¹à¤¿à¤¸à¥įà¤¸à¤¾": 6610,
      "à¤°à¤¤": 6611,
      "Ġà¤¶à¤ķà¥įà¤¯à¤¤à¤¾": 6612,
      "Ġà¤°à¥ĭà¤¡": 6613,
      "anish": 6614,
      "Ġà¤ªà¥įà¤°à¤¤à¤¿à¤¬": 6615,
      "Ġthem,": 6616,
      "Ġweb": 6617,
      "Ġà¤¶à¤¿à¤ķà¤¾à¤¯à¤¤": 6618,
      "Ġliv": 6619,
      "Ġà¤ªà¥ī": 6620,
      "ĠOctober": 6621,
      "Ġconstit": 6622,
      "Ġà¤Ńà¤¾à¤°à¥Ģ": 6623,
      "Ġbott": 6624,
      "Ġ(c": 6625,
      "Ġà¤ĵà¤³à¤ĸ": 6626,
      "Ġà¤ħà¤¸à¥Ĥà¤¨,": 6627,
      "Ġà¤¥à¥ĭà¤¡à¤¼": 6628,
      "à¥įà¤¯à¤¾à¤Ĥà¤ļà¥ĩ": 6629,
      "Ġà¤¬à¤¨à¥ĩ": 6630,
      "Ġà¤ķà¥ĭà¤µà¤¿à¤¡": 6631,
      "Ġtree": 6632,
      "-term": 6633,
      "Ġeye": 6634,
      "Ġà¤¬à¥ĩà¤¹à¤¤à¤°": 6635,
      "Ġnation": 6636,
      "Ġchoose": 6637,
      "Ġà¤¸à¤Ĥà¤ªà¤°à¥įà¤ķ": 6638,
      "à¤¯à¥Ĥ": 6639,
      "à¥Ģà¤ķà¤°à¤£": 6640,
      "Ġhom": 6641,
      "ĠSystem": 6642,
      "Ġgenetic": 6643,
      "à¤¾à¤Łà¤¾": 6644,
      "Ġcru": 6645,
      "29": 6646,
      "Ġà¤īà¤¦à¥įà¤§": 6647,
      "ocol": 6648,
      "Ġbase": 6649,
      "aries": 6650,
      "Ġà¤°à¤¿à¤ķ": 6651,
      "Ġmiddle": 6652,
      "Ġà¤Ķà¤·": 6653,
      "sec": 6654,
      "Ġà¤®à¤¾à¤Ŀà¥įà¤¯à¤¾": 6655,
      "en.": 6656,
      "Ġà¤¹à¥ĩà¤¤": 6657,
      "Ġgradu": 6658,
      "Ġà¤¹à¥ī": 6659,
      "-st": 6660,
      "Ġà¤¥à¤¾à¤¨à¤¾": 6661,
      "Ġautom": 6662,
      "Ġà¤«à¥Ģà¤¸": 6663,
      "ĠArch": 6664,
      "Ġcities": 6665,
      "à¤¦à¥įà¤µ": 6666,
      "ĠIsrael": 6667,
      "Ġcollection": 6668,
      "Ġà¤Ĩà¤ªà¤²à¥įà¤¯à¤¾à¤²à¤¾": 6669,
      "Ġbreat": 6670,
      "Ġconsequ": 6671,
      "à¤Ĭà¤¨": 6672,
      "Ġhyp": 6673,
      "à¥Ģà¤¨à¥ĩ": 6674,
      "Ġriver": 6675,
      "Ġà¤ħà¤®à¥ĩà¤°à¤¿à¤ķà¤¾": 6676,
      "et.": 6677,
      "Ġà¥§à¥¨": 6678,
      "Ġà¤²à¤¿à¤¯à¤¾à¥¤": 6679,
      "ev": 6680,
      "ĠChurch": 6681,
      "Ġlegal": 6682,
      "Ġà¤¸à¥ĭà¤ļ": 6683,
      "Ġfact,": 6684,
      "mosp": 6685,
      "know": 6686,
      "Ġà¤ĸà¤°à¥Ģà¤¦": 6687,
      "à¤¡à¤ķ": 6688,
      "à¤ªà¤¾": 6689,
      "Ġà¤ķà¤°à¤¾.": 6690,
      "Ġà¤®à¥Īà¤¦à¤¾à¤¨": 6691,
      "à¤µà¤°à¥Ģ": 6692,
      "Ġà¤¬à¤ĺ": 6693,
      "Ġeating": 6694,
      "ĠChina": 6695,
      "Ġmid": 6696,
      "ĠC.": 6697,
      "Ġà¤¸à¥Ī": 6698,
      "Ġsociety": 6699,
      "Ġtrial": 6700,
      "Ġgain": 6701,
      "Ġinsp": 6702,
      "imin": 6703,
      "Ġà¤īà¤Ń": 6704,
      "Ġà¤¸à¤®à¥įà¤¬à¤¨à¥įà¤§": 6705,
      "Ġà¤ķà¤¿à¤¤à¥Ģ": 6706,
      "Ġà¤¸à¤®à¥Ĥà¤¹": 6707,
      "Ġsociet": 6708,
      "Ġà¤ªà¤¾à¤¯à¤¾": 6709,
      "ĠEducation": 6710,
      "isl": 6711,
      "à¤¿.": 6712,
      "ellig": 6713,
      "ĠProf": 6714,
      "Ġà¤ĸà¤¾à¤¦": 6715,
      "-A": 6716,
      "Ġà¤¨à¤¾à¤¶": 6717,
      "Ġfear": 6718,
      "Ġcontroll": 6719,
      "Ġproviding": 6720,
      "ĠGeneral": 6721,
      "à¤ķà¤®": 6722,
      "Ġà¤µà¤¿à¤§à¤¾à¤¯à¤ķ": 6723,
      "see": 6724,
      "Ġà¤µà¥ĥà¤¤à¥įà¤¤": 6725,
      "Ġ2006": 6726,
      "à¤¤à¤¨": 6727,
      "ĠTod": 6728,
      "Ġhon": 6729,
      "à¤¾à¤¯à¥ĩ": 6730,
      "à¤¾à¤ĩà¤ķ": 6731,
      "edom": 6732,
      "Ġà¤¸à¤®à¥įà¤®à¤¾à¤¨": 6733,
      "à¤¸à¤¿à¤¤": 6734,
      "Ġà¤ªà¥įà¤°à¤¾à¤£": 6735,
      "ately": 6736,
      "Ġà¤ĳà¤¸à¥įà¤Łà¥įà¤°à¥ĩà¤²": 6737,
      "Ġà¤°à¥ģ": 6738,
      "Ġteeth": 6739,
      "Ġà¤ķà¤°à¤¤à¤¾à¤¨à¤¾": 6740,
      "Ġà¤µà¤¾à¤¯": 6741,
      "Ġà¤ľà¤¾à¤£à¤¾à¤°": 6742,
      "Ġsupply": 6743,
      "C.": 6744,
      "Ġà¤ļà¥Ī": 6745,
      "Ġal.": 6746,
      "Ġà¤ħà¤®à¥ĩà¤°à¤¿à¤ķ": 6747,
      "ĠCur": 6748,
      "Ġà¤ľà¤¾à¤ıà¤Ĥà¤Ĺ": 6749,
      "Ġà¤µà¥įà¤¹à¤¿à¤¡": 6750,
      "Ġreas": 6751,
      "Ġsequ": 6752,
      "Ġà¤¦à¥Ĥ": 6753,
      "Ġ(b": 6754,
      "ĠDon": 6755,
      "Ġund": 6756,
      "ive,": 6757,
      "Ġà¤¤à¥įà¤¯à¤¾à¤Ĥà¤ļà¤¾": 6758,
      "Ġà¤Ĩà¤ķà¤¾à¤°": 6759,
      "Ġà¤°à¤¹à¤¤à¥Ģ": 6760,
      "Ġfile": 6761,
      "Ġcook": 6762,
      "Ġà¤Ĺà¥ĩà¤²": 6763,
      "Ġà¤Ĩà¤¹à¥ĩà¤¤,": 6764,
      "Ġà¤¤à¥Ĥ": 6765,
      "Ġà¤ķà¥Įà¤¨": 6766,
      "à¥ĥà¤¤à¤¿à¤ķ": 6767,
      "à¤¡à¥įà¤¡": 6768,
      "Ġtools": 6769,
      "à¤¸à¥įà¤¯": 6770,
      "à¤µà¥įà¤¯à¤µ": 6771,
      "Ġà¤¯à¤¾à¤ļà¤¾": 6772,
      "Ġà¤ķà¤¦à¤®": 6773,
      "à¤Ĥà¤ķà¤°": 6774,
      "Ġà¤®à¤¾à¤ľà¥Ģ": 6775,
      "Ġwinter": 6776,
      "Ġà¤®à¥ĭà¤łà¤¾": 6777,
      "Ġà¤¤à¤¿à¤ļà¥įà¤¯à¤¾": 6778,
      "Ġà¤ħà¤Ńà¤¿à¤¯à¤¾à¤¨": 6779,
      "Ġà¤¬à¤²à¥įà¤²à¥ĩà¤¬": 6780,
      "Ġquickly": 6781,
      "ĠProt": 6782,
      "Ġà¤¸à¤®à¤°à¥įà¤¥à¤¨": 6783,
      "Ġà¤¹à¥ĭà¤Ĭà¤¨": 6784,
      "Ġà¤¸à¥įà¤¤à¥įà¤°à¥Ģ": 6785,
      "ĠDecember": 6786,
      "exic": 6787,
      "Ġyourself": 6788,
      "ĠD.": 6789,
      "Ġà¤µà¤¿à¤µà¤¾à¤¹": 6790,
      "à¤Ĺà¥įà¤°à¥Ģ": 6791,
      "Ġsett": 6792,
      "Ġdestro": 6793,
      "Ġà¤¶à¤¾à¤¸": 6794,
      "Ġconflic": 6795,
      "Ġà¤®à¤¹à¤¾à¤ªà¤¾à¤²": 6796,
      "Ġten": 6797,
      "Ġà¤ķà¤°à¥įà¤ľ": 6798,
      "Ġà¤¶à¤¿à¤ķà¥įà¤·à¤ķ": 6799,
      "Ġà¤®à¥ģà¤ķà¤¾à¤¬": 6800,
      "à¤¿à¤²à¥įà¤²": 6801,
      "Ġimportance": 6802,
      "ech": 6803,
      "Ġà¤¤à¤¾à¤ķà¤¿": 6804,
      "ĠNovember": 6805,
      "Ġwoman": 6806,
      "le,": 6807,
      "able,": 6808,
      "Ġyear,": 6809,
      "Ġà¤¬à¤¾à¤³": 6810,
      "Ġà¤ķà¤¿à¤¸à¤¾à¤¨": 6811,
      "à¤µà¥ĩà¤Ĥ": 6812,
      "à¤§à¤°": 6813,
      "Ġvia": 6814,
      "Ġformer": 6815,
      "Ġinstru": 6816,
      "à¤®à¥įà¤Ń": 6817,
      "Ġkid": 6818,
      "Ġ(or": 6819,
      "Ġspeed": 6820,
      "Ġreceive": 6821,
      "Ġà¤Ĺà¥ģà¤ª": 6822,
      "Ġday.": 6823,
      "ÙĦ": 6824,
      "28": 6825,
      "Ġelements": 6826,
      "ĠEast": 6827,
      "à¤¡à¤¼à¥ĭà¤Ĥ": 6828,
      "pe": 6829,
      "à¥Ĥà¤ªà¥Ģ": 6830,
      "Ġà¤ļà¤®": 6831,
      "Ġrain": 6832,
      "à¤ĺà¤¾à¤¤": 6833,
      "Ġà¤ĸà¥Ĥà¤¬": 6834,
      "ĠIsland": 6835,
      "Ġà¤²à¤Ĺà¥įà¤¨": 6836,
      "Ġà¤¸à¤°à¤ķà¤¾à¤°à¤¨à¥ĩ": 6837,
      "Ġà¤Ĺà¥Į": 6838,
      "à¤¤à¤¾à¤ĵà¤Ĥ": 6839,
      "atives": 6840,
      "à¤°à¥įà¤ľà¥Ģ": 6841,
      "Ġà¤®à¤¾à¤®à¤²à¥ĭà¤Ĥ": 6842,
      "Ġà¤ħà¤§à¥įà¤¯": 6843,
      "Ġà¤Łà¥Ī": 6844,
      "Ġapprox": 6845,
      "à¤¾à¤µà¤Ł": 6846,
      "ĠNA": 6847,
      "aught": 6848,
      "Ġà¤«à¥Īà¤¸à¤²à¤¾": 6849,
      "Ġà¤¹à¥ĥà¤¦à¤¯": 6850,
      "Ġpurch": 6851,
      "mission": 6852,
      "à¥ĩà¤Ĭ": 6853,
      "Ġshap": 6854,
      "Ġà¤¤à¤ķà¥įà¤°": 6855,
      "ils": 6856,
      "used": 6857,
      "à¤¾à¤Ĥà¤¨": 6858,
      "ĠVal": 6859,
      "ĠAut": 6860,
      "ocr": 6861,
      "Ġneigh": 6862,
      "Ġà¤µà¥ĩà¤³à¥Ģ": 6863,
      "Ġoccup": 6864,
      "à¥Ĥà¤°à¥įà¤£": 6865,
      "ively": 6866,
      "Ġcurrently": 6867,
      "Ġà¤¨à¤¿à¤¯à¥ģà¤ķà¥įà¤¤": 6868,
      "Ġà¤°à¤¾à¤ľà¤¸à¥įà¤¥à¤¾à¤¨": 6869,
      "ingu": 6870,
      "Ġ\"I": 6871,
      "Ġà¤ªà¥įà¤°à¤®à¤¾à¤£à¤¾à¤¤": 6872,
      "Ġà¤Ĩà¤ªà¤²à¥ĩ": 6873,
      "ĠLond": 6874,
      "Ġconstant": 6875,
      "ĠLat": 6876,
      "à¤¿à¤Ŀ": 6877,
      "Ġà¤ªà¤¾à¤²à¤¨": 6878,
      "Ġà¤¸à¤®à¥įà¤ª": 6879,
      "Ġà¤µà¥ĩà¤¦": 6880,
      "Ġà¤¸à¤²à¤¾à¤¹": 6881,
      "Ġà¤ªà¤°à¤¿à¤¸à¥įà¤¥à¤¿à¤¤": 6882,
      "Ġà¤¯à¥Ĥà¤¨à¤¿à¤µà¤°à¥įà¤¸": 6883,
      "Ġà¤®à¤Ĥà¤Ĺ": 6884,
      "obile": 6885,
      "Ġtrying": 6886,
      "Ġroot": 6887,
      "ype": 6888,
      "Ġcalcul": 6889,
      "à¤¾à¤¸à¥įà¤Ł": 6890,
      "les.": 6891,
      "Ġà¤®à¤¿à¤²à¤¾": 6892,
      "Ġ...": 6893,
      "Ġà¤¶à¥ĩà¤µ": 6894,
      "à¤¨à¤¾,": 6895,
      "à¤Ĥà¤ļà¤¾": 6896,
      "Ġà¤ªà¤Ĥà¤ļà¤¾à¤¯à¤¤": 6897,
      "Ġpoly": 6898,
      "à¤¾à¤°à¥ĭà¤Ĥ": 6899,
      "à¤£à¥įà¤¯à¤¾à¤ļà¤¾": 6900,
      "à¤¯à¤¹": 6901,
      "Ġà¤µà¤¾à¤ªà¤¸": 6902,
      "Ġhope": 6903,
      "pris": 6904,
      "ĠRel": 6905,
      "aly": 6906,
      "Ġà¤¨à¤¹à¥Ģà¤Ĥ,": 6907,
      "à¤¿à¤µà¥įà¤¹": 6908,
      "Ġ45": 6909,
      "ism.": 6910,
      "Ġasked": 6911,
      "Ġleave": 6912,
      "à¥ģà¤¨à¤¿à¤ķ": 6913,
      "Ġà¤ľà¤¾à¤ıà¤Ĺà¥Ģà¥¤": 6914,
      "à¤¾à¤¦à¤°": 6915,
      "Ġswe": 6916,
      "à¤ªà¤¨": 6917,
      "Ġvisual": 6918,
      "Ġà¤µà¤¿à¤ľà¥įà¤ŀà¤¾à¤¨": 6919,
      "ought": 6920,
      "Ġà¤¸à¤¿à¤²": 6921,
      "à¤ķà¤¡à¥Ĥà¤¨": 6922,
      "à¥īà¤¸": 6923,
      "à¤¤à¥ĭ,": 6924,
      "Ġnothing": 6925,
      "Ġpregn": 6926,
      "Ġà¤ªà¤¤à¤¿": 6927,
      "Ġà¤¦à¤¹": 6928,
      "urg": 6929,
      "Ġà¤¸à¤¤à¥įà¤¤": 6930,
      "Ġorganization": 6931,
      "Ġmiles": 6932,
      "rical": 6933,
      "Ġà¤®à¥īà¤¡": 6934,
      "à¤¾à¤¹à¤¨": 6935,
      "Ġà¤ªà¥įà¤°à¤ķà¤¾à¤¶à¤¿à¤¤": 6936,
      "ĠProgram": 6937,
      "Ġmemory": 6938,
      "Ġstrength": 6939,
      "ĠChe": 6940,
      "Ġà¤ªà¤¾à¤µà¤¸": 6941,
      "Ġà¤¨à¥ĭ": 6942,
      "Ġà¤ħà¤®à¤¿à¤¤": 6943,
      "Ġgarden": 6944,
      "ĠBu": 6945,
      "Ġà¤¸à¥ĭà¤®à¤µà¤¾à¤°": 6946,
      "ĠGet": 6947,
      "ness,": 6948,
      "Ġoverall": 6949,
      "Ġdirection": 6950,
      "ĠS.": 6951,
      "Ġà¤¨à¤¿à¤µà¤¾à¤¸à¥Ģ": 6952,
      "à¤«à¤¼": 6953,
      "ctions": 6954,
      "Ġcateg": 6955,
      "ĠB.": 6956,
      "Ġgold": 6957,
      "Ġpowerful": 6958,
      "-S": 6959,
      "Ġà¤ħà¤¨à¥ģà¤ª": 6960,
      "Ġà¤¹à¥ģà¤Ĩà¥¤": 6961,
      "à¤¾à¤ĩà¤®": 6962,
      "Ġfollowed": 6963,
      "ent.": 6964,
      "ĠHouse": 6965,
      "Ġà¤ķà¤ªà¥Ĥà¤°": 6966,
      "Ġà¤²à¤¹à¤¾à¤¨": 6967,
      "Ġperformance": 6968,
      "water": 6969,
      "Ġperfect": 6970,
      "Ġmal": 6971,
      "Ġà¤ľà¥ĩà¤²": 6972,
      "Ġmax": 6973,
      "ilosoph": 6974,
      "Ġexercise": 6975,
      "-à¤ľ": 6976,
      "-year": 6977,
      "rate": 6978,
      "Ġà¤¤à¤¿à¤²à¤¾": 6979,
      "verse": 6980,
      "Ġà¤ªà¤¥": 6981,
      "Ġeight": 6982,
      "oe": 6983,
      "ĠUnder": 6984,
      "Ġfair": 6985,
      "umn": 6986,
      "à¤°à¥Ģà¤¬": 6987,
      "à¤¸à¥įà¤¤à¥Ģ": 6988,
      "Ġtrain": 6989,
      "Ġdiscovered": 6990,
      "Ġwon": 6991,
      "Ġà¤Ńà¤µà¤¿à¤·à¥įà¤¯": 6992,
      "Ġà¤Ĩà¤¯à¥ģà¤ķà¥įà¤¤": 6993,
      "Ġà¤¡à¥ĩà¤Ł": 6994,
      "ography": 6995,
      "ĠBr": 6996,
      "Ġà¤¸à¥ģà¤µà¤¿à¤§à¤¾": 6997,
      "Ġà¤¸à¤¿à¤¤": 6998,
      "Ġden": 6999,
      "Ġwond": 7000,
      "à¤ĸà¥įà¤¯": 7001,
      "Ġà¤ªà¤²": 7002,
      "à¤¾à¤Ĥà¤ªà¤¾à¤¸à¥Ĥà¤¨": 7003,
      "à¤µà¤¾à¤¸": 7004,
      "Ġreveal": 7005,
      "Ġfeatures": 7006,
      "Ġà¤¹à¤¿à¤°": 7007,
      "à¤¦à¥įà¤°": 7008,
      "Ġà¤¦à¥ĩà¤°": 7009,
      "ruary": 7010,
      "à¤°à¤®à¥įà¤¯à¤¾à¤¨": 7011,
      "à¤¸à¤¿à¤Ĥ": 7012,
      "rupt": 7013,
      "Ġsch": 7014,
      "-C": 7015,
      "Ġà¤µà¤°à¤¿à¤·à¥įà¤ł": 7016,
      "Ġhistorical": 7017,
      "Ġvirt": 7018,
      "Ġcommonly": 7019,
      "Ġbooks": 7020,
      "AC": 7021,
      "oring": 7022,
      "ĠMexic": 7023,
      "Ġà¤¨à¤¾à¤¹à¥Ģà¤¤.": 7024,
      "Ġà¤¯à¤¾à¤¨à¥Ģ": 7025,
      "Ġmis": 7026,
      "Ġà¤Ńà¥Ĥ": 7027,
      "Ġrule": 7028,
      "Ġà¤¸à¥ģà¤°à¥ģà¤µà¤¾à¤¤": 7029,
      "Ġvill": 7030,
      "Ġà¤¤à¤¾à¤¤": 7031,
      "Ġà¤®à¤ľà¤¬à¥Ĥà¤¤": 7032,
      "Ġà¤ľà¤®à¤¾": 7033,
      "99": 7034,
      "ribute": 7035,
      "Ġà¤¹à¤®à¥ĩà¤¶à¤¾": 7036,
      "ĠSee": 7037,
      "à¥įà¤ĸ": 7038,
      "Ġà¤ķà¤Ĥà¤Ł": 7039,
      "Ġà¤ķà¤¿à¤°": 7040,
      "Ġà¤Ĺà¥ģà¤ľà¤°à¤¾à¤¤": 7041,
      "lin": 7042,
      "Ġmap": 7043,
      "Ġà¤®à¤¿à¤¸": 7044,
      "Ġà¤ħà¤¨à¥ģà¤°": 7045,
      "Ġthinking": 7046,
      "Ġà¤µà¤¾à¤²à¥ĭà¤Ĥ": 7047,
      "ounds": 7048,
      "Ġà¤°à¤¾à¤¤à¥įà¤°à¥Ģ": 7049,
      "Ġà¤ªà¥įà¤°à¤ķà¤²à¥įà¤ª": 7050,
      "one,": 7051,
      "Ġà¤ķà¤¾à¤¯à¤®": 7052,
      "at,": 7053,
      "Ġgirl": 7054,
      "à¤¾à¤¹à¥Ģà¤°": 7055,
      "Ġà¤ħà¤°à¥įà¤¥à¤¾à¤¤à¥į": 7056,
      "Ġà¤īà¤ĺ": 7057,
      "à¥ģà¤¦à¥įà¤§à¤¾": 7058,
      "à¤®à¤§à¥Ĥà¤¨": 7059,
      "Ġchurch": 7060,
      "Ġeverything": 7061,
      "off": 7062,
      "Ġjoint": 7063,
      "Ġà¤µà¤¹à¤¾à¤ģ": 7064,
      "Ġnamed": 7065,
      "Ġà¤¨à¤¿à¤ķà¤¾à¤¯": 7066,
      "ĠBook": 7067,
      "ĠTheir": 7068,
      "à¤¾à¤¯à¤¨": 7069,
      "Ġà¤īà¤¸à¤®à¥ĩà¤Ĥ": 7070,
      "Ġgoes": 7071,
      "Ġà¤ĺà¤¾à¤¤": 7072,
      "ĠInc": 7073,
      "Ġà¤¸à¤¾à¤Ĥà¤¸à¤¦": 7074,
      "Ġrich": 7075,
      "AL": 7076,
      "Ġexec": 7077,
      "à¤¬à¤Ĥà¤§à¤¨": 7078,
      "Ġà¤ĳà¤¨à¤²à¤¾à¤ĩà¤¨": 7079,
      "à¤µà¤²": 7080,
      "orge": 7081,
      "à¤ªà¥įà¤°à¤¿à¤¯": 7082,
      "Ġà¤¸à¥įà¤¥à¤¾à¤ªà¤¿à¤¤": 7083,
      "ĠPublic": 7084,
      "à¥įà¤¯à¤¾à¤ľ": 7085,
      "à¥ģà¤ģ": 7086,
      "iest": 7087,
      "Ġà¤¸à¤¾à¤Ĥà¤Ĺà¤¿à¤¤à¤²à¥ĩ": 7088,
      "Ġà¤ªà¥įà¤°à¤¿à¤¯": 7089,
      "à¤īà¤¨": 7090,
      "Ġweather": 7091,
      "Ġà¤°à¥ģà¤Ĺà¥įà¤£à¤¾à¤²à¤¯": 7092,
      "Ġà¤®à¥įà¤¹à¤Łà¤²à¥ĩ": 7093,
      "ĠInter": 7094,
      "Ġà¤Ńà¥Ĥà¤®à¤¿": 7095,
      "35": 7096,
      "ces.": 7097,
      "Ġà¤¨à¤¿à¤°à¥Ģ": 7098,
      "AS": 7099,
      "one.": 7100,
      "Ġimages": 7101,
      "Ġgave": 7102,
      "Ġwell.": 7103,
      "ĠSocial": 7104,
      "Ġsymbol": 7105,
      "à¤µà¤¾à¤¡": 7106,
      "à¤ıà¤ļ": 7107,
      "à¤¾à¤Īà¤²": 7108,
      "à¤ķà¥ĩà¤¤": 7109,
      "Ġà¤ªà¤¾à¤ı": 7110,
      "ancy": 7111,
      "à¤¯.": 7112,
      "iers": 7113,
      "Ġcommerc": 7114,
      "Ġà¤¸à¥įà¤¥à¤¾à¤¨à¥Ģ": 7115,
      "Ġà¤ĺà¤Ĥà¤Łà¥ĩ": 7116,
      "Ġà¤¬à¤¾à¤µ": 7117,
      "Ġà¤¤à¤¹": 7118,
      "Ġplaced": 7119,
      "Ġà¤µà¤¾": 7120,
      "à¥ĩà¤¤à¤¨": 7121,
      "Ġà¤µà¤¿à¤¶à¤¿à¤·à¥įà¤Ł": 7122,
      "ive.": 7123,
      "Ġwaste": 7124,
      "izes": 7125,
      "Ġà¤Ĩà¤®à¥įà¤¹": 7126,
      "Ġà¤¸à¤¡à¤¼à¤ķ": 7127,
      "Ġking": 7128,
      "fl": 7129,
      "Ġà¤¶à¤ķà¥įà¤¤": 7130,
      "Ġà¤°à¤¾à¤µ": 7131,
      "à¤¾à¤ļà¤Ĥ": 7132,
      "Ġà¤ľà¥Īà¤¨": 7133,
      "Ġà¤¤à¤°à¥ģà¤£": 7134,
      "ĠMedic": 7135,
      "à¤¤à¤¾à¤¨": 7136,
      "Ġopportunity": 7137,
      "Ġenter": 7138,
      "à¥īà¤°": 7139,
      "ĠSpec": 7140,
      "ĠDNA": 7141,
      "ĠEnvironment": 7142,
      "Ġà¤ķà¥įà¤·à¤®à¤¤à¤¾": 7143,
      "rs": 7144,
      "Ġenh": 7145,
      "ĠâĢľA": 7146,
      "à¥įà¤¯à¤¾à¤Ĥà¤ļà¤¾": 7147,
      "Ġnutri": 7148,
      "Ġcommunication": 7149,
      "à¤¤à¥įà¤¯": 7150,
      "Ġbeg": 7151,
      "mitted": 7152,
      "Ġacqu": 7153,
      "à¤ªà¥įà¤¤": 7154,
      "à¥Ĥ,": 7155,
      "Ġà¤īà¤®à¥įà¤®à¥Ģà¤¦à¤µà¤¾à¤°": 7156,
      "iful": 7157,
      "ologist": 7158,
      "Ġapplication": 7159,
      "à¥ĩà¤Ĥà¤ļ": 7160,
      "aces": 7161,
      "Ġtox": 7162,
      "Ġà¤Ĺà¥Īà¤°": 7163,
      "Ġjournal": 7164,
      "Ġà¤®à¤¾à¤¤à¤¾": 7165,
      "à¤°à¥įà¤ĺ": 7166,
      "Ġletter": 7167,
      "phas": 7168,
      "Ġemerg": 7169,
      "Ġfamilies": 7170,
      "Ġdisplay": 7171,
      "à¤¸à¥įà¤µà¥Ģ": 7172,
      "ore,": 7173,
      "à¤¾à¤īà¤Ĥà¤¡": 7174,
      "Ġà¤Ĺà¥Įà¤°": 7175,
      "Ġà¤ªà¤°à¤¿à¤ļ": 7176,
      "Ġà¤ħà¤²à¥Ģ": 7177,
      "Ġassign": 7178,
      "Ġà¤ªà¥įà¤°à¤Ńà¤¾à¤µà¤¿à¤¤": 7179,
      "Ġrob": 7180,
      "Ġanything": 7181,
      "Ġà¤®à¥ģà¤²à¥Ģ": 7182,
      "Ġà¤µà¤¾à¤¤à¤¾à¤µà¤°à¤£": 7183,
      "Ġà¤ľà¤¾à¤Ĭ": 7184,
      "à¤§à¤¿": 7185,
      "Ġà¤¨à¤¿à¤ĺ": 7186,
      "Ġà¤ªà¥įà¤°à¤¾à¤¥": 7187,
      "Ġbelief": 7188,
      "ĠConf": 7189,
      "Ġsmaller": 7190,
      "à¥ĩà¤§": 7191,
      "Ġà¤¬à¥įà¤°à¤¿à¤Ł": 7192,
      "Ġtou": 7193,
      "Ġà¤ĸà¤Ĥà¤¡": 7194,
      "ET": 7195,
      "Ġwatch": 7196,
      "à¤¬à¥įà¤°": 7197,
      "Ġà¤ªà¥įà¤°à¤ļà¤¾à¤°": 7198,
      "Ġshowed": 7199,
      "Ġà¤¶à¤¹": 7200,
      "amer": 7201,
      "Ġcontinued": 7202,
      "Ġvalues": 7203,
      "Ġcompletely": 7204,
      "ato": 7205,
      "iency": 7206,
      "Ġpeople.": 7207,
      "Ġremember": 7208,
      "Ġà¤²à¤ķà¥įà¤·à¥įà¤¯": 7209,
      "Ġallowed": 7210,
      "Ġrelatively": 7211,
      "ĠUN": 7212,
      "Ġà¤ıà¤«": 7213,
      "Ġà¤Łà¥ĩà¤ķ": 7214,
      "à¤¾à¤ķà¤¾": 7215,
      "rec": 7216,
      "Ġson": 7217,
      "Ġtrad": 7218,
      "à¤¤à¤¾à¤¤,": 7219,
      "Ġà¤¹à¤¾à¤Ī": 7220,
      "Ġpeace": 7221,
      "lam": 7222,
      "Ġcry": 7223,
      "Ġà¤°à¤¿à¤²à¥Ģà¤ľ": 7224,
      "Ġload": 7225,
      "ĠLord": 7226,
      "Ġà¤īà¤¦à¥įà¤¦à¥ĩà¤¶à¥įà¤¯": 7227,
      "ated,": 7228,
      "Ġatmosp": 7229,
      "Ġà¤®à¤¤à¤¦à¤¾à¤¨": 7230,
      "Ġà¤ªà¥įà¤°à¤¤à¥įà¤¯à¤ķà¥įà¤·": 7231,
      "fully": 7232,
      "Ġà¤®à¥ĩà¤°à¤¾": 7233,
      "Ġuser": 7234,
      "Ġà¤ķà¥įà¤·à¥ĩà¤¤à¥įà¤°à¥ĭà¤Ĥ": 7235,
      "Ġà¤²à¤µà¤ķà¤°": 7236,
      "Ġà¤ĸà¤¾à¤²à¥Ģ": 7237,
      "Ġdetect": 7238,
      "known": 7239,
      "m.": 7240,
      "rieved": 7241,
      "Ġà¤¸à¤Ĥà¤°à¤ķà¥įà¤·à¤£": 7242,
      "à¥ĩà¤Ĥà¤¸à¥Ģ": 7243,
      "Ġalcohol": 7244,
      "Ġà¤ĩà¤ļà¥įà¤Ľà¤¾": 7245,
      "ĠDes": 7246,
      "Ġclassroom": 7247,
      "Ġpromot": 7248,
      "à¥Ĥà¤°à¥įà¤µà¥Ģ": 7249,
      "ĠTH": 7250,
      "ĠChildren": 7251,
      "Ġmouth": 7252,
      "Ġà¤®à¤¿à¤³à¤¤": 7253,
      "à¤¹à¤¿": 7254,
      "ĠAmericans": 7255,
      "Ġself-": 7256,
      "Ġemp": 7257,
      "à¥ĭà¤²à¥ī": 7258,
      "ĠdoesnâĢĻt": 7259,
      "semb": 7260,
      "Ġgame": 7261,
      "Ġtrees": 7262,
      "ulate": 7263,
      "à¥įà¤¯à¤¾à¤¶à¥Ģ": 7264,
      "el,": 7265,
      "à¤¦à¥ĩ": 7266,
      "à¤ķà¤°à¤£à¥Ģ": 7267,
      "gypt": 7268,
      "Ġlatest": 7269,
      "ynam": 7270,
      "Ġexpected": 7271,
      "Ġtele": 7272,
      "Ġà¤ªà¤¹à¤ļà¤¾à¤¨": 7273,
      "Ġefforts": 7274,
      "Ġà¤¶à¤¿à¤Ĥà¤¦à¥ĩ": 7275,
      "ste": 7276,
      "Ġà¤ķà¤°à¤¾": 7277,
      "ĠGreen": 7278,
      "Ġhands": 7279,
      "ĠJewish": 7280,
      "Ġcompl": 7281,
      "à¤Ĺà¤¡": 7282,
      "Ġpresence": 7283,
      "Ġà¤¬à¤¨à¥Ģ": 7284,
      "ĠAng": 7285,
      "hy": 7286,
      "Ġillust": 7287,
      "EC": 7288,
      "aign": 7289,
      "Ġà¤²à¤ķà¥įà¤·à¤¾à¤¤": 7290,
      "Ġlaws": 7291,
      "Ġà¤ķà¥ĭà¤¹": 7292,
      "Ġcenter": 7293,
      "Ġice": 7294,
      "à¤ªà¥Ģà¤ıà¤²": 7295,
      "Ġà¤¦à¤¾à¤°": 7296,
      "Ġreduced": 7297,
      "Ġà¤ħà¤Ĥà¤¤à¤°à¥įà¤Ĺà¤¤": 7298,
      "à¤¸à¥ĩà¤µ": 7299,
      "à¤¾à¤¤à¥įà¤®à¤¾": 7300,
      "Ġà¤¤à¥įà¤µ": 7301,
      "à¤¬à¤¾à¤°": 7302,
      "à¤¦à¤°à¥įà¤¶à¤¨": 7303,
      "Ġà¤µà¤¿à¤ķà¤¸à¤¿à¤¤": 7304,
      "Ġà¤ļà¥ĩ": 7305,
      "ĠMark": 7306,
      "DA": 7307,
      "90": 7308,
      "ĠMic": 7309,
      "Ġà¤¦à¥ģà¤ĥ": 7310,
      "Ġaffected": 7311,
      "ĠTest": 7312,
      "Ġworth": 7313,
      "Ġà¤®à¥ģà¤¶": 7314,
      "Ġà¤ľà¤¾à¤¹à¥Ģà¤°": 7315,
      "Ġball": 7316,
      "à¤¾à¤īà¤¨": 7317,
      "à¤§à¥ĩ": 7318,
      "Ġà¤«à¥ĩà¤¸": 7319,
      "Ġrates": 7320,
      "Ġmut": 7321,
      "Ġconstruct": 7322,
      "à¤¾-": 7323,
      "Ġcoming": 7324,
      "Ġevolution": 7325,
      "ĠPhil": 7326,
      "Ġpiece": 7327,
      "ĠTim": 7328,
      "Ġà¤¶à¥įà¤°à¤¦à¥įà¤§": 7329,
      "Ġfully": 7330,
      "Ġinsect": 7331,
      "Ġ'à¤ħ": 7332,
      "Ġà¤¬à¤¾à¤°à¤¿à¤¶": 7333,
      "Ġanx": 7334,
      "g.": 7335,
      "Ġà¤¦à¤¿à¤µà¤¶à¥Ģ": 7336,
      "ĠCouncil": 7337,
      "Ġà¤Ĺà¤¯": 7338,
      "Ġcourt": 7339,
      "ibly": 7340,
      "à¤¾à¤Īà¤¨": 7341,
      "Ġantib": 7342,
      "Ġà¤¦à¤¿à¤Ĺ": 7343,
      "Ġcompar": 7344,
      "Ġà¤°à¥ĩà¤²à¥įà¤µ": 7345,
      "45": 7346,
      "iant": 7347,
      "Ġbehavi": 7348,
      "Ġà¤Ĺà¥ĭà¤·à¥įà¤Łà¥Ģ": 7349,
      "Ġdegre": 7350,
      "à¤łà¤¾": 7351,
      "ĠHuman": 7352,
      "ions,": 7353,
      "Ġmajority": 7354,
      "craft": 7355,
      "Ġà¤ħà¤Ĺà¥įà¤°": 7356,
      "Ġforward": 7357,
      "à¤Ĥà¤¡à¥Ģ": 7358,
      "Ġdied": 7359,
      "Ġà¤Ĺà¥ģà¤²": 7360,
      "Ġà¤¸à¤Ĥà¤ķà¤Ł": 7361,
      "ĠVol": 7362,
      "Ġexpand": 7363,
      "Ġwid": 7364,
      "ĠMat": 7365,
      "II": 7366,
      "ogle": 7367,
      "ĠColle": 7368,
      "Ġà¤¤à¤¨": 7369,
      "enty": 7370,
      "Ġà¤ıà¤ķà¤®": 7371,
      "Ġà¤ªà¤¡à¤¼à¤¤à¤¾": 7372,
      "Ġstrugg": 7373,
      "Ġà¤Ĺà¤°à¥įà¤®": 7374,
      "à¤®à¤¹": 7375,
      "Ġà¤ĩà¤²à¤¾à¤ľ": 7376,
      "à¤ĸà¤¨": 7377,
      "Ġfresh": 7378,
      "Ġimmune": 7379,
      "Ġà¤Ĩà¤ªà¤²à¥Ģ": 7380,
      "Ġà¤¤à¥ģà¤®à¤ļà¥įà¤¯à¤¾": 7381,
      "ĠAv": 7382,
      "à¤®à¥ĭ": 7383,
      "Ġeducational": 7384,
      "Ġà¤¨à¤¯à¤¾": 7385,
      "ĠSub": 7386,
      "Ġà¤ķà¤¾à¤Ł": 7387,
      "Ġtable": 7388,
      "isms": 7389,
      "Ġà¤¬à¤Ĥà¤§": 7390,
      "Ġà¤²à¥īà¤ķ": 7391,
      "Ġplaces": 7392,
      "rief": 7393,
      "Ġà¤°à¥Ī": 7394,
      "Ġà¤ıà¤ĸà¤¾à¤¦": 7395,
      "Ġ(p": 7396,
      "à¤¹à¤°à¤¾": 7397,
      "Ġà¤µà¤¿à¤µà¤¾à¤¦": 7398,
      "Ġà¤ªà¤¾à¤¤à¥įà¤°": 7399,
      "Ġà¤µà¥Īà¤¶": 7400,
      "ĠFebruary": 7401,
      "clus": 7402,
      "à¤ľà¤¾à¤¤": 7403,
      "Ġà¤ħà¤¨à¥ģà¤¸à¤¾à¤°,": 7404,
      "Ġà¤ķà¤°à¤¾à¤¯à¤¾": 7405,
      "Ġ(U": 7406,
      "Ġà¤ĩà¤Ĥà¤Łà¤°à¤¨": 7407,
      "ald": 7408,
      "âĢĿ,": 7409,
      "Ġà¤®à¤Ī": 7410,
      "Ġmilk": 7411,
      "Ġolder": 7412,
      "Ġperhaps": 7413,
      "ĠR.": 7414,
      "Ġà¤ĺà¥ĩà¤¤à¤²à¤¾": 7415,
      "ĠOb": 7416,
      "Ġà¤¤à¤¾à¤¸": 7417,
      "Ġà¤Ĩà¤µà¥ĩà¤¦à¤¨": 7418,
      "Ġefficient": 7419,
      "related": 7420,
      "ĠEurope": 7421,
      "Ġexamples": 7422,
      "Ġà¤µà¤¿à¤¸à¥įà¤¤à¤¾à¤°": 7423,
      "icip": 7424,
      "Ġboard": 7425,
      "Ġà¤µà¤¡": 7426,
      "uls": 7427,
      "Ġworkers": 7428,
      "ĠEgypt": 7429,
      "Ġincor": 7430,
      "Ġà¤¹à¥ĭà¥¤": 7431,
      "Ġà¤¤à¤°à¥Ģà¤ķà¥ĩ": 7432,
      "ĠFood": 7433,
      "Ġacad": 7434,
      "à¤Ĺà¤¤": 7435,
      "Ġà¤ªà¤¾à¤¤": 7436,
      "ĠDavid": 7437,
      "Ġbreast": 7438,
      "ĠSt.": 7439,
      "à¤¾à¤ıà¤ģ": 7440,
      "Ġà¤°à¤µà¤¿à¤µà¤¾à¤°": 7441,
      "Ġdifferences": 7442,
      "à¤²à¥įà¤²à¤¾": 7443,
      "ĠDr": 7444,
      "Ġship": 7445,
      "à¤¿à¤Ĺà¤¤": 7446,
      "itable": 7447,
      "ĠTur": 7448,
      "Ġà¤¸à¥įà¤µà¤ļà¥įà¤Ľ": 7449,
      "à¤²à¥ĩà¤ķà¥įà¤Łà¥įà¤°": 7450,
      "Ġà¤¸à¤¾à¤®à¤¨": 7451,
      "Ġà¤Ĩà¤¦à¤®à¥Ģ": 7452,
      "Ġrecently": 7453,
      "Ġà¤°à¤¾à¤ľà¤¨à¥Ģà¤¤à¤¿à¤ķ": 7454,
      "Ġà¤ľà¤¨à¤µà¤°à¥Ģ": 7455,
      "à¥ĩà¤ł": 7456,
      "Ġpeople,": 7457,
      "Ġforces": 7458,
      "Ġà¤¬à¤ģà¤ķ": 7459,
      "à¤¿à¤®à¤¾": 7460,
      "Ġà¤¸à¥ģà¤Ĥà¤¦à¤°": 7461,
      "Ġà¤¯à¥Ĥà¤¨à¤¿à¤µà¤°à¥įà¤¸à¤¿à¤Łà¥Ģ": 7462,
      "Ġà¤ľà¥Īà¤¸à¥Ģ": 7463,
      "Ġà¤¤à¤¤à¥įà¤ķ": 7464,
      "ĠDec": 7465,
      "Ġexperiment": 7466,
      "Ġing": 7467,
      "Ġà¤ķà¤°à¥ĩà¤Ĥà¤Ĺà¥ĩà¥¤": 7468,
      "Ġmuscle": 7469,
      "ĠEvery": 7470,
      "Ġà¥§à¥§": 7471,
      "Ġinteresting": 7472,
      "Ġenerg": 7473,
      "resp": 7474,
      "Ġ'à¤ķ": 7475,
      "Ġà¤ķà¥ĩà¤¨à¥įà¤¦à¥įà¤°": 7476,
      "iles": 7477,
      "Ġbillion": 7478,
      "Ġà¤ĸà¤°à¥ĩà¤¦à¥Ģ": 7479,
      "Ġbound": 7480,
      "Ġà¤¹à¥ĩà¤²": 7481,
      "Ġarchitect": 7482,
      "Ġà¤¸à¥įà¤¥à¤¾à¤¨à¥Ģà¤¯": 7483,
      "Ġà¤ĸà¤°à¤¾à¤¬": 7484,
      "ĠMor": 7485,
      "Ġconvers": 7486,
      "force": 7487,
      "Ġà¤°à¤¾à¤ľà¤§à¤¾à¤¨à¥Ģ": 7488,
      "Ġwater.": 7489,
      "Ġà¤¹à¥ĭà¤¤à¥ĭ.": 7490,
      "Ġà¤²à¤Ĺà¤¾à¤¨à¥ĩ": 7491,
      "Ġà¤Ĳà¤ķ": 7492,
      "Ġvitamin": 7493,
      "à¤Ĥà¤¤à¥Ģ": 7494,
      "Ġà¤°à¤¾à¤·à¥įà¤Łà¥įà¤°à¤ªà¤¤à¤¿": 7495,
      "Ġexisting": 7496,
      "àª": 7497,
      "Ġwrote": 7498,
      "à¤¾à¤µà¤¾,": 7499,
      "aint": 7500,
      "Ġà¤¨à¤¿à¤°à¥įà¤§à¤¾à¤°à¤¿à¤¤": 7501,
      "Ġà¤¦à¥Ĥà¤¸à¤°à¤¾": 7502,
      "Ġà¤Ĺà¥ĩà¤²à¥ĩ": 7503,
      "Ġrepe": 7504,
      "Ġstaff": 7505,
      "Ġà¤°à¥ĩà¤¡": 7506,
      "Ġà¤°à¤¾à¤¸à¥įà¤¤": 7507,
      "Ġvot": 7508,
      "Ġapplied": 7509,
      "à¤ķà¥ģà¤®à¤¾à¤°": 7510,
      "Ġà¤ķà¥ĥà¤·à¤¿": 7511,
      "idents": 7512,
      "Ġà¤¸à¤¾à¤°à¥ĩ": 7513,
      "s.âĢĿ": 7514,
      "Ġà¤ĺà¤°à¥Ģ": 7515,
      "rehens": 7516,
      "Ġpick": 7517,
      "Ġà¤¸à¤Ĥà¤¬": 7518,
      "Ġà¤¸à¤Ĥà¤¦à¤°à¥įà¤Ń": 7519,
      "Ġà¤ķà¥ĩà¤²à¤Ĥ": 7520,
      "Ġinnov": 7521,
      "Ġà¤ħà¤Ĥà¤¦à¤°": 7522,
      "Ġgiving": 7523,
      "Ġà¤¯à¥ģà¤µà¤¾": 7524,
      "Ġà¤ªà¤¹à¤²à¤¾": 7525,
      "Ġopportunities": 7526,
      "abilities": 7527,
      "Ġà¤«à¥ģà¤Ł": 7528,
      "à¥įà¤²à¤¿à¤®": 7529,
      "Ġseparate": 7530,
      "Ġplastic": 7531,
      "uff": 7532,
      "Ġà¤«à¤¾à¤¯à¤¦à¤¾": 7533,
      "ces,": 7534,
      "Ġassum": 7535,
      "iox": 7536,
      "Ġà¤ħà¤ªà¤°à¤¾à¤§": 7537,
      "Ġà¤¸à¤¤à¥įà¤¤à¤¾": 7538,
      "Ġà¤Ĩà¤ĺ": 7539,
      "Ġà¤ķà¥ĭà¤ļ": 7540,
      "Ġthis,": 7541,
      "Ġà¤Ńà¤°à¥įà¤¤à¥Ģ": 7542,
      "ĠPal": 7543,
      "ously": 7544,
      "iples": 7545,
      "Ġà¤ıà¤ķà¥Ĥà¤£": 7546,
      "ari": 7547,
      "à¥ĭà¤Łà¥Ģ": 7548,
      "Ġà¤®à¥ĭà¤łà¥Ģ": 7549,
      "Ġwrong": 7550,
      "Ġà¤¶à¥ģà¤ķà¥įà¤°à¤µà¤¾à¤°": 7551,
      "Ġà¤Ĩà¤£à¤ĸà¥Ģ": 7552,
      "issions": 7553,
      "Ġà¤¸à¥įà¤®à¤¾à¤°à¥įà¤Ł": 7554,
      "Ġà¤ħà¤Ĥà¤¦à¤¾à¤ľ": 7555,
      "ĠSam": 7556,
      "cious": 7557,
      "à¥Ĥà¤·à¤£": 7558,
      "à¤¸à¥įà¤¤à¥įà¤°": 7559,
      "Ġforeign": 7560,
      "à¤¾à¤¨à¥ģà¤¸à¤¾à¤°": 7561,
      "Ġà¤ªà¥Ģà¤ıà¤®": 7562,
      "Ġfigure": 7563,
      "Ġà¤®à¥ĭà¤¬à¤¾à¤ĩà¤²": 7564,
      "ĠCalifornia": 7565,
      "Ġà¤¸à¥ģà¤ªà¤°": 7566,
      "-up": 7567,
      "à¤¬à¥ģà¤ķ": 7568,
      "Ġà¤¯à¤¾à¤¬à¤¾à¤¬à¤¤": 7569,
      "Ġvo": 7570,
      "à¤ķà¤²à¥įà¤ª": 7571,
      "Ġappears": 7572,
      "Ġà¤ĩà¤¨à¤ķà¥ĩ": 7573,
      "ices.": 7574,
      "emy": 7575,
      "Ġpen": 7576,
      "ĠEth": 7577,
      "à¥ĩà¤Ĺà¥Ģ": 7578,
      "Ġà¤¹à¥ĭà¤¤à¤Ĥ.": 7579,
      "Ġà¤°à¤ķà¥įà¤·à¤¾": 7580,
      "à¥įà¤¦à¥įà¤°": 7581,
      "Ġstim": 7582,
      "Ġnative": 7583,
      "à¤¾à¤µà¤°à¥Ĥà¤¨": 7584,
      "Ġweak": 7585,
      "Ġà¤²à¤Ĺà¥Ģ": 7586,
      "Ġoffers": 7587,
      "Ġeveryone": 7588,
      "Ġhuge": 7589,
      "Ġà¥§à¥¬": 7590,
      "Ġhumans": 7591,
      "Ġà¤¹à¤¿à¤¤": 7592,
      "Ġtesting": 7593,
      "Ġà¤¦à¥ģà¤ĸ": 7594,
      "Ġà¤ĩà¤®à¤¾à¤°": 7595,
      "Ġqual": 7596,
      "Ġà¤īà¤¤à¥įà¤¤à¤®": 7597,
      "Ġà¤¸à¤°à¥įà¤µà¥ĭ": 7598,
      "Ġà¤ķà¥ĭà¤°": 7599,
      "Ġà¤ĩà¤¥": 7600,
      "Ġleaves": 7601,
      "ilit": 7602,
      "Ġà¤Ńà¤¾à¤µà¤¨à¤¾": 7603,
      "ions.": 7604,
      "Ġpartn": 7605,
      "ĠStudents": 7606,
      "Ġà¤Ĩà¤²à¥ĩà¤²à¥įà¤¯à¤¾": 7607,
      "Ġà¤¶à¤ķà¤¤à¥ĩ.": 7608,
      "Ġà¤¦à¤°à¤µ": 7609,
      "Ġà¤¨à¥ĩà¤¤à¥ĩ": 7610,
      "Ġexposure": 7611,
      "Ġà¤ķà¥ĭà¤£à¤¤à¥įà¤¯à¤¾à¤¹à¥Ģ": 7612,
      "Ġabsor": 7613,
      "Ġà¤ħà¤Ńà¤¿à¤¨à¥ĩà¤¤": 7614,
      "ĠMich": 7615,
      "à¤°à¥Ģà¤¤": 7616,
      "Ġinfect": 7617,
      "a-": 7618,
      "Ġà¤ªà¥įà¤°à¥ĩà¤°": 7619,
      "à¤¾à¤ķà¤¡à¥Ĥà¤¨": 7620,
      "Ġtruth": 7621,
      "ternal": 7622,
      "Ġà¤ħà¤¨à¥ģà¤¸": 7623,
      "Ġà¤¸à¤Ĥà¤Ĺà¥Ģà¤¤": 7624,
      "ĠRem": 7625,
      "Ġà¤ħà¤Ĺà¤²à¥ĩ": 7626,
      "Ġà¤Ĩà¤¤à¥ĩ": 7627,
      "i.e.": 7628,
      "Ġà¤ªà¥įà¤°à¤µà¤¾à¤¸": 7629,
      "Ġaddition,": 7630,
      "in.": 7631,
      "ĠUK": 7632,
      "Ġà¤¹à¥ĭà¤Īà¤².": 7633,
      "Ġmo": 7634,
      "Ġbox": 7635,
      "Ġà¤¸à¤®à¤¾à¤ªà¥įà¤¤": 7636,
      "Ġattract": 7637,
      "Ġtests": 7638,
      "Ġà¤Ĺà¥įà¤°à¤¾à¤¹à¤ķ": 7639,
      "spect": 7640,
      "Ġà¤ªà¥įà¤°à¤¤à¥Ģ": 7641,
      "Ġdegree": 7642,
      "Ġseven": 7643,
      "Ġà¤¦à¥ĥ": 7644,
      "ygen": 7645,
      "Ġones": 7646,
      "Ġfert": 7647,
      "à¤²à¥įà¤¯à¤¾.": 7648,
      "Ġà¤Ĩà¤ķà¤°à¥įà¤·": 7649,
      "Ġà¤łà¤¾à¤£": 7650,
      "Ġà¤µà¤ķ": 7651,
      "Ġà¤¸à¤¹à¤Ńà¤¾à¤Ĺ": 7652,
      "Ġdevice": 7653,
      "Ġà¤ªà¥įà¤°à¥ĭà¤«": 7654,
      "Ġà¤ķà¤¿à¤¶": 7655,
      "Ġà¤¸à¤¾à¤¬": 7656,
      "Ġà¤ĩà¤¤à¥įà¤¯à¤¾à¤¦": 7657,
      "Ġmoving": 7658,
      "Ġà¤ĸà¤¾à¤¦à¥įà¤¯": 7659,
      "Ġà¤ķà¤¾à¤µ": 7660,
      "Ġà¤īà¤®à¥įà¤°": 7661,
      "Ġlines": 7662,
      "à¤Łà¥ĩ": 7663,
      "tery": 7664,
      "ĠBra": 7665,
      "Ġplanet": 7666,
      "à¥ħà¤ķ": 7667,
      "Ġà¤®à¤¹à¤¾à¤¸": 7668,
      "PS": 7669,
      "Ġsac": 7670,
      "Ġà¤ľà¤°à¥Ĥà¤°à¥Ģ": 7671,
      "ĠBel": 7672,
      "à¤¾à¤ļà¥Ģà¤¨": 7673,
      "Ġà¤®à¤¤à¤¦à¤¾à¤°": 7674,
      "Ġà¤ķà¤ªà¥įà¤¤": 7675,
      "Ġà¤Ńà¤ķà¥įà¤¤": 7676,
      "Ġà¤¸à¤¾à¤¥,": 7677,
      "Ġ190": 7678,
      "Ġoccurs": 7679,
      "Ġcelebr": 7680,
      "Ġfinding": 7681,
      "à¤µà¥Ģà¤¸": 7682,
      "ĠWestern": 7683,
      "Ġà¤¤à¥įà¤¯à¤¾à¤µà¤°": 7684,
      "Ġà¤īà¤¨à¤¸à¥ĩ": 7685,
      "Ġformed": 7686,
      "an.": 7687,
      "Ġconnection": 7688,
      "Ġidentified": 7689,
      "Ġà¤µà¤°à¥įà¤£à¤¨": 7690,
      "Ġdistribution": 7691,
      "Ġworked": 7692,
      "à¤®à¥į": 7693,
      "à¥ĭà¤Ĥà¤¡": 7694,
      "ama": 7695,
      "à¥įà¤¸,": 7696,
      "Ġphen": 7697,
      "Ġà¤ħà¤¸à¤¤à¥ĭ.": 7698,
      "à¤®à¥ĩà¤°": 7699,
      "Ġà¤ªà¥ģà¤£à¥ĩ": 7700,
      "Ġincome": 7701,
      "Ġtransfer": 7702,
      "ĠCity": 7703,
      "as.": 7704,
      "Ġsaid,": 7705,
      "Ġcand": 7706,
      "Ġcontract": 7707,
      "Ġà¤¶à¤¨à¤¿à¤µà¤¾à¤°": 7708,
      "zz": 7709,
      "rest": 7710,
      "Ġà¤ıà¤Ĥà¤Ł": 7711,
      "Ġexhib": 7712,
      "Ġà¤ªà¤¹à¥ģà¤ģ": 7713,
      "Ġminutes": 7714,
      "à¤ªà¤¤à¥Ģ": 7715,
      "Ġà¤¤à¤¾à¤°à¥Ģ": 7716,
      "Ġà¤Ńà¥ĭà¤ľà¤¨": 7717,
      "à¤ļà¤¾à¤¨à¤ķ": 7718,
      "Ġà¤ªà¥Į": 7719,
      "Ġà¤ľà¤Ĺà¤¤": 7720,
      "Ġà¤¯à¤¾à¤¸": 7721,
      "-e": 7722,
      "Ġguide": 7723,
      "uments": 7724,
      "Ġà¤¸à¤ªà¥įà¤¤": 7725,
      "Ġbacteria": 7726,
      "inn": 7727,
      "Ġà¤Ĺà¤¯à¤¾.": 7728,
      "ence.": 7729,
      "Ġfix": 7730,
      "Ġdisease.": 7731,
      "Ġà¤ķà¤°à¤µ": 7732,
      "tained": 7733,
      "à¤¿à¤²à¥Ģ": 7734,
      "ments.": 7735,
      "ĠUp": 7736,
      "à¥ĩà¤¦à¤¾à¤°à¥Ģ": 7737,
      "Ġhighest": 7738,
      "ara": 7739,
      "à¤ľà¥įà¤ŀà¤¾à¤¨à¤¿à¤ķ": 7740,
      "ĠRetrieved": 7741,
      "Ġà¤¸à¤¹à¤¾à¤¯à¤¤à¤¾": 7742,
      "Ġeffic": 7743,
      "Ġproperty": 7744,
      "Ġà¤¬à¥ĩà¤¹à¤¦": 7745,
      "Ġstyle": 7746,
      "ĠØ": 7747,
      "Ġà¤®à¤°à¥Ģà¤ľ": 7748,
      "Ġ(f": 7749,
      "Ġà¤§à¤¾à¤°à¥įà¤®à¤¿à¤ķ": 7750,
      "Ġpark": 7751,
      "Ġthousands": 7752,
      "Ġcarried": 7753,
      "Ġà¤µà¤¾à¤¹à¤¤": 7754,
      "à¤µà¤¾à¤²à¥ĩ": 7755,
      "Ġtour": 7756,
      "Ġcode": 7757,
      "erate": 7758,
      "Ġà¤¸à¥Ģà¤ıà¤®": 7759,
      "Ġà¤ľà¥Īà¤¸à¤¾": 7760,
      "Ġà¤µà¤¿à¤¤": 7761,
      "ĠMary": 7762,
      "Ġsurvey": 7763,
      "Ġà¤¹à¥įà¤¯à¤¾": 7764,
      "Ġpow": 7765,
      "Ġsignal": 7766,
      "Ġà¤¸à¤®à¤¿à¤¤à¥Ģ": 7767,
      "unction": 7768,
      "Ġà¤²à¥ĭà¤ķà¤¸à¤Ńà¤¾": 7769,
      "Ġdivid": 7770,
      "Ġrise": 7771,
      "aced": 7772,
      "à¤Ĺà¤²": 7773,
      "à¤¾à¤¯à¤¦": 7774,
      "à¤¬à¤¾à¤ľ": 7775,
      "Ġmathem": 7776,
      "Ġcommercial": 7777,
      "Ġdestroy": 7778,
      "Ġà¤°à¤¹à¥ĩà¥¤": 7779,
      "Ġsuppl": 7780,
      "Ġtechniques": 7781,
      "Ġà¤ķà¤¿à¤¯à¤¾,": 7782,
      "OS": 7783,
      "Ġà¤¸à¥įà¤Łà¤¾à¤°": 7784,
      "à¤ķà¤¾à¤°à¤£": 7785,
      "à¥Ģà¤²à¤¾": 7786,
      "orial": 7787,
      "Ġplat": 7788,
      "ache": 7789,
      "Ġà¤ªà¥Īà¤¦à¤¾": 7790,
      "Ġà¤ľà¤¾à¤Ĺà¤¾": 7791,
      "Ġcosts": 7792,
      "itis": 7793,
      "igen": 7794,
      "Ġà¤¬à¥ģà¤§à¤µà¤¾à¤°": 7795,
      "Ġà¤°à¤®": 7796,
      "Ġà¤µà¤¯": 7797,
      "Ġbasis": 7798,
      "Ġ2004": 7799,
      "Ġrunning": 7800,
      "Ġà¤ªà¥įà¤°à¤¾à¤¥à¤®à¤¿à¤ķ": 7801,
      "à¤¾à¤¨à¤Ĥ": 7802,
      "ĠNet": 7803,
      "Ġà¤Ĩà¤ªà¤ķà¤¾": 7804,
      "Ġ500": 7805,
      "ĠFound": 7806,
      "Ġà¤¶à¥ģà¤¦à¥įà¤§": 7807,
      "roc": 7808,
      "Ġtrade": 7809,
      "Ġà¤īà¤¤à¤°": 7810,
      "Ġhear": 7811,
      "ĠCollege": 7812,
      "ter,": 7813,
      "Ġbelieved": 7814,
      "ographic": 7815,
      "Ġchallenge": 7816,
      "Ġsituation": 7817,
      "Ġà¤¦à¤¿à¤¸à¥Ĥà¤¨": 7818,
      "raction": 7819,
      "Ġ(and": 7820,
      "Ġà¤Ĺà¤°à¥įà¤Ń": 7821,
      "Ġfaith": 7822,
      "D,": 7823,
      "Ġà¤ķà¤¾à¤°à¥įà¤¯à¤µ": 7824,
      "change": 7825,
      "Ġneu": 7826,
      "iring": 7827,
      "ource": 7828,
      "à¤Ĥà¥¤": 7829,
      "à¤Ĥà¤Ĺà¥Ģ": 7830,
      "wood": 7831,
      "Ġà¤¸à¤Ĥà¤Ĺà¤łà¤¨": 7832,
      "à¥įà¤°à¥Ģà¤¨": 7833,
      "Ġactual": 7834,
      "Ġà¤ªà¤°à¥įà¤µ": 7835,
      "Ġà¤ķà¤°à¥įà¤¤": 7836,
      "à¥įà¤ķà¤°": 7837,
      "ĠTherefore": 7838,
      "Ġà¤ħà¤ļà¤¾à¤¨à¤ķ": 7839,
      "rot": 7840,
      "à¤¸à¤¿à¤Ĥà¤¹": 7841,
      "Ġà¤ķà¤°à¤£à¥įà¤¯à¤¾à¤¸": 7842,
      "reet": 7843,
      "Ġà¤ħà¤Łà¤ķ": 7844,
      "Ġseed": 7845,
      "Ġnuclear": 7846,
      "Ġreference": 7847,
      "Ġversion": 7848,
      "bre": 7849,
      "Ġà¤Ĺà¤¯à¤¾,": 7850,
      "Ġsave": 7851,
      "à¤¸à¥Ģà¤¸à¥Ģ": 7852,
      "Ġrules": 7853,
      "Ġà¤ªà¤¾à¤ª": 7854,
      "Ġà¤®à¤¿à¤²à¤¤à¤¾": 7855,
      "Ġadults": 7856,
      "Ġcollabor": 7857,
      "Ġà¤¸à¤Ĥà¤µ": 7858,
      "Ġequal": 7859,
      "Ġscen": 7860,
      "à¤¨à¥ĩà¤¤": 7861,
      "Ġà¤¨à¤¿à¤°à¥įà¤µ": 7862,
      "à¤ĳ": 7863,
      "33": 7864,
      "Ġpicture": 7865,
      "Ġextremely": 7866,
      "Ġà¤µà¥ĥà¤¦à¥įà¤§à¤¿": 7867,
      "EM": 7868,
      "à¥įà¤°à¤¤": 7869,
      "Ġà¤ħà¤§à¥įà¤¯à¤¯à¤¨": 7870,
      "Ġà¤¦à¥ĥà¤·à¥įà¤Łà¤¿": 7871,
      "Ġnutrition": 7872,
      "Ġà¤Ńà¤¾à¤°à¤¤à¤¾à¤¤": 7873,
      "Ġà¤ªà¥įà¤°à¤¸à¥įà¤¤à¥ģà¤¤": 7874,
      "Ġsymptom": 7875,
      "Ġà¤ªà¥ĩà¤Łà¥įà¤°à¥ĭà¤²": 7876,
      "ensity": 7877,
      "à¤ķà¤¾à¤°à¤¾à¤¤à¥įà¤®à¤ķ": 7878,
      "Ġemphas": 7879,
      "à¤°à¥Ģ,": 7880,
      "Ġnote": 7881,
      "Ġà¤²à¥ĩà¤¤à¥ĩ": 7882,
      "Ġhair": 7883,
      "mark": 7884,
      "Ġà¤Łà¥įà¤µà¥Ģ": 7885,
      "à¥ģà¤²à¥įà¤ķ": 7886,
      "inated": 7887,
      "ĠWeb": 7888,
      "Ġà¤ķà¤°à¤¾à¤¨à¥ĩ": 7889,
      "Ġà¤ľà¤¿à¤¨à¤®à¥ĩà¤Ĥ": 7890,
      "Ġsystem,": 7891,
      "Ġmeasures": 7892,
      "Ġà¤¦à¤¸": 7893,
      "Ġlib": 7894,
      "Ġà¤®à¤¾à¤¨à¤¸à¤¿à¤ķ": 7895,
      "Ġfriends": 7896,
      "Ġà¤¬à¤¾à¤¯": 7897,
      "Ġà¤ļà¤¿à¤¨": 7898,
      "Ġfeeling": 7899,
      "D.": 7900,
      "75": 7901,
      "och": 7902,
      "edia": 7903,
      "Ġà¤¨à¤¿à¤µà¤¡": 7904,
      "Ġà¤µà¤°à¥įà¤·à¥Ģà¤¯": 7905,
      "à¥ĩà¤ķà¥įà¤Łà¤°": 7906,
      "Ġà¤ħà¤¤à¥įà¤¯à¤Ĥà¤¤": 7907,
      "Ġà¤µà¥Ģà¤°": 7908,
      "Ġà¤ªà¥įà¤¯à¤¾à¤°": 7909,
      "Ġà¤ªà¥ĭà¤¹à¥ĭà¤ļ": 7910,
      "Ġà¤¸à¤¾à¤ľ": 7911,
      "Ġapproximately": 7912,
      "Ġconfirm": 7913,
      "Ġà¤Ĺà¥ģà¤Ĥà¤¤": 7914,
      "Ġfemale": 7915,
      "ory,": 7916,
      "Ġà¤ĸà¥ĭà¤²": 7917,
      "Ġà¤¸à¤Ĥà¤¸à¥įà¤¥à¤¾à¤¨": 7918,
      "Ġ36": 7919,
      "Ġà¤¸à¤Ĥà¤ĺà¤°à¥įà¤·": 7920,
      "Ġà¤®à¤¹à¤¸": 7921,
      "Ġà¤ľà¤¾à¤¨à¤¤à¥ĩ": 7922,
      "Ġà¤ķà¤¾?": 7923,
      "Ġsigns": 7924,
      "à¤īà¤Ł": 7925,
      "Ġstore": 7926,
      "Ġà¤¨à¥ĩà¤Ł": 7927,
      "Ġworld,": 7928,
      "AM": 7929,
      "à¥ĩà¤ķà¥įà¤·": 7930,
      "à¤¾à¤µà¤²à¥Ģ": 7931,
      "Ġyou.": 7932,
      "Ġà¤ľà¥ĭà¤¡à¤¼": 7933,
      "Ġurban": 7934,
      "Ġliqu": 7935,
      "Ġà¤¦à¥ĩà¤ĸà¤ķà¤°": 7936,
      "à¥įà¤¯à¤¾à¤µà¤°à¤£": 7937,
      "Ġpresident": 7938,
      "Ġà¤¤à¤¾à¤ªà¤®à¤¾à¤¨": 7939,
      "à¤¯à¥ĭà¤Ĥ": 7940,
      "Ġà¤ªà¤¹à¤²": 7941,
      "Ġà¤¹à¥ģà¤Īà¥¤": 7942,
      "ĠOrgan": 7943,
      "Ġreality": 7944,
      "Ġà¤®à¥Īà¤¨": 7945,
      "Ġday,": 7946,
      "lor": 7947,
      "Ġà¤¹à¤µà¤¾": 7948,
      "vis": 7949,
      "Ġeventually": 7950,
      "Ġà¤¸à¤¾à¤ª": 7951,
      "ĠJapanese": 7952,
      "à¥ĩà¤Łà¤°": 7953,
      "Ġà¤¸à¤ķà¤¾à¤³à¥Ģ": 7954,
      "Ġà¤ħà¤Ĺà¤¦à¥Ģ": 7955,
      "Ġslight": 7956,
      "Ġà¤¦à¥Ĥà¤§": 7957,
      "à¤¼à¥Ģ": 7958,
      "Ġà¤µà¤ľà¤¨": 7959,
      "à¤¿à¤¯à¤¾,": 7960,
      "Ġà¤¶à¥įà¤°à¥ĩà¤£": 7961,
      "Ġà¤ľà¤¿à¤®à¥įà¤®": 7962,
      "78": 7963,
      "Ġsexual": 7964,
      "Ġà¤¤à¥ĩà¤ľà¥Ģ": 7965,
      "Ġà¤°à¤¿à¤¶": 7966,
      "Ġà¤¦à¥ģà¤·": 7967,
      "ĠMiss": 7968,
      "Ġà¤¦à¤®": 7969,
      "ĠAir": 7970,
      "Ġà¤¸à¤¤à¥įà¤°": 7971,
      "rack": 7972,
      "Ġà¤Ĺà¥įà¤°à¤Ĥà¤¥": 7973,
      "ĠGeorge": 7974,
      "Ġclinical": 7975,
      "Ġà¤ĩà¤ķ": 7976,
      "Ġà¤µà¤¿à¤°à¥ĭà¤§à¥Ģ": 7977,
      "à¤µà¤¿à¤¶": 7978,
      "Ġexcess": 7979,
      "Ġà¤¸à¤¾à¤ł": 7980,
      "Ġwork.": 7981,
      "ship": 7982,
      "ician": 7983,
      "à¤¶à¤¿à¤ª": 7984,
      "Ġspect": 7985,
      "iable": 7986,
      "Ġà¤¸à¥įà¤¥à¤¾à¤ªà¤¨à¤¾": 7987,
      "Ġà¤Ĩà¤ĩ": 7988,
      "ĠST": 7989,
      "Ġcod": 7990,
      "Ġà¤ĩà¤¶": 7991,
      "cular": 7992,
      "ĠDi": 7993,
      "Ġclos": 7994,
      "à¤¾à¤¤,": 7995,
      "Ġà¤µà¥ĭà¤Ł": 7996,
      "Ġcontrast": 7997,
      "ors,": 7998,
      "Ġà¤®à¤¾à¤¨à¥įà¤¯": 7999,
      "Ġà¤Ĺà¤¾à¤¯": 8000,
      "Ġhousehold": 8001,
      "Ġà¤ªà¥ģà¤¢à¥Ģà¤²": 8002,
      "Ġapply": 8003,
      "Ġbecoming": 8004,
      "Ġopin": 8005,
      "Ġiron": 8006,
      "ony": 8007,
      "Ġà¤¸à¤®à¤¾à¤§à¤¾à¤¨": 8008,
      "à¤¦à¥įà¤¯à¥ĭà¤Ĺ": 8009,
      "Ġdefined": 8010,
      "Ġdevices": 8011,
      "wise": 8012,
      "wide": 8013,
      "ĠGreek": 8014,
      "à¤¶à¥įà¤°à¥Ģ": 8015,
      "à¤Ĥà¤ĺ": 8016,
      "Ġà¤®à¤ķ": 8017,
      "Ġcopy": 8018,
      "49": 8019,
      "Ġtrust": 8020,
      "Ġà¤¸à¤Ńà¤¾": 8021,
      "à¥įà¤®à¤¦": 8022,
      "ĠRepublic": 8023,
      "ĠUsing": 8024,
      "Ġà¤ªà¤Ĥà¤¤à¤ªà¥įà¤°à¤§à¤¾à¤¨": 8025,
      "Ġà¤²à¥ĭà¤ķà¤ªà¥įà¤°à¤¿à¤¯": 8026,
      "Ġà¤ªà¥įà¤°à¤¸à¤¾à¤¦": 8027,
      "Ġfirm": 8028,
      "Ġà¤°à¤¾à¤¹à¤¤": 8029,
      "Ġdiseases": 8030,
      "ĠSk": 8031,
      "Ġà¤Ńà¥ĩà¤¦": 8032,
      "Ġindependent": 8033,
      "Ġfavor": 8034,
      "à¤¨à¤Ĥ": 8035,
      "cast": 8036,
      "Ġexplore": 8037,
      "Ġmission": 8038,
      "Ġà¤¶à¤¾à¤¸à¥įà¤¤à¥įà¤°": 8039,
      "-à¤¸à¤®": 8040,
      "Ġà¤īà¤¨à¤ķà¥ĭ": 8041,
      "Ġsites": 8042,
      "à¤¿à¤ľà¤¨": 8043,
      "Ġhttp://www.": 8044,
      "Ġà¤ķà¤°à¥ģà¤¨": 8045,
      "Ġà¤µà¥įà¤¯à¤µà¤¸à¥įà¤¥": 8046,
      "enth": 8047,
      "Ġà¤¸à¤®à¥ģà¤¦à¥įà¤°": 8048,
      "Ġà¤¤à¤Ĥà¤¤à¥įà¤°": 8049,
      "Ġà¤Ľà¤¹": 8050,
      "Ġà¤¨à¥ĩà¤¤à¤¾à¤ĵà¤Ĥ": 8051,
      "Ġà¤ªà¤°à¥įà¤¯à¤¾à¤¯": 8052,
      "anks": 8053,
      "à¤²à¥įà¤¯à¤¾à¤¨à¥ĩ": 8054,
      "Ġà¤Ĩà¤ªà¤²à¤¾": 8055,
      "à¤ķà¥įà¤¯à¤¾": 8056,
      "Ġ\"A": 8057,
      "Ġà¤¸à¤®à¤¿à¤¤à¤¿": 8058,
      "ĠDem": 8059,
      "Ġperspect": 8060,
      "Ġà¤¦à¤¿à¤¶à¤¾": 8061,
      "Ġà¤µà¥įà¤¯à¤¾à¤µ": 8062,
      "Ġindustrial": 8063,
      "Ġlegisl": 8064,
      "Ġà¤¦à¥ģà¤¸à¤±à¥įà¤¯à¤¾": 8065,
      "à¥ĩà¤Ĥà¤ľ": 8066,
      "Ġà¤¸à¥Ģà¤°à¥Ģà¤ľ": 8067,
      "Ġà¤ļà¤¾à¤¹à¤¤à¤¾": 8068,
      "house": 8069,
      "Ġà¤¦à¥ĩà¤ķà¤°": 8070,
      "Ġà¤¹à¤®à¤¨à¥ĩ": 8071,
      "Ġresource": 8072,
      "Ġalternative": 8073,
      "Ġ75": 8074,
      "Ġà¤¹à¤¾à¤²à¤¾à¤Ĥà¤ķà¤¿,": 8075,
      "Ġà¤ħà¤¨à¥įà¤¨": 8076,
      "Ġign": 8077,
      "Ġà¤ªà¤¾à¤°à¥įà¤Ł": 8078,
      "cles": 8079,
      "Ġà¤ľà¤¬à¤¾à¤¬": 8080,
      "Ġstri": 8081,
      "ry,": 8082,
      "ically,": 8083,
      "Ġchance": 8084,
      "Ġlearned": 8085,
      "Ġobjects": 8086,
      "Ġcast": 8087,
      "Ġà¤µà¤¾à¤ķ": 8088,
      "à¥ģà¤¬": 8089,
      "Ġstem": 8090,
      "Ġfreedom": 8091,
      "Ġà¤¸à¤Ĥà¤µà¤¾à¤¦": 8092,
      "pped": 8093,
      "Ġà¤īà¤®à¥ĩà¤¦à¤µà¤¾à¤°": 8094,
      "Ġvary": 8095,
      "Ġocean": 8096,
      "à¤¾à¤¯à¤ļà¥Ģ": 8097,
      "Ġà¤ĩà¤²à¥ĩà¤ķà¥įà¤Łà¥įà¤°": 8098,
      "ĠJames": 8099,
      "Ġà¤ħà¤ªà¥įà¤°à¥Īà¤²": 8100,
      "à¥ĩà¤¤à¥Ģà¤²": 8101,
      "à¤¿à¤³": 8102,
      "Ġà¤¬à¤¾à¤§": 8103,
      "Ġà¤µà¤¾à¤Łà¤¤": 8104,
      "Ġà¤¦à¤¾à¤¨": 8105,
      "Ġà¤¸à¥Īà¤¨à¤¿à¤ķ": 8106,
      "Ġà¤ĩà¤Ĥà¤¸à¥įà¤Ł": 8107,
      "à¤Ļ": 8108,
      "ic.": 8109,
      "Ġwater,": 8110,
      "Ġà¤ľà¤¾à¤ķà¤°": 8111,
      "à¤®à¥Ģà¤Łà¤°": 8112,
      "ous,": 8113,
      "Ġsurger": 8114,
      "Ġà¤ªà¥ĩ": 8115,
      "char": 8116,
      "ĠGovernment": 8117,
      "ault": 8118,
      "Ġà¤ªà¥įà¤°à¤¾à¤ļà¥Ģà¤¨": 8119,
      "que": 8120,
      "ulum": 8121,
      "Ġdesp": 8122,
      "Ġà¤¤à¥ģà¤°": 8123,
      "Ġà¤¶à¤µ": 8124,
      "à¥įà¤µà¤¾à¤¸": 8125,
      "Ġà¤Ńà¤¾à¤Ĺà¤¾à¤¤": 8126,
      "Ġchronic": 8127,
      "Ġà¤ļà¤¿à¤ķà¤¿à¤¤à¥įà¤¸à¤¾": 8128,
      "roph": 8129,
      "ĠProject": 8130,
      "ulf": 8131,
      "edic": 8132,
      "à¤¾à¤¦à¥ĩà¤¶": 8133,
      "Ġserve": 8134,
      "Ġdistinct": 8135,
      "Ġusers": 8136,
      "Ġà¤®à¤¿à¤¶à¥įà¤°": 8137,
      "Ġà¤ľà¥ģà¤²à¤¾à¤Ī": 8138,
      "iated": 8139,
      "Ġincreases": 8140,
      "ĠPaul": 8141,
      "ĠEv": 8142,
      "Ġpractices": 8143,
      "ĠPost": 8144,
      "Ġà¤°à¤¾à¤ĸ": 8145,
      "ĠSpanish": 8146,
      "ĠÙ": 8147,
      "ness.": 8148,
      "Ġà¤¶à¤¾à¤ĸ": 8149,
      "à¥įà¤°à¥ĩà¤ľ": 8150,
      "road": 8151,
      "Ġearlier": 8152,
      "s://": 8153,
      "Ġlife,": 8154,
      "iec": 8155,
      "Ġà¤ķà¤²à¤¾à¤ķà¤¾à¤°": 8156,
      "ise,": 8157,
      "à¥Įà¤²": 8158,
      "Ġcourse,": 8159,
      "ĠE.": 8160,
      "ĠFurther": 8161,
      "Ġmag": 8162,
      "Ġà¤ªà¤°à¥įà¤¯à¤¾à¤µà¤°à¤£": 8163,
      "Ġà¤Ĺà¥įà¤²": 8164,
      "Ġutil": 8165,
      "ĠMuseum": 8166,
      "Ġcountr": 8167,
      "can": 8168,
      "à¤Ĥà¤¦à¥Ģ": 8169,
      "Ġà¤¸à¤¦à¤¸à¥įà¤¯à¥ĭà¤Ĥ": 8170,
      "Ġstream": 8171,
      "Ġà¤®à¤Ĥà¤Ĺà¤²à¤µà¤¾à¤°": 8172,
      "Ġà¤ªà¤¹à¤¿à¤²à¥įà¤¯à¤¾": 8173,
      "Ġprocesses": 8174,
      "Ġsteps": 8175,
      "Ġà¤Ĺà¥ģà¤¨à¥įà¤¹à¤¾": 8176,
      "aus": 8177,
      "à¤£à¥įà¤¯à¤¾à¤¸": 8178,
      "Ġ(m": 8179,
      "Ġsetting": 8180,
      "Ġà¤¸à¤Ĥà¤Ńà¤µ": 8181,
      "à¥įà¤¹à¥ĩ": 8182,
      "porary": 8183,
      "Ġà¤¬à¤¾à¤ľà¥Ĥ": 8184,
      "à¤¬à¤¤": 8185,
      "Ġnovel": 8186,
      "Ġà¤¸à¤¿à¤Ĥà¤Ĺ": 8187,
      "Ġà¤¬à¤¾à¤¤à¤®": 8188,
      "Ġprojects": 8189,
      "Ġà¤®à¥ģà¤¨": 8190,
      "Ġestimated": 8191,
      "Ġheavy": 8192,
      "Ġà¤¬à¤¿à¤ľà¤²à¥Ģ": 8193,
      "omas": 8194,
      "Ġà¤ªà¥įà¤°à¤£à¤¾à¤²à¥Ģ": 8195,
      "Ġfamous": 8196,
      "Ġtherapy": 8197,
      "Ġà¤Ńà¥įà¤°": 8198,
      "ognitive": 8199,
      "Ġà¤¶à¤ķà¤¤": 8200,
      "Ġesc": 8201,
      "Ġrot": 8202,
      "Ġves": 8203,
      "/or": 8204,
      "Ġà¤ªà¤¾à¤Ĭ": 8205,
      "ani": 8206,
      "CC": 8207,
      "Ġmoved": 8208,
      "Ġ2003": 8209,
      "à¤¿à¤Ĥà¤¬": 8210,
      "Ġà¤¨à¤¿à¤¯à¤®à¥ĭà¤Ĥ": 8211,
      "Ġà¤ļà¤°": 8212,
      "ar,": 8213,
      "rm": 8214,
      "cop": 8215,
      "-à¤¸à¤¾à¤¥": 8216,
      "Ġ(e.": 8217,
      "ĠLike": 8218,
      "Ġà¤Ĭà¤°à¥įà¤ľ": 8219,
      "Ġà¤Łà¥įà¤µà¥Ģà¤Ł": 8220,
      "36": 8221,
      "Ġà¤µà¤¿à¤°à¤¾à¤Ł": 8222,
      "ĠSo,": 8223,
      "à¥ģà¤°à¤¾": 8224,
      "Ġà¤²à¥Įà¤Ł": 8225,
      "Ġà¤«à¥Ģà¤¸à¤¦à¥Ģ": 8226,
      "à¥Ģà¤£": 8227,
      "à¥įà¤¯à¥ĭ": 8228,
      "ĠProfess": 8229,
      "à¥īà¤«": 8230,
      "Ġà¤¹à¤¿à¤¸à¥įà¤¸": 8231,
      "Ġà¤¸à¤¾à¤ķà¥įà¤·": 8232,
      "Ġà¤¬à¤Ĥà¤Ĺà¤¾à¤²": 8233,
      "Ġwat": 8234,
      "Ġà¤¬à¥īà¤²à¥Ģà¤µà¥ģà¤¡": 8235,
      "Ġà¤īà¤¤à¥įà¤ķ": 8236,
      "Ġà¤ļà¤¾à¤²à¥Ĥ": 8237,
      "Ġà¤¶à¥Ģà¤°à¥įà¤·": 8238,
      "Ġà¤¸à¥įà¤Łà¥įà¤°": 8239,
      "ĠSy": 8240,
      "Ġbody.": 8241,
      "Ġà¤µà¤¿à¤¶à¥ĩà¤·à¤ľà¥įà¤ŀ": 8242,
      "ĠRev": 8243,
      "Ùİ": 8244,
      "Ġà¤Ĩà¤¦à¥Ģ": 8245,
      "Ġà¤¬à¤¿à¤Ĺ": 8246,
      "Ġfig": 8247,
      "Ġà¤®à¤¿à¤¨à¤Ł": 8248,
      "Ġremove": 8249,
      "Ġbattle": 8250,
      "Ġsample": 8251,
      "Ġstage": 8252,
      "Ġà¤®à¥ģà¤¸à¥įà¤²à¤¿à¤®": 8253,
      "anch": 8254,
      "Ġà¤ĩà¤¨à¤®à¥ĩà¤Ĥ": 8255,
      "Ġà¤ĸà¤¤à¥įà¤®": 8256,
      "Ġbaby": 8257,
      "à¤Łà¤ķà¤¾": 8258,
      "Ġbottom": 8259,
      "Ġmetal": 8260,
      "Ġà¤²à¥īà¤¨": 8261,
      "Ġmineral": 8262,
      "à¤Ńà¤¾à¤°à¤¤": 8263,
      "Ġà¤¬à¤¹à¥ģ": 8264,
      "Ġintellig": 8265,
      "Ġweeks": 8266,
      "à¤¨à¤Ī": 8267,
      "ĠSom": 8268,
      "Ġà¤ħà¤Ĺà¥įà¤¨": 8269,
      "Ġà¤°à¤¿à¤¸": 8270,
      "ĠMet": 8271,
      "RE": 8272,
      "Ġà¤¬à¥įà¤°à¤¾à¤¹": 8273,
      "iny": 8274,
      "Ġà¤¯à¥Ĥà¤°": 8275,
      "Ġsand": 8276,
      "onic": 8277,
      "lick": 8278,
      "à¤¿à¤¶à¥įà¤ļà¤¿à¤¤": 8279,
      "Ġgod": 8280,
      "ĠMal": 8281,
      "à¤¾à¤Ĥà¤¤à¥Ģà¤²": 8282,
      "Ġstarting": 8283,
      "Ġannual": 8284,
      "Ġà¤¨à¥ĩà¤®": 8285,
      "ain,": 8286,
      "Ġliterature": 8287,
      "Ġdoub": 8288,
      "à¤«à¥ĭà¤¨": 8289,
      "ulated": 8290,
      "ĠWrit": 8291,
      "Ġà¤ħà¤¸à¤²à¥įà¤¯à¤¾à¤ļà¥Ģ": 8292,
      "Ġà¤¶à¤¾à¤¨à¤¦à¤¾à¤°": 8293,
      "Ġoutput": 8294,
      "Ġcycle": 8295,
      "ĠGra": 8296,
      "Ġ186": 8297,
      "Ġmale": 8298,
      "à¤¾à¤Ĺà¥įà¤°à¤¾à¤®": 8299,
      "Ġà¤ħà¤Ĺà¤¸à¥įà¤¤": 8300,
      "à¤¶à¤¾à¤¸à¥įà¤¤à¥įà¤°": 8301,
      "Ġcausing": 8302,
      "Ġà¤¸à¤Ĺà¤³": 8303,
      "ĠWashington": 8304,
      "Ġà¤ľà¥ģà¤¡à¤¼à¥ĩ": 8305,
      "Ġsuggests": 8306,
      "Ġà¤°à¤¾à¤ľà¥įà¤¯à¤¾à¤¤": 8307,
      "Ġcampaign": 8308,
      "Ġoption": 8309,
      "ĠâĢ¦": 8310,
      "à¥ĥà¤·à¥įà¤£": 8311,
      "Ġà¤ĺà¥įà¤¯à¤¾à¤µ": 8312,
      "Ġ(W": 8313,
      "Ġcombination": 8314,
      "ĠBas": 8315,
      "Ġinjur": 8316,
      "Ġà¤ħà¤Ńà¤¿à¤¨à¥ĩà¤¤à¥įà¤°à¥Ģ": 8317,
      "ĠFore": 8318,
      "ras": 8319,
      "à¤ķà¥įà¤¤à¤¾": 8320,
      "Ġà¤¸à¤®à¥ĩà¤¤": 8321,
      "à¤ªà¥įà¤°à¤¤": 8322,
      "Ġà¤¹à¥ĩà¤¤à¥ģ": 8323,
      "Ġshape": 8324,
      "Ġà¤ħà¤§à¤¿à¤ķà¤¾à¤±": 8325,
      "Ġà¤µà¤¾à¤¸à¥įà¤¤à¤µ": 8326,
      "Ġà¤Ĩà¤®à¥įà¤¹à¤¾à¤²à¤¾": 8327,
      "le.": 8328,
      "Ġagg": 8329,
      "à¤¾à¤¸à¤¾à¤¹à¥ĩà¤¬": 8330,
      "Ġà¤°à¥Ĥà¤¸": 8331,
      "ms": 8332,
      "à¤«à¥įà¤°": 8333,
      "Ġà¤¬à¤¤à¤¾à¤¤": 8334,
      "Ġturned": 8335,
      "Ġinterpret": 8336,
      "Ġà¤¤à¤¤à¥įà¤µ": 8337,
      "ĠPhys": 8338,
      "ices,": 8339,
      "at.": 8340,
      "icial": 8341,
      "Ġà¤µà¥įà¤¯à¤¾à¤ªà¤ķ": 8342,
      "ĠIts": 8343,
      "Ġà¤¹à¤¿à¤Ĥà¤¦à¥Ģ": 8344,
      "Ġà¤¶à¥ĩà¤¤à¤ķà¤°à¥Ģ": 8345,
      "Ġburn": 8346,
      "iding": 8347,
      "Ġà¤¸à¤¾à¤®à¤Ĺà¥įà¤°à¥Ģ": 8348,
      "Ġpassed": 8349,
      "Ġà¤ħà¤ļà¥įà¤Ľà¥ĩ": 8350,
      "eared": 8351,
      "ĠSun": 8352,
      "Ġà¤®à¤¾à¤§à¥įà¤¯à¤®à¤¾à¤¤à¥Ĥà¤¨": 8353,
      "Ġisol": 8354,
      "Ġà¤¬à¤¨à¤¨à¥ĩ": 8355,
      "Ġà¤¥à¤¾à¤Ĥà¤¬": 8356,
      "Ġreasons": 8357,
      "Ġmodels": 8358,
      "Ġà¤®à¥Įà¤¸à¤®": 8359,
      "Ġfundam": 8360,
      "Ġinitial": 8361,
      "ĠSal": 8362,
      "ula": 8363,
      "à¤¾à¤ĩà¤ľ": 8364,
      "Ġà¤¸à¤¾à¤Ĥ": 8365,
      "Ġresulting": 8366,
      "Ġà¤¹à¤¿à¤Ĥà¤¦à¥Ĥ": 8367,
      "Ġgrant": 8368,
      "Ġà¤ħà¤¨à¥ģà¤¦": 8369,
      "ills": 8370,
      "ees": 8371,
      "Ġà¤¦à¥ĩà¤Ĭà¤¨": 8372,
      "ij": 8373,
      "Ġà¤ĺà¤¾à¤Ł": 8374,
      "Ġcovered": 8375,
      "lease": 8376,
      "Ġchanged": 8377,
      "à¤ħà¤°": 8378,
      "ĠCongress": 8379,
      "Ġà¤ªà¤°à¤¿à¤µà¤°à¥įà¤¤à¤¨": 8380,
      "life": 8381,
      "Ġclick": 8382,
      "ments,": 8383,
      "Ġconducted": 8384,
      "tered": 8385,
      "Ġà¤¡à¥īà¤²": 8386,
      "Ġà¤¨à¤¿à¤µà¥ĩà¤¶": 8387,
      "Ġà¤ķà¤°à¥įà¤®à¤ļà¤¾à¤°": 8388,
      "Ġà¤ĳà¤«à¤¿à¤¸": 8389,
      "Ġoxygen": 8390,
      "Ġdate": 8391,
      "à¥ģà¤µà¤¾à¤°à¥Ģ": 8392,
      "Ġà¤ķà¤²à¥įà¤ªà¤¨à¤¾": 8393,
      "Ġexpert": 8394,
      "Ġà¤®à¤Ĥà¤¡à¤³": 8395,
      "Ġà¤¸à¤¾à¤¥-à¤¸à¤¾à¤¥": 8396,
      "Ġinstruct": 8397,
      "Ġà¤ªà¥įà¤°à¤¤à¤¿à¤ķà¥įà¤°à¤¿à¤¯à¤¾": 8398,
      "à¤ĩà¤¨": 8399,
      "Ġ(d": 8400,
      "Ġà¤¸à¥ĩ,": 8401,
      "Ġà¤ĵà¤µà¤°": 8402,
      "Ġtransform": 8403,
      "Ġà¤ľà¥įà¤ŀ": 8404,
      "Ġ300": 8405,
      "à¤¾à¤ªà¤ķ": 8406,
[...]
